{"version":"1.0","truncation":null,"padding":null,"added_tokens":[{"id":0,"special":true,"content":"<s>","single_word":false,"lstrip":false,"rstrip":false,"normalized":false},{"id":1,"special":true,"content":"<pad>","single_word":false,"lstrip":false,"rstrip":false,"normalized":false},{"id":2,"special":true,"content":"</s>","single_word":false,"lstrip":false,"rstrip":false,"normalized":false},{"id":3,"special":true,"content":"<unk>","single_word":false,"lstrip":false,"rstrip":false,"normalized":false},{"id":4,"special":true,"content":"<mask>","single_word":false,"lstrip":false,"rstrip":false,"normalized":false}],"normalizer":{"type":"BertNormalizer","clean_text":true,"handle_chinese_chars":true,"strip_accents":null,"lowercase":true},"pre_tokenizer":{"type":"BertPreTokenizer"},"post_processor":null,"decoder":{"type":"WordPiece","prefix":"##","cleanup":true},"model":{"type":"WordPiece","unk_token":"[UNK]","continuing_subword_prefix":"##","max_input_chars_per_word":100,"vocab":{"<s>":0,"<pad>":1,"</s>":2,"<unk>":3,"<mask>":4,"!":5,"\"":6,"#":7,"$":8,"%":9,"&":10,"'":11,"(":12,")":13,"*":14,"+":15,",":16,"-":17,".":18,"/":19,"0":20,"1":21,"2":22,"3":23,"4":24,"5":25,"6":26,"7":27,"8":28,"9":29,":":30,";":31,"<":32,"=":33,">":34,"?":35,"@":36,"[":37,"\\":38,"]":39,"^":40,"_":41,"`":42,"a":43,"b":44,"c":45,"d":46,"e":47,"f":48,"g":49,"h":50,"i":51,"j":52,"k":53,"l":54,"m":55,"n":56,"o":57,"p":58,"q":59,"r":60,"s":61,"t":62,"u":63,"v":64,"w":65,"x":66,"y":67,"z":68,"{":69,"|":70,"}":71,"~":72,"¡":73,"¢":74,"£":75,"¤":76,"¥":77,"¦":78,"§":79,"¨":80,"©":81,"ª":82,"«":83,"¬":84,"®":85,"°":86,"±":87,"²":88,"³":89,"´":90,"µ":91,"¶":92,"·":93,"¸":94,"¹":95,"º":96,"»":97,"½":98,"¾":99,"¿":100,"×":101,"ß":102,"æ":103,"ð":104,"÷":105,"ø":106,"þ":107,"đ":108,"ħ":109,"ı":110,"ĳ":111,"ł":112,"ŋ":113,"œ":114,"ſ":115,"ƒ":116,"ǝ":117,"ɑ":118,"ɒ":119,"ɔ":120,"ə":121,"ɛ":122,"ɜ":123,"ɡ":124,"ɨ":125,"ɩ":126,"ɪ":127,"ɲ":128,"ɾ":129,"ʀ":130,"ʁ":131,"ʃ":132,"ʊ":133,"ʒ":134,"ʔ":135,"ʕ":136,"ʟ":137,"ʰ":138,"ʱ":139,"ʷ":140,"ʹ":141,"ʺ":142,"ʻ":143,"ʼ":144,"ʾ":145,"ʿ":146,"ˁ":147,"ˈ":148,"ː":149,"˙":150,"˝":151,"͵":152,"΄":153,"α":154,"β":155,"γ":156,"δ":157,"ε":158,"ζ":159,"η":160,"θ":161,"ι":162,"κ":163,"λ":164,"μ":165,"ν":166,"ξ":167,"ο":168,"π":169,"ρ":170,"ς":171,"σ":172,"τ":173,"υ":174,"φ":175,"χ":176,"ψ":177,"ω":178,"ϐ":179,"ϒ":180,"ϕ":181,"ϖ":182,"ϛ":183,"ϥ":184,"ϩ":185,"ϭ":186,"ϰ":187,"ϲ":188,"а":189,"б":190,"в":191,"г":192,"д":193,"е":194,"ж":195,"з":196,"и":197,"к":198,"л":199,"м":200,"н":201,"о":202,"п":203,"р":204,"с":205,"т":206,"у":207,"ф":208,"х":209,"ц":210,"ч":211,"ш":212,"щ":213,"ъ":214,"ы":215,"ь":216,"э":217,"ю":218,"я":219,"ђ":220,"є":221,"і":222,"ј":223,"љ":224,"њ":225,"ћ":226,"џ":227,"ѣ":228,"ѧ":229,"ғ":230,"қ":231,"ү":232,"ұ":233,"ӕ":234,"ә":235,"ө":236,"ա":237,"բ":238,"գ":239,"դ":240,"ե":241,"զ":242,"թ":243,"ժ":244,"ի":245,"լ":246,"խ":247,"կ":248,"հ":249,"ղ":250,"մ":251,"յ":252,"ն":253,"շ":254,"ո":255,"չ":256,"պ":257,"ռ":258,"ս":259,"վ":260,"տ":261,"ր":262,"ց":263,"ւ":264,"փ":265,"ք":266,"־":267,"א":268,"ב":269,"ג":270,"ד":271,"ה":272,"ו":273,"ז":274,"ח":275,"ט":276,"י":277,"ך":278,"כ":279,"ל":280,"ם":281,"מ":282,"ן":283,"נ":284,"ס":285,"ע":286,"פ":287,"ץ":288,"צ":289,"ק":290,"ר":291,"ש":292,"ת":293,"ء":294,"ا":295,"ب":296,"ة":297,"ت":298,"ث":299,"ج":300,"ح":301,"خ":302,"د":303,"ذ":304,"ر":305,"ز":306,"س":307,"ش":308,"ص":309,"ض":310,"ط":311,"ظ":312,"ع":313,"غ":314,"ـ":315,"ف":316,"ق":317,"ك":318,"ل":319,"م":320,"ن":321,"ه":322,"و":323,"ى":324,"ي":325,"پ":326,"چ":327,"ک":328,"گ":329,"ھ":330,"ہ":331,"ی":332,"ܐ":333,"ܒ":334,"ܕ":335,"ܗ":336,"ܘ":337,"ܚ":338,"ܝ":339,"ܟ":340,"ܠ":341,"ܡ":342,"ܢ":343,"ܣ":344,"ܥ":345,"ܦ":346,"ܩ":347,"ܪ":348,"ܫ":349,"ܬ":350,"ः":351,"अ":352,"आ":353,"उ":354,"ओ":355,"औ":356,"क":357,"ख":358,"ग":359,"घ":360,"च":361,"छ":362,"ज":363,"झ":364,"ट":365,"ड":366,"ढ":367,"ण":368,"त":369,"थ":370,"द":371,"ध":372,"न":373,"प":374,"ब":375,"भ":376,"म":377,"य":378,"र":379,"ल":380,"व":381,"श":382,"ष":383,"स":384,"ह":385,"ा":386,"ि":387,"ी":388,"ो":389,"ক":390,"গ":391,"জ":392,"ত":393,"দ":394,"ন":395,"প":396,"ব":397,"ম":398,"য":399,"র":400,"ল":401,"শ":402,"স":403,"া":404,"ি":405,"ী":406,"ে":407,"ਰ":408,"દ":409,"க":410,"ங":411,"ச":412,"ட":413,"த":414,"ன":415,"ப":416,"ம":417,"ய":418,"ர":419,"ல":420,"வ":421,"ா":422,"ி":423,"ு":424,"ூ":425,"ெ":426,"ே":427,"ක":428,"න":429,"ය":430,"ර":431,"ල":432,"ව":433,"ා":434,"ก":435,"ข":436,"ค":437,"ง":438,"จ":439,"ช":440,"ณ":441,"ด":442,"ต":443,"ท":444,"ธ":445,"น":446,"บ":447,"ป":448,"พ":449,"ภ":450,"ม":451,"ย":452,"ร":453,"ล":454,"ว":455,"ศ":456,"ส":457,"ห":458,"อ":459,"ะ":460,"า":461,"เ":462,"แ":463,"ใ":464,"ไ":465,"་":466,"ཀ":467,"ཁ":468,"ག":469,"ང":470,"ད":471,"ན":472,"ཕ":473,"བ":474,"མ":475,"འ":476,"ར":477,"ལ":478,"ས":479,"က":480,"င":481,"စ":482,"တ":483,"န":484,"ပ":485,"မ":486,"ရ":487,"သ":488,"ာ":489,"ေ":490,"း":491,"ြ":492,"ა":493,"ბ":494,"გ":495,"დ":496,"ე":497,"ვ":498,"ზ":499,"თ":500,"ი":501,"კ":502,"ლ":503,"მ":504,"ნ":505,"ო":506,"ჟ":507,"რ":508,"ს":509,"ტ":510,"უ":511,"ფ":512,"ქ":513,"ღ":514,"ყ":515,"შ":516,"ჩ":517,"ც":518,"ძ":519,"წ":520,"ხ":521,"ჯ":522,"ᄀ":523,"ᄂ":524,"ᄃ":525,"ᄅ":526,"ᄆ":527,"ᄇ":528,"ᄉ":529,"ᄋ":530,"ᄌ":531,"ᄎ":532,"ᄏ":533,"ᄐ":534,"ᄑ":535,"ᄒ":536,"ᅡ":537,"ᅢ":538,"ᅣ":539,"ᅥ":540,"ᅦ":541,"ᅧ":542,"ᅨ":543,"ᅩ":544,"ᅪ":545,"ᅬ":546,"ᅭ":547,"ᅮ":548,"ᅯ":549,"ᅲ":550,"ᅳ":551,"ᅴ":552,"ᅵ":553,"ᆨ":554,"ᆫ":555,"ᆯ":556,"ᆷ":557,"ᆸ":558,"ᆼ":559,"ለ":560,"ላ":561,"መ":562,"ማ":563,"ም":564,"ረ":565,"ር":566,"ሳ":567,"ስ":568,"ባ":569,"ብ":570,"ተ":571,"ቱ":572,"ት":573,"ና":574,"ን":575,"አ":576,"ወ":577,"ዊ":578,"ያ":579,"ይ":580,"ደ":581,"ዳ":582,"ድ":583,"ጊ":584,"ግ":585,"ក":586,"គ":587,"ង":588,"ត":589,"ទ":590,"ន":591,"ប":592,"ព":593,"ម":594,"រ":595,"ល":596,"ស":597,"អ":598,"ា":599,"េ":600,"ᴇ":601,"ᵃ":602,"ᵐ":603,"ᵒ":604,"ᵗ":605,"᾽":606,"᾿":607,"῾":608,"‐":609,"‑":610,"–":611,"—":612,"―":613,"‘":614,"’":615,"‚":616,"“":617,"”":618,"„":619,"†":620,"‡":621,"•":622,"…":623,"‰":624,"′":625,"″":626,"‹":627,"›":628,"※":629,"⁄":630,"₁":631,"₂":632,"€":633,"№":634,"℟":635,"™":636,"℣":637,"ⅰ":638,"ⅽ":639,"ↄ":640,"←":641,"↑":642,"→":643,"↓":644,"↔":645,"⇒":646,"∆":647,"∑":648,"−":649,"∗":650,"√":651,"∞":652,"∨":653,"∪":654,"≈":655,"≤":656,"⌇":657,"⏑":658,"─":659,"│":660,"└":661,"├":662,"┬":663,"■":664,"△":665,"◡":666,"☉":667,"♀":668,"♂":669,"♠":670,"♦":671,"♭":672,"♯":673,"✠":674,"❖":675,"⟨":676,"⟩":677,"ⲁ":678,"ⲉ":679,"ⲏ":680,"ⲓ":681,"ⲙ":682,"ⲛ":683,"ⲟ":684,"ⲡ":685,"ⲣ":686,"ⲥ":687,"ⲧ":688,"ⲩ":689,"ⲱ":690,"ⴰ":691,"、":692,"。":693,"〈":694,"〉":695,"「":696,"」":697,"あ":698,"い":699,"う":700,"え":701,"お":702,"か":703,"き":704,"く":705,"け":706,"こ":707,"さ":708,"し":709,"す":710,"そ":711,"た":712,"ち":713,"っ":714,"つ":715,"て":716,"と":717,"な":718,"に":719,"の":720,"は":721,"ひ":722,"ふ":723,"へ":724,"ま":725,"み":726,"も":727,"ゃ":728,"や":729,"ゅ":730,"ょ":731,"よ":732,"ら":733,"り":734,"る":735,"れ":736,"ろ":737,"わ":738,"を":739,"ん":740,"ァ":741,"ア":742,"ィ":743,"イ":744,"ウ":745,"ェ":746,"エ":747,"オ":748,"カ":749,"キ":750,"ク":751,"ケ":752,"コ":753,"サ":754,"シ":755,"ス":756,"セ":757,"ソ":758,"タ":759,"チ":760,"ッ":761,"ツ":762,"テ":763,"ト":764,"ナ":765,"ニ":766,"ネ":767,"ノ":768,"ハ":769,"ヒ":770,"フ":771,"ヘ":772,"ホ":773,"マ":774,"ミ":775,"ム":776,"メ":777,"モ":778,"ャ":779,"ヤ":780,"ュ":781,"ユ":782,"ョ":783,"ラ":784,"リ":785,"ル":786,"レ":787,"ロ":788,"ワ":789,"ン":790,"・":791,"ー":792,"一":793,"三":794,"上":795,"下":796,"世":797,"东":798,"中":799,"主":800,"久":801,"之":802,"也":803,"事":804,"二":805,"五":806,"井":807,"京":808,"人":809,"仁":810,"介":811,"代":812,"伊":813,"会":814,"佐":815,"作":816,"保":817,"信":818,"健":819,"元":820,"光":821,"全":822,"八":823,"公":824,"典":825,"内":826,"出":827,"分":828,"前":829,"加":830,"化":831,"北":832,"區":833,"十":834,"华":835,"南":836,"博":837,"原":838,"口":839,"古":840,"史":841,"司":842,"合":843,"吉":844,"名":845,"周":846,"命":847,"和":848,"唐":849,"四":850,"国":851,"國":852,"地":853,"城":854,"士":855,"大":856,"天":857,"太":858,"夫":859,"女":860,"子":861,"孔":862,"字":863,"学":864,"孫":865,"學":866,"安":867,"宏":868,"宗":869,"宮":870,"家":871,"寺":872,"小":873,"山":874,"岡":875,"島":876,"崎":877,"川":878,"州":879,"市":880,"帝":881,"平":882,"年":883,"幸":884,"座":885,"康":886,"弘":887,"彦":888,"後":889,"御":890,"德":891,"志":892,"慶":893,"成":894,"手":895,"教":896,"文":897,"新":898,"方":899,"日":900,"明":901,"星":902,"春":903,"智":904,"書":905,"月":906,"有":907,"朝":908,"木":909,"本":910,"李":911,"村":912,"来":913,"東":914,"松":915,"林":916,"梅":917,"森":918,"樹":919,"橋":920,"歌":921,"正":922,"武":923,"民":924,"水":925,"江":926,"河":927,"治":928,"法":929,"泰":930,"洋":931,"海":932,"清":933,"渡":934,"漢":935,"澤":936,"版":937,"玉":938,"王":939,"生":940,"田":941,"男":942,"白":943,"百":944,"的":945,"皇":946,"直":947,"真":948,"石":949,"社":950,"神":951,"福":952,"禮":953,"立":954,"經":955,"美":956,"義":957,"者":958,"自":959,"良":960,"英":961,"茂":962,"華":963,"蔣":964,"藤":965,"行":966,"西":967,"言":968,"記":969,"語":970,"論":971,"諸":972,"语":973,"谷":974,"輝":975,"近":976,"道":977,"郎":978,"部":979,"都":980,"重":981,"野":982,"金":983,"鈴":984,"長":985,"間":986,"阳":987,"陽":988,"隆":989,"雄":990,"雅":991,"集":992,"青":993,"香":994,"馬":995,"高":996,"黒":997,"龍":998,"ﬁ":999,"！":1000,"（":1001,"）":1002,"，":1003,"･":1004,"##a":1005,"##c":1006,"##i":1007,"##l":1008,"##u":1009,"##s":1010,"##v":1011,"##e":1012,"##r":1013,"##d":1014,"##m":1015,"##z":1016,"##n":1017,"##q":1018,"##p":1019,"##t":1020,"##b":1021,"##o":1022,"##h":1023,"##x":1024,"##1":1025,"##0":1026,"##3":1027,"##4":1028,"##5":1029,"##2":1030,"##°":1031,"##8":1032,"##9":1033,"##g":1034,"##f":1035,"##w":1036,"##6":1037,"##æ":1038,"##j":1039,"##y":1040,"##7":1041,"##ο":1042,"##π":1043,"##τ":1044,"##η":1045,"##ρ":1046,"##υ":1047,"##ν":1048,"##ς":1049,"##k":1050,"##α":1051,"##κ":1052,"##ε":1053,"##λ":1054,"##σ":1055,"##θ":1056,"##ι":1057,"##ω":1058,"##º":1059,"##β":1060,"##μ":1061,"##γ":1062,"##ل":1063,"##ب":1064,"##ا":1065,"##ش":1066,"##ϰ":1067,"##е":1068,"##л":1069,"##н":1070,"##о":1071,"##к":1072,"##ł":1073,"##£":1074,"##χ":1075,"##δ":1076,"##ζ":1077,"##פ":1078,"##נ":1079,"##י":1080,"##ה":1081,"##œ":1082,"##ق":1083,"##る":1084,"##а":1085,"##ш":1086,"##ξ":1087,"##ª":1088,"##т":1089,"##и":1090,"##с":1091,"##г":1092,"##ы":1093,"##д":1094,"##ே":1095,"##வ":1096,"##ன":1097,"##ባ":1098,"##ж":1099,"##ᅪ":1100,"##ᆨ":1101,"##ᄌ":1102,"##ᅥ":1103,"##ᆼ":1104,"##ϕ":1105,"##ϛ":1106,"##ி":1107,"##ல":1108,"##ა":1109,"##მ":1110,"##ო":1111,"##უ":1112,"##კ":1113,"##ი":1114,"##დ":1115,"##ე":1116,"##ბ":1117,"##ლ":1118,"##ს":1119,"##φ":1120,"##ɪ":1121,"##ə":1122,"##و":1123,"##ر":1124,"##ز":1125,"##в":1126,"##м":1127,"##у":1128,"##ч":1129,"##し":1130,"##い":1131,"##ю":1132,"##ン":1133,"##ム":1134,"##ー":1135,"##く":1136,"##р":1137,"##³":1138,"##б":1139,"##щ":1140,"##ہ":1141,"##ψ":1142,"##þ":1143,"##я":1144,"##ø":1145,"##ı":1146,"##ß":1147,"##ᵒ":1148,"##ð":1149,"##з":1150,"##−":1151,"##ɜ":1152,"##ᅲ":1153,"##ᄉ":1154,"##ᅡ":1155,"##ᆫ":1156,"##ь":1157,"##は":1158,"##あ":1159,"##п":1160,"##ח":1161,"##ו":1162,"##ן":1163,"##ʼ":1164,"##ъ":1165,"##ि":1166,"##क":1167,"##ो":1168,"##ब":1169,"##ा":1170,"##र":1171,"##™":1172,"##─":1173,"##ィ":1174,"##✠":1175,"##み":1176,"##ن":1177,"##ي":1178,"##რ":1179,"##ფ":1180,"##შ":1181,"##і":1182,"##ܒ":1183,"##ܚ":1184,"##ܕ":1185,"##ܐ":1186,"##ц":1187,"##ʹ":1188,"##ʻ":1189,"##ع":1190,"##ف":1191,"##د":1192,"##ʾ":1193,"##ت":1194,"##∆":1195,"##■":1196,"##ვ":1197,"##ნ":1198,"##ᅵ":1199,"##ᅳ":1200,"##ᄆ":1201,"##ج":1202,"##ש":1203,"##ם":1204,"##ᄀ":1205,"##ᄋ":1206,"##ᄐ":1207,"##ᆯ":1208,"##ф":1209,"##ტ":1210,"##ც":1211,"##ხ":1212,"##┬":1213,"##ح":1214,"##ذ":1215,"##ா":1216,"##க":1217,"##ெ":1218,"##ப":1219,"##ာ":1220,"##း":1221,"##မ":1222,"##ြ":1223,"##ზ":1224,"##त":1225,"##ル":1226,"##า":1227,"##น":1228,"##ท":1229,"##ม":1230,"##ห":1231,"##ด":1232,"##ล":1233,"##ら":1234,"##れ":1235,"##な":1236,"##か":1237,"##っ":1238,"##た":1239,"##の":1240,"##て":1241,"##す":1242,"##ր":1243,"##ա":1244,"##զ":1245,"##դ":1246,"##ն":1247,"##х":1248,"##り":1249,"##ま":1250,"##ग":1251,"##व":1252,"##द":1253,"##ः":1254,"##ュ":1255,"##タ":1256,"##ク":1257,"##ロ":1258,"##ス":1259,"##င":1260,"##စ":1261,"##ه":1262,"##チ":1263,"##ト":1264,"##ว":1265,"##พ":1266,"##ศ":1267,"##ส":1268,"##န":1269,"##ပ":1270,"##ᅧ":1271,"##ᄇ":1272,"##ᅢ":1273,"##ᅮ":1274,"##ᄃ":1275,"##ヘ":1276,"##م":1277,"##य":1278,"##ी":1279,"##ⲟ":1280,"##ⲓ":1281,"##מ":1282,"##ר":1283,"##ɛ":1284,"##ط":1285,"##च":1286,"##オ":1287,"##カ":1288,"##リ":1289,"##ナ":1290,"##ϭ":1291,"##ज":1292,"##प":1293,"##ᆷ":1294,"##ᄅ":1295,"##ᅭ":1296,"##เ":1297,"##จ":1298,"##ร":1299,"##র":1300,"##ি":1301,"##প":1302,"##া":1303,"##ব":1304,"##দ":1305,"##ল":1306,"##ˈ":1307,"##ܡ":1308,"##ܝ":1309,"##イ":1310,"##コ":1311,"##ウ":1312,"##ء":1313,"##¢":1314,"##ハ":1315,"##ד":1316,"##ב":1317,"##や":1318,"##も":1319,"##ל":1320,"##ז":1321,"##ע":1322,"##כ":1323,"##±":1324,"##ϲ":1325,"##ᵗ":1326,"##ノ":1327,"##න":1328,"##ර":1329,"##خ":1330,"##ј":1331,"##ラ":1332,"##ケ":1333,"##न":1334,"##ल":1335,"##ɩ":1336,"##シ":1337,"##キ":1338,"##ソ":1339,"##×":1340,"##ᅣ":1341,"##ث":1342,"##ـ":1343,"##म":1344,"##エ":1345,"##ʿ":1346,"##ʷ":1347,"##ӕ":1348,"##ホ":1349,"##ћ":1350,"##ˁ":1351,"##ғ":1352,"##ә":1353,"##ة":1354,"##♯":1355,"##ར":1356,"##ᅩ":1357,"##ろ":1358,"##ռ":1359,"##ի":1360,"##ァ":1361,"##ミ":1362,"##テ":1363,"##ネ":1364,"##フ":1365,"##ܫ":1366,"##ܬ":1367,"##đ":1368,"##ッ":1369,"##ܠ":1370,"##←":1371,"##レ":1372,"##セ":1373,"##ア":1374,"##ག":1375,"##א":1376,"##ک":1377,"##ی":1378,"##ת":1379,"##อ":1380,"##ก":1381,"##บ":1382,"##ใ":1383,"##ค":1384,"##˙":1385,"##ʔ":1386,"##ﬁ":1387,"##ょ":1388,"##ܢ":1389,"##ܘ":1390,"##ܣ":1391,"##ⲁ":1392,"##ⲛ":1393,"##ⲥ":1394,"##ɔ":1395,"##س":1396,"##ى":1397,"##ː":1398,"##ニ":1399,"##ɡ":1400,"##¨":1401,"##স":1402,"##ম":1403,"##ゅ":1404,"##ѣ":1405,"##ك":1406,"##қ":1407,"##ק":1408,"##→":1409,"##ང":1410,"##ט":1411,"##¹":1412,"##き":1413,"##ᄒ":1414,"##ন":1415,"##に":1416,"##ص":1417,"##ʱ":1418,"##ण":1419,"##₂":1420,"##э":1421,"##ស":1422,"##ា":1423,"##ត":1424,"##ᅨ":1425,"##ා":1426,"##љ":1427,"##♀":1428,"##え":1429,"##ʀ":1430,"##ʰ":1431,"##श":1432,"##ง":1433,"##ะ":1434,"##ץ":1435,"##ᅬ":1436,"##ᅴ":1437,"##ɨ":1438,"##ض":1439,"##ᄑ":1440,"##´":1441,"##€":1442,"##½":1443,"##ך":1444,"##ต":1445,"##ⲱ":1446,"##ⲩ":1447,"##ⲧ":1448,"##ョ":1449,"##ᅦ":1450,"##ſ":1451,"##կ":1452,"##ո":1453,"##є":1454,"##ध":1455,"##स":1456,"##᾽":1457,"##˝":1458,"##գ":1459,"##ե":1460,"##サ":1461,"##མ":1462,"##շ":1463,"##ց":1464,"##ւ":1465,"##թ":1466,"##ג":1467,"##²":1468,"##ս":1469,"##տ":1470,"##ʺ":1471,"##ᴇ":1472,"##ʟ":1473,"##ʃ":1474,"##ŋ":1475,"##ʁ":1476,"##រ":1477,"##վ":1478,"##հ":1479,"##յ":1480,"##ϐ":1481,"##غ":1482,"##њ":1483,"##ϥ":1484,"##پ":1485,"##↓":1486,"##と":1487,"##こ":1488,"##צ":1489,"##แ":1490,"##ツ":1491,"##ር":1492,"##¤":1493,"##ย":1494,"##ᵃ":1495,"##ह":1496,"##マ":1497,"##ワ":1498,"##ข":1499,"##↔":1500,"##ظ":1501,"##΄":1502,"##ס":1503,"##ⲏ":1504,"##®":1505,"##∞":1506,"##わ":1507,"##ひ":1508,"##ᄂ":1509,"##ん":1510,"##भ":1511,"##ு":1512,"##ம":1513,"##√":1514,"##ে":1515,"##ณ":1516,"##∑":1517,"##↑":1518,"##ⴰ":1519,"##う":1520,"##պ":1521,"##ǝ":1522,"##ᆸ":1523,"##モ":1524,"##ャ":1525,"##ĳ":1526,"##ী":1527,"##ន":1528,"##ක":1529,"##ช":1530,"##ய":1531,"##ர":1532,"##ܦ":1533,"##♭":1534,"##չ":1535,"##ལ":1536,"##℣":1537,"##ゃ":1538,"##က":1539,"##ჟ":1540,"##ན":1541,"##ⲉ":1542,"##ⲣ":1543,"##ዊ":1544,"##گ":1545,"##គ":1546,"##ប":1547,"##ទ":1548,"##ម":1549,"##ង":1550,"##͵":1551,"##ங":1552,"##ϒ":1553,"##ܗ":1554,"##ჩ":1555,"##ᄎ":1556,"##ェ":1557,"##₁":1558,"##☉":1559,"##გ":1560,"##∨":1561,"##へ":1562,"##つ":1563,"##ᵐ":1564,"##ϖ":1565,"##ป":1566,"##ธ":1567,"##さ":1568,"##け":1569,"##ք":1570,"##ұ":1571,"##ղ":1572,"##თ":1573,"##メ":1574,"##ድ":1575,"##ም":1576,"##ภ":1577,"##ɒ":1578,"##ረ":1579,"##ყ":1580,"##ヤ":1581,"##ܟ":1582,"##ქ":1583,"##ヒ":1584,"##ᅯ":1585,"##ү":1586,"##⁄":1587,"##ふ":1588,"##ϩ":1589,"##ʊ":1590,"##ក":1591,"##អ":1592,"##ព":1593,"##េ":1594,"##ძ":1595,"##བ":1596,"##ཁ":1597,"##¥":1598,"##ን":1599,"##ስ":1600,"##ት":1601,"##ħ":1602,"##¸":1603,"##մ":1604,"##သ":1605,"##ရ":1606,"##တ":1607,"##ड":1608,"##ক":1609,"##ত":1610,"##শ":1611,"##ཀ":1612,"##լ":1613,"##ས":1614,"##ھ":1615,"##ለ":1616,"##ܪ":1617,"##አ":1618,"##چ":1619,"##ⲡ":1620,"##ட":1621,"##ச":1622,"##ល":1623,"##≈":1624,"##ܩ":1625,"##ƒ":1626,"##ɑ":1627,"##ɲ":1628,"##ေ":1629,"##᾿":1630,"##ይ":1631,"##ማ":1632,"##ያ":1633,"##গ":1634,"##ख":1635,"##ђ":1636,"##ไ":1637,"##थ":1638,"##መ":1639,"##を":1640,"##ღ":1641,"##ʒ":1642,"##ூ":1643,"##փ":1644,"##խ":1645,"##য":1646,"##জ":1647,"##そ":1648,"##ट":1649,"##よ":1650,"##ժ":1651,"##த":1652,"##દ":1653,"##џ":1654,"##उ":1655,"##ܥ":1656,"##ሳ":1657,"##ዳ":1658,"##ད":1659,"##№":1660,"##῾":1661,"##ө":1662,"##წ":1663,"##ය":1664,"##µ":1665,"##ਰ":1666,"##∗":1667,"##お":1668,"##ⲙ":1669,"##ढ":1670,"##ち":1671,"##ⅽ":1672,"##ⅰ":1673,"##ↄ":1674,"##ɾ":1675,"##♦":1676,"##ष":1677,"##ወ":1678,"##ල":1679,"##÷":1680,"##բ":1681,"##ደ":1682,"##¬":1683,"##ላ":1684,"##ቱ":1685,"##ጊ":1686,"##ʕ":1687,"##घ":1688,"##ᄏ":1689,"##འ":1690,"##ユ":1691,"##♂":1692,"##©":1693,"##❖":1694,"##ብ":1695,"##ግ":1696,"##♠":1697,"##ව":1698,"##ჯ":1699,"##ና":1700,"##∪":1701,"##ѧ":1702,"##ተ":1703,"##आ":1704,"##¦":1705,"##◡":1706,"##er":1707,"##um":1708,"##is":1709,"##us":1710,"##it":1711,"##at":1712,"##nt":1713,"##on":1714,"##or":1715,"##es":1716,"qu":1717,"##ia":1718,"##ic":1719,"##em":1720,"##in":1721,"in":1722,"et":1723,"##en":1724,"##ra":1725,"##st":1726,"##am":1727,"##ec":1728,"##ar":1729,"##ur":1730,"##et":1731,"##an":1732,"##ent":1733,"##li":1734,"##qu":1735,"##im":1736,"##om":1737,"de":1738,"##os":1739,"##ib":1740,"##ul":1741,"pr":1742,"##id":1743,"##ae":1744,"##el":1745,"##ed":1746,"su":1747,"##ion":1748,"##ol":1749,"##al":1750,"##ut":1751,"ad":1752,"##od":1753,"##un":1754,"##as":1755,"est":1756,"##il":1757,"##ac":1758,"##ant":1759,"##eg":1760,"##oc":1761,"##que":1762,"con":1763,"ex":1764,"##ud":1765,"non":1766,"##ibus":1767,"##ab":1768,"##ti":1769,"per":1770,"##ir":1771,"##ens":1772,"##orum":1773,"##iam":1774,"##per":1775,"##ot":1776,"##unt":1777,"ut":1778,"pro":1779,"##ere":1780,"##io":1781,"##est":1782,"##ri":1783,"##se":1784,"##itat":1785,"an":1786,"di":1787,"##ect":1788,"##omin":1789,"##ost":1790,"##end":1791,"qui":1792,"si":1793,"##ct":1794,"##ist":1795,"##ium":1796,"pra":1797,"##cc":1798,"quod":1799,"##pt":1800,"##gn":1801,"##ius":1802,"##ii":1803,"co":1804,"cum":1805,"com":1806,"int":1807,"il":1808,"##eb":1809,"##ation":1810,"se":1811,"##iae":1812,"ca":1813,"sed":1814,"om":1815,"ver":1816,"dic":1817,"ab":1818,"omn":1819,"re":1820,"##ip":1821,"##itur":1822,"##rat":1823,"##ver":1824,"aut":1825,"##iss":1826,"##ura":1827,"ill":1828,"##ili":1829,"##and":1830,"ap":1831,"##ta":1832,"sc":1833,"un":1834,"##op":1835,"##00":1836,"##isc":1837,"##re":1838,"ip":1839,"al":1840,"##ob":1841,"ne":1842,"##fic":1843,"san":1844,"domin":1845,"hab":1846,"ali":1847,"me":1848,"##ag":1849,"##uc":1850,"##atur":1851,"ch":1852,"quae":1853,"sp":1854,"##ort":1855,"im":1856,"##ess":1857,"##ter":1858,"##iv":1859,"es":1860,"##jus":1861,"##und":1862,"##ata":1863,"fac":1864,"19":1865,"##uit":1866,"comm":1867,"##ell":1868,"inter":1869,"id":1870,"en":1871,"cor":1872,"##av":1873,"##imus":1874,"##are":1875,"reg":1876,"##uer":1877,"ar":1878,"##ris":1879,"ann":1880,"200":1881,"quia":1882,"##les":1883,"##ione":1884,"cons":1885,"ips":1886,"ecc":1887,"par":1888,"sunt":1889,"pl":1890,"am":1891,"hoc":1892,"ma":1893,"quam":1894,"##ust":1895,"vel":1896,"nost":1897,"##ph":1898,"##og":1899,"tu":1900,"sic":1901,"er":1902,"pat":1903,"sub":1904,"cont":1905,"enim":1906,"##oria":1907,"pot":1908,"##ine":1909,"##pl":1910,"vid":1911,"autem":1912,"##go":1913,"eccles":1914,"lib":1915,"##ran":1916,"quid":1917,"##ore":1918,"##de":1919,"st":1920,"##ian":1921,"##rum":1922,"nec":1923,"cat":1924,"ter":1925,"##atus":1926,"##iter":1927,"##etur":1928,"ep":1929,"##ig":1930,"quo":1931,"##ub":1932,"at":1933,"##ov":1934,"##inc":1935,"##arum":1936,"ob":1937,"##ad":1938,"##ari":1939,"pos":1940,"commun":1941,"pa":1942,"##aec":1943,"##ing":1944,"vir":1945,"##ro":1946,"sit":1947,"ser":1948,"##ult":1949,"##ug":1950,"sol":1951,"##ici":1952,"mar":1953,"##atis":1954,"esse":1955,"inc":1956,"post":1957,"sanct":1958,"leg":1959,"##ati":1960,"super":1961,"##ionem":1962,"etiam":1963,"##fect":1964,"##dit":1965,"ejus":1966,"cr":1967,"prae":1968,"##ient":1969,"fili":1970,"##ch":1971,"res":1972,"man":1973,"##lig":1974,"ant":1975,"categ":1976,"##ert":1977,"tam":1978,"tem":1979,"##erit":1980,"##eri":1981,"cap":1982,"th":1983,"ac":1984,"##ict":1985,"categoria":1986,"##vers":1987,"##atum":1988,"##oris":1989,"loc":1990,"##unc":1991,"or":1992,"##obis":1993,"dec":1994,"dei":1995,"##itate":1996,"car":1997,"##pr":1998,"cl":1999,"##ni":2000,"sec":2001,"##ex":2002,"##rist":2003,"##bi":2004,"##quam":2005,"la":2006,"cu":2007,"##iscop":2008,"##ibi":2009,"anno":2010,"##ores":2011,"qua":2012,"##uli":2013,"fid":2014,"acc":2015,"##entes":2016,"##ern":2017,"##ie":2018,"ita":2019,"##ill":2020,"ven":2021,"##ula":2022,"des":2023,"bon":2024,"##itas":2025,"homin":2026,"poss":2027,"##atione":2028,"##uct":2029,"##itus":2030,"christ":2031,"vol":2032,"##ica":2033,"##issim":2034,"##ina":2035,"##ven":2036,"##ih":2037,"##orem":2038,"tr":2039,"##ff":2040,"##eret":2041,"sal":2042,"##itatem":2043,"##itatis":2044,"##ias":2045,"##ensis":2046,"inf":2047,"ind":2048,"us":2049,"vit":2050,"##ram":2051,"##ont":2052,"pec":2053,"as":2054,"##erunt":2055,"haec":2056,"col":2057,"temp":2058,"conc":2059,"nos":2060,"##ionis":2061,"episcop":2062,"mort":2063,"##ript":2064,"##isse":2065,"mon":2066,"##antur":2067,"anim":2068,"##urae":2069,"cel":2070,"nex":2071,"du":2072,"##ep":2073,"conf":2074,"sicut":2075,"##avit":2076,"##alis":2077,"deb":2078,"##ific":2079,"##eat":2080,"op":2081,"aliqu":2082,"eum":2083,"el":2084,"pag":2085,"##ali":2086,"pet":2087,"sac":2088,"min":2089,"##int":2090,"vero":2091,"##ate":2092,"apud":2093,"gen":2094,"te":2095,"##atio":2096,"##ap":2097,"div":2098,"##odo":2099,"jud":2100,"spir":2101,"##iis":2102,"rec":2103,"##ull":2104,"##orm":2105,"vest":2106,"ins":2107,"rom":2108,"##ini":2109,"##ann":2110,"sum":2111,"const":2112,"ergo":2113,"ag":2114,"##ationem":2115,"##itum":2116,"##icet":2117,"sim":2118,"##eo":2119,"##pos":2120,"prim":2121,"ben":2122,"##pon":2123,"##ass":2124,"apost":2125,"199":2126,"part":2127,"fl":2128,"quem":2129,"##raph":2130,"##icus":2131,"18":2132,"secund":2133,"serv":2134,"##esc":2135,"it":2136,"quibus":2137,"##eli":2138,"atque":2139,"the":2140,"mat":2141,"##isi":2142,"pecc":2143,"frat":2144,"##ulo":2145,"potest":2146,"hu":2147,"tamen":2148,"##eris":2149,"nobis":2150,"red":2151,"##entia":2152,"ist":2153,"##erat":2154,"deus":2155,"mun":2156,"verb":2157,"nov":2158,"##ui":2159,"grat":2160,"is":2161,"##ux":2162,"praefect":2163,"aud":2164,"oper":2165,"fuer":2166,"##irm":2167,"corp":2168,"##itud":2169,"20":2170,"nam":2171,"eo":2172,"contra":2173,"##itt":2174,"##icae":2175,"##ire":2176,"disc":2177,"quas":2178,"##ando":2179,"sem":2180,"script":2181,"##amus":2182,"##enti":2183,"##entur":2184,"sanc":2185,"nomin":2186,"##ign":2187,"ur":2188,"##untur":2189,"##all":2190,"##ebat":2191,"##inem":2192,"ipse":2193,"tant":2194,"##oribus":2195,"##ret":2196,"die":2197,"nexus":2198,"##ast":2199,"##ord":2200,"dix":2201,"gl":2202,"##inis":2203,"praefecturae":2204,"apostol":2205,"ge":2206,"mal":2207,"##icum":2208,"voc":2209,"exc":2210,"of":2211,"gra":2212,"praes":2213,"##ori":2214,"hum":2215,"sancti":2216,"ecclesia":2217,"##itu":2218,"##oli":2219,"his":2220,"##endum":2221,"##ograph":2222,"app":2223,"po":2224,"##ept":2225,"##ve":2226,"imper":2227,"##ice":2228,"quis":2229,"lat":2230,"##irc":2231,"##dem":2232,"not":2233,"magn":2234,"dominus":2235,"##ationis":2236,"nisi":2237,"med":2238,"occ":2239,"civ":2240,"##iet":2241,"##ard":2242,"sign":2243,"omnes":2244,"cred":2245,"ten":2246,"eorum":2247,"##ita":2248,"##entis":2249,"##entibus":2250,"ang":2251,"##ente":2252,"celata":2253,"illi":2254,"ubi":2255,"rem":2256,"domini":2257,"##erum":2258,"##rae":2259,"##ans":2260,"##iat":2261,"null":2262,"dom":2263,"##emus":2264,"##ulum":2265,"erat":2266,"tran":2267,"deo":2268,"tra":2269,"ego":2270,"aug":2271,"##ilia":2272,"pers":2273,"mult":2274,"imp":2275,"sibi":2276,"##tio":2277,"prov":2278,"##entum":2279,"mis":2280,"##gr":2281,"##ite":2282,"test":2283,"ante":2284,"fact":2285,"ev":2286,"omnibus":2287,"urb":2288,"##itis":2289,"mag":2290,"hic":2291,"##ang":2292,"vic":2293,"omnia":2294,"sup":2295,"caus":2296,"fuit":2297,"sti":2298,"spect":2299,"princ":2300,"##bus":2301,"fran":2302,"##ino":2303,"ei":2304,"##usc":2305,"##inae":2306,"le":2307,"fec":2308,"praec":2309,"exter":2310,"##ilis":2311,"##ero":2312,"##aud":2313,"ph":2314,"tot":2315,"##uum":2316,"##anc":2317,"##iens":2318,"mem":2319,"ea":2320,"pop":2321,"patr":2322,"##th":2323,"ord":2324,"inv":2325,"cur":2326,"##icip":2327,"##erc":2328,"stip":2329,"ii":2330,"num":2331,"cod":2332,"praed":2333,"##pe":2334,"##ora":2335,"##ulis":2336,"11":2337,"fr":2338,"##inus":2339,"eos":2340,"jam":2341,"##pter":2342,"##ix":2343,"nat":2344,"##sum":2345,"don":2346,"10":2347,"eius":2348,"secundum":2349,"ul":2350,"ps":2351,"circ":2352,"##itut":2353,"ess":2354,"franc":2355,"##iii":2356,"uni":2357,"sine":2358,"##oqu":2359,"ed":2360,"ms":2361,"just":2362,"fort":2363,"##iones":2364,"doc":2365,"quidem":2366,"##ach":2367,"##up":2368,"nunc":2369,"roman":2370,"##dam":2371,"jo":2372,"comp":2373,"##rib":2374,"luc":2375,"princip":2376,"unde":2377,"##gitur":2378,"trans":2379,"##entiam":2380,"mund":2381,"chris":2382,"##entem":2383,"##ihi":2384,"auct":2385,"##era":2386,"suis":2387,"hist":2388,"xx":2389,"epist":2390,"##iqu":2391,"no":2392,"hon":2393,"neque":2394,"geograph":2395,"val":2396,"dict":2397,"tibi":2398,"quoque":2399,"mihi":2400,"##atem":2401,"quon":2402,"dicit":2403,"usque":2404,"##ym":2405,"##ulus":2406,"##ps":2407,"nih":2408,"dum":2409,"form":2410,"municip":2411,"virt":2412,"sua":2413,"nihil":2414,"act":2415,"##eric":2416,"def":2417,"her":2418,"sep":2419,"##iac":2420,"inqu":2421,"inst":2422,"12":2423,"pres":2424,"christi":2425,"##sc":2426,"viv":2427,"ille":2428,"##rant":2429,"##xim":2430,"##isset":2431,"eis":2432,"judic":2433,"17":2434,"quasi":2435,"##ato":2436,"##vit":2437,"lit":2438,"vos":2439,"coll":2440,"##erv":2441,"quant":2442,"##ios":2443,"cogn":2444,"201":2445,"communia":2446,"quos":2447,"propter":2448,"hom":2449,"domino":2450,"em":2451,"ign":2452,"dign":2453,"pert":2454,"saec":2455,"2000":2456,"##endo":2457,"igitur":2458,"##urg":2459,"carn":2460,"psal":2461,"##ubl":2462,"abb":2463,"ecclesiae":2464,"aet":2465,"del":2466,"##ani":2467,"commune":2468,"##ator":2469,"vobis":2470,"##vi":2471,"##act":2472,"imm":2473,"mor":2474,"dicitur":2475,"ital":2476,"##rig":2477,"edit":2478,"univers":2479,"##icis":2480,"##ea":2481,"15":2482,"fide":2483,"terra":2484,"regn":2485,"##unct":2486,"##res":2487,"deum":2488,"##ico":2489,"##osc":2490,"illa":2491,"##aver":2492,"##if":2493,"rep":2494,"##ider":2495,"16":2496,"ait":2497,"eam":2498,"##ua":2499,"##idem":2500,"quoniam":2501,"coel":2502,"##inum":2503,"externi":2504,"alter":2505,"##plic":2506,"##ile":2507,"tur":2508,"sive":2509,"##onis":2510,"can":2511,"suo":2512,"##tius":2513,"##hib":2514,"##uss":2515,"habent":2516,"##iunt":2517,"##ial":2518,"##ensi":2519,"proc":2520,"vide":2521,"mil":2522,"sequ":2523,"##endi":2524,"14":2525,"laud":2526,"mod":2527,"etc":2528,"2001":2529,"quæ":2530,"cui":2531,"prop":2532,"mo":2533,"##ellig":2534,"dil":2535,"neg":2536,"##iti":2537,"##erm":2538,"tim":2539,"adm":2540,"bene":2541,"arch":2542,"##ulae":2543,"provinc":2544,"##atu":2545,"ext":2546,"vi":2547,"sa":2548,"sent":2549,"dis":2550,"mul":2551,"mart":2552,"ost":2553,"##antes":2554,"13":2555,"tunc":2556,"##enta":2557,"quando":2558,"sept":2559,"##uisse":2560,"##dic":2561,"cast":2562,"publ":2563,"##ito":2564,"##ola":2565,"oct":2566,"##rem":2567,"##ich":2568,"##iant":2569,"hujus":2570,"salut":2571,"lab":2572,"##ianus":2573,"##pli":2574,"lon":2575,"modo":2576,"fam":2577,"virtut":2578,"intellig":2579,"filius":2580,"hanc":2581,"##endit":2582,"##inam":2583,"cujus":2584,"prom":2585,"##itati":2586,"habet":2587,"cal":2588,"##ectione":2589,"##one":2590,"praet":2591,"##uper":2592,"illud":2593,"præ":2594,"be":2595,"##oll":2596,"nostra":2597,"ideo":2598,"liber":2599,"ha":2600,"aqu":2601,"incol":2602,"litter":2603,"##uram":2604,"idem":2605,"susc":2606,"aur":2607,"##alem":2608,"ass":2609,"put":2610,"ipsa":2611,"##aret":2612,"inse":2613,"gr":2614,"##mod":2615,"semper":2616,"##pect":2617,"##ue":2618,"abs":2619,"nomine":2620,"##olog":2621,"vers":2622,"iii":2623,"##di":2624,"tantum":2625,"##enda":2626,"##uis":2627,"ampli":2628,"##enter":2629,"##itia":2630,"esset":2631,"hi":2632,"iud":2633,"ipsum":2634,"nom":2635,"tempore":2636,"suam":2637,"char":2638,"##ana":2639,"vis":2640,"suum":2641,"##ebant":2642,"scil":2643,"##ale":2644,"inde":2645,"##erent":2646,"on":2647,"sap":2648,"spec":2649,"ibi":2650,"mens":2651,"##ffic":2652,"##arii":2653,"scilicet":2654,"##ru":2655,"ref":2656,"##si":2657,"sen":2658,"volunt":2659,"duc":2660,"sui":2661,"monast":2662,"prof":2663,"##oth":2664,"dixit":2665,"insee":2666,"respon":2667,"fuerit":2668,"loqu":2669,"##erd":2670,"inven":2671,"nostri":2672,"and":2673,"proph":2674,"##ara":2675,"mand":2676,"sy":2677,"##le":2678,"homo":2679,"auctor":2680,"mss":2681,"##urr":2682,"##entium":2683,"##icam":2684,"pater":2685,"serm":2686,"hac":2687,"ret":2688,"prophet":2689,"maxim":2690,"##ebus":2691,"##pet":2692,"##vis":2693,"inquit":2694,"ib":2695,"jes":2696,"spiritus":2697,"histor":2698,"##uris":2699,"##asc":2700,"##aris":2701,"aliis":2702,"##pid":2703,"poen":2704,"oc":2705,"##epit":2706,"amb":2707,"fi":2708,"alia":2709,"fut":2710,"cre":2711,"obs":2712,"##ros":2713,"supra":2714,"##dum":2715,"##idit":2716,"##iliter":2717,"pac":2718,"loco":2719,"##ies":2720,"2002":2721,"loci":2722,"##imon":2723,"exs":2724,"vet":2725,"##inde":2726,"unum":2727,"trib":2728,"gratia":2729,"pont":2730,"mont":2731,"magis":2732,"plura":2733,"##ilium":2734,"offic":2735,"##enus":2736,"##empl":2737,"met":2738,"causa":2739,"situs":2740,"br":2741,"illum":2742,"##sequ":2743,"appell":2744,"dem":2745,"cam":2746,"solum":2747,"illis":2748,"##ulg":2749,"cert":2750,"omni":2751,"perm":2752,"##eretur":2753,"episcopus":2754,"att":2755,"advers":2756,"tua":2757,"prob":2758,"dilig":2759,"##edia":2760,"minist":2761,"den":2762,"succ":2763,"nomen":2764,"adh":2765,"pap":2766,"##ith":2767,"for":2768,"intern":2769,"##ras":2770,"##ante":2771,"##esti":2772,"##ationes":2773,"que":2774,"##ales":2775,"bened":2776,"pertin":2777,"evang":2778,"##adem":2779,"##ior":2780,"fer":2781,"soc":2782,"##andum":2783,"##icem":2784,"spiritu":2785,"##aria":2786,"nem":2787,"##sus":2788,"cog":2789,"stud":2790,"tab":2791,"##uerit":2792,"sacerd":2793,"##ys":2794,"monaster":2795,"ipsius":2796,"##te":2797,"dam":2798,"##ionibus":2799,"rel":2800,"##ento":2801,"christus":2802,"##anus":2803,"##quid":2804,"plur":2805,"##enn":2806,"necess":2807,"##uerunt":2808,"rect":2809,"##ure":2810,"##ma":2811,"rex":2812,"pass":2813,"omnium":2814,"sing":2815,"##yr":2816,"ecclesiam":2817,"##rab":2818,"##esse":2819,"io":2820,"long":2821,"##imo":2822,"21":2823,"##rium":2824,"##rag":2825,"dub":2826,"caput":2827,"##mus":2828,"bona":2829,"dominum":2830,"tum":2831,"potes":2832,"##xx":2833,"##inqu":2834,"pal":2835,"itaque":2836,"dist":2837,"##ber":2838,"##hol":2839,"salv":2840,"##gu":2841,"ling":2842,"filii":2843,"ipsi":2844,"1999":2845,"person":2846,"aetern":2847,"homines":2848,"erit":2849,"port":2850,"mea":2851,"suae":2852,"cant":2853,"##oph":2854,"vita":2855,"##ulos":2856,"provincia":2857,"##isti":2858,"##ima":2859,"det":2860,"praedic":2861,"##ity":2862,"plac":2863,"ipso":2864,"##uv":2865,"spectant":2866,"##rac":2867,"mortu":2868,"quom":2869,"##pere":2870,"##aliter":2871,"inn":2872,"##ano":2873,"august":2874,"verum":2875,"bell":2876,"seu":2877,"##oni":2878,"mi":2879,"paginae":2880,"christo":2881,"alt":2882,"firm":2883,"##liqu":2884,"##annes":2885,"iv":2886,"stat":2887,"contin":2888,"22":2889,"graec":2890,"una":2891,"ba":2892,"##rips":2893,"##ario":2894,"dol":2895,"##ena":2896,"##abat":2897,"discip":2898,"sens":2899,"##ne":2900,"quomodo":2901,"vict":2902,"##imedia":2903,"virg":2904,"vicimedia":2905,"##ientia":2906,"198":2907,"exerc":2908,"##vert":2909,"memor":2910,"miseric":2911,"alii":2912,"##arius":2913,"##alia":2914,"spectat":2915,"ded":2916,"pon":2917,"##eres":2918,"aliquid":2919,"bib":2920,"ux":2921,"domine":2922,"##olit":2923,"ast":2924,"germ":2925,"##arium":2926,"doct":2927,"signific":2928,"##itio":2929,"iter":2930,"sex":2931,"incolarum":2932,"##eper":2933,"natura":2934,"natus":2935,"sint":2936,"habere":2937,"##eant":2938,"noc":2939,"##uxta":2940,"exp":2941,"perpet":2942,"fin":2943,"quorum":2944,"af":2945,"to":2946,"ped":2947,"ae":2948,"eadem":2949,"##ron":2950,"##atores":2951,"cruc":2952,"adhuc":2953,"ordin":2954,"##eph":2955,"antiqu":2956,"##fica":2957,"unus":2958,"##odem":2959,"maj":2960,"caet":2961,"canon":2962,"arb":2963,"##anum":2964,"##ilio":2965,"fecit":2966,"##lim":2967,"##andi":2968,"stipula":2969,"parte":2970,"mer":2971,"gaud":2972,"muli":2973,"##dus":2974,"monach":2975,"accip":2976,"dim":2977,"##rorum":2978,"exempl":2979,"sectione":2980,"dies":2981,"desc":2982,"internorum":2983,"##ationibus":2984,"angel":2985,"matth":2986,"ing":2987,"nexuum":2988,"uti":2989,"miss":2990,"illo":2991,"stipulae":2992,"amplifica":2993,"misericord":2994,"##umque":2995,"interni":2996,"##ulc":2997,"##itiam":2998,"perc":2999,"##art":3000,"##ung":3001,"fratres":3002,"##lib":3003,"ult":3004,"terram":3005,"##uf":3006,"mut":3007,"terr":3008,"constant":3009,"relig":3010,"omnis":3011,"illius":3012,"24":3013,"filium":3014,"videtur":3015,"gener":3016,"verba":3017,"##dis":3018,"##ugn":3019,"dev":3020,"angl":3021,"##iles":3022,"christum":3023,"##atorum":3024,"fuisse":3025,"##pic":3026,"##itudinem":3027,"verbum":3028,"hered":3029,"##usti":3030,"cust":3031,"merit":3032,"host":3033,"##ik":3034,"##erus":3035,"eodem":3036,"scrib":3037,"##abit":3038,"##iano":3039,"asc":3040,"presb":3041,"licet":3042,"fieri":3043,"##ientes":3044,"reliqu":3045,"##emb":3046,"lic":3047,"prec":3048,"corpus":3049,"simul":3050,"##æc":3051,"locum":3052,"fo":3053,"desider":3054,"##iab":3055,"##iorum":3056,"##ons":3057,"rerum":3058,"conv":3059,"huius":3060,"constitut":3061,"bar":3062,"rest":3063,"add":3064,"##erant":3065,"tit":3066,"arg":3067,"regione":3068,"dicens":3069,"hunc":3070,"adj":3071,"aff":3072,"forte":3073,"off":3074,"##elicet":3075,"facta":3076,"##ebatur":3077,"beat":3078,"rog":3079,"fidem":3080,"sae":3081,"confirm":3082,"hominum":3083,"congr":3084,"ista":3085,"por":3086,"##na":3087,"pen":3088,"##iani":3089,"##uo":3090,"##idata":3091,"##ulit":3092,"vig":3093,"reper":3094,"prius":3095,"theod":3096,"##ech":3097,"##rah":3098,"magist":3099,"obt":3100,"signum":3101,"iudic":3102,"cas":3103,"glor":3104,"od":3105,"greg":3106,"##lius":3107,"xv":3108,"##atam":3109,"##erem":3110,"##uet":3111,"aliud":3112,"ecce":3113,"##ilem":3114,"##ric":3115,"197":3116,"##och":3117,"dictum":3118,"##la":3119,"quantum":3120,"quin":3121,"patris":3122,"##entiae":3123,"##iem":3124,"##urum":3125,"##prob":3126,"conven":3127,"##ecti":3128,"aper":3129,"erant":3130,"ian":3131,"vitae":3132,"marc":3133,"custod":3134,"rob":3135,"ori":3136,"vitam":3137,"rev":3138,"fund":3139,"##anquam":3140,"sancto":3141,"##reh":3142,"prod":3143,"circum":3144,"quad":3145,"nol":3146,"redd":3147,"dilect":3148,"##alibus":3149,"##edit":3150,"deinde":3151,"cathol":3152,"nostris":3153,"23":3154,"success":3155,"primum":3156,"nati":3157,"ecclesie":3158,"subj":3159,"damn":3160,"##erea":3161,"##onem":3162,"##ialis":3163,"prot":3164,"av":3165,"2003":3166,"satis":3167,"iam":3168,"fidei":3169,"soli":3170,"all":3171,"nim":3172,"oport":3173,"##posit":3174,"facere":3175,"##verunt":3176,"opus":3177,"vin":3178,"judae":3179,"##itudo":3180,"postea":3181,"praef":3182,"sil":3183,"##rus":3184,"cunct":3185,"##issime":3186,"cens":3187,"evangeli":3188,"sanctus":3189,"##ism":3190,"nostro":3191,"multi":3192,"25":3193,"opera":3194,"agn":3195,"##hem":3196,"##rip":3197,"##ania":3198,"##umus":3199,"##quis":3200,"notae":3201,"iniqu":3202,"factum":3203,"quidam":3204,"##ique":3205,"communium":3206,"tempus":3207,"##erint":3208,"dedit":3209,"dig":3210,"fug":3211,"rei":3212,"eg":3213,"plen":3214,"capit":3215,"videlicet":3216,"pontific":3217,"##utus":3218,"consul":3219,"nob":3220,"##ου":3221,"duo":3222,"possit":3223,"mei":3224,"fruct":3225,"divers":3226,"##endam":3227,"##iri":3228,"##antibus":3229,"praecip":3230,"aed":3231,"celeb":3232,"regis":3233,"##etis":3234,"lac":3235,"rebus":3236,"sacerdot":3237,"with":3238,"mortuus":3239,"##sa":3240,"primo":3241,"nostrum":3242,"opt":3243,"infirm":3244,"possess":3245,"tuum":3246,"testimon":3247,"pul":3248,"vill":3249,"quat":3250,"item":3251,"##ane":3252,"communis":3253,"##erab":3254,"historici":3255,"cuius":3256,"trad":3257,"priv":3258,"dav":3259,"habitati":3260,"##iep":3261,"29":3262,"##inist":3263,"##ime":3264,"##oti":3265,"##itiae":3266,"pauper":3267,"praest":3268,"##asse":3269,"cognosc":3270,"epistola":3271,"minus":3272,"##itudine":3273,"manif":3274,"26":3275,"##ef":3276,"##icorum":3277,"summ":3278,"hominem":3279,"fidel":3280,"feb":3281,"human":3282,"propr":3283,"bo":3284,"gu":3285,"dux":3286,"##tus":3287,"##ulam":3288,"jac":3289,"phil":3290,"my":3291,"##libet":3292,"##dict":3293,"##ertus":3294,"apostolus":3295,"##uri":3296,"archiep":3297,"formula":3298,"meum":3299,"uel":3300,"alex":3301,"exist":3302,"28":3303,"ir":3304,"institut":3305,"sangu":3306,"##anda":3307,"wik":3308,"vult":3309,"##antia":3310,"diff":3311,"juxta":3312,"eb":3313,"joan":3314,"tuam":3315,"geographici":3316,"hier":3317,"quip":3318,"occid":3319,"pros":3320,"ibid":3321,"sanctae":3322,"27":3323,"mai":3324,"2004":3325,"##empt":3326,"mortem":3327,"##10":3328,"inim":3329,"tanquam":3330,"multa":3331,"intell":3332,"petri":3333,"posse":3334,"archiepiscop":3335,"##yter":3336,"bonum":3337,"fur":3338,"sus":3339,"##unque":3340,"elect":3341,"##urus":3342,"apr":3343,"nulla":3344,"##arn":3345,"##issimi":3346,"##modi":3347,"##ites":3348,"pages":3349,"circa":3350,"subst":3351,"convers":3352,"##essit":3353,"##red":3354,"##ioni":3355,"anima":3356,"mol":3357,"##atae":3358,"david":3359,"fal":3360,"hinc":3361,"manu":3362,"aeg":3363,"##ebit":3364,"wikidata":3365,"##ality":3366,"using":3367,"heb":3368,"##no":3369,"manus":3370,"##αι":3371,"##uti":3372,"gloria":3373,"vinc":3374,"nesc":3375,"##inta":3376,"propri":3377,"##elli":3378,"lect":3379,"ta":3380,"scriptum":3381,"episcopi":3382,"christian":3383,"superi":3384,"syn":3385,"eff":3386,"pred":3387,"##ers":3388,"manifest":3389,"hominis":3390,"debet":3391,"corporis":3392,"30":3393,"code":3394,"##nus":3395,"filio":3396,"##ev":3397,"hod":3398,"impl":3399,"ra":3400,"libro":3401,"bre":3402,"civitat":3403,"municipality":3404,"##lis":3405,"##rog":3406,"quippe":3407,"##istis":3408,"##ides":3409,"consc":3410,"regnum":3411,"##erre":3412,"pagina":3413,"gall":3414,"##da":3415,"##ria":3416,"mundi":3417,"perfect":3418,"italiae":3419,"venit":3420,"lege":3421,"##ientiam":3422,"alb":3423,"latin":3424,"exst":3425,"saeculo":3426,"##ract":3427,"interpr":3428,"condit":3429,"dep":3430,"##atoris":3431,"corpore":3432,"##avi":3433,"dir":3434,"##ei":3435,"epistol":3436,"pret":3437,"sumus":3438,"aequ":3439,"possid":3440,"diab":3441,"ostend":3442,"perven":3443,"noster":3444,"1998":3445,"soll":3446,"##iit":3447,"##ulorum":3448,"##omm":3449,"diss":3450,"observ":3451,"hos":3452,"conj":3453,"libert":3454,"cet":3455,"factus":3456,"requ":3457,"##yl":3458,"##bn":3459,"sanctorum":3460,"xxx":3461,"##essus":3462,"verbis":3463,"vestra":3464,"2005":3465,"suos":3466,"presbyter":3467,"fideli":3468,"mortui":3469,"sch":3470,"equ":3471,"##ivit":3472,"##rael":3473,"foed":3474,"isbn":3475,"##do":3476,"clam":3477,"potius":3478,"##imum":3479,"pars":3480,"gratiam":3481,"annis":3482,"alexand":3483,"bibli":3484,"beati":3485,"da":3486,"##entus":3487,"bl":3488,"##uta":3489,"auctoritate":3490,"##20":3491,"##icos":3492,"nemo":3493,"honor":3494,"poenit":3495,"##issa":3496,"sust":3497,"##uisset":3498,"hominibus":3499,"##ribus":3500,"vii":3501,"iterum":3502,"caes":3503,"##obus":3504,"lud":3505,"vul":3506,"psalm":3507,"tuae":3508,"##ardus":3509,"##anis":3510,"patrem":3511,"196":3512,"israel":3513,"ejusdem":3514,"integ":3515,"##iu":3516,"illam":3517,"salutem":3518,"bal":3519,"cura":3520,"lum":3521,"##atos":3522,"patre":3523,"praem":3524,"alien":3525,"sacram":3526,"testam":3527,"diem":3528,"##upt":3529,"perd":3530,"sab":3531,"comitat":3532,"omnino":3533,"uno":3534,"tres":3535,"nostrae":3536,"##iacon":3537,"##isit":3538,"divin":3539,"mater":3540,"##aretur":3541,"sur":3542,"facit":3543,"##ectio":3544,"##ha":3545,"nun":3546,"benedict":3547,"cul":3548,"##xit":3549,"ecclesiast":3550,"petrus":3551,"tabula":3552,"##embris":3553,"prima":3554,"ipsis":3555,"intra":3556,"indic":3557,"##rid":3558,"isa":3559,"##yp":3560,"discret":3561,"meus":3562,"##13":3563,"tex":3564,"arc":3565,"grav":3566,"bapt":3567,"dicere":3568,"mus":3569,"##14":3570,"arbit":3571,"##15":3572,"##abant":3573,"pauc":3574,"hen":3575,"peric":3576,"plus":3577,"interpret":3578,"memb":3579,"##ensem":3580,"##modum":3581,"tor":3582,"##ella":3583,"arm":3584,"##olus":3585,"##eps":3586,"fab":3587,"totum":3588,"mitt":3589,"meam":3590,"##enc":3591,"partem":3592,"tui":3593,"cae":3594,"##lin":3595,"dest":3596,"iste":3597,"nonn":3598,"##du":3599,"##averunt":3600,"##entius":3601,"compl":3602,"##ense":3603,"disp":3604,"vat":3605,"magna":3606,"tuo":3607,"sig":3608,"##din":3609,"hisp":3610,"exhib":3611,"##arg":3612,"omnem":3613,"episcopo":3614,"##antem":3615,"corde":3616,"infra":3617,"sanctum":3618,"perf":3619,"adv":3620,"##ipere":3621,"multis":3622,"##ον":3623,"sper":3624,"##issent":3625,"##12":3626,"paulus":3627,"puer":3628,"quare":3629,"##issima":3630,"##emn":3631,"fest":3632,"##issimum":3633,"turb":3634,"german":3635,"saint":3636,"##amur":3637,"crim":3638,"##ionum":3639,"pecun":3640,"orb":3641,"coram":3642,"##va":3643,"possunt":3644,"adversus":3645,"merc":3646,"iust":3647,"tract":3648,"ren":3649,"fel":3650,"os":3651,"legem":3652,"camp":3653,"utique":3654,"bas":3655,"utrum":3656,"ger":3657,"##epta":3658,"teneb":3659,"term":3660,"gest":3661,"##endere":3662,"miser":3663,"##ileg":3664,"hor":3665,"respond":3666,"je":3667,"spiritum":3668,"illos":3669,"sententia":3670,"##uam":3671,"viii":3672,"terrae":3673,"annum":3674,"ignor":3675,"maxime":3676,"scripta":3677,"##iæ":3678,"meo":3679,"##endis":3680,"doctr":3681,"aux":3682,"##ular":3683,"proxim":3684,"benefic":3685,"laet":3686,"kal":3687,"##abitur":3688,"##rius":3689,"##uetud":3690,"##16":3691,"nullus":3692,"aedific":3693,"fit":3694,"piet":3695,"##78":3696,"tent":3697,"mac":3698,"via":3699,"geographicae":3700,"orat":3701,"##ustra":3702,"lex":3703,"##umb":3704,"henr":3705,"##onst":3706,"##yn":3707,"frater":3708,"der":3709,"lig":3710,"cop":3711,"##org":3712,"quamvis":3713,"##30":3714,"##lam":3715,"##inere":3716,"geographiam":3717,"##uere":3718,"##ulli":3719,"ol":3720,"mox":3721,"##alium":3722,"rh":3723,"confess":3724,"rad":3725,"err":3726,"sollic":3727,"##ille":3728,"##ereb":3729,"nequ":3730,"##19":3731,"quatu":3732,"affect":3733,"domus":3734,"quaer":3735,"##icta":3736,"obl":3737,"194":3738,"##issimus":3739,"##tium":3740,"imag":3741,"francicum":3742,"nar":3743,"##annis":3744,"propos":3745,"scrips":3746,"cult":3747,"pri":3748,"art":3749,"##issimo":3750,"legis":3751,"##ates":3752,"##andem":3753,"jesu":3754,"appar":3755,"alio":3756,"cond":3757,"sin":3758,"fuerat":3759,"egr":3760,"anni":3761,"faci":3762,"##ins":3763,"marty":3764,"##anae":3765,"##imur":3766,"concess":3767,"nostram":3768,"##rare":3769,"oppid":3770,"na":3771,"regni":3772,"resurr":3773,"##ines":3774,"##ones":3775,"omne":3776,"dex":3777,"templ":3778,"##18":3779,"##utum":3780,"carnis":3781,"recte":3782,"cass":3783,"audi":3784,"##ete":3785,"alios":3786,"##50":3787,"gregor":3788,"mans":3789,"coelest":3790,"genus":3791,"##ariis":3792,"##ianum":3793,"dat":3794,"##iret":3795,"ct":3796,"municipium":3797,"sacri":3798,"##osoph":3799,"##iar":3800,"fig":3801,"animam":3802,"rever":3803,"quatuor":3804,"xii":3805,"fa":3806,"sor":3807,"annos":3808,"tert":3809,"nav":3810,"peccatum":3811,"##averit":3812,"##17":3813,"clar":3814,"##ipot":3815,"##num":3816,"huic":3817,"##ectus":3818,"##atorem":3819,"assum":3820,"lingua":3821,"##lus":3822,"##rop":3823,"ingr":3824,"dicat":3825,"vulg":3826,"##eta":3827,"quot":3828,"##ientiae":3829,"viri":3830,"fre":3831,"vere":3832,"gem":3833,"ioannes":3834,"##he":3835,"##iva":3836,"jesus":3837,"innoc":3838,"namque":3839,"##onia":3840,"##onym":3841,"prud":3842,"vo":3843,"regem":3844,"##iog":3845,"alias":3846,"##ecta":3847,"minister":3848,"##irum":3849,"##press":3850,"##ictum":3851,"causam":3852,"##arent":3853,"eas":3854,"diebus":3855,"##ecim":3856,"quidquid":3857,"suffic":3858,"scriptura":3859,"##ene":3860,"consec":3861,"past":3862,"legit":3863,"finem":3864,"familia":3865,"##uimus":3866,"philosoph":3867,"##ilip":3868,"##prim":3869,"##tum":3870,"##abo":3871,"vall":3872,"aliqua":3873,"gloriam":3874,"myst":3875,"##verit":3876,"habit":3877,"ga":3878,"divina":3879,"quaes":3880,"vell":3881,"##ota":3882,"##rim":3883,"ipsam":3884,"##elm":3885,"prohib":3886,"##osa":3887,"urbem":3888,"congreg":3889,"orig":3890,"interret":3891,"oportet":3892,"hodie":3893,"##oss":3894,"tradit":3895,"mense":3896,"##ων":3897,"imperator":3898,"philip":3899,"primus":3900,"tuis":3901,"praesum":3902,"administ":3903,"bonis":3904,"gal":3905,"omnipot":3906,"sat":3907,"tota":3908,"##enae":3909,"indicem":3910,"mala":3911,"ratione":3912,"historia":3913,"##ecit":3914,"quint":3915,"##edi":3916,"##othec":3917,"legitur":3918,"lam":3919,"labor":3920,"##iane":3921,"##ruct":3922,"##eni":3923,"font":3924,"##to":3925,"societ":3926,"##enses":3927,"dico":3928,"temporis":3929,"2006":3930,"##iana":3931,"suas":3932,"denique":3933,"##abatur":3934,"humil":3935,"##ona":3936,"suorum":3937,"##ips":3938,"##24":3939,"populi":3940,"##ilius":3941,"pp":3942,"##uae":3943,"##olo":3944,"##ecut":3945,"recip":3946,"hæc":3947,"##oniae":3948,"##eribus":3949,"effic":3950,"sancta":3951,"manum":3952,"perman":3953,"##33":3954,"superb":3955,"tac":3956,"nunt":3957,"##eces":3958,"##ilibus":3959,"##lo":3960,"diu":3961,"##ebantur":3962,"abbas":3963,"vestrae":3964,"##iarum":3965,"um":3966,"suscip":3967,"aliquando":3968,"195":3969,"justi":3970,"##25":3971,"rur":3972,"##26":3973,"statu":3974,"saepe":3975,"papa":3976,"he":3977,"iul":3978,"quic":3979,"domum":3980,"clem":3981,"pas":3982,"sequitur":3983,"culp":3984,"##amm":3985,"postul":3986,"##ide":3987,"cla":3988,"##iograph":3989,"iun":3990,"pugn":3991,"subsc":3992,"vix":3993,"lo":3994,"fratribus":3995,"glori":3996,"unam":3997,"parv":3998,"##erius":3999,"##iali":4000,"##onum":4001,"populo":4002,"fere":4003,"press":4004,"resp":4005,"insign":4006,"iis":4007,"benedic":4008,"profect":4009,"flor":4010,"abst":4011,"septem":4012,"potuit":4013,"mich":4014,"##ioeces":4015,"olim":4016,"mali":4017,"quatenus":4018,"##itione":4019,"urbs":4020,"similiter":4021,"##elmus":4022,"filios":4023,"##amen":4024,"consuetud":4025,"nomina":4026,"illic":4027,"lxx":4028,"commend":4029,"index":4030,"peccata":4031,"##ho":4032,"##erentur":4033,"ber":4034,"venerab":4035,"##tu":4036,"filiis":4037,"##itor":4038,"fuerint":4039,"##ilii":4040,"aest":4041,"urbis":4042,"##endas":4043,"##rupt":4044,"##emur":4045,"litteras":4046,"comes":4047,"##itates":4048,"praeter":4049,"dicta":4050,"##edere":4051,"sermo":4052,"consum":4053,"paulo":4054,"fides":4055,"trin":4056,"cogitat":4057,"iac":4058,"nondum":4059,"##eros":4060,"tut":4061,"populus":4062,"##enim":4063,"sententiam":4064,"datum":4065,"vac":4066,"posset":4067,"franciae":4068,"##rio":4069,"##ει":4070,"ec":4071,"##ographia":4072,"##urb":4073,"##ος":4074,"quinque":4075,"mortis":4076,"exig":4077,"##itam":4078,"##antium":4079,"##23":4080,"##28":4081,"iure":4082,"##29":4083,"addit":4084,"quaedam":4085,"##ubern":4086,"statim":4087,"##atibus":4088,"georg":4089,"milit":4090,"male":4091,"hil":4092,"##antis":4093,"necesse":4094,"sam":4095,"italiane":4096,"postquam":4097,"##itionem":4098,"latinitas":4099,"##ecc":4100,"astero":4101,"decim":4102,"##quidem":4103,"partes":4104,"frequ":4105,"morte":4106,"##rep":4107,"38":4108,"##inct":4109,"absol":4110,"ix":4111,"steph":4112,"data":4113,"##iensis":4114,"##ulas":4115,"cc":4116,"tribus":4117,"pleb":4118,"##jun":4119,"brit":4120,"##nam":4121,"40":4122,"biograph":4123,"obed":4124,"incarn":4125,"servus":4126,"##70":4127,"velut":4128,"##entio":4129,"##itudinis":4130,"aliter":4131,"fil":4132,"certe":4133,"39":4134,"amplius":4135,"##ices":4136,"##olis":4137,"glad":4138,"consilio":4139,"##ientibus":4140,"##uarii":4141,"municipia":4142,"supplic":4143,"libri":4144,"##abilis":4145,"##eth":4146,"meis":4147,"xi":4148,"##oseph":4149,"##ath":4150,"nic":4151,"les":4152,"urbe":4153,"##eum":4154,"ostendit":4155,"consens":4156,"vera":4157,"dulc":4158,"occas":4159,"fem":4160,"polit":4161,"devot":4162,"auf":4163,"##andam":4164,"34":4165,"litteris":4166,"##pi":4167,"lev":4168,"locus":4169,"tanto":4170,"indign":4171,"##viii":4172,"flum":4173,"quanto":4174,"##ecum":4175,"para":4176,"accus":4177,"cleric":4178,"melius":4179,"consequ":4180,"##ida":4181,"cali":4182,"gran":4183,"tom":4184,"colloc":4185,"quart":4186,"pell":4187,"alius":4188,"novi":4189,"pan":4190,"jub":4191,"testimonium":4192,"judicium":4193,"##ardi":4194,"##sit":4195,"lux":4196,"tanta":4197,"##uro":4198,"cess":4199,"cer":4200,"mot":4201,"##60":4202,"patri":4203,"monasterium":4204,"31":4205,"##apti":4206,"consider":4207,"35":4208,"ov":4209,"##tem":4210,"medio":4211,"tempor":4212,"pol":4213,"fuerunt":4214,"persona":4215,"animae":4216,"ore":4217,"potestatem":4218,"decret":4219,"##itium":4220,"und":4221,"episcopum":4222,"nullo":4223,"nunquam":4224,"donec":4225,"duobus":4226,"cordis":4227,"193":4228,"##ring":4229,"mari":4230,"##iatur":4231,"unius":4232,"impet":4233,"do":4234,"##egr":4235,"sedis":4236,"gubern":4237,"33":4238,"##eptum":4239,"ve":4240,"nasc":4241,"corr":4242,"larg":4243,"inj":4244,"haeret":4245,"exspect":4246,"gentes":4247,"absque":4248,"bern":4249,"orient":4250,"pasch":4251,"asteroides":4252,"190":4253,"decem":4254,"go":4255,"evangel":4256,"spirit":4257,"malum":4258,"incip":4259,"conced":4260,"inferi":4261,"mentis":4262,"tol":4263,"apostoli":4264,"mel":4265,"emend":4266,"##27":4267,"illorum":4268,"##eunt":4269,"mundo":4270,"##inas":4271,"##ista":4272,"sacrific":4273,"##erusalem":4274,"##nis":4275,"simil":4276,"paginam":4277,"delect":4278,"rege":4279,"##vii":4280,"actum":4281,"##rix":4282,"anton":4283,"##ecess":4284,"etsi":4285,"##idi":4286,"habeat":4287,"accepit":4288,"demonst":4289,"absc":4290,"potestate":4291,"pom":4292,"extra":4293,"##40":4294,"##unic":4295,"fiat":4296,"##atim":4297,"secundo":4298,"hieronym":4299,"carnem":4300,"saeculi":4301,"##inibus":4302,"ius":4303,"##eatur":4304,"sola":4305,"son":4306,"populum":4307,"##aptiz":4308,"dioeces":4309,"paul":4310,"##iamus":4311,"will":4312,"praeb":4313,"nostrorum":4314,"creat":4315,"loquitur":4316,"pacem":4317,"longe":4318,"ath":4319,"##uch":4320,"ef":4321,"##ectum":4322,"##uerint":4323,"apostolorum":4324,"ingen":4325,"##antiam":4326,"mori":4327,"meli":4328,"##yc":4329,"2012":4330,"estis":4331,"eidem":4332,"##lud":4333,"##anti":4334,"verbo":4335,"cad":4336,"baptism":4337,"interretialis":4338,"##ictus":4339,"tandem":4340,"essent":4341,"adul":4342,"lang":4343,"urbes":4344,"propheta":4345,"mare":4346,"##sis":4347,"virtute":4348,"merito":4349,"monasterii":4350,"##admodum":4351,"sancte":4352,"ibidem":4353,"plures":4354,"##tii":4355,"solus":4356,"carne":4357,"##ravit":4358,"##endus":4359,"ard":4360,"##uen":4361,"##ela":4362,"##aci":4363,"##ipsum":4364,"suff":4365,"totius":4366,"jejun":4367,"animo":4368,"sanctis":4369,"##ond":4370,"interrog":4371,"2007":4372,"juss":4373,"##itatibus":4374,"opin":4375,"poterit":4376,"peccatorum":4377,"##atas":4378,"##illi":4379,"##olum":4380,"hel":4381,"habuit":4382,"##erto":4383,"abrah":4384,"aliquis":4385,"vocem":4386,"eiusdem":4387,"wal":4388,"species":4389,"brev":4390,"privileg":4391,"36":4392,"maria":4393,"nullum":4394,"##aed":4395,"quemadmodum":4396,"##avimus":4397,"##non":4398,"##inet":4399,"##90":4400,"##berg":4401,"##ulf":4402,"coni":4403,"beatus":4404,"##iente":4405,"##ationi":4406,"50":4407,"lug":4408,"ro":4409,"bibliographia":4410,"synod":4411,"monasterio":4412,"##pot":4413,"##tiv":4414,"mur":4415,"##ered":4416,"subd":4417,"hosp":4418,"quaest":4419,"profic":4420,"britann":4421,"modum":4422,"ioh":4423,"viol":4424,"elig":4425,"coelo":4426,"civitatum":4427,"victor":4428,"admon":4429,"##enis":4430,"civitatis":4431,"##eas":4432,"uir":4433,"##lium":4434,"operibus":4435,"promiss":4436,"##tis":4437,"manibus":4438,"eur":4439,"##uerat":4440,"baptiz":4441,"merid":4442,"xiii":4443,"##inop":4444,"viam":4445,"duos":4446,"##nae":4447,"voce":4448,"##80":4449,"quibusdam":4450,"##co":4451,"iuris":4452,"domo":4453,"aqua":4454,"caro":4455,"design":4456,"exper":4457,"cardin":4458,"consilium":4459,"apostolica":4460,"##imi":4461,"##eamus":4462,"bonorum":4463,"multo":4464,"sm":4465,"rap":4466,"##ce":4467,"agnosc":4468,"relinqu":4469,"##asa":4470,"joannes":4471,"redempt":4472,"dicunt":4473,"aus":4474,"vox":4475,"usus":4476,"##emos":4477,"##illa":4478,"mos":4479,"##αν":4480,"regno":4481,"trium":4482,"fra":4483,"hispan":4484,"##uxit":4485,"uol":4486,"voluit":4487,"judicio":4488,"cogit":4489,"religios":4490,"eleg":4491,"##εν":4492,"joh":4493,"porro":4494,"situm":4495,"##ga":4496,"quadrag":4497,"concup":4498,"philipp":4499,"lign":4500,"negoti":4501,"erud":4502,"misericordia":4503,"##verat":4504,"util":4505,"ira":4506,"##err":4507,"veritatis":4508,"resurrect":4509,"propria":4510,"abund":4511,"##iol":4512,"##una":4513,"diacon":4514,"flag":4515,"##54":4516,"37":4517,"##ationum":4518,"toto":4519,"corn":4520,"temporibus":4521,"aliquo":4522,"##pta":4523,"##rar":4524,"tribul":4525,"simplic":4526,"discipl":4527,"toll":4528,"pulch":4529,"boni":4530,"bellum":4531,"ru":4532,"mariae":4533,"minime":4534,"so":4535,"ianuarii":4536,"##pectu":4537,"conserv":4538,"effect":4539,"consol":4540,"locis":4541,"claud":4542,"##icto":4543,"ty":4544,"numero":4545,"ordine":4546,"##uas":4547,"justitia":4548,"##11":4549,"ho":4550,"convert":4551,"##ax":4552,"duod":4553,"##enum":4554,"2009":4555,"##uni":4556,"perse":4557,"ampl":4558,"mov":4559,"pariter":4560,"poll":4561,"archid":4562,"suppl":4563,"vestris":4564,"virtus":4565,"sane":4566,"##usta":4567,"jacob":4568,"##ituit":4569,"significat":4570,"##ido":4571,"expl":4572,"##ratus":4573,"ratio":4574,"##libus":4575,"oculis":4576,"nominis":4577,"officium":4578,"fav":4579,"servi":4580,"cib":4581,"opere":4582,"revoc":4583,"και":4584,"ultra":4585,"superioris":4586,"justitiam":4587,"mors":4588,"comit":4589,"##pro":4590,"illust":4591,"lapid":4592,"iuli":4593,"##ertur":4594,"##ese":4595,"hort":4596,"sym":4597,"##itae":4598,"cup":4599,"dare":4600,"comitatus":4601,"incolae":4602,"##ensium":4603,"transf":4604,"##onc":4605,"##udic":4606,"defens":4607,"43":4608,"cæ":4609,"divis":4610,"profess":4611,"regio":4612,"mill":4613,"russ":4614,"cunctis":4615,"americ":4616,"##liv":4617,"veritas":4618,"secret":4619,"vine":4620,"siquidem":4621,"collect":4622,"alic":4623,"accep":4624,"##22":4625,"##aginta":4626,"villa":4627,"##cip":4628,"persecut":4629,"hujusmodi":4630,"ipsos":4631,"##arios":4632,"##ariae":4633,"repet":4634,"dimitt":4635,"mente":4636,"mend":4637,"##ok":4638,"oculos":4639,"fine":4640,"veritatem":4641,"perpetuum":4642,"magister":4643,"##iderunt":4644,"##nia":4645,"praep":4646,"vindic":4647,"hec":4648,"##ogn":4649,"sax":4650,"pertinet":4651,"##erna":4652,"benign":4653,"solv":4654,"##asti":4655,"##exit":4656,"papae":4657,"reddit":4658,"ador":4659,"##emor":4660,"misit":4661,"mundum":4662,"##abunt":4663,"dici":4664,"adeo":4665,"44":4666,"romae":4667,"constat":4668,"##esa":4669,"multum":4670,"45":4671,"adi":4672,"confit":4673,"eph":4674,"mirac":4675,"thom":4676,"sci":4677,"2008":4678,"##iscum":4679,"crucis":4680,"van":4681,"norm":4682,"amen":4683,"scel":4684,"imperii":4685,"forma":4686,"som":4687,"pasc":4688,"propt":4689,"voluntate":4690,"##entu":4691,"subs":4692,"petro":4693,"##ba":4694,"##ientem":4695,"possumus":4696,"pin":4697,"pur":4698,"##estig":4699,"constantinop":4700,"felic":4701,"occup":4702,"excus":4703,"provid":4704,"##andus":4705,"nub":4706,"ini":4707,"notum":4708,"fidelium":4709,"##for":4710,"tuus":4711,"colleg":4712,"class":4713,"singulis":4714,"##inos":4715,"##urn":4716,"honore":4717,"amore":4718,"jure":4719,"fat":4720,"voluntatem":4721,"cler":4722,"##ologia":4723,"filia":4724,"##eam":4725,"##tae":4726,"##otheca":4727,"valde":4728,"fratrum":4729,"sapientia":4730,"mirab":4731,"corrig":4732,"##ictis":4733,"existim":4734,"##urs":4735,"excomm":4736,"##onom":4737,"pisc":4738,"meae":4739,"accept":4740,"##eus":4741,"apostolicae":4742,"##circ":4743,"myster":4744,"##iensi":4745,"rationem":4746,"adhib":4747,"superius":4748,"homine":4749,"##arch":4750,"oppidum":4751,"misericordiam":4752,"anglice":4753,"##ατ":4754,"##icas":4755,"189":4756,"magnum":4757,"imo":4758,"##eno":4759,"alium":4760,"##olv":4761,"honorem":4762,"concupisc":4763,"facult":4764,"##qui":4765,"vestram":4766,"virum":4767,"agere":4768,"ambros":4769,"##idie":4770,"praev":4771,"xiv":4772,"mulier":4773,"anc":4774,"##abiliter":4775,"respondit":4776,"editi":4777,"ambul":4778,"##orus":4779,"##escit":4780,"imperat":4781,"coelum":4782,"nocte":4783,"romani":4784,"propterea":4785,"solid":4786,"##modo":4787,"##ele":4788,"nut":4789,"##75":4790,"michae":4791,"concord":4792,"coron":4793,"iuss":4794,"##uras":4795,"diffic":4796,"##imis":4797,"intr":4798,"arn":4799,"har":4800,"civitatem":4801,"cy":4802,"pacis":4803,"##son":4804,"##alt":4805,"vent":4806,"peccato":4807,"nova":4808,"ascend":4809,"cx":4810,"li":4811,"naturam":4812,"compet":4813,"carm":4814,"honest":4815,"clun":4816,"facile":4817,"anat":4818,"caeteris":4819,"fructus":4820,"cumque":4821,"46":4822,"tertio":4823,"##iantur":4824,"sensus":4825,"dicuntur":4826,"excommunic":4827,"##so":4828,"gentium":4829,"antequam":4830,"refer":4831,"##ptus":4832,"##ute":4833,"##etum":4834,"49":4835,"##ind":4836,"henricus":4837,"more":4838,"##orium":4839,"##eperunt":4840,"nulli":4841,"diximus":4842,"subdit":4843,"##iliae":4844,"pertinent":4845,"vend":4846,"isti":4847,"subscrips":4848,"ignis":4849,"##74":4850,"##76":4851,"magno":4852,"peregr":4853,"civitate":4854,"desid":4855,"pedes":4856,"ration":4857,"faciem":4858,"collig":4859,"restitu":4860,"##ellum":4861,"sanguine":4862,"vestrum":4863,"talis":4864,"faciat":4865,"1997":4866,"extrem":4867,"venire":4868,"dixi":4869,"##ellae":4870,"##idium":4871,"exemplum":4872,"48":4873,"insc":4874,"##icarum":4875,"uest":4876,"sublim":4877,"adam":4878,"daem":4879,"##entr":4880,"austra":4881,"##pici":4882,"##iuntur":4883,"partibus":4884,"ordinem":4885,"argum":4886,"##issimis":4887,"idcirc":4888,"ipsorum":4889,"abbatis":4890,"viro":4891,"duas":4892,"##iper":4893,"ju":4894,"##posita":4895,"sever":4896,"alterum":4897,"aliorum":4898,"pauli":4899,"coepit":4900,"dorm":4901,"xvi":4902,"transm":4903,"principes":4904,"ot":4905,"defic":4906,"##34":4907,"praeterea":4908,"##ularis":4909,"##ebunt":4910,"##ke":4911,"subt":4912,"dexter":4913,"etenim":4914,"italia":4915,"obst":4916,"ves":4917,"##rii":4918,"nation":4919,"naturae":4920,"europ":4921,"##usque":4922,"idcirco":4923,"inh":4924,"##ominus":4925,"peccatis":4926,"caec":4927,"descend":4928,"vici":4929,"##rehend":4930,"##21":4931,"university":4932,"##fac":4933,"virtutem":4934,"##ης":4935,"##ρι":4936,"uxor":4937,"2011":4938,"##lu":4939,"##35":4940,"constitu":4941,"secunda":4942,"##ge":4943,"##ello":4944,"cupid":4945,"ludov":4946,"##iz":4947,"anti":4948,"diceret":4949,"uid":4950,"romana":4951,"##ors":4952,"videre":4953,"186":4954,"sar":4955,"octob":4956,"vex":4957,"cec":4958,"##init":4959,"altera":4960,"fract":4961,"##rata":4962,"episcopis":4963,"decl":4964,"except":4965,"penitus":4966,"peccati":4967,"revel":4968,"scripsit":4969,"monst":4970,"sacra":4971,"alterius":4972,"officio":4973,"##79":4974,"188":4975,"metrop":4976,"jesum":4977,"##tific":4978,"uen":4979,"debemus":4980,"##ellus":4981,"2010":4982,"##uz":4983,"andre":4984,"capite":4985,"glorios":4986,"generis":4987,"vocab":4988,"faciunt":4989,"ebor":4990,"evangelio":4991,"tertia":4992,"moys":4993,"debeat":4994,"##ittit":4995,"reges":4996,"erunt":4997,"uxorem":4998,"corpor":4999,"sag":5000,"vert":5001,"qualiter":5002,"##ologiae":5003,"ub":5004,"mass":5005,"##iph":5006,"eumdem":5007,"novum":5008,"publica":5009,"##lum":5010,"pyr":5011,"corrupt":5012,"2016":5013,"##rans":5014,"vt":5015,"uero":5016,"eloqu":5017,"##arem":5018,"ordinis":5019,"cuncta":5020,"frag":5021,"##isque":5022,"lut":5023,"romanae":5024,"rum":5025,"pellic":5026,"altare":5027,"##οι":5028,"membra":5029,"obsequ":5030,"nimirum":5031,"indig":5032,"quodam":5033,"##στ":5034,"habebat":5035,"iuxta":5036,"cand":5037,"##eperit":5038,"##uisti":5039,"rursus":5040,"animi":5041,"susp":5042,"##cis":5043,"bel":5044,"publicus":5045,"gratias":5046,"fuisset":5047,"##burg":5048,"augusti":5049,"trist":5050,"futurum":5051,"vuln":5052,"gratiae":5053,"ulp":5054,"occident":5055,"##posuit":5056,"liceat":5057,"regi":5058,"summa":5059,"barb":5060,"iu":5061,"##iod":5062,"imperium":5063,"##entorum":5064,"habitat":5065,"tali":5066,"##rym":5067,"##ptum":5068,"conting":5069,"virtutum":5070,"earum":5071,"##ulari":5072,"injur":5073,"compar":5074,"aestim":5075,"##aquam":5076,"##38":5077,"invicem":5078,"cit":5079,"##eram":5080,"##36":5081,"##anter":5082,"##iciis":5083,"commod":5084,"##hi":5085,"conss":5086,"semet":5087,"fidelibus":5088,"genere":5089,"32":5090,"vidit":5091,"##ivi":5092,"tamquam":5093,"did":5094,"##abili":5095,"salutis":5096,"orn":5097,"tempora":5098,"quondam":5099,"octav":5100,"semel":5101,"elab":5102,"septentr":5103,"aliam":5104,"aeternum":5105,"##39":5106,"dicimus":5107,"rot":5108,"poterat":5109,"##inti":5110,"invid":5111,"depr":5112,"##erimus":5113,"alibi":5114,"gregorius":5115,"epistolam":5116,"au":5117,"##land":5118,"monte":5119,"expon":5120,"##xa":5121,"horum":5122,"templum":5123,"##itit":5124,"##ase":5125,"##rex":5126,"pron":5127,"bod":5128,"cœ":5129,"marg":5130,"vatic":5131,"gent":5132,"fraud":5133,"videntur":5134,"##eritis":5135,"ulpianus":5136,"debere":5137,"explic":5138,"##bertus":5139,"patres":5140,"matr":5141,"##rehens":5142,"rub":5143,"pror":5144,"##ibile":5145,"nupt":5146,"quer":5147,"exaud":5148,"##58":5149,"jerusalem":5150,"##icit":5151,"xl":5152,"cing":5153,"##ala":5154,"verbi":5155,"veritate":5156,"occult":5157,"jan":5158,"##atium":5159,"prior":5160,"bra":5161,"has":5162,"##uus":5163,"occurr":5164,"acced":5165,"pe":5166,"attend":5167,"debent":5168,"prope":5169,"##uat":5170,"pace":5171,"bab":5172,"justific":5173,"corpora":5174,"fall":5175,"##44":5176,"nota":5177,"alp":5178,"maii":5179,"##ertum":5180,"##hort":5181,"tre":5182,"##illum":5183,"maled":5184,"obsc":5185,"conjug":5186,"scr":5187,"##echn":5188,"ordo":5189,"plant":5190,"##ca":5191,"particip":5192,"##quir":5193,"indict":5194,"condic":5195,"patrum":5196,"bono":5197,"pu":5198,"humana":5199,"##uos":5200,"oblig":5201,"credit":5202,"totam":5203,"febru":5204,"nicola":5205,"discretiva":5206,"##56":5207,"##onensis":5208,"##man":5209,"pax":5210,"basil":5211,"##issum":5212,"aprilis":5213,"surg":5214,"operis":5215,"haud":5216,"injus":5217,"##uctus":5218,"opp":5219,"terris":5220,"thesa":5221,"antea":5222,"formam":5223,"##atoribus":5224,"##etus":5225,"##rit":5226,"alexander":5227,"ecclesiis":5228,"secum":5229,"cern":5230,"civitas":5231,"contempl":5232,"califor":5233,"facti":5234,"captiv":5235,"lx":5236,"evangelium":5237,"nud":5238,"##eriis":5239,"vener":5240,"justitiae":5241,"nequaquam":5242,"cath":5243,"nonnull":5244,"requir":5245,"gentibus":5246,"##endos":5247,"##piter":5248,"burg":5249,"obtin":5250,"carolus":5251,"##ren":5252,"##iarch":5253,"malo":5254,"lacrym":5255,"pel":5256,"manduc":5257,"contig":5258,"procur":5259,"##undum":5260,"petit":5261,"##idis":5262,"##ας":5263,"lugd":5264,"divinae":5265,"mit":5266,"condem":5267,"duodecim":5268,"agit":5269,"cognov":5270,"##atia":5271,"sacerdos":5272,"abbati":5273,"vocatur":5274,"##isci":5275,"##ove":5276,"##aldus":5277,"testes":5278,"##arus":5279,"consist":5280,"##rexit":5281,"##asset":5282,"##cumque":5283,"aem":5284,"vigil":5285,"##ule":5286,"sustin":5287,"dubit":5288,"##inat":5289,"##59":5290,"concilio":5291,"claus":5292,"adven":5293,"volumus":5294,"##elis":5295,"princeps":5296,"##ierunt":5297,"umb":5298,"cav":5299,"jug":5300,"calum":5301,"multiplic":5302,"indulg":5303,"fratrem":5304,"quar":5305,"neglig":5306,"procul":5307,"volupt":5308,"##ry":5309,"##48":5310,"scientia":5311,"habemus":5312,"magnific":5313,"##endae":5314,"libris":5315,"insuper":5316,"ara":5317,"bis":5318,"##riae":5319,"matris":5320,"leo":5321,"purg":5322,"##fact":5323,"malis":5324,"romanorum":5325,"retin":5326,"sanctific":5327,"valent":5328,"defunct":5329,"modis":5330,"fortasse":5331,"lim":5332,"interim":5333,"trah":5334,"solemn":5335,"media":5336,"numerus":5337,"institutum":5338,"##su":5339,"bi":5340,"universitatis":5341,"##rari":5342,"##aei":5343,"dirig":5344,"insid":5345,"tabern":5346,"##emp":5347,"centum":5348,"eu":5349,"##essum":5350,"alum":5351,"##ka":5352,"transl":5353,"org":5354,"techn":5355,"##escere":5356,"##idae":5357,"provinciae":5358,"fe":5359,"##anim":5360,"prem":5361,"##ulta":5362,"laur":5363,"##ratur":5364,"bello":5365,"##ive":5366,"consumm":5367,"huiusmodi":5368,"haered":5369,"foederat":5370,"spons":5371,"job":5372,"##esn":5373,"habetur":5374,"revert":5375,"##ienter":5376,"divit":5377,"exsult":5378,"##bo":5379,"##ittere":5380,"sabb":5381,"augustinus":5382,"ecclesiarum":5383,"##ellis":5384,"comment":5385,"##sch":5386,"##ares":5387,"possint":5388,"##inceps":5389,"uniuer":5390,"interc":5391,"sepult":5392,"##ront":5393,"ox":5394,"##icti":5395,"accipere":5396,"scand":5397,"quisque":5398,"fructum":5399,"vestri":5400,"futuris":5401,"solis":5402,"##ularum":5403,"resc":5404,"##υτ":5405,"##aeus":5406,"cluniac":5407,"##77":5408,"##erti":5409,"pietatis":5410,"##ην":5411,"##itatum":5412,"nata":5413,"multos":5414,"quinqu":5415,"videatur":5416,"##atenus":5417,"lumen":5418,"bonus":5419,"initio":5420,"joann":5421,"heres":5422,"##ical":5423,"##queb":5424,"##uran":5425,"ele":5426,"conspectu":5427,"##utis":5428,"uer":5429,"aa":5430,"##ensum":5431,"hy":5432,"##aro":5433,"sug":5434,"##quisque":5435,"schol":5436,"nostre":5437,"##ratio":5438,"##her":5439,"principalis":5440,"suav":5441,"virtutis":5442,"aeterna":5443,"##arentur":5444,"infid":5445,"memoria":5446,"spe":5447,"adulter":5448,"regum":5449,"primi":5450,"nonne":5451,"exemplo":5452,"filiorum":5453,"angeli":5454,"xviii":5455,"abraham":5456,"dignum":5457,"##imae":5458,"loca":5459,"##eti":5460,"dext":5461,"oratio":5462,"charitas":5463,"collocatio":5464,"##55":5465,"prosper":5466,"utrumque":5467,"eamdem":5468,"communi":5469,"quadam":5470,"nit":5471,"##ibilis":5472,"martini":5473,"##icumque":5474,"##idum":5475,"huc":5476,"mir":5477,"magnus":5478,"##orio":5479,"cub":5480,"datur":5481,"inquam":5482,"nativ":5483,"##abile":5484,"praecept":5485,"deinceps":5486,"##ingu":5487,"lap":5488,"martii":5489,"quanta":5490,"59":5491,"##ych":5492,"##idere":5493,"##abantur":5494,"##cunque":5495,"patriarch":5496,"##46":5497,"condemn":5498,"carc":5499,"pref":5500,"scribit":5501,"##ariam":5502,"##iscus":5503,"pyrenae":5504,"##berti":5505,"##amin":5506,"##ardo":5507,"sedem":5508,"ced":5509,"prol":5510,"qual":5511,"joannis":5512,"##abus":5513,"##illo":5514,"habens":5515,"justus":5516,"archiepiscopus":5517,"cardinalis":5518,"tales":5519,"propon":5520,"##onae":5521,"special":5522,"intro":5523,"##σι":5524,"crucif":5525,"##plex":5526,"ubique":5527,"58":5528,"major":5529,"sermone":5530,"##49":5531,"dictus":5532,"sensu":5533,"nimis":5534,"##undus":5535,"facto":5536,"##ocin":5537,"##entii":5538,"##andis":5539,"##ilus":5540,"commemor":5541,"studio":5542,"veni":5543,"decern":5544,"catholica":5545,"lav":5546,"fratern":5547,"majest":5548,"persever":5549,"nullam":5550,"ment":5551,"hug":5552,"mundus":5553,"disput":5554,"##fl":5555,"mons":5556,"signa":5557,"forn":5558,"usum":5559,"voluerit":5560,"spem":5561,"remed":5562,"ruf":5563,"afr":5564,"##elle":5565,"insula":5566,"##une":5567,"cro":5568,"episcoporum":5569,"corb":5570,"imped":5571,"comitis":5572,"ej":5573,"vulgo":5574,"xvii":5575,"hæ":5576,"persequ":5577,"dispens":5578,"##anct":5579,"47":5580,"##abis":5581,"1996":5582,"dioc":5583,"appet":5584,"poena":5585,"dono":5586,"salom":5587,"locutus":5588,"saep":5589,"sanguinem":5590,"theodos":5591,"pinac":5592,"cic":5593,"dot":5594,"spl":5595,"prep":5596,"unusquisque":5597,"cives":5598,"textus":5599,"suffrag":5600,"solet":5601,"calc":5602,"interf":5603,"timore":5604,"prael":5605,"sedes":5606,"max":5607,"poenitentiam":5608,"##etae":5609,"##pto":5610,"va":5611,"diligenter":5612,"religionis":5613,"liv":5614,"##aniae":5615,"charitatis":5616,"contemn":5617,"decembris":5618,"##ulerunt":5619,"##urt":5620,"sepulc":5621,"56":5622,"##ræ":5623,"doctrina":5624,"dubio":5625,"vestro":5626,"matrimon":5627,"communic":5628,"proprium":5629,"habeant":5630,"homini":5631,"ulla":5632,"##onibus":5633,"vind":5634,"##45":5635,"fuerant":5636,"arma":5637,"tri":5638,"pud":5639,"978":5640,"pi":5641,"eisdem":5642,"quoc":5643,"##oraverunt":5644,"dioecesis":5645,"clari":5646,"molest":5647,"##gen":5648,"contum":5649,"castrum":5650,"##onius":5651,"imperatoris":5652,"milites":5653,"utra":5654,"##αρ":5655,"abl":5656,"pinacotheca":5657,"omnipotens":5658,"sacerdotes":5659,"aliquam":5660,"##orp":5661,"repl":5662,"scire":5663,"##irent":5664,"##propter":5665,"hora":5666,"##aculum":5667,"servitut":5668,"##iores":5669,"iub":5670,"##riusque":5671,"intelligi":5672,"exalt":5673,"##37":5674,"quicquid":5675,"intent":5676,"temper":5677,"60":5678,"fideles":5679,"ioseph":5680,"consensu":5681,"columb":5682,"##eras":5683,"quum":5684,"exor":5685,"resist":5686,"pun":5687,"##otio":5688,"insigne":5689,"##pectus":5690,"anathem":5691,"cord":5692,"perdit":5693,"noli":5694,"convenit":5695,"fret":5696,"caetera":5697,"deest":5698,"ster":5699,"nolite":5700,"##psit":5701,"splend":5702,"fratris":5703,"finis":5704,"dixerunt":5705,"coeli":5706,"litterarum":5707,"præc":5708,"##pir":5709,"recogn":5710,"curam":5711,"##enob":5712,"concilium":5713,"canc":5714,"ww":5715,"kar":5716,"sese":5717,"substantia":5718,"vivere":5719,"antioch":5720,"corda":5721,"##erumque":5722,"patern":5723,"marit":5724,"codd":5725,"mach":5726,"percuss":5727,"auctores":5728,"crud":5729,"trig":5730,"aquam":5731,"##ratum":5732,"virtutes":5733,"vallis":5734,"##ki":5735,"##utem":5736,"exercitus":5737,"talia":5738,"habes":5739,"tyran":5740,"praesenti":5741,"metu":5742,"angelus":5743,"tribu":5744,"octobris":5745,"##rav":5746,"##odum":5747,"permitt":5748,"amer":5749,"##mann":5750,"xix":5751,"##etiae":5752,"fecerit":5753,"record":5754,"nox":5755,"##cr":5756,"sh":5757,"posuit":5758,"chron":5759,"remiss":5760,"ferre":5761,"##ripti":5762,"praesc":5763,"dur":5764,"magni":5765,"monachi":5766,"utriusque":5767,"pact":5768,"##ila":5769,"##averat":5770,"proced":5771,"ephes":5772,"dicentes":5773,"dissim":5774,"fidelis":5775,"foederatarum":5776,"profecto":5777,"pecuniam":5778,"ciu":5779,"voluntas":5780,"fundam":5781,"videb":5782,"ram":5783,"vivi":5784,"triumph":5785,"numquid":5786,"##ellam":5787,"saltem":5788,"stipul":5789,"saecula":5790,"bur":5791,"fland":5792,"tria":5793,"praesentia":5794,"##ectis":5795,"auxilium":5796,"##anorum":5797,"του":5798,"perfic":5799,"##ixit":5800,"comitatu":5801,"##ford":5802,"apostolicam":5803,"subscripsi":5804,"tet":5805,"new":5806,"70":5807,"partic":5808,"oec":5809,"##inarum":5810,"men":5811,"finit":5812,"percip":5813,"##ertim":5814,"valet":5815,"vim":5816,"fu":5817,"docet":5818,"confus":5819,"leges":5820,"viginti":5821,"quotidie":5822,"deprec":5823,"##script":5824,"var":5825,"##ci":5826,"linguae":5827,"ads":5828,"prout":5829,"vivit":5830,"quarum":5831,"pene":5832,"necessaria":5833,"##az":5834,"eth":5835,"nor":5836,"servorum":5837,"cj":5838,"postmodum":5839,"sensum":5840,"##eccles":5841,"##mat":5842,"##eruntur":5843,"orbis":5844,"aust":5845,"##issimam":5846,"##olym":5847,"terrarum":5848,"##ivam":5849,"1995":5850,"irr":5851,"asper":5852,"animum":5853,"##99":5854,"silv":5855,"robor":5856,"tale":5857,"credimus":5858,"##31":5859,"##abilem":5860,"pati":5861,"libera":5862,"medic":5863,"martyr":5864,"hol":5865,"scriptores":5866,"fiunt":5867,"##ondit":5868,"pign":5869,"confer":5870,"saeculum":5871,"www":5872,"haeres":5873,"spes":5874,"stult":5875,"##ton":5876,"conu":5877,"rig":5878,"##pa":5879,"resurg":5880,"##88":5881,"rod":5882,"potestas":5883,"##undi":5884,"coelestis":5885,"metropolit":5886,"prorsus":5887,"publicae":5888,"vehem":5889,"##uria":5890,"propriet":5891,"salute":5892,"##positum":5893,"##oto":5894,"fulg":5895,"vestim":5896,"jura":5897,"specie":5898,"##antiae":5899,"fractiones":5900,"joseph":5901,"##66":5902,"dicebat":5903,"novembris":5904,"nostros":5905,"ros":5906,"successoribus":5907,"##imam":5908,"trinitatis":5909,"excell":5910,"incarnationis":5911,"##uth":5912,"##prop":5913,"##uto":5914,"meritis":5915,"defin":5916,"dispon":5917,"42":5918,"chr":5919,"sta":5920,"jun":5921,"sid":5922,"consent":5923,"michael":5924,"miles":5925,"audit":5926,"maris":5927,"hodi":5928,"æter":5929,"ligeris":5930,"imit":5931,"quoti":5932,"abbatem":5933,"suspic":5934,"erga":5935,"##abuntur":5936,"vas":5937,"facie":5938,"##egit":5939,"41":5940,"juda":5941,"aliquot":5942,"##53":5943,"intus":5944,"blas":5945,"##ema":5946,"aquae":5947,"ach":5948,"mentem":5949,"sort":5950,"plane":5951,"loqui":5952,"induc":5953,"##itos":5954,"front":5955,"datab":5956,"nich":5957,"annunt":5958,"prav":5959,"quapropter":5960,"sinist":5961,"libertatem":5962,"ministri":5963,"minor":5964,"database":5965,"adol":5966,"videri":5967,"quaec":5968,"numquam":5969,"pup":5970,"serp":5971,"mane":5972,"##iliis":5973,"februarii":5974,"pect":5975,"##uros":5976,"jus":5977,"francorum":5978,"lus":5979,"diabolus":5980,"pluribus":5981,"millia":5982,"##ujus":5983,"revers":5984,"exprim":5985,"matron":5986,"audire":5987,"80":5988,"usu":5989,"psalmus":5990,"##eremus":5991,"universa":5992,"rhod":5993,"mendac":5994,"ni":5995,"personam":5996,"londin":5997,"festi":5998,"tib":5999,"testamentum":6000,"diut":6001,"praecipue":6002,"are":6003,"discipulis":6004,"sugg":6005,"lup":6006,"futura":6007,"adf":6008,"##ett":6009,"ora":6010,"god":6011,"propriis":6012,"germaniae":6013,"provoc":6014,"instrum":6015,"impon":6016,"lectio":6017,"plerumque":6018,"gloriae":6019,"dona":6020,"##eto":6021,"##73":6022,"fecerunt":6023,"pretios":6024,"charitate":6025,"iulii":6026,"guli":6027,"nig":6028,"sect":6029,"##ong":6030,"##evit":6031,"adjut":6032,"aegy":6033,"##ερ":6034,"walter":6035,"praeced":6036,"presbiter":6037,"##uncti":6038,"deser":6039,"versus":6040,"thomas":6041,"georgius":6042,"##inianus":6043,"liqu":6044,"iura":6045,"codex":6046,"talem":6047,"##ary":6048,"cassini":6049,"septembris":6050,"judaeorum":6051,"##oper":6052,"apostolis":6053,"iudicium":6054,"isto":6055,"##escat":6056,"praeses":6057,"latine":6058,"scriptor":6059,"nuncup":6060,"pict":6061,"##oro":6062,"subi":6063,"credere":6064,"sermonem":6065,"praesens":6066,"romam":6067,"episcopos":6068,"utraque":6069,"cinguli":6070,"viris":6071,"judaei":6072,"disper":6073,"virginis":6074,"loth":6075,"##ilitate":6076,"suscept":6077,"prepos":6078,"contempt":6079,"illumin":6080,"distr":6081,"exercitu":6082,"##ariorum":6083,"idone":6084,"vocat":6085,"##iderit":6086,"supradict":6087,"istud":6088,"termin":6089,"tang":6090,"diversis":6091,"montis":6092,"hact":6093,"mecum":6094,"istis":6095,"aeternam":6096,"##arunt":6097,"memoriam":6098,"eug":6099,"card":6100,"imperatores":6101,"ecclesias":6102,"placuit":6103,"amic":6104,"differ":6105,"virgo":6106,"##undo":6107,"testamento":6108,"marie":6109,"##ramus":6110,"##eld":6111,"hebra":6112,"animarum":6113,"1993":6114,"respons":6115,"##iaco":6116,"posteri":6117,"##98":6118,"##itter":6119,"adjuv":6120,"memoriae":6121,"##erg":6122,"principis":6123,"castra":6124,"ole":6125,"ignem":6126,"parum":6127,"externus":6128,"egreg":6129,"culpa":6130,"fun":6131,"tuorum":6132,"55":6133,"54":6134,"bad":6135,"##ensa":6136,"meorum":6137,"wil":6138,"precibus":6139,"##32":6140,"foeder":6141,"terre":6142,"civitates":6143,"perg":6144,"##elix":6145,"ans":6146,"dicti":6147,"##ou":6148,"indictione":6149,"merced":6150,"introd":6151,"mortuis":6152,"jul":6153,"ideoque":6154,"suscepit":6155,"pacific":6156,"##ham":6157,"tar":6158,"invoc":6159,"mancip":6160,"recept":6161,"##onte":6162,"reperti":6163,"##issis":6164,"præs":6165,"amor":6166,"haberet":6167,"##ipp":6168,"##aciter":6169,"defend":6170,"justum":6171,"sæc":6172,"monachis":6173,"deput":6174,"##unda":6175,"hieronymus":6176,"vestig":6177,"##ly":6178,"hactenus":6179,"oeconom":6180,"transe":6181,"acta":6182,"##ypti":6183,"principio":6184,"technologiae":6185,"belli":6186,"excel":6187,"assign":6188,"cent":6189,"nasa":6190,"solo":6191,"necnon":6192,"##ianae":6193,"deduc":6194,"inop":6195,"dicam":6196,"ez":6197,"##ebam":6198,"frig":6199,"lucem":6200,"##itibus":6201,"casu":6202,"summo":6203,"foris":6204,"##eria":6205,"##erebat":6206,"approb":6207,"parc":6208,"fals":6209,"##anas":6210,"sapientiae":6211,"novit":6212,"meos":6213,"velle":6214,"invenit":6215,"gaudium":6216,"##iare":6217,"hym":6218,"mom":6219,"operum":6220,"##acensis":6221,"mandatum":6222,"##lio":6223,"matrem":6224,"certam":6225,"pecunia":6226,"retrib":6227,"##icibus":6228,"inclin":6229,"aliquem":6230,"xxi":6231,"medium":6232,"##96":6233,"##ocrat":6234,"pontif":6235,"humili":6236,"##iendum":6237,"##ay":6238,"tribun":6239,"iudicio":6240,"small":6241,"numer":6242,"rich":6243,"quesn":6244,"servum":6245,"californi":6246,"declin":6247,"malign":6248,"donum":6249,"reprob":6250,"dan":6251,"evid":6252,"##phem":6253,"litterae":6254,"separ":6255,"elem":6256,"ascendit":6257,"colon":6258,"public":6259,"pastor":6260,"camer":6261,"nonnulli":6262,"senatus":6263,"sinc":6264,"monum":6265,"perpetuo":6266,"oratione":6267,"incipit":6268,"##otum":6269,"nostras":6270,"bonae":6271,"intelleg":6272,"legati":6273,"totus":6274,"fluv":6275,"sempiter":6276,"chal":6277,"invis":6278,"habentes":6279,"obj":6280,"divid":6281,"circiter":6282,"perturb":6283,"proinde":6284,"paris":6285,"##essi":6286,"petrum":6287,"editio":6288,"seq":6289,"legimus":6290,"dion":6291,"1994":6292,"intend":6293,"legatus":6294,"later":6295,"octo":6296,"##72":6297,"affirm":6298,"ferv":6299,"apoc":6300,"hugo":6301,"eboraci":6302,"restitut":6303,"fore":6304,"##itania":6305,"abbat":6306,"promitt":6307,"##erio":6308,"##eder":6309,"predict":6310,"fieret":6311,"##xxx":6312,"body":6313,"##inorum":6314,"##anam":6315,"similitudinem":6316,"presentibus":6317,"##issimae":6318,"causis":6319,"##itionis":6320,"igne":6321,"imperio":6322,"##hen":6323,"porta":6324,"##arab":6325,"necessitate":6326,"pertinere":6327,"vinum":6328,"reman":6329,"pronunt":6330,"mess":6331,"##usa":6332,"##iaconi":6333,"jpl":6334,"fratri":6335,"qualis":6336,"tuos":6337,"##idia":6338,"factionis":6339,"##istae":6340,"##ll":6341,"##urp":6342,"panem":6343,"decre":6344,"##ecto":6345,"xxii":6346,"videt":6347,"##tam":6348,"sacramentum":6349,"maur":6350,"dani":6351,"##eda":6352,"##ientis":6353,"benedictionem":6354,"zel":6355,"##hab":6356,"cong":6357,"asser":6358,"sanguinis":6359,"californiense":6360,"temer":6361,"march":6362,"imb":6363,"initium":6364,"elaboraverunt":6365,"munus":6366,"annorum":6367,"noct":6368,"sue":6369,"##rantur":6370,"sis":6371,"immort":6372,"##rie":6373,"solidos":6374,"principum":6375,"caesar":6376,"veniam":6377,"quosdam":6378,"virgin":6379,"##enam":6380,"##eru":6381,"municipii":6382,"praecepta":6383,"animus":6384,"sita":6385,"mediol":6386,"angelorum":6387,"##nit":6388,"desper":6389,"archidiacon":6390,"rud":6391,"##ler":6392,"##au":6393,"##prom":6394,"patet":6395,"figura":6396,"auri":6397,"salvatoris":6398,"##itare":6399,"##let":6400,"deg":6401,"##estium":6402,"dicatur":6403,"fortun":6404,"##elmi":6405,"##ullius":6406,"vari":6407,"##udum":6408,"langu":6409,"osc":6410,"plena":6411,"archiepiscopo":6412,"impos":6413,"inm":6414,"senti":6415,"ful":6416,"testamenti":6417,"##otus":6418,"titulo":6419,"talibus":6420,"eat":6421,"lov":6422,"placet":6423,"##thag":6424,"##idio":6425,"##ages":6426,"genera":6427,"prædic":6428,"montes":6429,"cn":6430,"##lem":6431,"flav":6432,"puto":6433,"##onensi":6434,"compell":6435,"descendit":6436,"possessiones":6437,"##cum":6438,"##ilitatem":6439,"describ":6440,"domni":6441,"##eng":6442,"similis":6443,"confid":6444,"##odi":6445,"postrem":6446,"verborum":6447,"##erim":6448,"##ole":6449,"finium":6450,"destin":6451,"enc":6452,"educ":6453,"judicii":6454,"liter":6455,"##opt":6456,"##amini":6457,"spon":6458,"##ortun":6459,"repertae":6460,"proprio":6461,"possessionem":6462,"dicendum":6463,"##venit":6464,"sod":6465,"taxa":6466,"##uel":6467,"##71":6468,"##nes":6469,"incon":6470,"militum":6471,"juste":6472,"londinii":6473,"mere":6474,"palm":6475,"##oque":6476,"##erni":6477,"##mon":6478,"manifestum":6479,"nil":6480,"2014":6481,"obv":6482,"romanus":6483,"##ienti":6484,"praesertim":6485,"cito":6486,"rursum":6487,"cathed":6488,"pend":6489,"##diu":6490,"##des":6491,"virtutibus":6492,"fast":6493,"iunii":6494,"specialiter":6495,"divino":6496,"sede":6497,"##52":6498,"libere":6499,"eus":6500,"##equ":6501,"obsec":6502,"viros":6503,"graece":6504,"europae":6505,"electus":6506,"siue":6507,"##age":6508,"##igen":6509,"##68":6510,"istam":6511,"vendit":6512,"##uitu":6513,"catholicae":6514,"compon":6515,"##inensis":6516,"adim":6517,"##eperat":6518,"quisquis":6519,"numerum":6520,"1990":6521,"genit":6522,"glorific":6523,"diaboli":6524,"##ote":6525,"mulieres":6526,"pontifex":6527,"vetus":6528,"sacrificium":6529,"##isus":6530,"eleemos":6531,"quarta":6532,"##erique":6533,"motus":6534,"viribus":6535,"palat":6536,"epistolae":6537,"aurum":6538,"##erri":6539,"##eatis":6540,"firma":6541,"fiduc":6542,"causas":6543,"gar":6544,"propinqu":6545,"constantinopoli":6546,"john":6547,"publice":6548,"venerabilis":6549,"quarto":6550,"##aldi":6551,"##za":6552,"coep":6553,"animas":6554,"68":6555,"##eis":6556,"##raes":6557,"##ycl":6558,"##agog":6559,"potentia":6560,"secur":6561,"concilii":6562,"moribus":6563,"##riam":6564,"##rarum":6565,"auctore":6566,"##ineat":6567,"legibus":6568,"##iebat":6569,"edd":6570,"resurrectionem":6571,"empt":6572,"angelis":6573,"##leg":6574,"aliquod":6575,"fornic":6576,"append":6577,"100":6578,"##otis":6579,"88":6580,"allel":6581,"##47":6582,"xli":6583,"possent":6584,"seg":6585,"##utio":6586,"robertus":6587,"nihilominus":6588,"montem":6589,"##atore":6590,"angust":6591,"legi":6592,"##uin":6593,"codice":6594,"##estis":6595,"vicidata":6596,"librum":6597,"turp":6598,"moyses":6599,"appellantur":6600,"leod":6601,"comed":6602,"##ensibus":6603,"180":6604,"90":6605,"nescio":6606,"quadraginta":6607,"triginta":6608,"##vo":6609,"##ionalis":6610,"aquis":6611,"avar":6612,"dominicae":6613,"expedit":6614,"reb":6615,"1992":6616,"occasione":6617,"requi":6618,"suscep":6619,"##abiles":6620,"plag":6621,"cancell":6622,"##utione":6623,"futuro":6624,"##isso":6625,"mandata":6626,"ire":6627,"colb":6628,"##ientium":6629,"faceret":6630,"demum":6631,"plan":6632,"charitatem":6633,"humanae":6634,"juven":6635,"aliae":6636,"juv":6637,"dia":6638,"hospit":6639,"exact":6640,"auctoritas":6641,"interi":6642,"composit":6643,"volo":6644,"##42":6645,"dari":6646,"auctoritatem":6647,"sang":6648,"imaginem":6649,"##roque":6650,"##ai":6651,"##acc":6652,"moy":6653,"iohannes":6654,"myth":6655,"curr":6656,"##amb":6657,"stephanus":6658,"lun":6659,"babyl":6660,"cst":6661,"vad":6662,"testatur":6663,"frustra":6664,"ax":6665,"panis":6666,"orationem":6667,"##idus":6668,"laudem":6669,"maxima":6670,"consult":6671,"perhib":6672,"usurp":6673,"frequenter":6674,"nempe":6675,"confund":6676,"commut":6677,"##orsum":6678,"eng":6679,"##43":6680,"appellatur":6681,"##itavit":6682,"nef":6683,"cyr":6684,"multorum":6685,"eh":6686,"##utionem":6687,"sapientiam":6688,"paroch":6689,"alumni":6690,"agitur":6691,"prophetam":6692,"interpretatur":6693,"##51":6694,"##illis":6695,"##enna":6696,"dominica":6697,"dicata":6698,"apoll":6699,"nosc":6700,"absit":6701,"incend":6702,"latere":6703,"franciscus":6704,"sanctam":6705,"##acta":6706,"##itui":6707,"goth":6708,"actio":6709,"##ogen":6710,"exped":6711,"finitima":6712,"baldu":6713,"##fred":6714,"##ose":6715,"monachorum":6716,"##ence":6717,"blasphem":6718,"apt":6719,"capitulo":6720,"syst":6721,"volum":6722,"tecum":6723,"peccatores":6724,"depos":6725,"primis":6726,"ecclesiæ":6727,"abbate":6728,"1991":6729,"illuc":6730,"diaconus":6731,"##ah":6732,"dictis":6733,"missa":6734,"express":6735,"aliena":6736,"salub":6737,"trid":6738,"##ebo":6739,"##inn":6740,"##cl":6741,"subsequ":6742,"puls":6743,"diei":6744,"solent":6745,"sacris":6746,"##ars":6747,"propositum":6748,"consue":6749,"subm":6750,"regim":6751,"constituit":6752,"labore":6753,"oculi":6754,"testimonio":6755,"paucis":6756,"##ricus":6757,"##ht":6758,"##erii":6759,"praedict":6760,"refert":6761,"best":6762,"judaeis":6763,"christiani":6764,"adduc":6765,"access":6766,"passus":6767,"consilia":6768,"praesentis":6769,"##aric":6770,"declar":6771,"exinde":6772,"romano":6773,"seru":6774,"##liter":6775,"rust":6776,"deut":6777,"##andos":6778,"ecclesiastica":6779,"##57":6780,"##acia":6781,"academ":6782,"prou":6783,"reform":6784,"doctrinam":6785,"benedictus":6786,"veluti":6787,"istius":6788,"saepius":6789,"tel":6790,"infern":6791,"pelag":6792,"##vol":6793,"##me":6794,"valeat":6795,"luce":6796,"##69":6797,"##riet":6798,"picta":6799,"munera":6800,"condita":6801,"obiit":6802,"elev":6803,"gesta":6804,"potestatis":6805,"dubium":6806,"quadrages":6807,"aetate":6808,"septu":6809,"ce":6810,"dionys":6811,"evangelii":6812,"conviv":6813,"##idam":6814,"certum":6815,"personae":6816,"##plici":6817,"##icia":6818,"##andiu":6819,"abj":6820,"vitia":6821,"passionis":6822,"##ativ":6823,"crucifix":6824,"##over":6825,"tenet":6826,"pre":6827,"armis":6828,"interdum":6829,"reced":6830,"stet":6831,"praeterit":6832,"aquil":6833,"gravi":6834,"elemos":6835,"voluntatis":6836,"increp":6837,"altero":6838,"##ology":6839,"hostes":6840,"##undem":6841,"##actus":6842,"tradidit":6843,"visc":6844,"##ilitas":6845,"##ott":6846,"##iendo":6847,"aeternae":6848,"by":6849,"##quod":6850,"insin":6851,"process":6852,"plurimum":6853,"alleg":6854,"intelligitur":6855,"exhort":6856,"dixerit":6857,"hebrae":6858,"abstin":6859,"alioqu":6860,"conscientia":6861,"integrum":6862,"##aph":6863,"argu":6864,"##dae":6865,"inu":6866,"120":6867,"divinis":6868,"gulielmus":6869,"guill":6870,"lxxx":6871,"torm":6872,"sib":6873,"recens":6874,"arab":6875,"teste":6876,"history":6877,"pervers":6878,"munere":6879,"ezech":6880,"cos":6881,"filiam":6882,"roma":6883,"psalmo":6884,"isid":6885,"distrib":6886,"leonis":6887,"affl":6888,"ambig":6889,"aetatis":6890,"diversa":6891,"εν":6892,"humani":6893,"marcus":6894,"pervenit":6895,"ventur":6896,"tantummodo":6897,"##orn":6898,"diligit":6899,"apparuit":6900,"##41":6901,"common":6902,"constituta":6903,"line":6904,"familiae":6905,"iram":6906,"iiii":6907,"brun":6908,"missus":6909,"proprie":6910,"speciem":6911,"euseb":6912,"diabolo":6913,"##itatus":6914,"prophetae":6915,"pedibus":6916,"iosephus":6917,"quamquam":6918,"praemium":6919,"eandem":6920,"##ics":6921,"quisquam":6922,"pens":6923,"##rantes":6924,"animad":6925,"fideliter":6926,"apparet":6927,"##ensus":6928,"coelorum":6929,"poenam":6930,"##itatur":6931,"phys":6932,"monachus":6933,"manet":6934,"sion":6935,"fatig":6936,"tuas":6937,"malorum":6938,"nuper":6939,"aures":6940,"kalendas":6941,"habeo":6942,"intelligere":6943,"tenebris":6944,"##itatione":6945,"creatura":6946,"##ker":6947,"colum":6948,"divinitatis":6949,"meas":6950,"##mis":6951,"expos":6952,"##lia":6953,"aperte":6954,"resurrectionis":6955,"praen":6956,"cf":6957,"##eantur":6958,"frum":6959,"erub":6960,"##aturus":6961,"circumcis":6962,"subito":6963,"normann":6964,"studios":6965,"duximus":6966,"committ":6967,"##ace":6968,"coenob":6969,"xxv":6970,"titulus":6971,"presentes":6972,"ceteris":6973,"pond":6974,"certa":6975,"##erium":6976,"discipuli":6977,"gre":6978,"sacr":6979,"##issem":6980,"##ogra":6981,"##picit":6982,"teg":6983,"nunquid":6984,"proj":6985,"reput":6986,"pretium":6987,"advoc":6988,"assid":6989,"esto":6990,"peritus":6991,"geographia":6992,"misericordiae":6993,"inimici":6994,"etiamsi":6995,"inspect":6996,"satur":6997,"vivific":6998,"nover":6999,"temporum":7000,"##μεν":7001,"verus":7002,"eugen":7003,"69":7004,"apostolum":7005,"##terius":7006,"invenitur":7007,"##aribus":7008,"sigilli":7009,"##ulph":7010,"πρ":7011,"prost":7012,"templo":7013,"##ennae":7014,"misc":7015,"##65":7016,"obliv":7017,"universis":7018,"oves":7019,"2013":7020,"graeco":7021,"##ianis":7022,"myr":7023,"unquam":7024,"actionem":7025,"augustus":7026,"ies":7027,"festin":7028,"codices":7029,"##sti":7030,"deos":7031,"iap":7032,"78":7033,"veniens":7034,"benedicti":7035,"##iales":7036,"antiqua":7037,"matronae":7038,"quicumque":7039,"martyrum":7040,"gens":7041,"##men":7042,"##aque":7043,"festiv":7044,"sord":7045,"##ratione":7046,"affectu":7047,"mediet":7048,"novo":7049,"bert":7050,"trem":7051,"tabernac":7052,"sel":7053,"perv":7054,"praepos":7055,"circumd":7056,"operatur":7057,"decet":7058,"pascha":7059,"##ungit":7060,"##ecus":7061,"preces":7062,"beneficium":7063,"arist":7064,"juli":7065,"scio":7066,"aegypti":7067,"##eratur":7068,"liberum":7069,"multitudo":7070,"debit":7071,"##ucta":7072,"cruce":7073,"iacobus":7074,"lep":7075,"velit":7076,"magnam":7077,"necessarium":7078,"##ardia":7079,"dicto":7080,"fons":7081,"coelis":7082,"annu":7083,"dicis":7084,"adventum":7085,"##alog":7086,"##cm":7087,"##yth":7088,"maior":7089,"scientiam":7090,"legatum":7091,"dierum":7092,"tempest":7093,"periculum":7094,"incred":7095,"hein":7096,"incom":7097,"dignitate":7098,"mores":7099,"pav":7100,"gradus":7101,"jact":7102,"##isa":7103,"aer":7104,"##uers":7105,"##iterit":7106,"creb":7107,"cypr":7108,"hyp":7109,"continuo":7110,"insulae":7111,"secundus":7112,"bac":7113,"inp":7114,"##iturus":7115,"##uls":7116,"##onium":7117,"suarum":7118,"comput":7119,"tertium":7120,"semen":7121,"philippus":7122,"patribus":7123,"dog":7124,"##πο":7125,"##mi":7126,"partim":7127,"laps":7128,"##itti":7129,"improb":7130,"duabus":7131,"idus":7132,"mirum":7133,"##ικ":7134,"illas":7135,"studium":7136,"##omen":7137,"regnante":7138,"cell":7139,"cerv":7140,"ric":7141,"hereditatem":7142,"interdict":7143,"temere":7144,"quattu":7145,"oce":7146,"vellet":7147,"adha":7148,"##oca":7149,"videbatur":7150,"##ilias":7151,"exod":7152,"stab":7153,"##deb":7154,"51":7155,"ludovicus":7156,"latina":7157,"synodo":7158,"scit":7159,"libenter":7160,"sl":7161,"visum":7162,"##ridus":7163,"amorem":7164,"antecess":7165,"fanum":7166,"libros":7167,"genuit":7168,"ham":7169,"videretur":7170,"praecepit":7171,"archiepiscopi":7172,"##be":7173,"clav":7174,"sacerdoti":7175,"##elius":7176,"pall":7177,"praedecess":7178,"operam":7179,"fideic":7180,"pontificatus":7181,"prist":7182,"romanum":7183,"επ":7184,"##tamen":7185,"contradic":7186,"tranqu":7187,"##oci":7188,"immo":7189,"##agn":7190,"helv":7191,"lan":7192,"##rump":7193,"resid":7194,"pertinentiis":7195,"##ulare":7196,"##ωι":7197,"deli":7198,"##dique":7199,"dedic":7200,"decima":7201,"mille":7202,"fines":7203,"##vir":7204,"innum":7205,"sacerdotum":7206,"iniur":7207,"##iosa":7208,"53":7209,"milia":7210,"uxore":7211,"hodiern":7212,"augustini":7213,"exempla":7214,"subl":7215,"debeant":7216,"servo":7217,"antonius":7218,"plerique":7219,"remig":7220,"##ετ":7221,"##icæ":7222,"imago":7223,"##ipso":7224,"comper":7225,"tenere":7226,"##uncta":7227,"praeceptum":7228,"civitatibus":7229,"reliqua":7230,"##ulfus":7231,"##ogall":7232,"facies":7233,"nobiscum":7234,"##uia":7235,"gladio":7236,"52":7237,"fol":7238,"membris":7239,"##andae":7240,"accid":7241,"pauperes":7242,"uobis":7243,"decimam":7244,"distinct":7245,"##ιν":7246,"redim":7247,"salus":7248,"itin":7249,"hae":7250,"quicunque":7251,"##icere":7252,"##erens":7253,"editis":7254,"clerici":7255,"sob":7256,"veli":7257,"nullatenus":7258,"simon":7259,"utroque":7260,"vetust":7261,"democrat":7262,"abscondit":7263,"##ως":7264,"fecisse":7265,"joannem":7266,"dignitatem":7267,"hd":7268,"uxoris":7269,"natur":7270,"mysterium":7271,"terras":7272,"debitum":7273,"##escunt":7274,"##esis":7275,"indust":7276,"reconc":7277,"inquir":7278,"uter":7279,"##ensu":7280,"immol":7281,"consuetudinem":7282,"inut":7283,"perp":7284,"lin":7285,"satisfact":7286,"##judic":7287,"hieros":7288,"capitis":7289,"nullius":7290,"juris":7291,"##oniensis":7292,"xxiii":7293,"##64":7294,"##anni":7295,"felix":7296,"pern":7297,"quaerit":7298,"1981":7299,"nepot":7300,"stephani":7301,"##mo":7302,"##inius":7303,"antiqui":7304,"perduc":7305,"decimo":7306,"grad":7307,"frider":7308,"uoc":7309,"faciet":7310,"reddere":7311,"lectionem":7312,"##achus":7313,"discretivam":7314,"veniat":7315,"personis":7316,"nicolaus":7317,"##alum":7318,"dura":7319,"##inia":7320,"tanti":7321,"erig":7322,"formid":7323,"##iacum":7324,"##positione":7325,"##ueret":7326,"sanctos":7327,"actione":7328,"ss":7329,"##item":7330,"sequuntur":7331,"##ner":7332,"##67":7333,"ardu":7334,"camb":7335,"salvator":7336,"fama":7337,"primam":7338,"contract":7339,"victoria":7340,"##ueris":7341,"adversum":7342,"apostolo":7343,"interfic":7344,"esc":7345,"iniquitatem":7346,"##ez":7347,"##emper":7348,"judæ":7349,"principibus":7350,"sanguis":7351,"##ruc":7352,"quinto":7353,"castig":7354,"cetera":7355,"singulos":7356,"cantu":7357,"bat":7358,"permaneat":7359,"##elmo":7360,"fecimus":7361,"depon":7362,"##95":7363,"omnim":7364,"venerunt":7365,"discord":7366,"bonos":7367,"undique":7368,"officialis":7369,"##quebatur":7370,"virgine":7371,"dignus":7372,"feria":7373,"morta":7374,"##cus":7375,"##entias":7376,"francogall":7377,"hostium":7378,"meruit":7379,"sciens":7380,"honoris":7381,"faciant":7382,"vidi":7383,"##ennium":7384,"infin":7385,"tantam":7386,"humilis":7387,"xxiv":7388,"##isco":7389,"##ald":7390,"fratre":7391,"##ein":7392,"##elam":7393,"admi":7394,"sard":7395,"principium":7396,"partis":7397,"veteres":7398,"##sitan":7399,"antist":7400,"##ulerit":7401,"presum":7402,"##ierit":7403,"municipio":7404,"carthag":7405,"57":7406,"ingressus":7407,"dej":7408,"digna":7409,"periculo":7410,"inimicos":7411,"dissol":7412,"protinus":7413,"##dom":7414,"##riter":7415,"contradict":7416,"posita":7417,"apostolos":7418,"ci":7419,"flumen":7420,"cras":7421,"timor":7422,"##63":7423,"reserv":7424,"humiliter":7425,"derel":7426,"agric":7427,"desiderium":7428,"##enia":7429,"pago":7430,"credo":7431,"##anos":7432,"molend":7433,"navig":7434,"ministerium":7435,"terrena":7436,"eleemosyn":7437,"virorum":7438,"land":7439,"##αλ":7440,"scientiae":7441,"wor":7442,"impiet":7443,"cordibus":7444,"praecl":7445,"carant":7446,"##erb":7447,"ducis":7448,"domest":7449,"facio":7450,"##entiæ":7451,"conqu":7452,"angliae":7453,"##tior":7454,"lutetiae":7455,"adimpl":7456,"##met":7457,"proper":7458,"##elio":7459,"##ow":7460,"##atori":7461,"pompe":7462,"lact":7463,"superst":7464,"αν":7465,"aegr":7466,"capitulum":7467,"##ivimus":7468,"##pserit":7469,"veteris":7470,"capt":7471,"calam":7472,"cli":7473,"##ft":7474,"resur":7475,"herb":7476,"putant":7477,"dulced":7478,"possum":7479,"##94":7480,"romanis":7481,"psalmi":7482,"##elium":7483,"##ricis":7484,"mandamus":7485,"desiderio":7486,"orbem":7487,"forsitan":7488,"martyris":7489,"##atura":7490,"##ville":7491,"nou":7492,"isaac":7493,"##uerant":7494,"heredes":7495,"vesper":7496,"της":7497,"##rati":7498,"sponte":7499,"matre":7500,"factam":7501,"duae":7502,"fideicomm":7503,"##undia":7504,"nus":7505,"laus":7506,"##positionem":7507,"rab":7508,"##icio":7509,"ine":7510,"##aev":7511,"stup":7512,"peregrin":7513,"##heim":7514,"simpliciter":7515,"##υν":7516,"alteri":7517,"scripturarum":7518,"dicente":7519,"venet":7520,"multas":7521,"flamm":7522,"omnipotentis":7523,"##oriae":7524,"adolesc":7525,"patriam":7526,"orientalis":7527,"2015":7528,"##hor":7529,"encycl":7530,"quattuor":7531,"variis":7532,"cist":7533,"videns":7534,"papam":7535,"maced":7536,"obsid":7537,"1989":7538,"##ericus":7539,"liberi":7540,"daniel":7541,"promis":7542,"##iari":7543,"ars":7544,"##ratis":7545,"ehess":7546,"immut":7547,"natum":7548,"libertate":7549,"principem":7550,"alexandr":7551,"venerit":7552,"veram":7553,"##anensis":7554,"pt":7555,"incor":7556,"incur":7557,"charissimi":7558,"contro":7559,"christianus":7560,"pœ":7561,"##fectus":7562,"sufficit":7563,"mig":7564,"vice":7565,"infl":7566,"personas":7567,"ponit":7568,"melior":7569,"##ment":7570,"crucem":7571,"cæter":7572,"substantiam":7573,"duces":7574,"territor":7575,"##97":7576,"##amine":7577,"##pell":7578,"##estin":7579,"videmus":7580,"##ionario":7581,"consor":7582,"crimen":7583,"dixerat":7584,"caeterum":7585,"##reg":7586,"probat":7587,"fiant":7588,"officii":7589,"artific":7590,"sustent":7591,"utero":7592,"humanum":7593,"turba":7594,"superbia":7595,"vob":7596,"omitt":7597,"adip":7598,"scriptis":7599,"##iavit":7600,"##nas":7601,"libras":7602,"##anne":7603,"hierosolym":7604,"lingu":7605,"vast":7606,"text":7607,"fugit":7608,"despectus":7609,"creditur":7610,"confirmamus":7611,"poterant":7612,"##gress":7613,"ejusque":7614,"##itata":7615,"##con":7616,"patria":7617,"pervenire":7618,"alioquin":7619,"##acum":7620,"book":7621,"beth":7622,"rip":7623,"infidel":7624,"pedilus":7625,"curia":7626,"exercitum":7627,"vitiis":7628,"crudel":7629,"homic":7630,"legendum":7631,"edu":7632,"lu":7633,"integr":7634,"##eptus":7635,"gaudio":7636,"pontificis":7637,"##rationem":7638,"bibliothec":7639,"langob":7640,"##antum":7641,"pharis":7642,"##udit":7643,"##62":7644,"isai":7645,"amoris":7646,"censu":7647,"creatus":7648,"##erere":7649,"feci":7650,"tend":7651,"flu":7652,"admitt":7653,"##issimos":7654,"suad":7655,"palam":7656,"tro":7657,"alta":7658,"mc":7659,"##illam":7660,"##ripta":7661,"necessitas":7662,"##olf":7663,"psall":7664,"saeculorum":7665,"faciam":7666,"dabit":7667,"dives":7668,"vires":7669,"torn":7670,"##auit":7671,"##ror":7672,"errore":7673,"esur":7674,"animos":7675,"##93":7676,"aeccles":7677,"discern":7678,"sacros":7679,"typ":7680,"##put":7681,"statum":7682,"brach":7683,"##inth":7684,"len":7685,"##oldus":7686,"novae":7687,"sequi":7688,"##itiæ":7689,"immin":7690,"cot":7691,"##issi":7692,"##rom":7693,"formulam":7694,"orationis":7695,"putat":7696,"atl":7697,"adn":7698,"fov":7699,"superior":7700,"aquas":7701,"breviter":7702,"continetur":7703,"pess":7704,"sacramenta":7705,"##utionis":7706,"bella":7707,"gab":7708,"luna":7709,"##zo":7710,"##areat":7711,"filiae":7712,"bus":7713,"##ilo":7714,"arbitrio":7715,"fabric":7716,"solem":7717,"mensis":7718,"##ak":7719,"quolibet":7720,"istum":7721,"patitur":7722,"##iperet":7723,"desunt":7724,"tal":7725,"causae":7726,"##ze":7727,"impend":7728,"alc":7729,"animalia":7730,"internation":7731,"##piam":7732,"##orta":7733,"##retur":7734,"biographicae":7735,"materia":7736,"had":7737,"##ley":7738,"pla":7739,"servos":7740,"auro":7741,"biographiam":7742,"imperatore":7743,"bor":7744,"aquarum":7745,"orientali":7746,"ambrosius":7747,"cooper":7748,"reduc":7749,"##imini":7750,"gram":7751,"laque":7752,"arte":7753,"linguam":7754,"poet":7755,"clericorum":7756,"##emini":7757,"impress":7758,"ton":7759,"##tif":7760,"regia":7761,"dial":7762,"simili":7763,"##urrit":7764,"chrys":7765,"##ns":7766,"pia":7767,"lumine":7768,"disciplina":7769,"eut":7770,"clericis":7771,"responde":7772,"libid":7773,"scripturis":7774,"administratio":7775,"regulam":7776,"unigen":7777,"integra":7778,"duxit":7779,"##61":7780,"##arc":7781,"patriae":7782,"dignatus":7783,"parentes":7784,"pedem":7785,"##randum":7786,"##venire":7787,"##onii":7788,"##arit":7789,"duce":7790,"innot":7791,"perfecta":7792,"aliqui":7793,"cael":7794,"passionem":7795,"habebant":7796,"##iliam":7797,"contend":7798,"paradis":7799,"vester":7800,"conclus":7801,"αυτ":7802,"##acione":7803,"positum":7804,"regina":7805,"orationibus":7806,"multitudine":7807,"patron":7808,"##esta":7809,"debita":7810,"cresc":7811,"##udo":7812,"facilius":7813,"parisi":7814,"fecisti":7815,"##esi":7816,"passione":7817,"interv":7818,"ferm":7819,"hib":7820,"expet":7821,"singula":7822,"renov":7823,"tun":7824,"hostis":7825,"impr":7826,"beneficia":7827,"quaecunque":7828,"##ral":7829,"##uoc":7830,"juc":7831,"sermonis":7832,"constantinus":7833,"rav":7834,"consilii":7835,"pauci":7836,"presbyteri":7837,"##min":7838,"##ures":7839,"suæ":7840,"##unde":7841,"plurim":7842,"artic":7843,"deleg":7844,"theodisc":7845,"##idisse":7846,"##ey":7847,"##89":7848,"lem":7849,"videte":7850,"bonam":7851,"regna":7852,"officia":7853,"##eunte":7854,"animal":7855,"##epti":7856,"cra":7857,"scab":7858,"##aron":7859,"tard":7860,"sacrileg":7861,"voces":7862,"americanus":7863,"pauca":7864,"urg":7865,"moritur":7866,"castell":7867,"produc":7868,"xxvi":7869,"nobilis":7870,"1988":7871,"video":7872,"##opolit":7873,"district":7874,"jerem":7875,"cursus":7876,"intellectus":7877,"##rando":7878,"vocant":7879,"neminem":7880,"##ectionem":7881,"vobiscum":7882,"determ":7883,"accipi":7884,"##odis":7885,"gis":7886,"theodor":7887,"conn":7888,"##eos":7889,"sententiae":7890,"verumtamen":7891,"δι":7892,"sant":7893,"æqu":7894,"##icon":7895,"dignitatis":7896,"dolore":7897,"humilitatis":7898,"magistri":7899,"##ions":7900,"summum":7901,"brevi":7902,"argumentum":7903,"dextera":7904,"sapiens":7905,"##orth":7906,"pic":7907,"sedit":7908,"remans":7909,"sequanae":7910,"decernimus":7911,"imperatorem":7912,"alicui":7913,"intellectum":7914,"recipere":7915,"multitudinem":7916,"##pex":7917,"##esset":7918,"exord":7919,"disced":7920,"didic":7921,"gi":7922,"exsequ":7923,"justis":7924,"##occ":7925,"concilia":7926,"gel":7927,"videamus":7928,"confl":7929,"audivit":7930,"dexteram":7931,"fontes":7932,"##92":7933,"parentum":7934,"taur":7935,"historiae":7936,"testis":7937,"##rici":7938,"docum":7939,"beato":7940,"##85":7941,"##arie":7942,"##lix":7943,"paupert":7944,"potentiam":7945,"alteram":7946,"pauperum":7947,"##ammodo":7948,"uniuersis":7949,"mortua":7950,"venerabili":7951,"##astas":7952,"fortis":7953,"from":7954,"cen":7955,"veniet":7956,"munim":7957,"andreas":7958,"provinciam":7959,"##par":7960,"milles":7961,"parentibus":7962,"trec":7963,"alpibus":7964,"##arias":7965,"nominibus":7966,"simile":7967,"##mentum":7968,"##ilitatis":7969,"inform":7970,"refug":7971,"##ks":7972,"##ioc":7973,"agro":7974,"##rin":7975,"##riptum":7976,"odio":7977,"pent":7978,"beneficio":7979,"approp":7980,"quandoque":7981,"##ulariter":7982,"comprob":7983,"baptismum":7984,"iug":7985,"fonte":7986,"voll":7987,"poenitentia":7988,"avert":7989,"patientia":7990,"##aring":7991,"compos":7992,"memin":7993,"christianorum":7994,"##alitatis":7995,"quaeritur":7996,"##editur":7997,"promisit":7998,"mora":7999,"##ralis":8000,"accipit":8001,"populis":8002,"##wn":8003,"angelos":8004,"sagitt":8005,"quinquaginta":8006,"##ripsit":8007,"pollic":8008,"liberos":8009,"##den":8010,"##ise":8011,"exstat":8012,"##ibilia":8013,"##iderat":8014,"auxilio":8015,"idol":8016,"meridiano":8017,"##osum":8018,"von":8019,"humilia":8020,"colloqu":8021,"compreh":8022,"##oma":8023,"ascens":8024,"contulit":8025,"docuit":8026,"##picere":8027,"gregorii":8028,"positus":8029,"retinere":8030,"tantae":8031,"passim":8032,"bland":8033,"augusto":8034,"##itatio":8035,"scripturae":8036,"discipulus":8037,"americae":8038,"ullo":8039,"recus":8040,"plenius":8041,"calv":8042,"stare":8043,"auribus":8044,"110":8045,"festum":8046,"septimo":8047,"quodammodo":8048,"constantinopolit":8049,"remove":8050,"divini":8051,"auctorem":8052,"naz":8053,"dilectionem":8054,"##alitate":8055,"actus":8056,"posc":8057,"offend":8058,"priusquam":8059,"veteri":8060,"reus":8061,"nest":8062,"##itius":8063,"##ectu":8064,"potens":8065,"penet":8066,"licentia":8067,"latini":8068,"meritum":8069,"pig":8070,"##ολ":8071,"##sae":8072,"humilitatem":8073,"judicia":8074,"bull":8075,"amar":8076,"##ologus":8077,"retro":8078,"##ovit":8079,"manusc":8080,"menses":8081,"habebit":8082,"##roc":8083,"##rept":8084,"inl":8085,"humilitate":8086,"pius":8087,"##91":8088,"##unum":8089,"##aces":8090,"vali":8091,"interdic":8092,"hostibus":8093,"effectus":8094,"reliquit":8095,"##amque":8096,"##hes":8097,"novem":8098,"vitæ":8099,"praesentibus":8100,"regionem":8101,"laude":8102,"##set":8103,"sermones":8104,"croix":8105,"exclud":8106,"concessa":8107,"##quo":8108,"conclud":8109,"##ibilem":8110,"decess":8111,"semin":8112,"enar":8113,"construct":8114,"eras":8115,"errorem":8116,"praepar":8117,"let":8118,"sexto":8119,"bos":8120,"explor":8121,"nup":8122,"##erebant":8123,"##ues":8124,"##entiis":8125,"dubia":8126,"appellatione":8127,"##alitatem":8128,"dolor":8129,"varia":8130,"vides":8131,"willelmus":8132,"wh":8133,"templi":8134,"prophetarum":8135,"adopt":8136,"##bis":8137,"abd":8138,"##oniam":8139,"##ebis":8140,"parr":8141,"65":8142,"graeci":8143,"militibus":8144,"parab":8145,"##abimus":8146,"doctrinae":8147,"terrib":8148,"dor":8149,"scripti":8150,"contr":8151,"##86":8152,"mulierem":8153,"affectus":8154,"domno":8155,"mosellae":8156,"##ada":8157,"campania":8158,"actibus":8159,"quaeque":8160,"antiquis":8161,"nuptias":8162,"riv":8163,"##alitas":8164,"pretio":8165,"ott":8166,"lucis":8167,"antiph":8168,"##riptio":8169,"resurrectione":8170,"deneg":8171,"##illus":8172,"concessit":8173,"destru":8174,"##onio":8175,"##ians":8176,"moysi":8177,"uterque":8178,"posterum":8179,"elis":8180,"dolo":8181,"pis":8182,"##nox":8183,"accepta":8184,"tenetur":8185,"pauperibus":8186,"devotione":8187,"##erae":8188,"vil":8189,"discrim":8190,"##verint":8191,"ipsas":8192,"status":8193,"pub":8194,"##ain":8195,"divitias":8196,"assensu":8197,"dilectionis":8198,"pil":8199,"similia":8200,"canonice":8201,"quamdiu":8202,"merita":8203,"abest":8204,"incho":8205,"inferioris":8206,"additis":8207,"eli":8208,"argent":8209,"##nos":8210,"##hil":8211,"unitatem":8212,"vota":8213,"universitas":8214,"vexillum":8215,"deliber":8216,"liberis":8217,"pie":8218,"unic":8219,"##insecus":8220,"falsa":8221,"græc":8222,"proximum":8223,"salva":8224,"orth":8225,"##ulatus":8226,"desiderat":8227,"pariet":8228,"insip":8229,"clericus":8230,"laudes":8231,"negotio":8232,"tenuit":8233,"constitutus":8234,"##assis":8235,"institu":8236,"doctor":8237,"effectum":8238,"pam":8239,"praestare":8240,"rain":8241,"millesimo":8242,"negl":8243,"itinere":8244,"zach":8245,"maximus":8246,"iudices":8247,"modest":8248,"xc":8249,"regionis":8250,"ent":8251,"occurrit":8252,"ει":8253,"quær":8254,"societas":8255,"nihilo":8256,"inquiet":8257,"dixisse":8258,"recta":8259,"potuerunt":8260,"servis":8261,"synagog":8262,"læ":8263,"##ialibus":8264,"##itiis":8265,"simus":8266,"##fam":8267,"extran":8268,"legitime":8269,"##ografic":8270,"##unxit":8271,"renunt":8272,"##87":8273,"martin":8274,"fructu":8275,"quidquam":8276,"vitiorum":8277,"tenebras":8278,"##entesimo":8279,"##uique":8280,"##ipsos":8281,"volens":8282,"visus":8283,"sequenti":8284,"##aldo":8285,"praesentiam":8286,"utpot":8287,"##pat":8288,"vasa":8289,"confect":8290,"ke":8291,"peri":8292,"canonici":8293,"##aniam":8294,"aggr":8295,"personarum":8296,"abrahae":8297,"gratis":8298,"conturb":8299,"cru":8300,"remun":8301,"plebis":8302,"perag":8303,"##ld":8304,"duorum":8305,"alienum":8306,"factis":8307,"infirmitate":8308,"ti":8309,"uolunt":8310,"dc":8311,"eosdem":8312,"contraria":8313,"##entissime":8314,"habetis":8315,"dedi":8316,"tumult":8317,"jussit":8318,"##elles":8319,"repugn":8320,"seipsum":8321,"##ulares":8322,"##ebitur":8323,"##ularibus":8324,"difficult":8325,"##ymp":8326,"##ularem":8327,"vag":8328,"elegit":8329,"##ησ":8330,"##entos":8331,"successores":8332,"cognoscere":8333,"donat":8334,"##uissent":8335,"edictum":8336,"addidit":8337,"utpote":8338,"intellex":8339,"arver":8340,"vias":8341,"beata":8342,"villam":8343,"facimus":8344,"ambo":8345,"##iculum":8346,"##istere":8347,"excip":8348,"laudibus":8349,"symb":8350,"##ioris":8351,"##vimus":8352,"1972":8353,"ungu":8354,"licentiam":8355,"morum":8356,"##84":8357,"##pad":8358,"mortuo":8359,"paulum":8360,"##utt":8361,"timorem":8362,"evangelista":8363,"##vero":8364,"dit":8365,"mas":8366,"##tax":8367,"contrarium":8368,"monachos":8369,"cdu":8370,"##don":8371,"domnus":8372,"contem":8373,"majorem":8374,"anime":8375,"ulterius":8376,"##83":8377,"interea":8378,"imposs":8379,"##inio":8380,"oppon":8381,"anastas":8382,"communione":8383,"praesid":8384,"opportun":8385,"editione":8386,"scripto":8387,"diz":8388,"magnis":8389,"drac":8390,"expugn":8391,"biographia":8392,"vehementer":8393,"negotium":8394,"firmiter":8395,"tusc":8396,"corporum":8397,"centur":8398,"regibus":8399,"duct":8400,"pietate":8401,"irasc":8402,"moder":8403,"##pectum":8404,"##ialem":8405,"lotharing":8406,"az":8407,"futuri":8408,"mortuum":8409,"bernardus":8410,"consules":8411,"extend":8412,"cogitationes":8413,"controvers":8414,"adventu":8415,"nichil":8416,"septuaginta":8417,"##veris":8418,"fluct":8419,"ostenditur":8420,"##itorum":8421,"divinam":8422,"nascitur":8423,"##ener":8424,"gradu":8425,"littera":8426,"##uius":8427,"refic":8428,"occidentalis":8429,"habuerit":8430,"##idius":8431,"heredem":8432,"##ελ":8433,"impugn":8434,"noluit":8435,"##escu":8436,"##ηι":8437,"dilectione":8438,"postremo":8439,"cin":8440,"promulg":8441,"##ienses":8442,"west":8443,"habitu":8444,"thess":8445,"proximo":8446,"laterani":8447,"confic":8448,"plurima":8449,"##osus":8450,"concedimus":8451,"masc":8452,"habita":8453,"caeteri":8454,"rationis":8455,"nimium":8456,"oleum":8457,"penn":8458,"##inf":8459,"peccator":8460,"afric":8461,"sacerdotibus":8462,"##iose":8463,"pari":8464,"argentum":8465,"1960":8466,"##abor":8467,"scribere":8468,"electi":8469,"donationem":8470,"berg":8471,"sicuti":8472,"poeta":8473,"iacob":8474,"sanctitatis":8475,"mic":8476,"eciam":8477,"longa":8478,"iuven":8479,"semetipsum":8480,"eundem":8481,"seren":8482,"persolv":8483,"quoddam":8484,"capti":8485,"transt":8486,"custodia":8487,"sumpt":8488,"##iensem":8489,"repell":8490,"nomi":8491,"requiem":8492,"##iorem":8493,"narrat":8494,"erip":8495,"romanos":8496,"xxviii":8497,"patrocin":8498,"graeca":8499,"##hus":8500,"umbra":8501,"examin":8502,"amici":8503,"orbe":8504,"bore":8505,"dudum":8506,"affectum":8507,"faciens":8508,"##ya":8509,"capita":8510,"##han":8511,"scimus":8512,"reverentia":8513,"parva":8514,"aurel":8515,"similes":8516,"quaestio":8517,"##idimus":8518,"pietas":8519,"sav":8520,"##po":8521,"magnae":8522,"remedium":8523,"mamm":8524,"##essu":8525,"ict":8526,"oris":8527,"denunt":8528,"late":8529,"certo":8530,"habitum":8531,"ministrorum":8532,"geografic":8533,"variet":8534,"cun":8535,"mercedem":8536,"utilitatem":8537,"symm":8538,"##risti":8539,"culpam":8540,"##berto":8541,"infam":8542,"##aravit":8543,"suus":8544,"62":8545,"##atius":8546,"##averint":8547,"##ardum":8548,"vestigia":8549,"nullis":8550,"sexta":8551,"locorum":8552,"honorific":8553,"crimine":8554,"coniug":8555,"2017":8556,"##erorum":8557,"concil":8558,"investig":8559,"64":8560,"obi":8561,"festo":8562,"privilegium":8563,"pelliculae":8564,"##issae":8565,"comitem":8566,"##ish":8567,"##use":8568,"transc":8569,"laboris":8570,"laborem":8571,"intu":8572,"##ago":8573,"##emit":8574,"pulchr":8575,"judex":8576,"##ontra":8577,"##issus":8578,"utinam":8579,"suscipere":8580,"##iciam":8581,"mes":8582,"laudis":8583,"sacramento":8584,"fridericus":8585,"duplic":8586,"##mae":8587,"##acio":8588,"caut":8589,"conver":8590,"instruct":8591,"fabr":8592,"luxur":8593,"dizionario":8594,"manifeste":8595,"vocavit":8596,"offer":8597,"pontificum":8598,"occidit":8599,"turc":8600,"##ced":8601,"beatum":8602,"pull":8603,"capell":8604,"invenire":8605,"disciplinam":8606,"quoties":8607,"appon":8608,"finibus":8609,"pse":8610,"beatae":8611,"bu":8612,"taliter":8613,"##fi":8614,"canonicis":8615,"acquir":8616,"remitt":8617,"gestis":8618,"##issam":8619,"inimicis":8620,"1977":8621,"hiem":8622,"propriam":8623,"period":8624,"corrip":8625,"##menta":8626,"ibique":8627,"##old":8628,"consuetudine":8629,"##icula":8630,"annot":8631,"dilectis":8632,"pluv":8633,"debuit":8634,"top":8635,"##rique":8636,"succed":8637,"deorum":8638,"litt":8639,"mad":8640,"gaudia":8641,"godef":8642,"cisterc":8643,"cibum":8644,"##ee":8645,"archiepiscopum":8646,"fecerat":8647,"iulianus":8648,"##erta":8649,"attrib":8650,"decimas":8651,"conl":8652,"contrist":8653,"manere":8654,"castris":8655,"##urch":8656,"##andas":8657,"##uitur":8658,"insinu":8659,"poti":8660,"hispaniae":8661,"prosequ":8662,"calumn":8663,"##onice":8664,"##ordin":8665,"vices":8666,"codicibus":8667,"obnox":8668,"poenitentiae":8669,"##rationis":8670,"##icius":8671,"credidit":8672,"eris":8673,"των":8674,"heredibus":8675,"spd":8676,"testimonia":8677,"pueri":8678,"indiv":8679,"populos":8680,"dogm":8681,"continet":8682,"1986":8683,"tertiam":8684,"compend":8685,"appropinqu":8686,"mars":8687,"##ulfi":8688,"officiis":8689,"tir":8690,"toti":8691,"spatium":8692,"##ingen":8693,"immun":8694,"purp":8695,"##inensi":8696,"dixisset":8697,"terc":8698,"εκ":8699,"veloc":8700,"00":8701,"herc":8702,"mortuorum":8703,"petr":8704,"##enas":8705,"tertius":8706,"veri":8707,"iohannis":8708,"uidelicet":8709,"rhodano":8710,"proposito":8711,"##radus":8712,"scient":8713,"possidet":8714,"tulit":8715,"mandatis":8716,"reliquis":8717,"encyclop":8718,"##fer":8719,"malos":8720,"interest":8721,"admir":8722,"profectus":8723,"vu":8724,"confessione":8725,"1987":8726,"politicarum":8727,"domi":8728,"denarios":8729,"africa":8730,"falsum":8731,"dal":8732,"##riis":8733,"quandiu":8734,"christianis":8735,"aedificia":8736,"nis":8737,"liberam":8738,"quamdam":8739,"prisc":8740,"##aur":8741,"necdum":8742,"philosophus":8743,"quales":8744,"ornam":8745,"ossa":8746,"respici":8747,"modicum":8748,"humanis":8749,"alleluia":8750,"vino":8751,"vinea":8752,"defect":8753,"contex":8754,"tempt":8755,"##ock":8756,"##esco":8757,"constitutum":8758,"ri":8759,"##nd":8760,"##val":8761,"dederit":8762,"invas":8763,"regnat":8764,"præter":8765,"malitia":8766,"praeterm":8767,"inimicus":8768,"##amentum":8769,"##osque":8770,"enum":8771,"modus":8772,"viderunt":8773,"##ques":8774,"flumina":8775,"aeth":8776,"discipulos":8777,"generalis":8778,"beate":8779,"libertatis":8780,"testibus":8781,"##arare":8782,"pernici":8783,"##præ":8784,"qualibet":8785,"##otia":8786,"turon":8787,"##rante":8788,"quanquam":8789,"##unensis":8790,"##aturum":8791,"##entior":8792,"##τι":8793,"prudentia":8794,"comite":8795,"ponitur":8796,"gaius":8797,"luct":8798,"gentis":8799,"content":8800,"horr":8801,"##iale":8802,"injuriam":8803,"maximum":8804,"ah":8805,"##yd":8806,"cart":8807,"##ja":8808,"##lii":8809,"patrimon":8810,"sud":8811,"murm":8812,"##form":8813,"vitium":8814,"effus":8815,"revera":8816,"audeat":8817,"lucius":8818,"##itationem":8819,"##82":8820,"intelligit":8821,"##este":8822,"##ulimus":8823,"anglorum":8824,"femina":8825,"galli":8826,"xxvii":8827,"aere":8828,"atlant":8829,"fulc":8830,"moll":8831,"alicujus":8832,"inscript":8833,"sæ":8834,"quilibet":8835,"perfectum":8836,"frug":8837,"sacrat":8838,"##ulti":8839,"quemdam":8840,"cantab":8841,"geografico":8842,"66":8843,"eventa":8844,"transire":8845,"63":8846,"cab":8847,"satisfac":8848,"cassiod":8849,"##oratus":8850,"##ecerunt":8851,"bot":8852,"naturalis":8853,"ducem":8854,"forum":8855,"sole":8856,"confirmat":8857,"fortuna":8858,"plebem":8859,"##ires":8860,"##ebas":8861,"mortuos":8862,"gust":8863,"sustinere":8864,"hispania":8865,"valle":8866,"##ibili":8867,"intim":8868,"castellum":8869,"##yt":8870,"miracula":8871,"persuas":8872,"inveni":8873,"auxilia":8874,"##aeum":8875,"agg":8876,"transit":8877,"hebr":8878,"##etiam":8879,"mensura":8880,"contumel":8881,"incorrupt":8882,"##ρα":8883,"egit":8884,"american":8885,"##lev":8886,"calli":8887,"##erare":8888,"##erico":8889,"praevaric":8890,"##ianos":8891,"dispos":8892,"religione":8893,"##aest":8894,"publicam":8895,"##abam":8896,"remedio":8897,"monet":8898,"summam":8899,"increm":8900,"servare":8901,"instru":8902,"convoc":8903,"judaeos":8904,"possidere":8905,"iisdem":8906,"fen":8907,"humano":8908,"pus":8909,"rogatus":8910,"76":8911,"dilecti":8912,"decanus":8913,"valentin":8914,"normannia":8915,"aliquibus":8916,"senex":8917,"convent":8918,"rid":8919,"quique":8920,"graviter":8921,"spol":8922,"portus":8923,"##embri":8924,"cinem":8925,"possimus":8926,"sepeli":8927,"rup":8928,"regula":8929,"##osi":8930,"dicamus":8931,"corrump":8932,"##hum":8933,"repraes":8934,"iniquitas":8935,"ingredi":8936,"bro":8937,"sacerdotis":8938,"1979":8939,"occidentali":8940,"notandum":8941,"diction":8942,"lacrymis":8943,"##acius":8944,"tribuit":8945,"tituli":8946,"textu":8947,"mansuetud":8948,"fas":8949,"mathem":8950,"magistro":8951,"primogen":8952,"æg":8953,"notitiam":8954,"opprob":8955,"prophetas":8956,"medietatem":8957,"matrimonium":8958,"cham":8959,"dabo":8960,"subjac":8961,"redire":8962,"laetitia":8963,"war":8964,"secutus":8965,"probatur":8966,"ccc":8967,"praetor":8968,"##rent":8969,"comprehend":8970,"militiae":8971,"diutius":8972,"extoll":8973,"iur":8974,"δε":8975,"inclus":8976,"##jo":8977,"celer":8978,"foss":8979,"communem":8980,"araris":8981,"##ativa":8982,"##iuss":8983,"160":8984,"foras":8985,"casus":8986,"##quem":8987,"aaron":8988,"amicus":8989,"legum":8990,"majestatis":8991,"ari":8992,"praesentem":8993,"australi":8994,"stella":8995,"annus":8996,"ostium":8997,"world":8998,"170":8999,"diligere":9000,"quaerere":9001,"mee":9002,"##ueri":9003,"cil":9004,"eri":9005,"praesent":9006,"credunt":9007,"persol":9008,"grand":9009,"conditione":9010,"dilectio":9011,"000":9012,"ordines":9013,"books":9014,"fiet":9015,"qn":9016,"soror":9017,"henrici":9018,"ets":9019,"condicione":9020,"noctis":9021,"regnavit":9022,"pratis":9023,"perpetua":9024,"clericos":9025,"##ss":9026,"recepit":9027,"ostendere":9028,"75":9029,"##ance":9030,"mensuram":9031,"##pra":9032,"dicebant":9033,"67":9034,"clementia":9035,"##81":9036,"inex":9037,"##randi":9038,"stell":9039,"martyres":9040,"reddidit":9041,"umquam":9042,"peccat":9043,"##unctum":9044,"spiritualis":9045,"habuisse":9046,"della":9047,"auferre":9048,"vitio":9049,"vindict":9050,"inspecturis":9051,"##iatis":9052,"oppress":9053,"petra":9054,"incolum":9055,"permans":9056,"το":9057,"vicum":9058,"museum":9059,"saul":9060,"caesaris":9061,"την":9062,"1973":9063,"subtrah":9064,"unicuique":9065,"hung":9066,"##isma":9067,"gladium":9068,"accepimus":9069,"##acul":9070,"leguntur":9071,"parroch":9072,"chil":9073,"bonif":9074,"150":9075,"roth":9076,"##iretur":9077,"sacrae":9078,"classis":9079,"##lav":9080,"crem":9081,"baluz":9082,"jubet":9083,"corrob":9084,"tranquill":9085,"regiones":9086,"##rand":9087,"rogo":9088,"detrah":9089,"praemia":9090,"arbitrium":9091,"quale":9092,"conventus":9093,"theat":9094,"indicat":9095,"morem":9096,"1980":9097,"percut":9098,"decip":9099,"caesare":9100,"respondere":9101,"##imet":9102,"multae":9103,"commendat":9104,"synodum":9105,"call":9106,"##uistis":9107,"immund":9108,"ero":9109,"sacro":9110,"##autem":9111,"priori":9112,"mall":9113,"medioc":9114,"reversus":9115,"admodum":9116,"vn":9117,"historiam":9118,"accessit":9119,"credentes":9120,"ecclesiasticis":9121,"uig":9122,"cogno":9123,"potuerit":9124,"teneri":9125,"61":9126,"pand":9127,"sicque":9128,"canticum":9129,"##unctus":9130,"determin":9131,"chem":9132,"repente":9133,"mathemat":9134,"principatus":9135,"plenum":9136,"##ulisse":9137,"timere":9138,"##antius":9139,"##ations":9140,"##essa":9141,"litig":9142,"christianae":9143,"##icitur":9144,"haberi":9145,"cave":9146,"successit":9147,"libertas":9148,"quotid":9149,"veraciter":9150,"superfl":9151,"sigillo":9152,"repraesent":9153,"sapient":9154,"national":9155,"matut":9156,"delic":9157,"##estus":9158,"1982":9159,"orationes":9160,"aliquant":9161,"cinemat":9162,"hierusalem":9163,"levi":9164,"faciendum":9165,"quoad":9166,"reprom":9167,"epiph":9168,"sitis":9169,"animalium":9170,"aeque":9171,"iniquitatis":9172,"dioclet":9173,"datus":9174,"commis":9175,"corporibus":9176,"soph":9177,"##iteri":9178,"dii":9179,"scrut":9180,"##olam":9181,"##randa":9182,"##ules":9183,"oculus":9184,"summi":9185,"gratiarum":9186,"contigit":9187,"dissip":9188,"jur":9189,"series":9190,"fundum":9191,"effug":9192,"agost":9193,"convenire":9194,"exhibere":9195,"jord":9196,"videntes":9197,"confessionem":9198,"statuta":9199,"implere":9200,"system":9201,"##ruit":9202,"insol":9203,"ung":9204,"mulieris":9205,"matur":9206,"##ioribus":9207,"feliciter":9208,"copia":9209,"berol":9210,"freti":9211,"dilecto":9212,"##inali":9213,"##ko":9214,"arbitror":9215,"sciendum":9216,"##eae":9217,"gn":9218,"vicus":9219,"iniquitate":9220,"partium":9221,"##ularium":9222,"sca":9223,"vestras":9224,"afflig":9225,"societatis":9226,"libero":9227,"substant":9228,"##omn":9229,"auctoritatis":9230,"pontificem":9231,"iidem":9232,"occis":9233,"##verb":9234,"qualem":9235,"perspic":9236,"ου":9237,"allig":9238,"prodest":9239,"religio":9240,"hugonis":9241,"##rad":9242,"puta":9243,"justa":9244,"semine":9245,"iuv":9246,"ht":9247,"1978":9248,"consuetudo":9249,"servire":9250,"diabolum":9251,"exim":9252,"edidit":9253,"eburae":9254,"jer":9255,"praedicta":9256,"##urant":9257,"dederunt":9258,"coelesti":9259,"progen":9260,"unitate":9261,"pertinentibus":9262,"accipiat":9263,"superbiam":9264,"fronte":9265,"assumpt":9266,"optime":9267,"societatem":9268,"##lae":9269,"solam":9270,"actiones":9271,"trepid":9272,"##ier":9273,"reip":9274,"##urnal":9275,"oeconomia":9276,"##uh":9277,"obscur":9278,"##itari":9279,"antich":9280,"##ek":9281,"quiet":9282,"amicos":9283,"##anna":9284,"audivimus":9285,"fideiuss":9286,"ferri":9287,"##eca":9288,"facias":9289,"##itias":9290,"hostem":9291,"allod":9292,"transeunt":9293,"nescit":9294,"mentes":9295,"praedictum":9296,"heredit":9297,"quac":9298,"publico":9299,"proximi":9300,"##itan":9301,"erroris":9302,"prioris":9303,"praesides":9304,"christianos":9305,"recipit":9306,"commerc":9307,"##averis":9308,"elemosinam":9309,"praeval":9310,"##οις":9311,"leon":9312,"ai":9313,"conspic":9314,"obitum":9315,"audiens":9316,"videantur":9317,"intentione":9318,"lor":9319,"##ement":9320,"dun":9321,"neut":9322,"##ovic":9323,"virginem":9324,"##ασ":9325,"veniunt":9326,"linguis":9327,"futur":9328,"latron":9329,"mira":9330,"oti":9331,"thron":9332,"capituli":9333,"salomon":9334,"##onam":9335,"85":9336,"syll":9337,"utitur":9338,"accidit":9339,"##enberg":9340,"invent":9341,"##decim":9342,"principe":9343,"vultus":9344,"gil":9345,"majoris":9346,"exstitit":9347,"##esch":9348,"##encia":9349,"custodiam":9350,"##entina":9351,"litteram":9352,"privilegio":9353,"επι":9354,"erem":9355,"emin":9356,"cantuari":9357,"coronam":9358,"agostini":9359,"supr":9360,"subter":9361,"archit":9362,"eust":9363,"detrim":9364,"error":9365,"77":9366,"plat":9367,"majus":9368,"barth":9369,"primae":9370,"hiis":9371,"nosse":9372,"manich":9373,"predicta":9374,"nonnullis":9375,"occasionem":9376,"lapides":9377,"##astis":9378,"longo":9379,"ingenio":9380,"praecipimus":9381,"cognovit":9382,"cultura":9383,"ministerio":9384,"obedientiam":9385,"irac":9386,"1985":9387,"timoth":9388,"##ειν":9389,"alph":9390,"disciplinae":9391,"trit":9392,"corona":9393,"placere":9394,"levit":9395,"illae":9396,"intellectu":9397,"excommunicationis":9398,"sul":9399,"##rud":9400,"decor":9401,"facultatem":9402,"orthodo":9403,"fasc":9404,"coeperunt":9405,"maximo":9406,"##eter":9407,"##utae":9408,"precip":9409,"##omo":9410,"confug":9411,"hebdom":9412,"muneribus":9413,"##ien":9414,"journal":9415,"antiquae":9416,"praedestin":9417,"1984":9418,"cecidit":9419,"longum":9420,"civium":9421,"##ulat":9422,"##urc":9423,"coelestia":9424,"##asque":9425,"solummodo":9426,"##itudines":9427,"cursu":9428,"##ectae":9429,"##rabat":9430,"ceterum":9431,"dilectus":9432,"suec":9433,"necessitatem":9434,"arcad":9435,"lignum":9436,"dicentem":9437,"delinqu":9438,"iudex":9439,"missi":9440,"dilex":9441,"adversa":9442,"oppido":9443,"difficile":9444,"laz":9445,"mysteria":9446,"cth":9447,"humanam":9448,"patientiam":9449,"ineff":9450,"uos":9451,"circulus":9452,"adal":9453,"##omag":9454,"coh":9455,"petere":9456,"evad":9457,"singuli":9458,"uber":9459,"fing":9460,"figur":9461,"rheni":9462,"##erito":9463,"actu":9464,"unc":9465,"decretum":9466,"##ximus":9467,"germanicus":9468,"foro":9469,"offens":9470,"ces":9471,"##enit":9472,"herod":9473,"phara":9474,"desiderati":9475,"##we":9476,"legunt":9477,"bov":9478,"william":9479,"hann":9480,"ris":9481,"vc":9482,"secus":9483,"pecuniae":9484,"justorum":9485,"##olom":9486,"##emberg":9487,"deh":9488,"gir":9489,"proteg":9490,"sirm":9491,"amicis":9492,"digne":9493,"flam":9494,"praecipit":9495,"gual":9496,"terminum":9497,"remissionem":9498,"innocentius":9499,"subdiacon":9500,"bone":9501,"substantiae":9502,"verec":9503,"##ox":9504,"##ibit":9505,"tenebat":9506,"nationalis":9507,"origine":9508,"responsum":9509,"##enos":9510,"tantis":9511,"cicero":9512,"dere":9513,"jos":9514,"expect":9515,"manuum":9516,"constr":9517,"oxford":9518,"py":9519,"##iturum":9520,"potuisset":9521,"domos":9522,"imput":9523,"quinta":9524,"denuo":9525,"lapidem":9526,"manifesta":9527,"appellat":9528,"epistolas":9529,"divinitus":9530,"fung":9531,"christoph":9532,"recep":9533,"far":9534,"abiit":9535,"sciat":9536,"##ecost":9537,"##iosus":9538,"oportere":9539,"we":9540,"memorie":9541,"##lag":9542,"##ede":9543,"mittit":9544,"pondus":9545,"instituta":9546,"coelos":9547,"bibliotheca":9548,"intercess":9549,"frequent":9550,"inan":9551,"fate":9552,"edoc":9553,"tyrann":9554,"noctem":9555,"divinum":9556,"lar":9557,"##idiam":9558,"constit":9559,"inveniri":9560,"##bet":9561,"##inone":9562,"##issione":9563,"presens":9564,"dans":9565,"fortiter":9566,"baptismo":9567,"fert":9568,"sop":9569,"creavit":9570,"vultis":9571,"##ητ":9572,"penes":9573,"praesentium":9574,"circuitu":9575,"requis":9576,"crediderunt":9577,"laudat":9578,"moysen":9579,"alexandri":9580,"legatos":9581,"præst":9582,"medicus":9583,"praesumpt":9584,"##ianorum":9585,"sov":9586,"aduoc":9587,"advert":9588,"cha":9589,"mog":9590,"constituti":9591,"##zi":9592,"damnum":9593,"abscond":9594,"viae":9595,"dicendo":9596,"peculi":9597,"salutare":9598,"##ialium":9599,"rc":9600,"##raret":9601,"##ecom":9602,"accur":9603,"curt":9604,"confessio":9605,"haeretici":9606,"aegypto":9607,"ic":9608,"carcere":9609,"##erisque":9610,"lub":9611,"vinculis":9612,"artis":9613,"##ustum":9614,"magistrum":9615,"dedisti":9616,"italiam":9617,"caelo":9618,"statuit":9619,"psych":9620,"amat":9621,"conversus":9622,"##ws":9623,"##icium":9624,"74":9625,"ual":9626,"sermonibus":9627,"lectione":9628,"agunt":9629,"moderat":9630,"89":9631,"calig":9632,"corinth":9633,"aduer":9634,"synodus":9635,"uis":9636,"malus":9637,"mediat":9638,"##olium":9639,"congru":9640,"athanas":9641,"graecis":9642,"generaliter":9643,"paratus":9644,"dilectissimi":9645,"dolorem":9646,"exsurg":9647,"concurr":9648,"##actis":9649,"contest":9650,"agens":9651,"##enb":9652,"##aeque":9653,"crimina":9654,"commin":9655,"xxxiii":9656,"##aeorum":9657,"victus":9658,"decreta":9659,"##ologi":9660,"fix":9661,"demonstrat":9662,"volentes":9663,"subsist":9664,"meminit":9665,"##mes":9666,"oriente":9667,"christiana":9668,"participes":9669,"##orii":9670,"dens":9671,"##alon":9672,"modern":9673,"##uad":9674,"amplect":9675,"79":9676,"catholicam":9677,"negotiis":9678,"acquis":9679,"novam":9680,"sinu":9681,"flandrie":9682,"justo":9683,"deberet":9684,"domina":9685,"deserto":9686,"##eau":9687,"pacto":9688,"progr":9689,"fertur":9690,"rusc":9691,"##actum":9692,"vestimenta":9693,"ratum":9694,"hæret":9695,"diaconi":9696,"##ois":9697,"habitus":9698,"##ientur":9699,"onus":9700,"debito":9701,"populorum":9702,"religionem":9703,"terminos":9704,"##erentes":9705,"potestis":9706,"jung":9707,"##iamur":9708,"continu":9709,"##ridi":9710,"oleo":9711,"nusquam":9712,"applic":9713,"inius":9714,"verg":9715,"editiones":9716,"foret":9717,"dictam":9718,"sursum":9719,"facis":9720,"vident":9721,"1983":9722,"contingit":9723,"periculos":9724,"##olat":9725,"frang":9726,"visa":9727,"sapientes":9728,"angelum":9729,"brevis":9730,"##yst":9731,"mittere":9732,"belg":9733,"negat":9734,"71":9735,"electionem":9736,"##veret":9737,"aetas":9738,"hal":9739,"silentio":9740,"parti":9741,"recenti":9742,"ultima":9743,"coc":9744,"##acula":9745,"sequentibus":9746,"debeamus":9747,"corpori":9748,"hadr":9749,"θε":9750,"nerv":9751,"str":9752,"coss":9753,"communionem":9754,"##mine":9755,"##ους":9756,"##esia":9757,"occur":9758,"fluvium":9759,"capere":9760,"detest":9761,"australis":9762,"gali":9763,"librar":9764,"suprascript":9765,"anth":9766,"introduc":9767,"72":9768,"dac":9769,"presentia":9770,"montibus":9771,"hibern":9772,"##wa":9773,"animæ":9774,"ern":9775,"86":9776,"##feld":9777,"sero":9778,"proposit":9779,"fortitudo":9780,"cinematograph":9781,"##escens":9782,"aav":9783,"pape":9784,"episcopatu":9785,"superiori":9786,"contigerit":9787,"prepositus":9788,"joanne":9789,"vade":9790,"##vum":9791,"##oman":9792,"##phus":9793,"utile":9794,"idque":9795,"laboribus":9796,"##erebatur":9797,"mob":9798,"haberent":9799,"unionis":9800,"canones":9801,"reconcili":9802,"##alam":9803,"inventus":9804,"famul":9805,"gign":9806,"##imentum":9807,"arbor":9808,"sir":9809,"defl":9810,"odium":9811,"garum":9812,"##vid":9813,"##iop":9814,"##isses":9815,"##ringere":9816,"judices":9817,"praesumat":9818,"##ευ":9819,"obsequium":9820,"pentecost":9821,"fus":9822,"ua":9823,"virtemberg":9824,"aavv":9825,"cari":9826,"pugna":9827,"legere":9828,"miserere":9829,"signis":9830,"meret":9831,"##vent":9832,"##eniae":9833,"occulta":9834,"etern":9835,"accom":9836,"devor":9837,"interfect":9838,"amplex":9839,"pane":9840,"exemplar":9841,"rapt":9842,"recipi":9843,"audite":9844,"dicant":9845,"otto":9846,"obtulit":9847,"stim":9848,"augustino":9849,"perpetuam":9850,"horam":9851,"quicquam":9852,"##idii":9853,"unct":9854,"xxxii":9855,"profut":9856,"ioannis":9857,"eutych":9858,"##ecerit":9859,"usibus":9860,"contrah":9861,"amitt":9862,"130":9863,"scribitur":9864,"secuti":9865,"procons":9866,"sepulcrum":9867,"##aculo":9868,"peti":9869,"cuc":9870,"##inter":9871,"germania":9872,"73":9873,"##iatum":9874,"##ulsus":9875,"musc":9876,"labores":9877,"prophetis":9878,"statutum":9879,"invidia":9880,"adesse":9881,"missam":9882,"peccare":9883,"asserit":9884,"comiti":9885,"asp":9886,"voluerint":9887,"unanim":9888,"scandalum":9889,"fundamentum":9890,"latus":9891,"##ulerat":9892,"km":9893,"##verant":9894,"##eriorum":9895,"sarc":9896,"ligno":9897,"library":9898,"aliquos":9899,"republ":9900,"dipl":9901,"mandato":9902,"subscript":9903,"anx":9904,"vicip":9905,"studiis":9906,"inhabit":9907,"episcopatus":9908,"judicem":9909,"priorem":9910,"egressus":9911,"sollicitudine":9912,"84":9913,"neb":9914,"vocis":9915,"gradum":9916,"graeciae":9917,"consenti":9918,"erog":9919,"permaneant":9920,"quasdam":9921,"instituit":9922,"##ifer":9923,"hereditate":9924,"ultimum":9925,"beneficiis":9926,"##oscitur":9927,"sexus":9928,"scip":9929,"istos":9930,"injuste":9931,"set":9932,"procedit":9933,"cantabrig":9934,"juram":9935,"vulgata":9936,"pellicula":9937,"##ueritis":9938,"vestros":9939,"naturaliter":9940,"dominice":9941,"noll":9942,"serie":9943,"exceptis":9944,"corrobor":9945,"iov":9946,"praepon":9947,"##apost":9948,"musica":9949,"carantoni":9950,"amare":9951,"habuerunt":9952,"cognatae":9953,"virga":9954,"possessione":9955,"psalmum":9956,"certamen":9957,"idest":9958,"gess":9959,"##ietis":9960,"oth":9961,"perst":9962,"kalend":9963,"##elo":9964,"origin":9965,"##elii":9966,"humilitas":9967,"altaris":9968,"abi":9969,"sensibus":9970,"statuimus":9971,"seb":9972,"poenas":9973,"vini":9974,"##οτ":9975,"##vus":9976,"excepto":9977,"descript":9978,"plenitudo":9979,"publicis":9980,"chalced":9981,"adventus":9982,"coerc":9983,"vocatus":9984,"ducit":9985,"cohort":9986,"habentur":9987,"##ais":9988,"carmen":9989,"effund":9990,"albertus":9991,"walterus":9992,"sacrosanct":9993,"cxxx":9994,"vae":9995,"vl":9996,"portam":9997,"##imb":9998,"florent":9999,"victoriam":10000,"##rh":10001,"crux":10002,"electione":10003,"inviol":10004,"invenimus":10005,"aquitania":10006,"myrias":10007,"inferius":10008,"vestrorum":10009,"exclus":10010,"repud":10011,"illustris":10012,"divites":10013,"quaeso":10014,"##ulsa":10015,"interm":10016,"pictav":10017,"studia":10018,"##erici":10019,"pyrenaeis":10020,"##aequ":10021,"poc":10022,"##ectionis":10023,"occitania":10024,"reginae":10025,"doctores":10026,"mab":10027,"##aeo":10028,"obseru":10029,"terrenis":10030,"##itiarum":10031,"sacrum":10032,"henrico":10033,"##omb":10034,"##vere":10035,"aiunt":10036,"prodesse":10037,"beatorum":10038,"pompon":10039,"soviet":10040,"vidimus":10041,"das":10042,"schism":10043,"torr":10044,"consang":10045,"inhib":10046,"abys":10047,"intelligendum":10048,"niv":10049,"##oda":10050,"successor":10051,"incarnatione":10052,"stren":10053,"profit":10054,"deu":10055,"beda":10056,"adde":10057,"detin":10058,"supple":10059,"paginas":10060,"##osis":10061,"plenus":10062,"capsae":10063,"resurrexit":10064,"##pit":10065,"canonicorum":10066,"odor":10067,"praedicationis":10068,"fluminis":10069,"##att":10070,"scripturas":10071,"##ianam":10072,"audac":10073,"custodi":10074,"κατ":10075,"##idas":10076,"acceperunt":10077,"99":10078,"mentio":10079,"##ectam":10080,"signo":10081,"remuner":10082,"##onica":10083,"potuisse":10084,"bass":10085,"##rato":10086,"videat":10087,"exemplis":10088,"confort":10089,"socii":10090,"##igil":10091,"argenti":10092,"propriae":10093,"salt":10094,"secreta":10095,"censum":10096,"desideriis":10097,"cxx":10098,"prodig":10099,"##ecutus":10100,"##tig":10101,"iulius":10102,"hyd":10103,"stir":10104,"canonum":10105,"habitare":10106,"promissa":10107,"portas":10108,"##ulibus":10109,"daret":10110,"gerardus":10111,"putas":10112,"stipend":10113,"continentur":10114,"undec":10115,"##enorum":10116,"vocantur":10117,"ou":10118,"vocabulum":10119,"##imento":10120,"quousque":10121,"romaniae":10122,"sabbato":10123,"arduenna":10124,"lis":10125,"dominis":10126,"agri":10127,"additur":10128,"comb":10129,"fru":10130,"presbyterum":10131,"iussit":10132,"respondet":10133,"ortus":10134,"venisse":10135,"bir":10136,"##aco":10137,"confite":10138,"presentem":10139,"##tiis":10140,"habeatur":10141,"obtinere":10142,"helvet":10143,"convinc":10144,"##iata":10145,"priu":10146,"ruscinone":10147,"nap":10148,"rut":10149,"altari":10150,"dein":10151,"reipubl":10152,"testi":10153,"plurimis":10154,"vicipaed":10155,"95":10156,"##yg":10157,"##orf":10158,"loquebatur":10159,"comprehens":10160,"##λη":10161,"voluntati":10162,"##iel":10163,"adel":10164,"archip":10165,"lips":10166,"ponere":10167,"1976":10168,"affic":10169,"quaesumus":10170,"jugiter":10171,"recognosc":10172,"grammat":10173,"##homin":10174,"utrique":10175,"conscientiam":10176,"basilica":10177,"mensibus":10178,"rationabiliter":10179,"theoph":10180,"rationibus":10181,"argente":10182,"holoca":10183,"##inium":10184,"septentrionalis":10185,"testium":10186,"##undiae":10187,"##ylum":10188,"adr":10189,"exaudi":10190,"praefectus":10191,"obsecro":10192,"παρ":10193,"theodorus":10194,"animadvert":10195,"##illae":10196,"perit":10197,"veris":10198,"inferre":10199,"genu":10200,"sabaud":10201,"theodosius":10202,"legat":10203,"recess":10204,"vicit":10205,"venite":10206,"##acium":10207,"releg":10208,"titulum":10209,"poterunt":10210,"nobil":10211,"dominium":10212,"attest":10213,"coelestibus":10214,"insidias":10215,"balduinus":10216,"quiete":10217,"copul":10218,"##hel":10219,"supradic":10220,"##ward":10221,"archidiaconus":10222,"orare":10223,"##γι":10224,"octavo":10225,"crat":10226,"superioribus":10227,"goog":10228,"epistolis":10229,"magnitudo":10230,"demet":10231,"impossibile":10232,"crit":10233,"excit":10234,"benedictione":10235,"felicis":10236,"boc":10237,"metropolitana":10238,"secundi":10239,"##enes":10240,"vinculo":10241,"prest":10242,"color":10243,"maneat":10244,"evol":10245,"sati":10246,"##acionem":10247,"geopolit":10248,"romanam":10249,"##ridge":10250,"spatio":10251,"desideria":10252,"##omet":10253,"publicum":10254,"pest":10255,"virgines":10256,"##orumque":10257,"##rasse":10258,"priore":10259,"83":10260,"expr":10261,"orta":10262,"liberat":10263,"even":10264,"##arari":10265,"severus":10266,"illib":10267,"edita":10268,"judicare":10269,"##ejus":10270,"##olem":10271,"laes":10272,"familias":10273,"##rich":10274,"opprim":10275,"ethn":10276,"librorum":10277,"##escant":10278,"##che":10279,"vicem":10280,"francogallice":10281,"interius":10282,"grave":10283,"arel":10284,"cris":10285,"constitutis":10286,"protectione":10287,"puerum":10288,"diac":10289,"age":10290,"praeceptis":10291,"##ricem":10292,"immob":10293,"negotia":10294,"veterum":10295,"synodi":10296,"intest":10297,"proficisc":10298,"geopoliticum":10299,"ug":10300,"reverentiam":10301,"##leb":10302,"concept":10303,"##dific":10304,"assert":10305,"##rax":10306,"vulnera":10307,"##acu":10308,"adest":10309,"dicitis":10310,"martinus":10311,"lapis":10312,"##iserit":10313,"neap":10314,"##uxerunt":10315,"propag":10316,"citius":10317,"pectore":10318,"140":10319,"archae":10320,"perfecte":10321,"feri":10322,"orthodox":10323,"margar":10324,"surrexit":10325,"##eck":10326,"concordia":10327,"america":10328,"pho":10329,"##alo":10330,"##igit":10331,"uniuers":10332,"bras":10333,"notis":10334,"orac":10335,"##ono":10336,"##ende":10337,"consule":10338,"olymp":10339,"industria":10340,"gentem":10341,"##imas":10342,"##ronom":10343,"##itz":10344,"cognomin":10345,"aetatem":10346,"bernardi":10347,"fiducia":10348,"gessit":10349,"caroli":10350,"harum":10351,"nept":10352,"displic":10353,"accedere":10354,"simplex":10355,"donavit":10356,"docere":10357,"distingu":10358,"caelum":10359,"##utam":10360,"superbi":10361,"nono":10362,"fui":10363,"τα":10364,"##vs":10365,"desuper":10366,"relax":10367,"##pol":10368,"fontem":10369,"necessario":10370,"societate":10371,"fuissent":10372,"atting":10373,"possessio":10374,"##ineant":10375,"relicta":10376,"acqui":10377,"cursum":10378,"1974":10379,"secundam":10380,"##ectos":10381,"numm":10382,"homilia":10383,"hieronymi":10384,"απο":10385,"##rico":10386,"mex":10387,"##redo":10388,"universi":10389,"perfectus":10390,"perl":10391,"spei":10392,"simulac":10393,"stetit":10394,"præf":10395,"obd":10396,"profund":10397,"impud":10398,"immacul":10399,"reliqui":10400,"eccli":10401,"quorumdam":10402,"cith":10403,"fict":10404,"uc":10405,"censa":10406,"samuel":10407,"but":10408,"nepos":10409,"nobili":10410,"artem":10411,"##taxat":10412,"87":10413,"inob":10414,"agat":10415,"evidenter":10416,"buc":10417,"tub":10418,"possis":10419,"destruct":10420,"exponit":10421,"cors":10422,"##edo":10423,"dignitas":10424,"predicti":10425,"honorum":10426,"rationes":10427,"subven":10428,"spiritualibus":10429,"ner":10430,"benigne":10431,"individ":10432,"vivunt":10433,"tribulatione":10434,"2018":10435,"lotharingia":10436,"##ossa":10437,"obtinuit":10438,"##ky":10439,"nostrarum":10440,"##pis":10441,"decimis":10442,"nubes":10443,"##inæ":10444,"aliisque":10445,"##ensione":10446,"misericors":10447,"##iora":10448,"ferro":10449,"mariam":10450,"##his":10451,"patef":10452,"futuram":10453,"pod":10454,"clero":10455,"81":10456,"jucund":10457,"ignosc":10458,"philosophia":10459,"futurorum":10460,"agendum":10461,"francia":10462,"abn":10463,"north":10464,"##parab":10465,"##els":10466,"refect":10467,"##olim":10468,"lucas":10469,"##erosolym":10470,"privilegia":10471,"gente":10472,"cels":10473,"latinus":10474,"silentium":10475,"hortatur":10476,"langobardia":10477,"hub":10478,"ll":10479,"verius":10480,"amicum":10481,"securus":10482,"cultum":10483,"irae":10484,"##ivum":10485,"cujusdam":10486,"aurei":10487,"matrimonio":10488,"##fredus":10489,"concub":10490,"consort":10491,"quemquam":10492,"redemptoris":10493,"pedemont":10494,"##iro":10495,"magistratus":10496,"##ituri":10497,"1971":10498,"##ημ":10499,"inquis":10500,"diligentius":10501,"catalog":10502,"jum":10503,"##dal":10504,"calicem":10505,"arct":10506,"convertit":10507,"solvere":10508,"##niae":10509,"commor":10510,"infel":10511,"natalis":10512,"materiam":10513,"quotiens":10514,"concip":10515,"instar":10516,"jejunium":10517,"als":10518,"carmina":10519,"bea":10520,"##ов":10521,"emp":10522,"petitionem":10523,"dimidium":10524,"contradictione":10525,"##ribitur":10526,"quintus":10527,"mendacium":10528,"dicte":10529,"peper":10530,"detur":10531,"##chi":10532,"##ourt":10533,"spi":10534,"infirmitatem":10535,"ear":10536,"##asi":10537,"carb":10538,"gravis":10539,"dumtaxat":10540,"##ionali":10541,"salvum":10542,"intuitu":10543,"mediae":10544,"flagell":10545,"##ater":10546,"rug":10547,"april":10548,"cognoscitur":10549,"brix":10550,"google":10551,"##ulia":10552,"forti":10553,"haereditatem":10554,"##abilia":10555,"novimus":10556,"unitas":10557,"interpell":10558,"agi":10559,"visit":10560,"ager":10561,"numeri":10562,"russiae":10563,"potissimum":10564,"scandali":10565,"orientem":10566,"videret":10567,"factae":10568,"gro":10569,"defuncto":10570,"credid":10571,"territorio":10572,"gloss":10573,"praedix":10574,"universalis":10575,"bav":10576,"incorp":10577,"intrare":10578,"venerat":10579,"muliere":10580,"wo":10581,"fors":10582,"actis":10583,"socrat":10584,"veron":10585,"inha":10586,"##ector":10587,"academiae":10588,"maiest":10589,"heret":10590,"##pas":10591,"clamat":10592,"competit":10593,"adipisci":10594,"reprehend":10595,"munimine":10596,"maritimae":10597,"plerisque":10598,"##ntur":10599,"##dei":10600,"parlam":10601,"existere":10602,"diceretur":10603,"honores":10604,"clara":10605,"sollicitudinem":10606,"##opolis":10607,"merces":10608,"##itisse":10609,"sentire":10610,"sufficere":10611,"byz":10612,"eunt":10613,"euch":10614,"legatis":10615,"uenerab":10616,"pœnit":10617,"##anensi":10618,"gallia":10619,"##iendi":10620,"mansi":10621,"##irca":10622,"##ungitur":10623,"##ibiles":10624,"##enne":10625,"##itteret":10626,"debes":10627,"julii":10628,"bulg":10629,"castro":10630,"injust":10631,"gratul":10632,"exercere":10633,"nobiles":10634,"vineam":10635,"serg":10636,"inventa":10637,"easdem":10638,"commissa":10639,"##ramque":10640,"matri":10641,"##oriam":10642,"##uln":10643,"latino":10644,"francicus":10645,"##ibunt":10646,"communiter":10647,"cibus":10648,"psalter":10649,"haereticorum":10650,"subaud":10651,"paschalis":10652,"hilarius":10653,"##inaria":10654,"insulam":10655,"operari":10656,"din":10657,"dicebatur":10658,"imperatori":10659,"negare":10660,"##mate":10661,"cuique":10662,"servitutem":10663,"praescript":10664,"προ":10665,"afflict":10666,"##plum":10667,"divinitatem":10668,"paradiso":10669,"praedicti":10670,"cost":10671,"##emin":10672,"adsc":10673,"xxxi":10674,"provinciarum":10675,"alieno":10676,"benedictio":10677,"noctur":10678,"##iosum":10679,"cibo":10680,"##ismus":10681,"scientes":10682,"carni":10683,"valeant":10684,"##αντ":10685,"repar":10686,"alienis":10687,"predictis":10688,"collegium":10689,"plate":10690,"##iante":10691,"referre":10692,"agnus":10693,"inquisit":10694,"fugam":10695,"guss":10696,"præcip":10697,"consistit":10698,"##ick":10699,"perfecti":10700,"dissimul":10701,"##pn":10702,"##ork":10703,"##000":10704,"impii":10705,"mam":10706,"inspir":10707,"creaturam":10708,"08":10709,"cere":10710,"##uitate":10711,"spiritalis":10712,"##voc":10713,"latinum":10714,"circuit":10715,"robert":10716,"sacerdotem":10717,"consurg":10718,"audivi":10719,"loquens":10720,"venisset":10721,"universum":10722,"electorum":10723,"tabernaculum":10724,"rej":10725,"germani":10726,"accommod":10727,"seduc":10728,"dignetur":10729,"##hr":10730,"praer":10731,"incid":10732,"majora":10733,"82":10734,"faciatis":10735,"##anu":10736,"##urab":10737,"caetero":10738,"facultas":10739,"vana":10740,"altum":10741,"aperuit":10742,"lacus":10743,"navis":10744,"preb":10745,"maritus":10746,"log":10747,"ui":10748,"##acensi":10749,"vindicare":10750,"leodiensis":10751,"amo":10752,"judicis":10753,"1975":10754,"##uk":10755,"quandam":10756,"curric":10757,"paterna":10758,"recuper":10759,"nimia":10760,"torqu":10761,"cognitionem":10762,"neder":10763,"divitiis":10764,"##ack":10765,"paulatim":10766,"implic":10767,"##ische":10768,"vincula":10769,"sabbati":10770,"##icii":10771,"##itudini":10772,"temporalibus":10773,"italicus":10774,"egredi":10775,"tormenta":10776,"pio":10777,"regionibus":10778,"superiore":10779,"anathema":10780,"alg":10781,"egregia":10782,"tele":10783,"tuarum":10784,"##eramus":10785,"uxores":10786,"angelo":10787,"medit":10788,"cogitare":10789,"tan":10790,"##eritas":10791,"nicolai":10792,"loquuntur":10793,"reperitur":10794,"ostenderet":10795,"iustitia":10796,"exstinct":10797,"videbantur":10798,"rogavit":10799,"derelinqu":10800,"decur":10801,"essentia":10802,"mentionem":10803,"hispanice":10804,"elementa":10805,"manuscript":10806,"repon":10807,"creata":10808,"calix":10809,"purific":10810,"consensum":10811,"sancimus":10812,"noverit":10813,"procre":10814,"##olas":10815,"legato":10816,"oliv":10817,"##atoria":10818,"##allis":10819,"conversatione":10820,"foedus":10821,"complex":10822,"##anv":10823,"medicam":10824,"gregorio":10825,"zo":10826,"##ings":10827,"tenore":10828,"robur":10829,"##ακ":10830,"firmare":10831,"celebrare":10832,"##hardus":10833,"domibus":10834,"ulc":10835,"promer":10836,"garumnae":10837,"struct":10838,"canonica":10839,"ausus":10840,"##issimas":10841,"assist":10842,"originem":10843,"axonae":10844,"anna":10845,"retract":10846,"psalmista":10847,"rat":10848,"archidioeces":10849,"pedilusor":10850,"uict":10851,"votum":10852,"##peram":10853,"venientes":10854,"##elia":10855,"##abeth":10856,"##pha":10857,"minorem":10858,"obtemper":10859,"fuga":10860,"vixit":10861,"1833":10862,"##qua":10863,"facite":10864,"regr":10865,"poenae":10866,"quindecim":10867,"longius":10868,"exterius":10869,"opusc":10870,"presbytero":10871,"sepultus":10872,"conform":10873,"valere":10874,"ratis":10875,"quaecumque":10876,"trinitas":10877,"incurs":10878,"vivo":10879,"irre":10880,"duran":10881,"vocibus":10882,"invol":10883,"pondere":10884,"vindictam":10885,"mix":10886,"rata":10887,"nolo":10888,"alicuius":10889,"##aremus":10890,"exh":10891,"##ologiam":10892,"carnot":10893,"porrig":10894,"##iculo":10895,"asia":10896,"generali":10897,"##ait":10898,"substitut":10899,"motu":10900,"scop":10901,"amal":10902,"isaias":10903,"##rensis":10904,"gravius":10905,"##εσ":10906,"debetur":10907,"redeunt":10908,"defendere":10909,"plene":10910,"testific":10911,"pomponius":10912,"regener":10913,"ingred":10914,"cis":10915,"church":10916,"oporteat":10917,"erg":10918,"generale":10919,"##quamur":10920,"offerre":10921,"obedientia":10922,"restat":10923,"plebe":10924,"immerito":10925,"tuæ":10926,"coepiscop":10927,"arvernia":10928,"maximianus":10929,"respicit":10930,"essem":10931,"##rahel":10932,"destr":10933,"subscripsit":10934,"theodisce":10935,"morb":10936,"tax":10937,"peruen":10938,"accend":10939,"transgress":10940,"ultro":10941,"alloqu":10942,"patriarcha":10943,"nederland":10944,"uiu":10945,"spiritualiter":10946,"quocumque":10947,"circumc":10948,"exem":10949,"##errim":10950,"vocari":10951,"mirabilia":10952,"##ester":10953,"1909":10954,"nonnulla":10955,"gunt":10956,"iuram":10957,"fame":10958,"vocabulo":10959,"##utos":10960,"maximi":10961,"1945":10962,"gaudere":10963,"peccatoribus":10964,"cœl":10965,"concili":10966,"permanere":10967,"aene":10968,"conuentus":10969,"adnot":10970,"cepit":10971,"nuc":10972,"##rabit":10973,"uxori":10974,"##urrere":10975,"crucifig":10976,"africae":10977,"flamma":10978,"##erata":10979,"persuad":10980,"##aly":10981,"accedit":10982,"divinitas":10983,"paucos":10984,"dy":10985,"##orius":10986,"humanitatis":10987,"quocirca":10988,"paene":10989,"sexaginta":10990,"similitudine":10991,"michaelis":10992,"fri":10993,"similem":10994,"scot":10995,"nomini":10996,"providentia":10997,"confessus":10998,"##iatus":10999,"##ilum":11000,"definit":11001,"diffin":11002,"##uctum":11003,"ecclesiasticam":11004,"mythist":11005,"##oso":11006,"morti":11007,"refertur":11008,"inimicorum":11009,"tolet":11010,"magnitudine":11011,"dotem":11012,"consid":11013,"redit":11014,"carnalis":11015,"probare":11016,"hierarch":11017,"hir":11018,"amph":11019,"assensum":11020,"plenam":11021,"trinitate":11022,"##estim":11023,"##arnis":11024,"miraculis":11025,"viscera":11026,"##vern":11027,"rediit":11028,"##cha":11029,"anglia":11030,"sanctimon":11031,"##aldum":11032,"##ode":11033,"galat":11034,"sedet":11035,"count":11036,"sublev":11037,"auditis":11038,"conjunct":11039,"beatitudinis":11040,"estote":11041,"##acem":11042,"##gi":11043,"intentio":11044,"singulas":11045,"infest":11046,"apert":11047,"credendum":11048,"suggest":11049,"coelestium":11050,"smith":11051,"ly":11052,"ses":11053,"##assent":11054,"gallic":11055,"marito":11056,"oculorum":11057,"lider":11058,"goff":11059,"cort":11060,"puni":11061,"rogamus":11062,"intravit":11063,"concupiscentia":11064,"episcopatum":11065,"saev":11066,"##laus":11067,"lanc":11068,"##esiae":11069,"audistis":11070,"digni":11071,"membrorum":11072,"##σιν":11073,"insist":11074,"defuncti":11075,"mortific":11076,"dilat":11077,"diligentia":11078,"optim":11079,"inferior":11080,"96":11081,"ferunt":11082,"##uan":11083,"dextris":11084,"systema":11085,"04":11086,"sententias":11087,"canonicus":11088,"acceperit":11089,"##las":11090,"intelligimus":11091,"##egreg":11092,"obsequio":11093,"##alus":11094,"sponsa":11095,"contrario":11096,"dilexit":11097,"1969":11098,"panes":11099,"restituere":11100,"redig":11101,"abstulit":11102,"iesu":11103,"##αθ":11104,"##itana":11105,"prioribus":11106,"sicc":11107,"daemones":11108,"05":11109,"##ietur":11110,"quartum":11111,"mentibus":11112,"nichola":11113,"resusc":11114,"duci":11115,"sigill":11116,"turris":11117,"infirmitas":11118,"vulgatis":11119,"##cem":11120,"provis":11121,"ducere":11122,"wa":11123,"martino":11124,"##icensis":11125,"##ling":11126,"##itationis":11127,"praeven":11128,"conferre":11129,"exsecut":11130,"quaestionem":11131,"sw":11132,"##onas":11133,"##ubst":11134,"scripsi":11135,"comites":11136,"eduardus":11137,"idipsum":11138,"nostræ":11139,"##ultis":11140,"duplex":11141,"##veh":11142,"auctoris":11143,"suspend":11144,"1946":11145,"nutr":11146,"##aet":11147,"addunt":11148,"moli":11149,"##emet":11150,"spoli":11151,"fet":11152,"##verter":11153,"cd":11154,"regiae":11155,"exced":11156,"##ellit":11157,"ite":11158,"interdictum":11159,"categoriae":11160,"dispend":11161,"evangeliz":11162,"aemul":11163,"aeris":11164,"agrip":11165,"provincias":11166,"area":11167,"differentia":11168,"foederalis":11169,"98":11170,"falso":11171,"accepto":11172,"##port":11173,"##edic":11174,"##ivis":11175,"reprehens":11176,"quædam":11177,"imagines":11178,"condidit":11179,"remota":11180,"uilla":11181,"plang":11182,"istas":11183,"feminae":11184,"nativitatis":11185,"repreh":11186,"loquor":11187,"certi":11188,"laurentii":11189,"oli":11190,"regalis":11191,"restitui":11192,"gregem":11193,"familiar":11194,"lyc":11195,"nica":11196,"peperit":11197,"##orqu":11198,"cle":11199,"acceper":11200,"truc":11201,"postulat":11202,"##usus":11203,"positi":11204,"principatum":11205,"diocletianus":11206,"miserab":11207,"conversationis":11208,"opinionem":11209,"quatinus":11210,"eugenius":11211,"occisus":11212,"civibus":11213,"promov":11214,"fum":11215,"##via":11216,"##quaque":11217,"##pec":11218,"gauf":11219,"##acti":11220,"##oct":11221,"palatium":11222,"93":11223,"##onus":11224,"pad":11225,"verae":11226,"deserv":11227,"invad":11228,"fiduciam":11229,"debitam":11230,"urs":11231,"chart":11232,"##mina":11233,"veritati":11234,"videant":11235,"##ette":11236,"abomin":11237,"appendiciis":11238,"##iterunt":11239,"fructibus":11240,"##idarum":11241,"##ostom":11242,"interesse":11243,"caeteros":11244,"ejusmodi":11245,"faciamus":11246,"missis":11247,"silvis":11248,"singulorum":11249,"quartam":11250,"##well":11251,"stor":11252,"orbit":11253,"##ulfo":11254,"##erte":11255,"##dp":11256,"sacco":11257,"##iensium":11258,"2019":11259,"senatu":11260,"tenebrarum":11261,"annuatim":11262,"lae":11263,"lif":11264,"tw":11265,"incomm":11266,"accipitur":11267,"massa":11268,"##iaci":11269,"deteri":11270,"flect":11271,"senator":11272,"decreto":11273,"##cs":11274,"figuram":11275,"temporalia":11276,"evas":11277,"plurimi":11278,"theodericus":11279,"novus":11280,"##risque":11281,"amant":11282,"cathedra":11283,"oblivisc":11284,"proxima":11285,"##istas":11286,"potestates":11287,"consequenter":11288,"gladius":11289,"extremum":11290,"menti":11291,"##eles":11292,"##istarum":11293,"##ischen":11294,"caeli":11295,"##wer":11296,"##ades":11297,"iudicem":11298,"cambridge":11299,"gord":11300,"1854":11301,"inferiori":11302,"concordiam":11303,"noverat":11304,"stad":11305,"pectus":11306,"thur":11307,"remov":11308,"specul":11309,"##atui":11310,"cogitatione":11311,"vineis":11312,"omnimodis":11313,"ferme":11314,"symmachus":11315,"rectius":11316,"praedictis":11317,"subjici":11318,"ημ":11319,"calce":11320,"rectum":11321,"salvatorem":11322,"facin":11323,"##allo":11324,"##ebitis":11325,"##ubi":11326,"pyrenaeorum":11327,"silva":11328,"##acis":11329,"wid":11330,"##anno":11331,"geh":11332,"evoc":11333,"senatores":11334,"maiorem":11335,"pietatem":11336,"##mannus":11337,"##upl":11338,"cognita":11339,"digest":11340,"archidiaconi":11341,"fortes":11342,"sponsus":11343,"##ομ":11344,"##elae":11345,"##uca":11346,"campo":11347,"casalis":11348,"##uine":11349,"significatur":11350,"devotionis":11351,"dimisit":11352,"tenebrae":11353,"nominatur":11354,"notat":11355,"creator":11356,"predecess":11357,"berolini":11358,"ras":11359,"augusta":11360,"ecclesiasticae":11361,"##cit":11362,"eliam":11363,"custodire":11364,"fisc":11365,"hipp":11366,"1968":11367,"jerosolym":11368,"israhel":11369,"crast":11370,"audita":11371,"senect":11372,"mulierum":11373,"beatitudinem":11374,"plebs":11375,"vern":11376,"creaturae":11377,"gabri":11378,"modi":11379,"spirituali":11380,"##racl":11381,"nc":11382,"justos":11383,"capitula":11384,"πε":11385,"##εγ":11386,"appareat":11387,"corporaliter":11388,"praesentes":11389,"hast":11390,"indice":11391,"ignomin":11392,"sodalis":11393,"##erantur":11394,"lax":11395,"aristot":11396,"superven":11397,"spiritui":11398,"noe":11399,"lacrim":11400,"dictionary":11401,"##imenta":11402,"tristitia":11403,"eumque":11404,"praedicto":11405,"##edam":11406,"acqu":11407,"absur":11408,"claust":11409,"06":11410,"agimus":11411,"læt":11412,"cognoscat":11413,"facientes":11414,"pontifice":11415,"innumerab":11416,"gussanv":11417,"##arm":11418,"accipiunt":11419,"subjecta":11420,"obedire":11421,"##uario":11422,"universitatem":11423,"nauf":11424,"ald":11425,"iuda":11426,"vocati":11427,"impiis":11428,"phot":11429,"##cell":11430,"tram":11431,"catholic":11432,"guer":11433,"extr":11434,"innov":11435,"pisces":11436,"salomonis":11437,"carol":11438,"athen":11439,"conciliab":11440,"confiteri":11441,"febr":11442,"exsec":11443,"priores":11444,"nasci":11445,"captus":11446,"amico":11447,"schola":11448,"concessum":11449,"##elmum":11450,"ligna":11451,"tort":11452,"marcell":11453,"resurrectio":11454,"vasc":11455,"astronom":11456,"alti":11457,"jugum":11458,"sepulcro":11459,"comitatum":11460,"94":11461,"##eu":11462,"exitus":11463,"##ancip":11464,"speci":11465,"optimum":11466,"britanniae":11467,"cardinales":11468,"regimen":11469,"possessionibus":11470,"vultu":11471,"sonat":11472,"pant":11473,"vivens":11474,"subjungit":11475,"utramque":11476,"evacu":11477,"abbates":11478,"heli":11479,"##iebant":11480,"prolix":11481,"##ebor":11482,"claudius":11483,"coha":11484,"aspici":11485,"sociis":11486,"nativitate":11487,"##ropter":11488,"domui":11489,"quanti":11490,"voluerunt":11491,"scul":11492,"totidem":11493,"clemens":11494,"donatio":11495,"brug":11496,"honorius":11497,"aen":11498,"urbi":11499,"raim":11500,"pellicularum":11501,"integritate":11502,"conscientiae":11503,"palatio":11504,"majores":11505,"ductus":11506,"gusta":11507,"impiorum":11508,"##erret":11509,"matthaeus":11510,"trop":11511,"petram":11512,"portu":11513,"perperam":11514,"##nte":11515,"periculis":11516,"fuere":11517,"potui":11518,"marm":11519,"eap":11520,"nee":11521,"ordinatus":11522,"furti":11523,"admirab":11524,"##nost":11525,"##unquam":11526,"##sig":11527,"valentinianus":11528,"quocunque":11529,"momenti":11530,"97":11531,"lucern":11532,"report":11533,"inobed":11534,"solvit":11535,"recessit":11536,"scripturam":11537,"versu":11538,"consulatum":11539,"rein":11540,"monasteria":11541,"##orb":11542,"terræ":11543,"procurator":11544,"sequens":11545,"temporalis":11546,"##undis":11547,"##plac":11548,"guillelmus":11549,"big":11550,"##ael":11551,"fini":11552,"##yri":11553,"teneat":11554,"##rantem":11555,"televis":11556,"##osae":11557,"segreg":11558,"supplicium":11559,"georgii":11560,"##pers":11561,"##istam":11562,"reclam":11563,"constru":11564,"sacerdotium":11565,"##norum":11566,"##ution":11567,"alac":11568,"magistrat":11569,"##ectura":11570,"spel":11571,"roberti":11572,"pastores":11573,"recol":11574,"notitia":11575,"aurea":11576,"reliquias":11577,"philosophi":11578,"efficitur":11579,"predicte":11580,"dionysii":11581,"##rect":11582,"##rup":11583,"chara":11584,"baptismi":11585,"##oed":11586,"actionis":11587,"satag":11588,"##eced":11589,"amis":11590,"augustinum":11591,"rite":11592,"audiunt":11593,"uirt":11594,"dato":11595,"arth":11596,"desert":11597,"hereditatis":11598,"respondens":11599,"quibuslibet":11600,"eique":11601,"pedum":11602,"naufrag":11603,"##narum":11604,"dominico":11605,"noscuntur":11606,"viderit":11607,"##οντ":11608,"##ibiliter":11609,"preterea":11610,"##rantibus":11611,"veh":11612,"poteris":11613,"criminis":11614,"animis":11615,"protest":11616,"elias":11617,"redditus":11618,"veniret":11619,"##intellig":11620,"sext":11621,"natis":11622,"petiit":11623,"equidem":11624,"ædific":11625,"sicilia":11626,"leonem":11627,"successorum":11628,"tractatus":11629,"decus":11630,"percept":11631,"exire":11632,"servitutis":11633,"ko":11634,"mosc":11635,"passio":11636,"mulieribus":11637,"arca":11638,"philippi":11639,"imprim":11640,"arrog":11641,"lucrum":11642,"utilitate":11643,"junii":11644,"curiam":11645,"compa":11646,"incumb":11647,"semina":11648,"ullus":11649,"sequentes":11650,"naturali":11651,"07":11652,"latr":11653,"herm":11654,"diurn":11655,"##igne":11656,"faut":11657,"consequens":11658,"dominio":11659,"actor":11660,"##etam":11661,"resip":11662,"life":11663,"actores":11664,"iniuriam":11665,"collata":11666,"crimin":11667,"tradita":11668,"toler":11669,"scelus":11670,"alieni":11671,"lusit":11672,"itineris":11673,"##bert":11674,"##ectorum":11675,"##inea":11676,"consequi":11677,"gubernatores":11678,"cicer":11679,"tep":11680,"##utia":11681,"rhet":11682,"assumpsit":11683,"ingenium":11684,"seqq":11685,"reipublicae":11686,"coactus":11687,"venturus":11688,"bol":11689,"vor":11690,"detract":11691,"equites":11692,"accepisse":11693,"##issimorum":11694,"##annem":11695,"xxix":11696,"cetero":11697,"archidioecesis":11698,"inibi":11699,"utilis":11700,"##allum":11701,"##iantes":11702,"aperta":11703,"mandavit":11704,"pericula":11705,"pericl":11706,"cultus":11707,"subditur":11708,"porc":11709,"pauperem":11710,"##ultus":11711,"fraude":11712,"sk":11713,"dominicam":11714,"hes":11715,"acceptum":11716,"maioris":11717,"mansit":11718,"##olae":11719,"occasio":11720,"##undiam":11721,"carp":11722,"indub":11723,"collis":11724,"loquar":11725,"interven":11726,"donationis":11727,"suscit":11728,"aliarum":11729,"frank":11730,"donamus":11731,"##dix":11732,"##mar":11733,"##ebimus":11734,"opes":11735,"marcellus":11736,"opinio":11737,"##ye":11738,"audientes":11739,"editionis":11740,"exposit":11741,"cher":11742,"comitissa":11743,"##der":11744,"##eorum":11745,"plut":11746,"ordinatione":11747,"##ες":11748,"##amenta":11749,"alterut":11750,"lond":11751,"facienda":11752,"cb":11753,"mansum":11754,"animabus":11755,"ope":11756,"fred":11757,"prophetia":11758,"##ebamus":11759,"praedictus":11760,"praedicare":11761,"doloris":11762,"iratus":11763,"##ten":11764,"quaero":11765,"uestra":11766,"dereliqu":11767,"deform":11768,"conventu":11769,"chir":11770,"discess":11771,"muros":11772,"instit":11773,"iuste":11774,"administrat":11775,"delicta":11776,"inferno":11777,"was":11778,"##iosi":11779,"visione":11780,"futurae":11781,"circums":11782,"##eci":11783,"minores":11784,"flet":11785,"mensa":11786,"designatur":11787,"iact":11788,"parad":11789,"τον":11790,"##af":11791,"##hl":11792,"graecorum":11793,"perfectionem":11794,"jean":11795,"commov":11796,"sanctitate":11797,"desol":11798,"fueris":11799,"census":11800,"##idiae":11801,"emancip":11802,"scribens":11803,"paratum":11804,"vico":11805,"generatio":11806,"crucifixus":11807,"ravenn":11808,"firmavit":11809,"muc":11810,"passiones":11811,"statuentes":11812,"consuet":11813,"##olio":11814,"##quebantur":11815,"inser":11816,"judicat":11817,"prodit":11818,"ipsae":11819,"veste":11820,"##alla":11821,"1970":11822,"constanter":11823,"consortio":11824,"flore":11825,"pignus":11826,"poetae":11827,"salvus":11828,"galliae":11829,"##pecc":11830,"iustitiam":11831,"pactum":11832,"anteri":11833,"iniquitates":11834,"sufficiat":11835,"nutri":11836,"barbar":11837,"adire":11838,"timet":11839,"##christ":11840,"exclam":11841,"quandoquidem":11842,"##post":11843,"misericorditer":11844,"hebraeo":11845,"credentium":11846,"eorumdem":11847,"furore":11848,"jov":11849,"##itul":11850,"infund":11851,"portum":11852,"##urare":11853,"dimic":11854,"singulari":11855,"generatione":11856,"cultu":11857,"##vel":11858,"terrest":11859,"91":11860,"##veri":11861,"judas":11862,"sabaudiae":11863,"arelat":11864,"refrig":11865,"institutus":11866,"pingu":11867,"titus":11868,"##atque":11869,"quamob":11870,"##pes":11871,"1964":11872,"sollicite":11873,"tertull":11874,"lanf":11875,"##uinus":11876,"alba":11877,"philippo":11878,"procedere":11879,"συν":11880,"insequ":11881,"custos":11882,"imitari":11883,"cm":11884,"fod":11885,"cujuslibet":11886,"bartholom":11887,"legata":11888,"superest":11889,"moer":11890,"paululum":11891,"##itura":11892,"testimoniis":11893,"exigere":11894,"##episcop":11895,"interpretes":11896,"lampad":11897,"scholae":11898,"avaritia":11899,"boll":11900,"##ultum":11901,"æt":11902,"supers":11903,"debetis":11904,"portionem":11905,"semetipso":11906,"perinde":11907,"puella":11908,"scandaliz":11909,"carnes":11910,"destitut":11911,"##sv":11912,"##yb":11913,"reum":11914,"presenti":11915,"pep":11916,"nonas":11917,"nemini":11918,"1861":11919,"pudic":11920,"cognoscit":11921,"lapidibus":11922,"dicerent":11923,"herac":11924,"exigit":11925,"cluniacensis":11926,"citat":11927,"imperfect":11928,"credentibus":11929,"conveniunt":11930,"erimus":11931,"majori":11932,"membrum":11933,"summus":11934,"invit":11935,"generationem":11936,"impetu":11937,"exitum":11938,"maius":11939,"inveniuntur":11940,"damna":11941,"saxoniae":11942,"patienter":11943,"necessitatibus":11944,"observare":11945,"date":11946,"##adis":11947,"francesco":11948,"mensam":11949,"ministris":11950,"reddat":11951,"gav":11952,"provinciis":11953,"supplicio":11954,"facerent":11955,"anathematis":11956,"##pti":11957,"dicentis":11958,"legatorum":11959,"sinistra":11960,"munda":11961,"aurem":11962,"bet":11963,"##ulem":11964,"indu":11965,"disting":11966,"quamobrem":11967,"decani":11968,"notam":11969,"praestat":11970,"foederatis":11971,"fauc":11972,"liquet":11973,"##icul":11974,"##uert":11975,"proposita":11976,"talium":11977,"consiliis":11978,"##uero":11979,"clementer":11980,"sali":11981,"conson":11982,"vulner":11983,"sorte":11984,"##ulphus":11985,"exprob":11986,"saluti":11987,"legitima":11988,"cenom":11989,"calend":11990,"conduct":11991,"willelmi":11992,"nefas":11993,"copiis":11994,"datis":11995,"franco":11996,"lector":11997,"liderici":11998,"desertum":11999,"extremo":12000,"##esceret":12001,"artium":12002,"dextra":12003,"conuent":12004,"vinct":12005,"somno":12006,"##imm":12007,"##ulisti":12008,"proxime":12009,"##ienda":12010,"nuptiis":12011,"totis":12012,"complect":12013,"##peret":12014,"haereticos":12015,"illibata":12016,"inuen":12017,"1933":12018,"commiss":12019,"inflam":12020,"resistere":12021,"fortassis":12022,"declarat":12023,"sun":12024,"quaerunt":12025,"oblitus":12026,"92":12027,"tenent":12028,"teneatur":12029,"alexandro":12030,"##ipsis":12031,"absolv":12032,"ortum":12033,"constring":12034,"fecisset":12035,"numeros":12036,"occidere":12037,"##eh":12038,"##ilud":12039,"communimus":12040,"##ialiter":12041,"austral":12042,"capta":12043,"salutaris":12044,"possibile":12045,"##aras":12046,"redemptor":12047,"lasc":12048,"conuen":12049,"##acto":12050,"antiquo":12051,"concessione":12052,"venturum":12053,"laed":12054,"##hac":12055,"praetorio":12056,"obviam":12057,"##mata":12058,"miraculum":12059,"##rach":12060,"praesidium":12061,"vicecom":12062,"presbyteris":12063,"meliorem":12064,"##uitas":12065,"requie":12066,"injuria":12067,"exempli":12068,"##ger":12069,"parati":12070,"benevol":12071,"suess":12072,"oppugn":12073,"integro":12074,"naturæ":12075,"mabill":12076,"capella":12077,"origo":12078,"suscipit":12079,"theodosio":12080,"##istica":12081,"dominici":12082,"attamen":12083,"econtra":12084,"extrema":12085,"richard":12086,"cancellarius":12087,"tornacensis":12088,"##pens":12089,"constantino":12090,"abundantia":12091,"cus":12092,"nationes":12093,"volebat":12094,"coniunct":12095,"medicina":12096,"incons":12097,"confestim":12098,"dedimus":12099,"confitetur":12100,"labia":12101,"maiores":12102,"cornu":12103,"##ueretur":12104,"##lie":12105,"##idos":12106,"##ugh":12107,"incl":12108,"politici":12109,"mereamur":12110,"acceperat":12111,"istorum":12112,"solius":12113,"predicto":12114,"indignum":12115,"iuc":12116,"##itii":12117,"infringere":12118,"odit":12119,"septentrionis":12120,"rati":12121,"prompt":12122,"habentem":12123,"magnitudinem":12124,"morbo":12125,"historica":12126,"designat":12127,"esiae":12128,"minima":12129,"humiles":12130,"canis":12131,"faciebat":12132,"somn":12133,"facinus":12134,"opem":12135,"alto":12136,"publish":12137,"praedicatione":12138,"apollin":12139,"lata":12140,"cohib":12141,"##eptio":12142,"ducentesimo":12143,"portae":12144,"accipiens":12145,"03":12146,"dunt":12147,"funct":12148,"viventium":12149,"intelligentiam":12150,"cancellarii":12151,"sv":12152,"##oram":12153,"##iang":12154,"praecess":12155,"principi":12156,"igni":12157,"præt":12158,"pallad":12159,"##ado":12160,"speciali":12161,"gentiles":12162,"ineb":12163,"processit":12164,"aequalis":12165,"cantabrigiae":12166,"gaz":12167,"dimittere":12168,"ka":12169,"##esque":12170,"era":12171,"##itiones":12172,"fortitudinem":12173,"##enso":12174,"plor":12175,"##deus":12176,"dubsig":12177,"htt":12178,"##ecisse":12179,"ferd":12180,"##ribi":12181,"superna":12182,"divi":12183,"cornelius":12184,"posuerunt":12185,"strat":12186,"matisc":12187,"alpium":12188,"tric":12189,"versio":12190,"absolute":12191,"januarii":12192,"baptismatis":12193,"praecepto":12194,"machin":12195,"rudol":12196,"intulit":12197,"profundum":12198,"mant":12199,"ferrum":12200,"ostendens":12201,"tyr":12202,"##any":12203,"sequatur":12204,"hieron":12205,"dulcis":12206,"zen":12207,"##raverunt":12208,"agrum":12209,"quæst":12210,"placitum":12211,"diabol":12212,"equitum":12213,"basilicam":12214,"formae":12215,"casa":12216,"universo":12217,"custodit":12218,"liger":12219,"percussit":12220,"##stein":12221,"innocentii":12222,"conciliabulum":12223,"##iori":12224,"auc":12225,"conculc":12226,"significare":12227,"orientis":12228,"sinus":12229,"1930":12230,"humanitatem":12231,"accurate":12232,"carolo":12233,"eamque":12234,"ignorat":12235,"sorores":12236,"paschae":12237,"flavius":12238,"inesse":12239,"emerit":12240,"##pert":12241,"fecund":12242,"sentit":12243,"campis":12244,"regiam":12245,"nolunt":12246,"##itarum":12247,"sich":12248,"indicium":12249,"filias":12250,"jacobi":12251,"dicas":12252,"erum":12253,"constitutionem":12254,"gentilium":12255,"vindob":12256,"satisfactione":12257,"taed":12258,"indices":12259,"utilitas":12260,"veterem":12261,"quaesitum":12262,"juni":12263,"suburb":12264,"servitio":12265,"johannes":12266,"utuntur":12267,"##uerent":12268,"christiano":12269,"istae":12270,"##ussa":12271,"revol":12272,"eapropter":12273,"1967":12274,"profectum":12275,"conatus":12276,"resign":12277,"esper":12278,"1920":12279,"securi":12280,"audiamus":12281,"amicorum":12282,"similitudo":12283,"mitter":12284,"ago":12285,"avers":12286,"genes":12287,"dissens":12288,"##iff":12289,"##eretis":12290,"electis":12291,"vap":12292,"liberavit":12293,"adjecit":12294,"marci":12295,"##abas":12296,"tabulas":12297,"##yer":12298,"stephano":12299,"##αγ":12300,"egred":12301,"fis":12302,"nu":12303,"1918":12304,"notus":12305,"import":12306,"proclam":12307,"singularis":12308,"substitu":12309,"##atav":12310,"incertum":12311,"decano":12312,"militis":12313,"conval":12314,"corrup":12315,"patiatur":12316,"contentus":12317,"absunt":12318,"certis":12319,"solidum":12320,"superbiae":12321,"##chis":12322,"famam":12323,"rectores":12324,"argento":12325,"1965":12326,"audierunt":12327,"##rob":12328,"transgr":12329,"permisit":12330,"##rica":12331,"scitis":12332,"##psi":12333,"indulgentiam":12334,"##domin":12335,"audiat":12336,"vale":12337,"##xerunt":12338,"socius":12339,"indicans":12340,"01":12341,"lass":12342,"abol":12343,"##illos":12344,"##inan":12345,"##ularia":12346,"pridem":12347,"dicet":12348,"ingenti":12349,"attende":12350,"##icunque":12351,"interitum":12352,"litem":12353,"iudae":12354,"salvos":12355,"persecutionem":12356,"1950":12357,"christe":12358,"gaudet":12359,"xxxv":12360,"providere":12361,"consulibus":12362,"popularis":12363,"illico":12364,"ostent":12365,"tomo":12366,"aduersus":12367,"constantia":12368,"quesnellus":12369,"includ":12370,"##asius":12371,"diocl":12372,"diis":12373,"##iste":12374,"insidiis":12375,"proven":12376,"asiae":12377,"oblatione":12378,"cogitationibus":12379,"##iperent":12380,"quodque":12381,"possed":12382,"minore":12383,"aegyptum":12384,"clementiam":12385,"videtis":12386,"diversas":12387,"social":12388,"naves":12389,"grex":12390,"##our":12391,"eccl":12392,"minoris":12393,"creatoris":12394,"oss":12395,"monachum":12396,"##haus":12397,"britannia":12398,"russice":12399,"poenis":12400,"consuevit":12401,"prouinc":12402,"02":12403,"meg":12404,"acies":12405,"ministros":12406,"admonet":12407,"burgundia":12408,"ricardus":12409,"bitur":12410,"abrog":12411,"monumentum":12412,"pann":12413,"##edum":12414,"adquir":12415,"discrep":12416,"repetit":12417,"eusebius":12418,"impetus":12419,"margine":12420,"##agesimo":12421,"dabitur":12422,"vesc":12423,"##ew":12424,"##roph":12425,"fundo":12426,"##rec":12427,"##ington":12428,"sanctæ":12429,"##angel":12430,"##uda":12431,"longinqu":12432,"##uil":12433,"##ulisset":12434,"observari":12435,"cognovimus":12436,"##iacus":12437,"sebast":12438,"adst":12439,"muneris":12440,"agni":12441,"flumine":12442,"fraternitati":12443,"perire":12444,"abba":12445,"plenitudinem":12446,"caed":12447,"##cre":12448,"horre":12449,"revocare":12450,"##amina":12451,"##ova":12452,"appellationis":12453,"haereticis":12454,"eram":12455,"dubis":12456,"meritorum":12457,"maledict":12458,"quir":12459,"servitium":12460,"abbatia":12461,"ultimo":12462,"votis":12463,"amput":12464,"times":12465,"proposuit":12466,"mansuet":12467,"##ney":12468,"##aturi":12469,"habitant":12470,"hun":12471,"trip":12472,"promittit":12473,"studuit":12474,"##iore":12475,"##inemus":12476,"gregis":12477,"complac":12478,"coelestem":12479,"satell":12480,"quampl":12481,"constitutionis":12482,"ebriet":12483,"suprem":12484,"mcc":12485,"timoris":12486,"andeg":12487,"clarific":12488,"datam":12489,"##als":12490,"honoribus":12491,"defensione":12492,"saturn":12493,"ping":12494,"##ken":12495,"valens":12496,"superiorem":12497,"##λλ":12498,"apprehend":12499,"ordinationem":12500,"sollemn":12501,"voto":12502,"##amento":12503,"adt":12504,"picardia":12505,"arrip":12506,"vestibus":12507,"contendit":12508,"hereditas":12509,"zelo":12510,"##gard":12511,"##illy":12512,"vituper":12513,"vivat":12514,"implor":12515,"errores":12516,"livius":12517,"erubesc":12518,"resol":12519,"divulg":12520,"tell":12521,"grande":12522,"incogn":12523,"celebr":12524,"norv":12525,"meliora":12526,"deesse":12527,"cadit":12528,"##fort":12529,"conversi":12530,"christianum":12531,"prag":12532,"chord":12533,"sto":12534,"##positis":12535,"redemp":12536,"##oco":12537,"disposit":12538,"##elt":12539,"dimis":12540,"medici":12541,"graecum":12542,"significant":12543,"majoribus":12544,"##enl":12545,"iussu":12546,"tristis":12547,"peter":12548,"ingem":12549,"##ison":12550,"examine":12551,"posteris":12552,"restituit":12553,"torp":12554,"##anea":12555,"sciant":12556,"saecularis":12557,"mariti":12558,"sacrificia":12559,"octava":12560,"kir":12561,"venientem":12562,"caesarem":12563,"undecim":12564,"ja":12565,"primitus":12566,"curavit":12567,"charta":12568,"conjung":12569,"nominatus":12570,"pour":12571,"105":12572,"##ennio":12573,"ferdin":12574,"09":12575,"##zz":12576,"solito":12577,"commemorat":12578,"sinistram":12579,"nas":12580,"##eceb":12581,"plinius":12582,"falc":12583,"perdidit":12584,"exhibet":12585,"meæ":12586,"tue":12587,"sollicitus":12588,"nab":12589,"dimin":12590,"##rido":12591,"faust":12592,"dcc":12593,"##næ":12594,"plantarum":12595,"frumenti":12596,"idemque":12597,"pontifices":12598,"uinc":12599,"promissionis":12600,"comparatione":12601,"##isch":12602,"excess":12603,"monasteriis":12604,"##xi":12605,"opprobrium":12606,"arbores":12607,"1961":12608,"violenter":12609,"qualitate":12610,"impressione":12611,"videndum":12612,"hem":12613,"quaeris":12614,"ein":12615,"hell":12616,"##oldi":12617,"esi":12618,"slov":12619,"tis":12620,"##ovi":12621,"permittit":12622,"sacramenti":12623,"puero":12624,"##arist":12625,"prog":12626,"##ava":12627,"malitiam":12628,"sororem":12629,"quiesc":12630,"aliquatenus":12631,"audiant":12632,"diluv":12633,"artibus":12634,"labiis":12635,"##otam":12636,"##atiz":12637,"natali":12638,"brunsv":12639,"##mas":12640,"aliunde":12641,"sperare":12642,"miseri":12643,"loquimur":12644,"guid":12645,"interretiali":12646,"ausu":12647,"helvetiae":12648,"##stad":12649,"negleg":12650,"oh":12651,"textum":12652,"mandati":12653,"vigilia":12654,"insignia":12655,"adiut":12656,"heinricus":12657,"uirg":12658,"solebat":12659,"lacrymas":12660,"circumst":12661,"york":12662,"##iculi":12663,"germanice":12664,"ingens":12665,"##mer":12666,"cuidam":12667,"operatus":12668,"titio":12669,"##quot":12670,"lectiones":12671,"society":12672,"duodec":12673,"##iad":12674,"perenn":12675,"viat":12676,"vivendi":12677,"conditor":12678,"nationalem":12679,"respectu":12680,"viventes":12681,"1963":12682,"##ama":12683,"particeps":12684,"uill":12685,"epit":12686,"1940":12687,"pseud":12688,"scriptorum":12689,"##deo":12690,"atr":12691,"godefridus":12692,"##uno":12693,"comme":12694,"##bach":12695,"agros":12696,"donis":12697,"1947":12698,"quartus":12699,"circuli":12700,"abbatibus":12701,"damnatus":12702,"linguarum":12703,"mogunt":12704,"##eratis":12705,"deper":12706,"assidue":12707,"arat":12708,"1919":12709,"graecia":12710,"fugere":12711,"invidiam":12712,"locupl":12713,"instr":12714,"ceteri":12715,"1966":12716,"cupiditate":12717,"##randus":12718,"superiorum":12719,"tenentur":12720,"1948":12721,"videbitur":12722,"dixisti":12723,"poem":12724,"evan":12725,"nocere":12726,"james":12727,"graecus":12728,"discipulorum":12729,"servitute":12730,"los":12731,"##issemus":12732,"relictis":12733,"baptisma":12734,"prudentiam":12735,"pacifice":12736,"consideratione":12737,"##axat":12738,"latinis":12739,"carnalibus":12740,"uniusc":12741,"divitiarum":12742,"cuiquam":12743,"praerog":12744,"prava":12745,"librarum":12746,"sanctitas":12747,"vitis":12748,"moram":12749,"fortitudine":12750,"sauc":12751,"rector":12752,"professores":12753,"optima":12754,"copiam":12755,"coeperit":12756,"johannis":12757,"catech":12758,"tutor":12759,"ingenii":12760,"tus":12761,"positis":12762,"regnare":12763,"##rod":12764,"sumpsit":12765,"illarum":12766,"guido":12767,"ευ":12768,"accipe":12769,"tradere":12770,"pastoris":12771,"##irem":12772,"##ramur":12773,"firmitatem":12774,"##quae":12775,"possitis":12776,"remis":12777,"trices":12778,"universae":12779,"disser":12780,"antichrist":12781,"exag":12782,"apri":12783,"inca":12784,"sn":12785,"tarnis":12786,"uend":12787,"praefatum":12788,"nonnunquam":12789,"hieronymo":12790,"laicis":12791,"iudicis":12792,"consortium":12793,"superfic":12794,"http":12795,"##ογ":12796,"uet":12797,"inspi":12798,"dicturus":12799,"onera":12800,"metus":12801,"explan":12802,"adjutorium":12803,"praedicatores":12804,"mark":12805,"##unl":12806,"congrua":12807,"psalmis":12808,"victoriae":12809,"rag":12810,"uic":12811,"##ulch":12812,"pren":12813,"visio":12814,"##rabant":12815,"antoninus":12816,"instrumenta":12817,"impius":12818,"sequentia":12819,"thesauri":12820,"pist":12821,"valerius":12822,"1962":12823,"diplom":12824,"##oe":12825,"indiu":12826,"recit":12827,"praesente":12828,"##estiis":12829,"encyclopaed":12830,"##etes":12831,"creatorem":12832,"confessionis":12833,"idololat":12834,"##unensi":12835,"decime":12836,"anglic":12837,"deport":12838,"cadaver":12839,"agricult":12840,"consanguine":12841,"quing":12842,"inquiunt":12843,"laudate":12844,"oceani":12845,"ak":12846,"##ellas":12847,"dedisse":12848,"##æm":12849,"##ordia":12850,"feodum":12851,"badeniae":12852,"##itanice":12853,"diligunt":12854,"dialog":12855,"proelio":12856,"sedere":12857,"syl":12858,"apocaly":12859,"laudare":12860,"sess":12861,"exar":12862,"emitt":12863,"cartam":12864,"discut":12865,"dixerim":12866,"clarus":12867,"##εως":12868,"voluc":12869,"##arct":12870,"divinitate":12871,"surge":12872,"certamine":12873,"genitricis":12874,"quietem":12875,"sina":12876,"flex":12877,"sponsi":12878,"patrocinio":12879,"##iast":12880,"creatur":12881,"virtembergiae":12882,"corusc":12883,"angusti":12884,"ignorantia":12885,"prohibet":12886,"sibimet":12887,"hypoc":12888,"##igur":12889,"labori":12890,"herede":12891,"dehinc":12892,"alim":12893,"potentiae":12894,"justinianus":12895,"suspect":12896,"ubicumque":12897,"abdic":12898,"charissime":12899,"missarum":12900,"hilar":12901,"civili":12902,"##hire":12903,"pridie":12904,"vestis":12905,"eorumque":12906,"notarius":12907,"octog":12908,"baptista":12909,"##fa":12910,"iubet":12911,"spelunc":12912,"codicis":12913,"aciem":12914,"inimicum":12915,"1957":12916,"indiuid":12917,"##vac":12918,"stabilis":12919,"crescit":12920,"oritur":12921,"sincer":12922,"praepositus":12923,"utrisque":12924,"coloss":12925,"byzant":12926,"latinae":12927,"senatum":12928,"lectum":12929,"dap":12930,"visionem":12931,"remigii":12932,"##iew":12933,"antonio":12934,"106":12935,"maximam":12936,"dederat":12937,"prudens":12938,"lavac":12939,"ceciderunt":12940,"mortalium":12941,"pes":12942,"##anem":12943,"##undam":12944,"pascuis":12945,"gy":12946,"hostiam":12947,"profutura":12948,"militia":12949,"nesciunt":12950,"deriv":12951,"caer":12952,"constet":12953,"amicitia":12954,"##ск":12955,"vestem":12956,"hard":12957,"##ομεν":12958,"##itta":12959,"1944":12960,"excog":12961,"credatur":12962,"lepr":12963,"lemovic":12964,"##alta":12965,"contag":12966,"deprehend":12967,"περι":12968,"og":12969,"firmum":12970,"victoris":12971,"nescimus":12972,"##bit":12973,"delictum":12974,"meridionalis":12975,"sanitatem":12976,"alienus":12977,"clamor":12978,"ki":12979,"plect":12980,"##pres":12981,"##cemodi":12982,"furor":12983,"collegii":12984,"math":12985,"archive":12986,"praedicatur":12987,"cogitatio":12988,"1936":12989,"proprietatem":12990,"introduct":12991,"infirmitatis":12992,"gubernator":12993,"relinquere":12994,"##ergo":12995,"secreto":12996,"diutur":12997,"cognitio":12998,"furtum":12999,"lapide":13000,"##ricum":13001,"generi":13002,"##ulla":13003,"grac":13004,"sapere":13005,"loquendi":13006,"exsting":13007,"dominae":13008,"futurus":13009,"##averant":13010,"hodiernarum":13011,"esperant":13012,"−0":13013,"##nm":13014,"altius":13015,"ens":13016,"interpretatio":13017,"contenti":13018,"terg":13019,"obedi":13020,"leuc":13021,"batt":13022,"international":13023,"##kes":13024,"210":13025,"intentionem":13026,"velint":13027,"coqu":13028,"##erson":13029,"1959":13030,"##οπ":13031,"despon":13032,"præm":13033,"circumf":13034,"irrig":13035,"xxxvi":13036,"##ματ":13037,"##imil":13038,"castello":13039,"condicio":13040,"dignoscitur":13041,"interpres":13042,"permanet":13043,"vertit":13044,"fraudem":13045,"plurimos":13046,"##sam":13047,"candel":13048,"patriarchae":13049,"bri":13050,"paucorum":13051,"sæculi":13052,"##kins":13053,"##estius":13054,"desin":13055,"##posito":13056,"valer":13057,"iniuria":13058,"aeterno":13059,"pontifici":13060,"proprii":13061,"odorem":13062,"jacobus":13063,"criminibus":13064,"commodum":13065,"veniant":13066,"aves":13067,"1949":13068,"religiosis":13069,"ze":13070,"desist":13071,"cognitione":13072,"##ilianus":13073,"haer":13074,"passi":13075,"sacramentis":13076,"fisco":13077,"paradisi":13078,"##pexit":13079,"##epto":13080,"singulariter":13081,"dioecesi":13082,"oculo":13083,"hoste":13084,"1932":13085,"1929":13086,"offert":13087,"iustum":13088,"tribulationibus":13089,"europa":13090,"cardina":13091,"vesti":13092,"servat":13093,"simulque":13094,"defunctus":13095,"insult":13096,"##ectig":13097,"aevo":13098,"gos":13099,"joc":13100,"sumps":13101,"jon":13102,"##redus":13103,"direx":13104,"sabbatum":13105,"prepositi":13106,"vidu":13107,"imperatorum":13108,"fierent":13109,"spiritualem":13110,"thomae":13111,"escam":13112,"deitatis":13113,"electio":13114,"valetud":13115,"wolf":13116,"brux":13117,"xxxiv":13118,"pii":13119,"motum":13120,"columba":13121,"preter":13122,"elaboratus":13123,"fruc":13124,"aeterni":13125,"mulieri":13126,"sanctitatem":13127,"oblata":13128,"nau":13129,"pugnam":13130,"deficit":13131,"cs":13132,"lag":13133,"sedi":13134,"dicite":13135,"uolumus":13136,"aes":13137,"ques":13138,"115":13139,"actrix":13140,"mutare":13141,"felici":13142,"parvulis":13143,"colligitur":13144,"inced":13145,"invenerunt":13146,"tribunal":13147,"fenum":13148,"implevit":13149,"politicus":13150,"promissum":13151,"sustinuit":13152,"##byter":13153,"exeunt":13154,"respice":13155,"simplici":13156,"luminis":13157,"heu":13158,"meridie":13159,"tempestate":13160,"despici":13161,"praetere":13162,"montium":13163,"1956":13164,"duntaxat":13165,"##rice":13166,"episcopalis":13167,"artes":13168,"juvent":13169,"galilae":13170,"ort":13171,"bonitate":13172,"suscipimus":13173,"eligere":13174,"calumni":13175,"maio":13176,"fluctus":13177,"##igny":13178,"ullum":13179,"##eremur":13180,"daemonum":13181,"imbec":13182,"prosc":13183,"acie":13184,"tantus":13185,"##ave":13186,"nouerit":13187,"defensionem":13188,"exordio":13189,"forsan":13190,"##onos":13191,"##quæ":13192,"rogat":13193,"republic":13194,"##ece":13195,"##arat":13196,"scriptus":13197,"presentis":13198,"fortunae":13199,"concessimus":13200,"bin":13201,"vivis":13202,"vienn":13203,"præd":13204,"nobel":13205,"sempiternum":13206,"xliv":13207,"##endens":13208,"quaelibet":13209,"paenit":13210,"moenia":13211,"palaest":13212,"iusta":13213,"regulariter":13214,"venerabilem":13215,"tabulis":13216,"cuncti":13217,"##ulsi":13218,"electos":13219,"eun":13220,"##uunt":13221,"##unctio":13222,"novis":13223,"radice":13224,"bed":13225,"ritus":13226,"delib":13227,"strep":13228,"socios":13229,"sensit":13230,"eruditi":13231,"sos":13232,"velis":13233,"1953":13234,"han":13235,"##iciunt":13236,"isdem":13237,"eoque":13238,"curiae":13239,"praedia":13240,"martian":13241,"expell":13242,"traditur":13243,"discept":13244,"baptizati":13245,"uestre":13246,"centes":13247,"commissum":13248,"cantor":13249,"odo":13250,"davide":13251,"versum":13252,"prudenter":13253,"net":13254,"michi":13255,"consolationem":13256,"andreae":13257,"gand":13258,"tes":13259,"benedixit":13260,"credat":13261,"cxviii":13262,"pale":13263,"##ude":13264,"subjecit":13265,"##inv":13266,"distric":13267,"ordinibus":13268,"reliquum":13269,"damus":13270,"220":13271,"protulit":13272,"professionem":13273,"pura":13274,"colore":13275,"##unus":13276,"essemus":13277,"eloquia":13278,"hall":13279,"epiphan":13280,"##imos":13281,"celebratur":13282,"spern":13283,"privilegiis":13284,"potent":13285,"septima":13286,"appellationem":13287,"caesari":13288,"nititur":13289,"synagoga":13290,"##endorum":13291,"videbunt":13292,"inventum":13293,"visu":13294,"senior":13295,"fidelem":13296,"joanni":13297,"ancilla":13298,"libellum":13299,"dissolv":13300,"supplicia":13301,"mysterio":13302,"civis":13303,"septim":13304,"hierarchy":13305,"seped":13306,"papinianus":13307,"restit":13308,"ludovici":13309,"æst":13310,"##etsi":13311,"salis":13312,"prohibemus":13313,"fenest":13314,"##uerimus":13315,"debitor":13316,"diuina":13317,"adjutor":13318,"europaeae":13319,"##antas":13320,"laici":13321,"##eptis":13322,"anglica":13323,"conscript":13324,"aegrot":13325,"dr":13326,"##edes":13327,"arom":13328,"latet":13329,"castri":13330,"##oire":13331,"venetia":13332,"patiuntur":13333,"viriliter":13334,"##140":13335,"norveg":13336,"1924":13337,"dimitte":13338,"neglex":13339,"repper":13340,"celebrat":13341,"auth":13342,"appellari":13343,"1958":13344,"##ορ":13345,"ada":13346,"##agi":13347,"edicto":13348,"noctu":13349,"1928":13350,"trident":13351,"rus":13352,"intrat":13353,"carnales":13354,"ioanne":13355,"##elph":13356,"capi":13357,"brut":13358,"verlag":13359,"lucerna":13360,"conditionis":13361,"ts":13362,"imitat":13363,"praedicationem":13364,"detrimentum":13365,"praeg":13366,"fecerint":13367,"1952":13368,"##ext":13369,"causid":13370,"postula":13371,"bibl":13372,"lamb":13373,"laborare":13374,"sedens":13375,"appellatus":13376,"citra":13377,"ritu":13378,"dixitque":13379,"seque":13380,"homil":13381,"victum":13382,"monacho":13383,"missae":13384,"renasc":13385,"consecutus":13386,"universos":13387,"presbyteros":13388,"duplici":13389,"universam":13390,"attent":13391,"soluta":13392,"supernae":13393,"contingat":13394,"cluniacensi":13395,"exort":13396,"minuere":13397,"118":13398,"inopia":13399,"eul":13400,"##asii":13401,"autum":13402,"praesidio":13403,"##osam":13404,"adeptus":13405,"animalibus":13406,"aedes":13407,"1931":13408,"satisfactionem":13409,"aderant":13410,"seruit":13411,"tene":13412,"urbibus":13413,"##atæ":13414,"proprias":13415,"##enciam":13416,"proficere":13417,"subni":13418,"memento":13419,"carnaliter":13420,"morbi":13421,"opinione":13422,"classics":13423,"qni":13424,"gloriosa":13425,"nationum":13426,"##ski":13427,"##vest":13428,"##aberis":13429,"opul":13430,"redund":13431,"castitatis":13432,"associ":13433,"licere":13434,"##ome":13435,"locuti":13436,"praedicat":13437,"oportebat":13438,"conversa":13439,"obedientiae":13440,"ruina":13441,"sæpe":13442,"vivus":13443,"praemio":13444,"martyrium":13445,"cep":13446,"cæc":13447,"ageret":13448,"roberto":13449,"equis":13450,"##ivo":13451,"mortalis":13452,"immod":13453,"seniores":13454,"consuetudines":13455,"serpens":13456,"dar":13457,"##itionibus":13458,"etym":13459,"##ster":13460,"dicendi":13461,"debeo":13462,"operi":13463,"cameracensis":13464,"##ecuti":13465,"spont":13466,"vellent":13467,"corrigere":13468,"alumnus":13469,"munific":13470,"adjac":13471,"agripp":13472,"innocens":13473,"plaga":13474,"factio":13475,"martio":13476,"##ictorum":13477,"aestu":13478,"##inii":13479,"##annus":13480,"sententiis":13481,"constantini":13482,"1914":13483,"augmentum":13484,"judaea":13485,"scis":13486,"103":13487,"##eney":13488,"adiuv":13489,"inconc":13490,"novissima":13491,"##lat":13492,"inco":13493,"operationem":13494,"domic":13495,"confessoris":13496,"americana":13497,"contemplatione":13498,"nominatim":13499,"curtem":13500,"antiquitus":13501,"ascrib":13502,"effectu":13503,"advenit":13504,"visceribus":13505,"gut":13506,"constiterit":13507,"suppon":13508,"deced":13509,"edific":13510,"1955":13511,"sime":13512,"peccatoris":13513,"percipere":13514,"vultum":13515,"captivitatem":13516,"pab":13517,"liceret":13518,"mu":13519,"vv":13520,"##aturam":13521,"faciendo":13522,"culpae":13523,"sciebat":13524,"infernum":13525,"##exa":13526,"urbium":13527,"carta":13528,"##hn":13529,"contineri":13530,"intrinsecus":13531,"periodus":13532,"tob":13533,"109":13534,"perpetu":13535,"proprius":13536,"pierre":13537,"bil":13538,"111":13539,"perdere":13540,"iaponiae":13541,"conradus":13542,"dicemus":13543,"sufficienter":13544,"##jud":13545,"xxxvii":13546,"controversia":13547,"nord":13548,"##ρω":13549,"raro":13550,"superf":13551,"inferni":13552,"##ptera":13553,"auditum":13554,"liberari":13555,"quintum":13556,"sonus":13557,"cedere":13558,"##μα":13559,"redi":13560,"croat":13561,"styl":13562,"##aciam":13563,"chl":13564,"trunc":13565,"##iense":13566,"music":13567,"instrumentum":13568,"1925":13569,"parere":13570,"ascendere":13571,"insignis":13572,"massachus":13573,"flores":13574,"philosophiae":13575,"quamlibet":13576,"frem":13577,"dilectum":13578,"careat":13579,"##alli":13580,"generat":13581,"eaque":13582,"altitudinem":13583,"praejudic":13584,"relicto":13585,"torino":13586,"æternum":13587,"##jam":13588,"pede":13589,"jejunio":13590,"agnoscere":13591,"curae":13592,"dag":13593,"audito":13594,"ostendat":13595,"judica":13596,"scientiarum":13597,"##abilibus":13598,"##iscip":13599,"coeper":13600,"##unae":13601,"commisit":13602,"ullam":13603,"gabriel":13604,"##ιστ":13605,"codic":13606,"loquatur":13607,"appellare":13608,"noluerunt":13609,"transmitt":13610,"quendam":13611,"indicia":13612,"andegav":13613,"##esit":13614,"certus":13615,"varias":13616,"##ecerat":13617,"electum":13618,"martyrii":13619,"##iario":13620,"nuncupatur":13621,"dres":13622,"murum":13623,"genua":13624,"proferre":13625,"querela":13626,"infideli":13627,"##yph":13628,"therm":13629,"damnationem":13630,"##hu":13631,"competere":13632,"tuba":13633,"cupit":13634,"abbatissa":13635,"illeceb":13636,"ambrosii":13637,"##loc":13638,"prand":13639,"rayn":13640,"program":13641,"##aea":13642,"##adi":13643,"nominum":13644,"necessitatis":13645,"##rabo":13646,"recipiat":13647,"dionysius":13648,"##chen":13649,"censura":13650,"sainte":13651,"laetitiam":13652,"ovium":13653,"piis":13654,"##oir":13655,"exemplaria":13656,"uv":13657,"matern":13658,"benev":13659,"familiaris":13660,"eleemosynam":13661,"sand":13662,"##sanct":13663,"antiquum":13664,"austr":13665,"lot":13666,"##ts":13667,"##ypt":13668,"eccle":13669,"##inger":13670,"compass":13671,"lapsus":13672,"transtulit":13673,"rothomag":13674,"##onensem":13675,"dietae":13676,"conspici":13677,"recordationis":13678,"credamus":13679,"geographica":13680,"pastorem":13681,"proximus":13682,"longitudo":13683,"hie":13684,"aureum":13685,"veteribus":13686,"iurae":13687,"receperunt":13688,"radix":13689,"spatia":13690,"grim":13691,"desiderant":13692,"arguit":13693,"wilh":13694,"##pus":13695,"##ensas":13696,"vidua":13697,"insurg":13698,"facultates":13699,"cyprianus":13700,"civilis":13701,"ignob":13702,"##oniorum":13703,"lexicon":13704,"presumpserit":13705,"fateor":13706,"dicantur":13707,"##rices":13708,"1938":13709,"attentius":13710,"perfectam":13711,"perturbare":13712,"nuntius":13713,"jubil":13714,"bethle":13715,"idolorum":13716,"gym":13717,"sigillum":13718,"henricum":13719,"libra":13720,"pedilud":13721,"alsatia":13722,"pir":13723,"##ilur":13724,"xxxviii":13725,"parvum":13726,"caret":13727,"noluerit":13728,"democratica":13729,"##idisti":13730,"108":13731,"emit":13732,"##iderant":13733,"dirip":13734,"##isticae":13735,"##ontin":13736,"clericum":13737,"mercede":13738,"ammon":13739,"instantia":13740,"##ological":13741,"parvuli":13742,"jussu":13743,"nosti":13744,"tull":13745,"##js":13746,"##ubus":13747,"curis":13748,"archidiacono":13749,"dio":13750,"##lich":13751,"intendit":13752,"##iscere":13753,"corrept":13754,"malam":13755,"δια":13756,"incommut":13757,"tc":13758,"##itaverunt":13759,"bud":13760,"etr":13761,"idola":13762,"104":13763,"##ities":13764,"palp":13765,"plenitudine":13766,"ludi":13767,"deutsch":13768,"appellant":13769,"tela":13770,"##estum":13771,"paro":13772,"partus":13773,"1939":13774,"carcerem":13775,"cir":13776,"conventum":13777,"instituti":13778,"campum":13779,"1923":13780,"habeamus":13781,"servari":13782,"accipimus":13783,"narb":13784,"ave":13785,"habito":13786,"intelligatur":13787,"balduini":13788,"divus":13789,"iurisdict":13790,"pictor":13791,"tangit":13792,"απ":13793,"similibus":13794,"militaris":13795,"hilarii":13796,"vib":13797,"##uini":13798,"lupus":13799,"fluctibus":13800,"mythistoria":13801,"##zel":13802,"potentes":13803,"indum":13804,"aquila":13805,"congruit":13806,"casibus":13807,"hæres":13808,"spiritualia":13809,"mutu":13810,"aequum":13811,"xlix":13812,"agentes":13813,"praefecto":13814,"linea":13815,"parisiensis":13816,"infelix":13817,"duarum":13818,"##iniani":13819,"notas":13820,"liberorum":13821,"missum":13822,"ica":13823,"amisit":13824,"libet":13825,"glob":13826,"permut":13827,"satisf":13828,"##bur":13829,"##iniano":13830,"portare":13831,"indignus":13832,"willelmo":13833,"##div":13834,"##igitur":13835,"induit":13836,"adversis":13837,"exhibuit":13838,"omnipotenti":13839,"exi":13840,"##130":13841,"occulte":13842,"web":13843,"partur":13844,"vivimus":13845,"laudatur":13846,"cognoscimus":13847,"sidera":13848,"velim":13849,"damno":13850,"frid":13851,"scaen":13852,"socrates":13853,"##tim":13854,"dedign":13855,"praefati":13856,"basili":13857,"oppidi":13858,"subn":13859,"damasc":13860,"reliquiae":13861,"itemque":13862,"militem":13863,"##enon":13864,"spar":13865,"salvi":13866,"india":13867,"reme":13868,"sha":13869,"##gne":13870,"sanctarum":13871,"qnod":13872,"composuit":13873,"habebunt":13874,"ide":13875,"democraticae":13876,"pseudo":13877,"brig":13878,"nort":13879,"##add":13880,"flux":13881,"bergom":13882,"catholici":13883,"tollit":13884,"scientific":13885,"pd":13886,"loqueretur":13887,"fundi":13888,"nonnisi":13889,"referri":13890,"##aciones":13891,"redditur":13892,"vulnus":13893,"τουτ":13894,"præsum":13895,"gemitus":13896,"fastig":13897,"vendere":13898,"vectig":13899,"##etas":13900,"videris":13901,"asse":13902,"coenobium":13903,"calis":13904,"##je":13905,"isarae":13906,"britannicus":13907,"##eschich":13908,"fdp":13909,"##uff":13910,"##cons":13911,"exult":13912,"acerb":13913,"recto":13914,"millennium":13915,"ventil":13916,"decrevit":13917,"teneant":13918,"catholicis":13919,"jejuniis":13920,"freto":13921,"linc":13922,"occitanice":13923,"oppida":13924,"cenob":13925,"mah":13926,"intelligentia":13927,"avi":13928,"grem":13929,"1900":13930,"divitiae":13931,"##ologica":13932,"devotio":13933,"cathedralis":13934,"##acii":13935,"amm":13936,"possessionis":13937,"devotionem":13938,"exordium":13939,"##sd":13940,"##odam":13941,"habeas":13942,"ponam":13943,"pulchra":13944,"##overi":13945,"roch":13946,"##ilit":13947,"##phy":13948,"ministrare":13949,"constitutione":13950,"charact":13951,"ue":13952,"##rentur":13953,"solatium":13954,"hugone":13955,"fideicommissum":13956,"cisterciensis":13957,"episcopali":13958,"gratum":13959,"redemptione":13960,"divisa":13961,"praefatus":13962,"attendite":13963,"thalam":13964,"antiquorum":13965,"claritate":13966,"##atarum":13967,"parric":13968,"misere":13969,"##inctus":13970,"felicitas":13971,"tametsi":13972,"barc":13973,"exstant":13974,"aub":13975,"unicum":13976,"invitat":13977,"deorsum":13978,"may":13979,"117":13980,"##ixa":13981,"familiam":13982,"maximae":13983,"sacerdote":13984,"ruinam":13985,"componat":13986,"stan":13987,"107":13988,"desideratur":13989,"proficit":13990,"incongr":13991,"##ents":13992,"apostolice":13993,"gressus":13994,"ingreditur":13995,"rescrib":13996,"hodierna":13997,"fortitudinis":13998,"firmamentum":13999,"babylonis":14000,"cheney":14001,"sacrorum":14002,"victi":14003,"equos":14004,"pueris":14005,"sumptibus":14006,"petimus":14007,"fabula":14008,"evangelica":14009,"maledic":14010,"baronius":14011,"seriem":14012,"accepi":14013,"fundamenta":14014,"quadragesimo":14015,"##arae":14016,"titius":14017,"bran":14018,"##psal":14019,"damnationis":14020,"king":14021,"curios":14022,"surrex":14023,"inhon":14024,"sortem":14025,"pestil":14026,"carnali":14027,"obscura":14028,"indulgentia":14029,"sinum":14030,"##esimo":14031,"enunt":14032,"decretis":14033,"isidorus":14034,"thessalon":14035,"tuit":14036,"dictorum":14037,"dispositione":14038,"imagine":14039,"emendare":14040,"violentia":14041,"iubemus":14042,"##onie":14043,"scriptam":14044,"appreh":14045,"different":14046,"postulationibus":14047,"apte":14048,"##sen":14049,"##entas":14050,"redemit":14051,"propitius":14052,"1951":14053,"mediolani":14054,"salubriter":14055,"unda":14056,"traj":14057,"equo":14058,"anselmus":14059,"virginum":14060,"##oties":14061,"equum":14062,"ignorare":14063,"##errima":14064,"cupiditas":14065,"desit":14066,"canes":14067,"putet":14068,"aperit":14069,"diaconum":14070,"cognovi":14071,"temerario":14072,"##onf":14073,"comprom":14074,"aquile":14075,"graecos":14076,"custodiat":14077,"botan":14078,"liberatus":14079,"hebdomad":14080,"rost":14081,"chor":14082,"latius":14083,"secretum":14084,"bonitatis":14085,"accipiant":14086,"omnipotentem":14087,"sepulturam":14088,"ordinare":14089,"gestarum":14090,"gam":14091,"splendor":14092,"calumnia":14093,"##com":14094,"##otes":14095,"marti":14096,"predictum":14097,"stagn":14098,"noctibus":14099,"##oniis":14100,"conduc":14101,"hieronymum":14102,"resurrex":14103,"##onense":14104,"siciliae":14105,"catala":14106,"referuntur":14107,"cellam":14108,"##erer":14109,"psalmorum":14110,"copias":14111,"viis":14112,"##gl":14113,"ina":14114,"reson":14115,"veneris":14116,"esses":14117,"1935":14118,"mirabilis":14119,"goffredo":14120,"inquiens":14121,"refut":14122,"relatione":14123,"colonia":14124,"grata":14125,"leone":14126,"aula":14127,"cupi":14128,"bibere":14129,"infirmus":14130,"innocentia":14131,"occulto":14132,"cantuariensis":14133,"1926":14134,"fecistis":14135,"bald":14136,"malefic":14137,"manducare":14138,"dicetur":14139,"recre":14140,"persist":14141,"116":14142,"portio":14143,"##ji":14144,"vicissim":14145,"125":14146,"superiora":14147,"1954":14148,"uoluntate":14149,"dummodo":14150,"canonicos":14151,"##lish":14152,"arcam":14153,"quacumque":14154,"capiti":14155,"genitus":14156,"placeat":14157,"alpes":14158,"dos":14159,"##ebuntur":14160,"servit":14161,"##endarum":14162,"illustri":14163,"colbert":14164,"##dec":14165,"servitus":14166,"efficit":14167,"mord":14168,"piae":14169,"##eget":14170,"proelium":14171,"##ymph":14172,"constitutio":14173,"refugium":14174,"τηι":14175,"caritatis":14176,"iesus":14177,"wall":14178,"exivit":14179,"deliciis":14180,"adversarius":14181,"indignationem":14182,"1934":14183,"baptizatus":14184,"laurentius":14185,"##iciorum":14186,"inest":14187,"##avere":14188,"vicarius":14189,"invenies":14190,"portat":14191,"schon":14192,"innocentiam":14193,"minori":14194,"medu":14195,"county":14196,"seipso":14197,"pium":14198,"##inxit":14199,"intelligamus":14200,"regimine":14201,"gill":14202,"uerum":14203,"histrio":14204,"gallici":14205,"perveniat":14206,"iulia":14207,"convivium":14208,"##idens":14209,"superiores":14210,"deprav":14211,"dant":14212,"stellae":14213,"situ":14214,"ortu":14215,"roc":14216,"seruus":14217,"municipalis":14218,"cunctos":14219,"##150":14220,"requiesc":14221,"exinan":14222,"##positam":14223,"tribulationes":14224,"burd":14225,"peculio":14226,"##radi":14227,"recepta":14228,"feceris":14229,"veter":14230,"hero":14231,"##sent":14232,"agris":14233,"dissert":14234,"cupiens":14235,"pyrenaei":14236,"uiginti":14237,"iudicia":14238,"schw":14239,"solliciti":14240,"gregorium":14241,"querimon":14242,"##urandum":14243,"##sub":14244,"##ory":14245,"praedam":14246,"sulpic":14247,"##gio":14248,"1937":14249,"##errent":14250,"dacor":14251,"natione":14252,"solu":14253,"legiones":14254,"compens":14255,"incendio":14256,"got":14257,"annal":14258,"differt":14259,"tacet":14260,"##publ":14261,"tellus":14262,"yo":14263,"##unctis":14264,"antecessorum":14265,"vite":14266,"senes":14267,"majore":14268,"spiritali":14269,"nativitatem":14270,"medicinae":14271,"remansit":14272,"lint":14273,"##iculis":14274,"reditus":14275,"oderunt":14276,"nutu":14277,"suffragane":14278,"juvenis":14279,"##usi":14280,"conseru":14281,"evag":14282,"dolores":14283,"campus":14284,"walteri":14285,"##imp":14286,"catal":14287,"potestati":14288,"##ioso":14289,"retulit":14290,"describit":14291,"εις":14292,"aliquas":14293,"pallium":14294,"scyth":14295,"une":14296,"##ianensis":14297,"obumb":14298,"metum":14299,"##iaris":14300,"dominorum":14301,"statio":14302,"requies":14303,"gerardi":14304,"sororis":14305,"corrige":14306,"##ocius":14307,"##verem":14308,"1922":14309,"redemptionem":14310,"ambulare":14311,"expedire":14312,"fic":14313,"sq":14314,"##ubuit":14315,"monarch":14316,"aliique":14317,"possim":14318,"deberent":14319,"sumptus":14320,"perscr":14321,"sollicitudo":14322,"amicitiam":14323,"maiore":14324,"abstinere":14325,"movet":14326,"nubibus":14327,"marchio":14328,"lunae":14329,"operatione":14330,"102":14331,"##mum":14332,"##nem":14333,"1927":14334,"tribut":14335,"monumenta":14336,"incurr":14337,"invitus":14338,"hannib":14339,"τωι":14340,"qualia":14341,"##iaca":14342,"casum":14343,"persecutione":14344,"##illas":14345,"opibus":14346,"direxit":14347,"miseria":14348,"adulesc":14349,"pereunt":14350,"mediam":14351,"114":14352,"saecularibus":14353,"greges":14354,"tumultu":14355,"nona":14356,"abel":14357,"discuss":14358,"excepta":14359,"dilatione":14360,"oculum":14361,"studies":14362,"relev":14363,"##vertit":14364,"infinita":14365,"inflamm":14366,"evers":14367,"miseratione":14368,"mythologia":14369,"comprehendit":14370,"converti":14371,"brunsvici":14372,"uita":14373,"prat":14374,"spati":14375,"indeb":14376,"honorio":14377,"bibliothecam":14378,"##olia":14379,"##acionis":14380,"sparg":14381,"minoribus":14382,"101":14383,"trahit":14384,"interfuit":14385,"cella":14386,"##ан":14387,"##aliae":14388,"diluc":14389,"censuram":14390,"devote":14391,"deserta":14392,"decorem":14393,"decept":14394,"contumeliam":14395,"placuerit":14396,"campi":14397,"sumere":14398,"irrog":14399,"##itoria":14400,"deliqu":14401,"errare":14402,"quantitatem":14403,"suscepta":14404,"adjung":14405,"confirmare":14406,"respondetur":14407,"laetific":14408,"chronico":14409,"medicinam":14410,"noscitur":14411,"eucharist":14412,"##yna":14413,"##oriis":14414,"regali":14415,"capellam":14416,"praesul":14417,"memores":14418,"eosque":14419,"ventre":14420,"explicat":14421,"contraire":14422,"nuntios":14423,"laurent":14424,"particula":14425,"unigenitus":14426,"fames":14427,"gubernatione":14428,"mirabiliter":14429,"perj":14430,"versibus":14431,"mandatorum":14432,"appellavit":14433,"causarum":14434,"quamuis":14435,"interced":14436,"##racta":14437,"pertineat":14438,"##erebantur":14439,"diacono":14440,"excer":14441,"##bat":14442,"##ivus":14443,"lectionis":14444,"iustis":14445,"oro":14446,"ventum":14447,"subiac":14448,"incess":14449,"decant":14450,"equus":14451,"describitur":14452,"indiuidue":14453,"400":14454,"kl":14455,"αγι":14456,"##uxerat":14457,"naturalem":14458,"prostern":14459,"coet":14460,"chorus":14461,"terminus":14462,"professor":14463,"gene":14464,"oner":14465,"##familias":14466,
[...]
