{"version":"1.0","truncation":null,"padding":null,"added_tokens":[{"id":0,"special":true,"content":"<s>","single_word":false,"lstrip":false,"rstrip":false,"normalized":false},{"id":1,"special":true,"content":"<pad>","single_word":false,"lstrip":false,"rstrip":false,"normalized":false},{"id":2,"special":true,"content":"</s>","single_word":false,"lstrip":false,"rstrip":false,"normalized":false},{"id":3,"special":true,"content":"<unk>","single_word":false,"lstrip":false,"rstrip":false,"normalized":false},{"id":4,"special":true,"content":"<mask>","single_word":false,"lstrip":false,"rstrip":false,"normalized":false}],"normalizer":null,"pre_tokenizer":{"type":"ByteLevel","add_prefix_space":false,"trim_offsets":true},"post_processor":{"type":"ByteLevel","add_prefix_space":true,"trim_offsets":false},"decoder":{"type":"ByteLevel","add_prefix_space":true,"trim_offsets":true},"model":{"type":"BPE","dropout":null,"unk_token":null,"continuing_subword_prefix":null,"end_of_word_suffix":null,"fuse_unk":false,"vocab":{"<s>":0,"<pad>":1,"</s>":2,"<unk>":3,"<mask>":4,"!":5,"\"":6,"#":7,"$":8,"%":9,"&":10,"'":11,"(":12,")":13,"*":14,"+":15,",":16,"-":17,".":18,"/":19,"0":20,"1":21,"2":22,"3":23,"4":24,"5":25,"6":26,"7":27,"8":28,"9":29,":":30,";":31,"<":32,"=":33,">":34,"?":35,"@":36,"A":37,"B":38,"C":39,"D":40,"E":41,"F":42,"G":43,"H":44,"I":45,"J":46,"K":47,"L":48,"M":49,"N":50,"O":51,"P":52,"Q":53,"R":54,"S":55,"T":56,"U":57,"V":58,"W":59,"X":60,"Y":61,"Z":62,"[":63,"\\":64,"]":65,"^":66,"_":67,"`":68,"a":69,"b":70,"c":71,"d":72,"e":73,"f":74,"g":75,"h":76,"i":77,"j":78,"k":79,"l":80,"m":81,"n":82,"o":83,"p":84,"q":85,"r":86,"s":87,"t":88,"u":89,"v":90,"w":91,"x":92,"y":93,"z":94,"{":95,"|":96,"}":97,"~":98,"¡":99,"¢":100,"£":101,"¤":102,"¥":103,"¦":104,"§":105,"¨":106,"©":107,"ª":108,"«":109,"¬":110,"®":111,"¯":112,"°":113,"±":114,"²":115,"³":116,"´":117,"µ":118,"¶":119,"·":120,"¸":121,"¹":122,"º":123,"»":124,"¼":125,"½":126,"¾":127,"¿":128,"À":129,"Á":130,"Â":131,"Ã":132,"Ä":133,"Å":134,"Æ":135,"Ç":136,"È":137,"É":138,"Ê":139,"Ë":140,"Ì":141,"Í":142,"Î":143,"Ï":144,"Ð":145,"Ñ":146,"Ò":147,"Ó":148,"Ô":149,"Õ":150,"Ö":151,"×":152,"Ø":153,"Ù":154,"Ú":155,"Û":156,"Ü":157,"Ý":158,"Þ":159,"ß":160,"à":161,"á":162,"â":163,"ã":164,"ä":165,"å":166,"æ":167,"ç":168,"è":169,"é":170,"ê":171,"ë":172,"ì":173,"í":174,"î":175,"ï":176,"ð":177,"ñ":178,"ò":179,"ó":180,"ô":181,"õ":182,"ö":183,"÷":184,"ø":185,"ù":186,"ú":187,"û":188,"ü":189,"ý":190,"þ":191,"ÿ":192,"Ā":193,"ā":194,"Ă":195,"ă":196,"Ą":197,"ą":198,"Ć":199,"ć":200,"Ĉ":201,"ĉ":202,"Ċ":203,"ċ":204,"Č":205,"č":206,"Ď":207,"ď":208,"Đ":209,"đ":210,"Ē":211,"ē":212,"Ĕ":213,"ĕ":214,"Ė":215,"ė":216,"Ę":217,"ę":218,"Ě":219,"ě":220,"Ĝ":221,"ĝ":222,"Ğ":223,"ğ":224,"Ġ":225,"ġ":226,"Ģ":227,"ģ":228,"Ĥ":229,"ĥ":230,"Ħ":231,"ħ":232,"Ĩ":233,"ĩ":234,"Ī":235,"ī":236,"Ĭ":237,"ĭ":238,"Į":239,"į":240,"İ":241,"ı":242,"Ĳ":243,"ĳ":244,"Ĵ":245,"ĵ":246,"Ķ":247,"ķ":248,"ĸ":249,"Ĺ":250,"ĺ":251,"Ļ":252,"ļ":253,"Ľ":254,"ľ":255,"Ŀ":256,"ŀ":257,"Ł":258,"ł":259,"Ń":260,"er":261,"Ġe":262,"čĊ":263,"in":264,"is":265,"um":266,"us":267,"it":268,"at":269,"Ġs":270,"qu":271,"Ġa":272,"on":273,"Ġp":274,"en":275,"Ġc":276,"or":277,"es":278,"ia":279,"Ġd":280,"ic":281,"an":282,"em":283,"Ġin":284,"Ġqu":285,"Ġn":286,"ur":287,"Ġet":288,"Ġm":289,"am":290,"ar":291,"un":292,"ae":293,"Ġv":294,"st":295,"et":296,"ti":297,"om":298,"li":299,"Ġt":300,"Ġf":301,"ec":302,"im":303,"Ġpr":304,"ut":305,"id":306,"os":307,"ul":308,"Ġh":309,"ent":310,"Ġr":311,"il":312,"el":313,"ed":314,"al":315,"ol":316,"od":317,"ib":318,"as":319,"ĠC":320,"ac":321,"Ġad":322,"oc":323,"Ġest":324,"Ġcon":325,"Ġl":326,"ip":327,"Ġsu":328,"Ġde":329,"ĠD":330,"ant":331,"unt":332,"ati":333,"ĠĠ":334,"eg":335,"que":336,"ud":337,"ab":338,"ir":339,"ter":340,"op":341,"ĠA":342,"Ġex":343,"ĠS":344,"ens":345,"orum":346,"Ġnon":347,"Ġ1":348,"ra":349,"iam":350,"Ġper":351,"ĠP":352,"ibus":353,"ĠI":354,"ere":355,"ost":356,"ot":357,"ig":358,"ĠM":359,"omin":360,"Ġut":361,"end":362,"se":363,"ob":364,"Ġ(":365,"est":366,"per":367,"ist":368,"Ġan":369,"Ġ2":370,"Ġg":371,"itat":372,"iv":373,"ius":374,"ium":375,"ect":376,"ep":377,"ill":378,"io":379,"ation":380,"Ġqui":381,"uc":382,"Ġb":383,"Ġquod":384,"eb":385,"cc":386,"iae":387,"Ġcum":388,"anc":389,"ĠE":390,"ag":391,"ion":392,"omn":393,"âĢ":394,"ili":395,"itur":396,"ĠL":397,"and":398,"av":399,"ĠDe":400,"atur":401,"Ġdic":402,"jus":403,"ex":404,"iss":405,"Ġomn":406,"ap":407,"Ġcom":408,"Qu":409,"ĠV":410,"ĠR":411,"Ġaut":412,"00":413,"ta":414,"Ġab":415,"ĠB":416,"og":417,"ĠG":418,"isc":419,"und":420,"Ġver":421,"Ġprae":422,"Ġill":423,"fic":424,"ĠF":425,"Ġpro":426,"enti":427,"Ġhab":428,"ĠH":429,"Ġip":430,"ort":431,"ĠT":432,"ess":433,"Ġme":434,"Ã¦":435,"Ġer":436,"Ġu":437,"tion":438,"Ġali":439,"ĠĠĠĠ":440,"Ġdi":441,"ata":442,"ĠN":443,"are":444,"Ġquae":445,"uit":446,"ell":447,"Ġap":448,"lib":449,"Ġsi":450,"ri":451,"Ġes":452,"Ġfac":453,"Ġse":454,"Ġim":455,"ign":456,"erit":457,"ian":458,"re":459,"Ġsed":460,"ov":461,"rat":462,"ari":463,"imus":464,"Ġsc":465,"II":466,"Ġinter":467,"Ġen":468,"les":469,"Ġre":470,"ad":471,"tum":472,"ris":473,"ita":474,"Ġsp":475,"ĠJ":476,"Ġips":477,"Ġsunt":478,"Ġj":479,"Ġ200":480,"Ġnost":481,"aec":482,"ĠDomin":483,"emp":484,"iter":485,"arum":486,"ĠCh":487,"ore":488,"Ġcons":489,"Ġenim":490,"ers":491,"Ġ19":492,"ub":493,"te":494,"Ġautem":495,"ine":496,"Ġvel":497,"tus":498,"oria":499,"Ġcor":500,"Ġun":501,"Ġreg":502,"Ġquam":503,"Ġpar":504,"Âł":505,"inc":506,"Ġsub":507,"Ġtu":508,"ccles":509,"unc":510,"ug":511,"atus":512,"erunt":513,"ĠâĢ":514,"mun":515,"Ġtr":516,"Ġid":517,"ii":518,"etur":519,"Ġop":520,"Ġpl":521,"go":522,"Ġal":523,"Ġ:":524,"Ġhoc":525,"no":526,"Ġsanc":527,"Ġcont":528,"pr":529,"de":530,"Ġquia":531,"Ġquo":532,"bus":533,"rum":534,"Ġprop":535,"Ġpos":536,"ing":537,"Ġpot":538,"Ġlib":539,"ni":540,"Ġob":541,"Ġvid":542,"Ġter":543,"ici":544,"ro":545,"atis":546,"Ġor":547,"Ġesse":548,"ch":549,"Ġac":550,"dic":551,"Ġnec":552,"rip":553,"itus":554,".,":555,"Ġar":556,"ans":557,"entes":558,"bi":559,"Ġ)":560,"lic":561,"Ġetiam":562,"Ġejus":563,"Ġquid":564,"Ġsol":565,"Ġsic":566,"Ġep":567,"ateg":568,"Ġsec":569,"Et":570,"fect":571,"ategoria":572,"to":573,"ph":574,"ĠO":575,"atum":576,"Ġvir":577,"Ġint":578,"oris":579,"erv":580,"obis":581,"quam":582,"tim":583,"Ġne":584,"ĠâĢĶ":585,"itate":586,"In":587,"Ġtam":588,"Ġleg":589,"eri":590,"tis":591,"Ġsuper":592,"Ġinc":593,"ast":594,"lig":595,"rist":596,"Ġam":597,"Ġi":598,"ust":599,"Ġcr":600,"Ġpost":601,"ui":602,"ĠX":603,"ores":604,"Ġst":605,"iscop":606,"ĠDei":607,"Ġ3":608,"Ġo":609,"atione":610,"Ġsit":611,"uli":612,"ern":613,"ĠCategoria":614,"Ġres":615,"itas":616,"ula":617,"Ġfid":618,"eret":619,"Ġfu":620,"int":621,"up":622,"Ġat":623,"Ġposs":624,"Ġtemp":625,"erat":626,"aes":627,"ven":628,"ione":629,"issim":630,"entia":631,"Ġacc":632,"he":633,"ff":634,"avit":635,"Ġhomin":636,"orem":637,"ina":638,"Ġloc":639,"itatem":640,"itatis":641,"Ġmag":642,"antur":643,"ensis":644,"alis":645,"atio":646,"Ġdes":647,"dit":648,"Ġco":649,"ih":650,"aud":651,"Ġpat":652,"Ġcap":653,"ult":654,"ibi":655,"á½":656,"ias":657,"Ġdec":658,"Ġpec":659,"ĠChrist":660,"ull":661,"Ġdiv":662,"Ġvol":663,"isse":664,"Ġus":665,"Ġfili":666,"ert":667,"Ġman":668,"ali":669,"Ġmon":670,"Ġcommun":671,"Ġbon":672,"ux":673,"Ġoc":674,"Ġven":675,"ĠIn":676,"Ġcel":677,"Ġanim":678,"Ġinf":679,"eat":680,"itu":681,"Ġdeb":682,"ie":683,"Ġcar":684,"Ġconc":685,"Ġeum":686,"ss":687,"ica":688,"Ġepiscop":689,"Ġaliqu":690,"ĠAn":691,"Ġvero":692,"Ġnos":693,"Ġ4":694,"tione":695,"ann":696,"Ġeccles":697,"rae":698,"ĠMar":699,"ram":700,"ate":701,"eris":702,"ationem":703,"urae":704,"ass":705,"odo":706,"ang":707,"ini":708,"orm":709,"udic":710,"aus":711,"ĠW":712,"inis":713,"Ġimp":714,"Ġconf":715,"ura":716,"Ġqua":717,"ĠU":718,"itum":719,"Ġanno":720,"ĠÂ":721,"Ġita":722,"Ġpo":723,"ĠĠĠĠĠĠ":724,"Ġcl":725,"Ġsac":726,"ori":727,"oll":728,"raph":729,"ujus":730,"isi":731,"Ġapud":732,"Ġag":733,"icet":734,"ulo":735,"Ġsum":736,"Ġte":737,"Ġrec":738,"ando":739,"dem":740,"erum":741,"esc":742,"sc":743,"Ġnobis":744,"Ġpecc":745,"Ġ5":746,"âĢ¢":747,"amus":748,"Ġpotest":749,"Ġsicut":750,"itud":751,"entur":752,"irm":753,"exus":754,"Ġtamen":755,"Ġserv":756,"Ġfrat":757,"eo":758,"ire":759,"ĠEccles":760,"tor":761,"Ġvest":762,"ĠRom":763,"erm":764,"ĠAl":765,"ionem":766,"entibus":767,"iis":768,"Ġmort":769,"Ġsal":770,"le":771,"Ġcomp":772,"De":773,"untur":774,"inus":775,"Ġcog":776,"tio":777,"icus":778,"ebat":779,"Î½":780,"ostol":781,"ente":782,"Ġquibus":783,"Ġcorp":784,"Ġergo":785,"inem":786,"ord":787,"ret":788,"Ġ199":789,"Ġatque":790,"eli":791,"fecturae":792,"Ġeo":793,"ommun":794,"illi":795,"Ġquem":796,"Ġjus":797,"ax":798,"Ġnomin":799,"undum":800,"Ġred":801,"tem":802,"pon":803,"Ġpraes":804,"Ġprim":805,"Ġgen":806,"endum":807,"ationis":808,"entis":809,"ograph":810,"Ġ).":811,"19":812,"ĠDeus":813,"ččĊ":814,"ÏĦ":815,"th":816,"entiam":817,"Î±":818,"oribus":819,"Ġof":820,"Ġsim":821,"ard":822,"Ġgrat":823,"icae":824,"Sed":825,"Ġvoc":826,"irc":827,"ĠFr":828,"Ġquas":829,").":830,"Ġapp":831,"oli":832,"Ġann":833,"tip":834,"urb":835,"Ġvit":836,"Ġdie":837,"icum":838,"ĠPr":839,"tibus":840,"Ġaud":841,"vers":842,"Ġcomm":843,"era":844,"Ġdix":845,"Ġverb":846,"Ġhum":847,"Ġdisc":848,"Ġexc":849,"Ġcelata":850,"ero":851,"Ġscrip":852,"ene":853,"Ġdomin":854,"qui":855,"Ġtant":856,"Ġeorum":857,"Ġsem":858,"Ġmul":859,"01":860,"Ġel":861,"edic":862,"Ġins":863,"all":864,"Î¿":865,"ulum":866,"Ġipse":867,"emus":868,"edi":869,"gr":870,"Ġ18":871,"ĠPat":872,"entum":873,"Ġdu":874,"ea":875,"Ġconst":876,"Ġ-":877,"Ġsibi":878,"Ġmal":879,"tionem":880,"ite":881,"si":882,"Ġgl":883,"Si":884,"Ġ6":885,"Ġcred":886,"Â«":887,"dam":888,"Ġnisi":889,"abil":890,"Ġomnibus":891,"Ġist":892,"Ġind":893,"Ġspect":894,"inae":895,"entem":896,"icip":897,"itis":898,"rem":899,"res":900,"ĠDeo":901,"Ġcontra":902,"uum":903,"usc":904,"ani":905,"Ġomnes":906,"Ġerat":907,"Ġexter":908,"erc":909,"ino":910,"Ġilli":911,"ĠAr":912,"ĠÎ":913,"Ġcaus":914,"Ġrep":915,"Ġante":916,"iet":917,"Ġfec":918,"Ġnull":919,"ach":920,"Ġten":921,"Ġocc":922,"Ġei":923,"Ġmun":924,"Ġmis":925,"Ġfuit":926,"itt":927,"III":928,"ulis":929,"tius":930,"iat":931,"Ġcur":932,"iac":933,"rib":934,"Ġpraec":935,"sed":936,"Ġomnia":937,"ionis":938,"Ġpers":939,"ne":940,"Ġti":941,"Ġinv":942,"Ġeos":943,"Ġpraefecturae":944,"Ġeius":945,"incip":946,"Ġsup":947,"Ġquis":948,"ilia":949,"Ġfl":950,"uper":951,"Ġquidem":952,"Ġ7":953,"Ġea":954,"tin":955,"Ġhaec":956,"XX":957,"Ġrem":958,"na":959,"Ġpop":960,"Ġess":961,"Ġtot":962,"Ġ,":963,"Ġch":964,"Ġciv":965,"itter":966,"ora":967,"ĠDominus":968,"risti":969,"Ġsine":970,"quid":971,"Ġubi":972,"Ġord":973,"Ġspir":974,"ĠDomini":975,"iens":976,"Ġimper":977,"ihi":978,"Ġmem":979,"ĠK":980,"eograph":981,"Ġsuis":982,"eric":983,"osc":984,"Ġsep":985,"Ġ9":986,"ix":987,"Non":988,"Ġquoque":989,"num":990,"atem":991,"Ġsanct":992,"Ġsecundum":993,"sal":994,"ato":995,"Ġ8":996,"pir":997,"Ġfr":998,"Ġmin":999,"Ġfide":1000,"ath":1001,"ulus":1002,"ĠQu":1003,"Ġapostol":1004,"ym":1005,"urg":1006,"quit":1007,"Ġdoc":1008,"Ġtibi":1009,"ev":1010,"ĠCommun":1011,"Ġsua":1012,"Ġmihi":1013,"etr":1014,"ĠFranc":1015,"ivers":1016,"Ġjudic":1017,"ĠGr":1018,"Ġusque":1019,"isset":1020,"Ġcirc":1021,"omo":1022,"Ġnov":1023,"edit":1024,"oniam":1025,"ator":1026,"Ġexp":1027,"Ġpa":1028,"oqu":1029,"Ġdon":1030,"Ġtrans":1031,"Ġeis":1032,"ihil":1033,"Ġ[":1034,"An":1035,"ĠChristi":1036,"Ġhis":1037,"Ġjam":1038,"Ġdef":1039,"ĠCon":1040,"Ġpon":1041,"ive":1042,"..":1043,"),":1044,"Ġsign":1045,"Ġauc":1046,"Ġviv":1047,"Ġdicit":1048,"ice":1049,"endo":1050,"ĠSanc":1051,"tal":1052,"NS":1053,"ific":1054,"Ġma":1055,"tr":1056,"erint":1057,"tu":1058,"Ġ2000":1059,"Ġpropter":1060,"ĠCommunia":1061,"ĠĠĠĠĠ":1062,"urr":1063,"Ġcommune":1064,"Ġpres":1065,"Ġfort":1066,"ios":1067,"Ġdign":1068,"sum":1069,"Ġcogn":1070,"atu":1071,"ana":1072,"Ġvobis":1073,"igitur":1074,"rav":1075,"Ġhon":1076,"aris":1077,"onis":1078,"antes":1079,"Ġprincip":1080,"ĠAug":1081,"ĠII":1082,"Ġass":1083,"ider":1084,"IS":1085,"Ġdicitur":1086,"uius":1087,"crip":1088,"ua":1089,"Ġcod":1090,"Ġign":1091,"Ġexterni":1092,"hib":1093,"Quod":1094,"Ġsancti":1095,"tur":1096,"Ġpag":1097,"rad":1098,"ale":1099,"sa":1100,"Ġvos":1101,"ric":1102,"Ġnum":1103,"Î¹":1104,"tionis":1105,"ublic":1106,"Ġprov":1107,"Ġnunc":1108,"Îµ":1109,"Ġnihil":1110,"Ġeam":1111,"enter":1112,"lis":1113,"Ġsuo":1114,"one":1115,"tit":1116,"endi":1117,"inum":1118,"libus":1119,"Ġquasi":1120,"Ġmund":1121,"ensi":1122,"Ġaet":1123,"Ġhic":1124,"Ġsaec":1125,"Ġhabent":1126,"mod":1127,"Ġquos":1128,"aret":1129,"pe":1130,"ĠAp":1131,"ĠJo":1132,"ellig":1133,"isp":1134,"Ġ\"":1135,"yr":1136,"ĠDeum":1137,"Ġdum":1138,"isti":1139,"Ġcoel":1140,"tium":1141,"ĠVic":1142,"ulae":1143,"Nam":1144,"enta":1145,"Ġigitur":1146,"Ġabb":1147,"Ġ11":1148,"Ġille":1149,"Pr":1150,"Ġvic":1151,"Ġait":1152,"Ġinst":1153,"Ġ2001":1154,"iti":1155,"á¼":1156,"ilium":1157,"Ġ]":1158,"Ġmat":1159,"iunt":1160,"ide":1161,"ver":1162,"Ġilla":1163,"ito":1164,"tam":1165,"Ġetc":1166,"ĠÂ·":1167,"Ġ10":1168,"ÏĤ":1169,"Ġnatur":1170,"fer":1171,"alem":1172,"Ġneg":1173,"ianus":1174,"Nexus":1175,"Ġquant":1176,"Â»":1177,"Am":1178,"tut":1179,"endit":1180,"het":1181,"ber":1182,"sit":1183,"entium":1184,"Ġalter":1185,"Ġmar":1186,"Ġdil":1187,"Ġpraedic":1188,"Ġsive":1189,"Ġimm":1190,"Ã©":1191,"non":1192,"Ġnot":1193,"Ġneque":1194,"Ġdel":1195,"Ġproc":1196,"Ġurb":1197,"Un":1198,"inam":1199,"Ġ17":1200,"Ġ12":1201,"pli":1202,"Ġmod":1203,"ct":1204,"itati":1205,"nis":1206,"eni":1207,"edia":1208,"ffic":1209,"Ġintellig":1210,"olog":1211,"tific":1212,"asc":1213,"quis":1214,"Ġdom":1215,"Ġem":1216,"Ġmodo":1217,"itut":1218,"Ġuti":1219,"Ġego":1220,"ĠAm":1221,"ĠRoman":1222,"Ġpet":1223,"ong":1224,"NSE":1225,"ĠquÃ¦":1226,"Ġhabet":1227,"icis":1228,"erent":1229,"Ġnomine":1230,"ico":1231,"ich":1232,"Ġpra":1233,"omen":1234,"Ġesset":1235,"Ġcol":1236,"nam":1237,"Ġmagis":1238,"ĠDomino":1239,"istor":1240,"Ïģ":1241,"arii":1242,"enda":1243,"Ġsalut":1244,"Ġsusc":1245,"Ġsuam":1246,"ebr":1247,"pl":1248,"Ġoper":1249,"Ġno":1250,"erd":1251,"Ġprom":1252,"ilis":1253,"Ġecclesia":1254,"ilicet":1255,"Ġlaud":1256,"Ġ201":1257,"ebant":1258,"ĠSep":1259,"Ġhujus":1260,"pect":1261,"ure":1262,"Ġsuum":1263,"Qui":1264,"sus":1265,"enus":1266,"Ġsemper":1267,"ĠprÃ¦":1268,"Ġtantum":1269,"âĢĶ":1270,"ante":1271,"Ġfuerit":1272,"ĠSpir":1273,"Ġadm":1274,"Ġ15":1275,"Ġfam":1276,"andum":1277,"Ġtempore":1278,"Ġcan":1279,"NSEE":1280,"Ġost":1281,"Ġduc":1282,"aria":1283,"Ġipsa":1284,"Ġhac":1285,"Ġbene":1286,"Ġipsum":1287,"Ġsui":1288,"Ġir":1289,"Ad":1290,"Ġlitter":1291,"Ġepist":1292,"18":1293,"if":1294,"ationes":1295,"Ïĥ":1296,"Ġcoll":1297,"Ġ16":1298,"Ġillud":1299,"Ġed":1300,"Ġmor":1301,"ĠThe":1302,"Ġvolunt":1303,"ane":1304,"Ġput":1305,"eretur":1306,"ros":1307,"entiae":1308,"epit":1309,"Ġev":1310,"Ġgeograph":1311,"Ġauctor":1312,"Ġstip":1313,"ebus":1314,"Ġlab":1315,"ĠNexus":1316,"Ġvirtut":1317,"estim":1318,"inde":1319,"Ġpac":1320,"Ġ^":1321,"Ġnostri":1322,"idit":1323,"ime":1324,"ales":1325,"ĠâĢ¢":1326,"Ġpublic":1327,"Ġá¼":1328,"uti":1329,"ĠPh":1330,"Ġliber":1331,"quia":1332,"Ġ14":1333,"Ex":1334,"Ġinven":1335,"Ġcae":1336,"ilig":1337,"ron":1338,"ĠPa":1339,"Ġcui":1340,"Con":1341,"qua":1342,"Ġquando":1343,"ĠPet":1344,"ue":1345,"ĠJes":1346,"Cum":1347,"Ġinquit":1348,"Ġang":1349,"Ġaliis":1350,"anus":1351,"Ġscilicet":1352,"Ġtest":1353,"Ġloco":1354,"10":1355,"uv":1356,"Ġhanc":1357,"alia":1358,"aur":1359,"ena":1360,"Ġher":1361,"Ġmil":1362,"Ġsent":1363,"uerit":1364,"empl":1365,"Ġfut":1366,"ĠCar":1367,"Ġfi":1368,"ima":1369,"Ġund":1370,"Ġvis":1371,"idem":1372,"ulg":1373,"oth":1374,"ĠLat":1375,"pos":1376,"Ġtim":1377,"Ġmand":1378,"Ġterra":1379,"aster":1380,"erant":1381,"Ġhomo":1382,"Ġnostra":1383,"Ġcujus":1384,"ile":1385,"Ġsolum":1386,"ĠBr":1387,"Ġcausa":1388,"Ġabs":1389,"Ġ2002":1390,"Ġspec":1391,"ĠNov":1392,"Ġappell":1393,"Ġsap":1394,"Haec":1395,"ĠCl":1396,"Ġomni":1397,"aliter":1398,"Ġincol":1399,"Ġtua":1400,"ĠJud":1401,"ria":1402,"Ġdixit":1403,"ĠEcclesiae":1404,"ĠCor":1405,"imo":1406,"adem":1407,"Ġillis":1408,"Ġgratia":1409,"Ġperm":1410,"Ġ13":1411,"Ġterr":1412,"ith":1413,"á¿":1414,"Ġon":1415,"Ġpertin":1416,"uis":1417,"Ġval":1418,"ilio":1419,"Ġthe":1420,"Ġillum":1421,"ĠIII":1422,"Ġform":1423,"Ġmunicip":1424,"Ġadvers":1425,"Ġarch":1426,"mus":1427,"Ġplura":1428,"ento":1429,"Ġoffic":1430,"Ġaccip":1431,"Ġchar":1432,"Quid":1433,"fr":1434,"ier":1435,"cum":1436,"Ġunum":1437,"ĠItal":1438,"esse":1439,"equ":1440,"Ġdilig":1441,"uris":1442,"ÏĢ":1443,"ies":1444,"Ġtrib":1445,"rag":1446,"Ġepiscopus":1447,"dum":1448,"Ġmens":1449,"ola":1450,"Ġipsius":1451,"abat":1452,"sequ":1453,"stant":1454,"yn":1455,"incia":1456,"ma":1457,"Ġw":1458,"Ġsequ":1459,"iant":1460,"Ġsucc":1461,"iones":1462,"Ġobs":1463,"Ġquin":1464,"Ġquoniam":1465,"12":1466,"Ġexs":1467,"Ġprob":1468,"pet":1469,"Ġext":1470,"uo":1471,"ll":1472,"Pag":1473,"Sic":1474,"Ġpotes":1475,"andi":1476,"ĠReg":1477,"Ġnecess":1478,"Ġplur":1479,"Ġprof":1480,"Ġibi":1481,"Ġserm":1482,"arium":1483,"act":1484,"ona":1485,"Â·":1486,"uerunt":1487,"Ġius":1488,"Unde":1489,"Ġadh":1490,"Ġmult":1491,"Ġret":1492,"Ġloqu":1493,"Ġluc":1494,"ano":1495,"Ġben":1496,"ario":1497,"Ġsupra":1498,"Ġomnium":1499,"oci":1500,"norum":1501,"ĠEcclesia":1502,"Ġtunc":1503,"Ġsuae":1504,"ont":1505,"ulos":1506,"Ġrespon":1507,"rah":1508,"Ġrel":1509,"Ġunivers":1510,"ity":1511,"Ġsacerd":1512,"Ġmea":1513,"tae":1514,"vis":1515,"Ġini":1516,"ĠIs":1517,"Ġmonaster":1518,"ĠMat":1519,"Ġsing":1520,"Ġ1999":1521,"Ġmed":1522,"Ġnomen":1523,"Ġspectant":1524,"Ġprophet":1525,"Ġipso":1526,"lim":1527,"Ġcast":1528,"ĠChristus":1529,"oph":1530,"omodo":1531,"Ġidem":1532,"Ġ;":1533,"Ġconv":1534,"ilius":1535,"annes":1536,"Ġedit":1537,"Ġpass":1538,"ox":1539,"abit":1540,"ung":1541,"arius":1542,"ior":1543,"13":1544,"ĠTh":1545,"Ġcre":1546,"Ġerit":1547,"Ġcorr":1548,"ĠChristo":1549,"anum":1550,"Ġstud":1551,"ons":1552,"Ġaetern":1553,"15":1554,"uus":1555,"icam":1556,"quod":1557,"Ġtab":1558,"averunt":1559,"esti":1560,"Ġrect":1561,"olit":1562,"Ġmir":1563,"imedia":1564,"ĠSt":1565,"Ġhistor":1566,"Ġideo":1567,"Ġmax":1568,"ationibus":1569,"ĠMa":1570,"eper":1571,"ys":1572,"Ġalia":1573,"Ġseu":1574,"atores":1575,"di":1576,"ci":1577,"eph":1578,"Ġbe":1579,"ĠVicimedia":1580,"Ġdist":1581,"fica":1582,"Ġnex":1583,"Ġiudic":1584,"Ġfor":1585,"Ġspectat":1586,"14":1587,"oni":1588,"US":1589,"ĠEv":1590,"Ġpoen":1591,"ĠXX":1592,"Ġipsi":1593,"anno":1594,"CA":1595,"angu":1596,"16":1597,"Ġaliquid":1598,"Ġded":1599,"uxta":1600,"ĠÏĦ":1601,"Ġ20":1602,"Ġrev":1603,"Ġcal":1604,"Ġfirm":1605,"17":1606,"ĠSancti":1607,"Ġvet":1608,"Ġhabere":1609,"Ġincolarum":1610,"onem":1611,"Ġcontin":1612,"ĠAng":1613,"Ġsens":1614,"Ġlat":1615,"Ġanti":1616,"pic":1617,"Hoc":1618,"Ġgr":1619,"Ġexerc":1620,"odem":1621,"Ġstipula":1622,"Ġdub":1623,"Ġsint":1624,"Ampli":1625,"ericord":1626,"Ġfer":1627,"Ġfaci":1628,"ĠOct":1629,"Ġdam":1630,"Ġpoter":1631,"ulc":1632,"ĠÂ»":1633,"ĠIo":1634,"Ġux":1635,"Ġdiscip":1636,"Ġsectione":1637,"Ġinternorum":1638,"Ġordin":1639,"Ġnexuum":1640,"itio":1641,"Ġparte":1642,"erb":1643,"Ġuna":1644,"Ġdisp":1645,"yp":1646,"Ġha":1647,"tipulae":1648,"Amplifica":1649,"Ġinterni":1650,"Ġplac":1651,"Ġsignific":1652,"Ġque":1653,"Ġdol":1654,"Ġmemor":1655,"eres":1656,"atorum":1657,"Ġpap":1658,"Ġnoc":1659,"Ġjustit":1660,"Ġfilius":1661,"Ġfecit":1662,"ĠPag":1663,"Ġlong":1664,"rorum":1665,"ik":1666,"Ġaur":1667,"erus":1668,"rb":1669,"Ġcer":1670,"Paginae":1671,"aut":1672,"ĠUn":1673,"Ġillo":1674,"Al":1675,"ĠDominum":1676,"ĠSal":1677,"uet":1678,"itudinem":1679,"âĢĵ":1680,"Ġfuisse":1681,"Ġdem":1682,"Ġrex":1683,"Ġ),":1684,"ĠPsal":1685,"Ġaff":1686,"Ġpart":1687,"rev":1688,"iab":1689,"Ġsapi":1690,"Ġillius":1691,"Ġadhuc":1692,"ER":1693,"ump":1694,"enn":1695,"ĠTr":1696,"ĠChristum":1697,"Ġvide":1698,"ĠLe":1699,"Ġfieri":1700,"Ġterram":1701,"Ã¦c":1702,"Ġbona":1703,"Ġhomines":1704,"nus":1705,"Ġmisericord":1706,"Ġmonach":1707,"Ġredd":1708,"Ġeadem":1709,"anti":1710,"Ġperpet":1711,"elicet":1712,"Ġcanon":1713,"IV":1714,"plic":1715,"Ġdev":1716,"ĠAb":1717,"ĠGraec":1718,"Ġvita":1719,"ĠDec":1720,"Ġperc":1721,"ebatur":1722,"itia":1723,"ĠFl":1724,"iani":1725,"Ġhominum":1726,"episcop":1727,"idata":1728,"atam":1729,"Ġdim":1730,"Ch":1731,"Ġlocum":1732,"ulit":1733,"At":1734,"Ġvidetur":1735,"Ġfratres":1736,"ecti":1737,"Ġref":1738,"ides":1739,"Î»":1740,"20":1741,"ustod":1742,"Ġdicens":1743,"ĠApostol":1744,"antibus":1745,"Ġfidem":1746,"erem":1747,"Ġarb":1748,"ech":1749,"Ġmaj":1750,"Ġiter":1751,"angeli":1752,"iano":1753,"Ġpraeter":1754,"Ġgaud":1755,"Ġfin":1756,"asse":1757,"Ġindic":1758,"Ġrerum":1759,"Ġspiritu":1760,"Ġdies":1761,"ĠLuc":1762,"ĠScrip":1763,"Ġsecund":1764,"str":1765,"Ġcorpus":1766,"lius":1767,"Ġunus":1768,"au":1769,"Ġmuli":1770,"athol":1771,"Ġhost":1772,"Ġfilii":1773,"Ġmerit":1774,"Ġconfirm":1775,"Ġatt":1776,"Ġreli":1777,"Ġcruc":1778,"prae":1779,"Ġprec":1780,"Ġverba":1781,"Ġdesider":1782,"Ġrelig":1783,"Ġto":1784,"Ġgrav":1785,"Ġreper":1786,"ald":1787,"ĠAd":1788,"Ġdet":1789,"Ġsci":1790,"Ġtum":1791,"Ġtrad":1792,"Ġamb":1793,"Ġling":1794,"reh":1795,"mo":1796,"anquam":1797,"Ġgener":1798,"Ġfacta":1799,"ĠXV":1800,"anda":1801,"Ġsimul":1802,"Ġdictum":1803,"Ġpresb":1804,"ania":1805,"Ġ?":1806,"Ġscrib":1807,"amp":1808,"atim":1809,"quae":1810,"Ġrest":1811,"tiones":1812,"och":1813,"inist":1814,"Ġlic":1815,"Ġ22":1816,"Ġand":1817,"ĠLoci":1818,"umb":1819,"AN":1820,"È©":1821,"cce":1822,"imum":1823,"ond":1824,"TI":1825,"Ġoff":1826,"anis":1827,"Ġeodem":1828,"ffect":1829,"Ġcongr":1830,"Ġmut":1831,"Ġsimil":1832,"Ġexempl":1833,"Ġadj":1834,"Ġista":1835,"Ut":1836,"scrip":1837,"ĠIV":1838,"Ġquorum":1839,"Ġnostris":1840,"essit":1841,"Ġconven":1842,"itudo":1843,"par":1844,"Ġprius":1845,"Ġport":1846,"Ġas":1847,"Ġsen":1848,"Ġfacere":1849,"avi":1850,"Î¼":1851,"unicip":1852,"ialis":1853,"Ego":1854,"ella":1855,"Ġfidei":1856,"Ġarg":1857,"otae":1858,"Ġvitae":1859,"Ġcustod":1860,"issa":1861,"Ġnostro":1862,"Ġcaeter":1863,"issime":1864,"CAP":1865,"etis":1866,"iu":1867,"Ġcunc":1868,"Ġitaque":1869,"Ġsubj":1870,"quir":1871,"Ġerant":1872,"Ġfruc":1873,"Ġaliud":1874,"Ġfutur":1875,"fac":1876,"Ġsae":1877,"ras":1878,"Ġlicet":1879,"Ġcarn":1880,"ĠEt":1881,"iorum":1882,"Ġing":1883,"Ġbeat":1884,"Ġprod":1885,"Ġaper":1886,"Ġcord":1887,"bris":1888,"Ġpossit":1889,"inqu":1890,"Ġvitam":1891,"endam":1892,"umus":1893,"Ġhered":1894,"Ġalii":1895,"estimon":1896,"ectus":1897,"ĠJudae":1898,"Ġ198":1899,"Ġcontr":1900,"ribus":1901,"eh":1902,"Ġsoli":1903,"Ġped":1904,"Ġbap":1905,"abilis":1906,"Ġadd":1907,"rim":1908,"Ġsatis":1909,"Ġquantum":1910,"ugn":1911,"ĠProv":1912,"Ġmei":1913,"Ġhabitati":1914,"ĠForm":1915,"libet":1916,"ĠZ":1917,"Ġsex":1918,"ense":1919,"Ġaccep":1920,"ÄĻ":1921,"Ġnostrum":1922,"ĠDomine":1923,"Ġomnis":1924,"Ġcircum":1925,"item":1926,"Ġ2003":1927,"Ġrebus":1928,"Ġ0":1929,"yst":1930,"Ġtuum":1931,"Ġcommunium":1932,"ĠIan":1933,"Ġwith":1934,"ĠEx":1935,"Ġcul":1936,"ivit":1937,"ce":1938,"utus":1939,"itudine":1940,"The":1941,"Ġvul":1942,"Ġhuius":1943,"Ġvidelicet":1944,"Ġforte":1945,"Ġ24":1946,"Ġpossess":1947,"eant":1948,"Ġhistorici":1949,"va":1950,"istis":1951,"torum":1952,"ulam":1953,"ectionem":1954,"Ġfactum":1955,"Ġregione":1956,"opter":1957,"averit":1958,"Ġser":1959,"ĠGerm":1960,"ilii":1961,"Ġangel":1962,"lin":1963,"Ġpraecip":1964,"Ġtempus":1965,"Ġconsul":1966,"Ġinfirm":1967,"Ġgeographici":1968,"Ġpal":1969,"emo":1970,"Ġfug":1971,"Ġmeum":1972,"Ġhominem":1973,"ignum":1974,"Ġdivers":1975,"anae":1976,"Ġnim":1977,"ĠCom":1978,"Ġsoc":1979,"modi":1980,"Ġcognosc":1981,"inta":1982,"Ġla":1983,"Ġrei":1984,"Ġinde":1985,"uss":1986,"200":1987,"UM":1988,"Ġnun":1989,"Ġcens":1990,"atae":1991,"arn":1992,"unque":1993,"Ġtestimon":1994,"Ġph":1995,"ial":1996,"Ġglor":1997,"ĠWik":1998,"oed":1999,"Ġtuam":2000,"Ġuel":2001,"Ġpraest":2002,"30":2003,"ĠMunicip":2004,"11":2005,"yter":2006,"ĠHier":2007,"Ġhunc":2008,"ippe":2009,"Ġx":2010,"ebit":2011,"issimi":2012,"Ġposse":2013,"Ïħ":2014,"iri":2015,"ality":2016,"ĠWikidata":2017,"ton":2018,"egr":2019,"icorum":2020,"obus":2021,"Ġminus":2022,"Ġpati":2023,"Ġsangu":2024,"Ġusing":2025,"Quia":2026,"Ġmortem":2027,"Ġregis":2028,"Ġasc":2029,"tores":2030,"org":2031,"Ġvig":2032,"Ġfidel":2033,"Ita":2034,"ĠSpiritus":2035,"Ġul":2036,"illa":2037,"orr":2038,"Ġdedit":2039,"Ġcogit":2040,"Ġunde":2041,"iepiscop":2042,"let":2043,"Ġalt":2044,"Ġdesc":2045,"Åĵ":2046,"ĠFormula":2047,"Ġpriv":2048,"ĠINSEE":2049,"ĠVI":2050,"Ġpauper":2051,"Ġanima":2052,"Ġpu":2053,"AR":2054,"Ġperson":2055,"rog":2056,"modum":2057,"Ġcode":2058,"Ġpontific":2059,"sic":2060,"INSEE":2061,"Ġmunicipality":2062,"arg":2063,"25":2064,"Ġdiff":2065,"atoris":2066,"ĠGeograph":2067,"Ġinim":2068,"Ġav":2069,"ionibus":2070,"ecc":2071,"Ġquomodo":2072,"Ġquad":2073,"Ġmet":2074,"Ġdux":2075,"ĠHaec":2076,"78":2077,"ĠDav":2078,"Ġhominis":2079,"abant":2080,"ĠMatth":2081,"ruc":2082,"Categoria":2083,"Ġib":2084,"ĠPar":2085,"atenus":2086,"Ġmss":2087,"Ġtit":2088,"Ne":2089,"Ġcorporis":2090,"uisse":2091,"oti":2092,"Ġbenedic":2093,"Ġintell":2094,"lum":2095,"oss":2096,"ĠItaliae":2097,"Ġfund":2098,"nec":2099,"Ġsuccess":2100,"ectione":2101,"Ġdebet":2102,"lo":2103,"Ġlibro":2104,"Ġconvers":2105,"Ġmanif":2106,"Ġopus":2107,"Ġod":2108,"con":2109,"Ġis":2110,"Ġerr":2111,"Ġdir":2112,"Ġtanquam":2113,"Ġmanu":2114,"Ġvirg":2115,"Ġden":2116,"Ġprot":2117,"Om":2118,"ĠPetr":2119,"Ġmanus":2120,"Ġpostea":2121,"ĠPetri":2122,"Ġbell":2123,"Ġpul":2124,"Ġiam":2125,"Ġcuius":2126,"ĠApr":2127,"Ġsumus":2128,"Ġcorpore":2129,"ulorum":2130,"Ġmundi":2131,"24":2132,"idi":2133,"red":2134,"Ġhumil":2135,"Ġmilit":2136,"elli":2137,"ardus":2138,"itatum":2139,"aretur":2140,"BN":2141,"vit":2142,"Îº":2143,"Ġ2004":2144,"ibli":2145,"Ġbonum":2146,"essus":2147,"atos":2148,"Ġprimum":2149,"prob":2150,"Ġrog":2151,"Ġjuxta":2152,"Ġk":2153,"endere":2154,"Ġinn":2155,"amque":2156,"ĠSa":2157,"Domin":2158,"Ġnoster":2159,"Ġeff":2160,"Ġnob":2161,"pp":2162,"23":2163,"Per":2164,"Ġvener":2165,"Ġduo":2166,"Ġsuos":2167,"ille":2168,"ipi":2169,"praefecturae":2170,"antem":2171,"pret":2172,"Ġperven":2173,"Ġopp":2174,"ĠOr":2175,"26":2176,"Ġlac":2177,"Ġconstitu":2178,"Ġprimo":2179,"Ġverbis":2180,"rael":2181,"Ġcirca":2182,"ĠStipulae":2183,"Ġquidam":2184,"Ġpotius":2185,"entus":2186,"Ġdamn":2187,"Ġgratiam":2188,"ĠPater":2189,"ĠMon":2190,"ĠSc":2191,"Ġpropr":2192,"Er":2193,"olus":2194,"Ġplen":2195,"Ġcond":2196,"ĠMart":2197,"Ġvi":2198,"ĠUrb":2199,"ĠEvangeli":2200,"Ġhominibus":2201,"ei":2202,"Ġauctoritate":2203,"Ġiniqu":2204,"Ġpropri":2205,"Ġmiss":2206,"Ġconj":2207,"Ġperd":2208,"exand":2209,"iit":2210,"ind":2211,"Ġdiab":2212,"Post":2213,"mi":2214,"Ġtuae":2215,"Ġpraef":2216,"ĠMo":2217,"ĠGu":2218,"Ġecclesiam":2219,"Ġnulla":2220,"Ġminist":2221,"Ġmulta":2222,"Ġmanifest":2223,"Ġecclesie":2224,"Ġpen":2225,"Ġfactus":2226,"Ġarchiepiscop":2227,"ota":2228,"uta":2229,"Ġlap":2230,"Ġscriptum":2231,"Ġnol":2232,"mper":2233,"ĠTheod":2234,"Nec":2235,"ON":2236,"itates":2237,"Ġsalv":2238,"ĠEp":2239,"ectio":2240,"Ġdep":2241,"Ïī":2242,"Î·":2243,"Ġfur":2244,"Ġ1998":2245,"Ġpros":2246,"ister":2247,"eps":2248,"Ġopera":2249,"Ġobserv":2250,"Ġsalutem":2251,"abili":2252,"Ġoport":2253,"ĠAg":2254,"amur":2255,"Ġsus":2256,"icos":2257,"itione":2258,"Ġsancto":2259,"Ġverum":2260,"Ġsust":2261,"Ġth":2262,"err":2263,"initas":2264,"art":2265,"Ġcup":2266,"uram":2267,"Ġtem":2268,"LI":2269,"ins":2270,"iacon":2271,"28":2272,"Ġquippe":2273,"Ġsacerdot":2274,"ĠAugust":2275,"ara":2276,"Ġvestra":2277,"Ġdiem":2278,"Ġregnum":2279,"VI":2280,"Ġdiss":2281,"Ġpropos":2282,"idum":2283,"itr":2284,"Ġquaes":2285,"Ġillam":2286,"Ġlae":2287,"abitur":2288,"uarii":2289,"50":2290,"Ġpoenit":2291,"ve":2292,"Ġomnino":2293,"isit":2294,"ĠDavid":2295,"Ġepiscopi":2296,"Ġfacit":2297,"Ġ+":2298,"Ġ29":2299,"uic":2300,"Ġnostrae":2301,"Ġejusdem":2302,"Ġdicere":2303,"29":2304,"Ġli":2305,"Ġvinc":2306,"Ġresurr":2307,"Ġcapit":2308,"27":2309,"Ġ23":2310,"Ġpresbyter":2311,"Ġipsis":2312,"Ġuno":2313,"Ġpret":2314,"egor":2315,"ĠIsrael":2316,"itionem":2317,"olae":2318,"Ġfal":2319,"Ġecclesiae":2320,"Ġmart":2321,"Ġnesc":2322,"Ġglori":2323,"ioris":2324,"ĠÃ¦":2325,"Ġaudi":2326,"Ġsanctus":2327,"Ġpossid":2328,"az":2329,"entius":2330,"Ġ2005":2331,"Ġcaput":2332,"Ġclam":2333,"ĠCol":2334,"Ġmeam":2335,"Ġvenit":2336,"Ġtui":2337,"uam":2338,"lam":2339,"Ġannis":2340,"Ġsanctorum":2341,"natus":2342,"elic":2343,"Ġ25":2344,"Ġtuo":2345,"arr":2346,"Ġperf":2347,"arent":2348,"Ġmol":2349,"Ġpraecep":2350,"onia":2351,"Ġcant":2352,"issent":2353,"la":2354,"issimum":2355,"ĠLib":2356,"issima":2357,"Ġmeus":2358,"ensem":2359,"Ġpartem":2360,"ĠMag":2361,"Ġprox":2362,"40":2363,"ĠY":2364,"uere":2365,"33":2366,"Ġadv":2367,"Ġaequ":2368,"ĠMss":2369,"Ġcorde":2370,"Ġtotum":2371,"Ġpars":2372,"Ġlibert":2373,"Ital":2374,"TO":2375,"Ġmiser":2376,"Ġ197":2377,"ĠÂ°":2378,"Ġpraed":2379,"Ġ26":2380,"Ġiterum":2381,"Ġmer":2382,"Ġexhib":2383,"Ġperic":2384,"olis":2385,"ates":2386,"ianum":2387,"ones":2388,"Ac":2389,"inister":2390,"Ġpater":2391,"Ġhod":2392,"ĠInd":2393,"ecta":2394,"Ġ28":2395,"Ġ21":2396,"Ġvers":2397,"Ġdiu":2398,"Ġpredic":2399,"Ġau":2400,"Ġmans":2401,"Ġdest":2402,"iana":2403,"Ġtabula":2404,"UT":2405,"itam":2406,"Ġsyn":2407,"commun":2408,"Ġgloria":2409,"endis":2410,"Ġsil":2411,"abo":2412,"Ġmater":2413,"Ab":2414,"Ġverbum":2415,"imi":2416,"uetud":2417,"Ġomnem":2418,"alium":2419,"Ġmultis":2420,"Ġpossunt":2421,"min":2422,"Ġcoram":2423,"Ġspiritus":2424,"annis":2425,"exit":2426,"edific":2427,"ileg":2428,"ĠPages":2429,"á½·":2430,"Ġ'":2431,"Ġpecun":2432,"Ġpauc":2433,"ĠUnivers":2434,"Ġannum":2435,"Ġĉ":2436,"ĠAlexand":2437,"Ġprovincia":2438,"Situs":2439,"Ġregn":2440,"antia":2441,"Ġpsal":2442,"ular":2443,"Ġcrim":2444,"Ġmeo":2445,"mis":2446,"andem":2447,"lus":2448,"Ġgeographiam":2449,"ines":2450,"ariis":2451,"Ġignor":2452,"Ġplus":2453,"ĠGeographicae":2454,"Ġadversus":2455,"ortui":2456,"rep":2457,"Ġalien":2458,"Signum":2459,"Ġecclesiast":2460,"Ġsacram":2461,"Ġdis":2462,"Ġ27":2463,"Ġexst":2464,"Ġhabit":2465,"estis":2466,"upt":2467,"ulli":2468,"ereb":2469,"ĠFilius":2470,"ĠFrancicum":2471,"Ġoccid":2472,"Ġsaeculo":2473,"60":2474,"Ġlum":2475,"Ġeg":2476,"Ġdoctr":2477,"ĠVal":2478,"issimus":2479,"Ġull":2480,"Ip":2481,"icem":2482,"ĠProvincia":2483,"Ġturb":2484,"Ġ&":2485,"ISBN":2486,"ĠPl":2487,"RI":2488,"ustr":2489,"Ġostend":2490,"Ġlege":2491,"Ġtra":2492,"ĠJesu":2493,"Ġillos":2494,"Hic":2495,"abatur":2496,"vi":2497,"Ġinterpret":2498,"issimo":2499,"olo":2500,"ectum":2501,"Ġtres":2502,"Ar":2503,"ilos":2504,"Ġbenefic":2505,"Ġall":2506,"ĠÎº":2507,".)":2508,"Ġcas":2509,"Ġfilium":2510,"VIII":2511,"atorem":2512,"Ã¨":2513,"Ġsper":2514,"Ġtent":2515,"ĠApostolus":2516,"Ġfuerat":2517,"ĠJoan":2518,"Ġutique":2519,"Ġnostram":2520,"tos":2521,"Ġsollic":2522,"Ġepiscopo":2523,"onum":2524,"Ġperfect":2525,"Ġhos":2526,"atuor":2527,"ĠVir":2528,"ecit":2529,"ĠBo":2530,"ete":2531,"istoria":2532,"45":2533,"aniae":2534,"Ġnatura":2535,"Ġsententia":2536,"Vide":2537,"nosc":2538,"ĠEr":2539,"indic":2540,"erg":2541,"Ġalio":2542,"Ġconcess":2543,"Ġpiet":2544,"ĠQ":2545,"ĠVII":2546,"Ġfrater":2547,"ectionis":2548,"Ġ30":2549,"PIS":2550,"Ġcarnis":2551,"communis":2552,"ĠPetrus":2553,"emn":2554,"eth":2555,"ips":2556,"Ġlegem":2557,"uae":2558,"EN":2559,"Quae":2560,"Ġcop":2561,"itatibus":2562,"bid":2563,"Ġmaxime":2564,"ipot":2565,"Ġlig":2566,"Ġdomini":2567,"ecim":2568,"ĠCap":2569,"Ġobl":2570,"ĠÃ":2571,"Ġpraem":2572,"ĠHen":2573,"XXX":2574,"umque":2575,"Ġâ":2576,"ĠAugus":2577,"Ġmagna":2578,"ĠÏĢ":2579,"Ġannos":2580,"lium":2581,"Ġsanctum":2582,"Ġdivin":2583,"ef":2584,"quidem":2585,"35":2586,"Ġ.":2587,"Ġfit":2588,"Ġbeati":2589,"Ġterrae":2590,"Ġnatus":2591,"Ġaux":2592,"iog":2593,"Ġquaer":2594,"Ġanimam":2595,"ilosoph":2596,"ĠMarc":2597,"Ġalios":2598,"Il":2599,"enses":2600,"Ġsanctae":2601,"Ġampli":2602,"Ġorb":2603,"48":2604,"Ġlegit":2605,"Ġinfra":2606,"Ġcet":2607,"ĠBar":2608,"ĠĠĠ":2609,"ĠSic":2610,"ĠHisp":2611,"Ġconstitut":2612,"orn":2613,"38":2614,"Ġpatr":2615,"Dig":2616,"ĠIndic":2617,"iarum":2618,"ebantur":2619,"Ġiste":2620,"iane":2621,"ou":2622,"Ġingr":2623,"ĠNati":2624,"Ġappar":2625,"Ġstatu":2626,"antium":2627,"Ġpagina":2628,"39":2629,"Ġcathol":2630,"quo":2631,"Ġmagist":2632,"ĠEb":2633,"Ġcelebr":2634,"47":2635,"Ġprima":2636,"Ġpeccatum":2637,"icit":2638,"Ġconfess":2639,"Ġrespond":2640,"Ġminister":2641,"22":2642,"ĠXI":2643,"Ġdiebus":2644,"AL":2645,"Ġaliqua":2646,"yl":2647,"uri":2648,"201":2649,"itatus":2650,"urp":2651,"press":2652,"Ġmagn":2653,"inceps":2654,"Ġeas":2655,"Ġpostul":2656,"itor":2657,"Ġpert":2658,"enae":2659,"Ġregni":2660,"199":2661,"enique":2662,"Ġutrum":2663,"eribus":2664,"49":2665,"Ġ*":2666,"ej":2667,"Ġfinem":2668,"Ġant":2669,"Ġintr":2670,"Ġvult":2671,"Ġrecip":2672,"VII":2673,"modo":2674,"Ġgloriam":2675,"othec":2676,"Ġms":2677,"antis":2678,"Ġegr":2679,"Ġconsec":2680,"36":2681,"Ġfest":2682,"onym":2683,"37":2684,"Ġinteg":2685,"ĠNe":2686,"Ġsan":2687,"mum":2688,"Ġsacri":2689,"Ġquar":2690,"Ġdex":2691,"Ġtuis":2692,"Ġrap":2693,"Ġbonis":2694,"Ġcausam":2695,"erentur":2696,"utum":2697,"Ġviri":2698,"Ġcard":2699,"ida":2700,"Ġfig":2701,"46":2702,"Ġdomus":2703,"Notae":2704,"Ġlegis":2705,"ĠVat":2706,"Ġsuorum":2707,"Ġnullus":2708,"Ġtemporis":2709,"Ġquatuor":2710,"enim":2711,"Ġratione":2712,"ites":2713,"ĠJesus":2714,"Ecce":2715,"ĠGal":2716,"Ġsuas":2717,"ĠIsa":2718,"eces":2719,"Ġlev":2720,"Ġfilio":2721,"ĠAt":2722,"Ġdivina":2723,"ĠConstant":2724,"su":2725,"iograph":2726,"Ġdicat":2727,"LA":2728,"Ġvestrae":2729,"erius":2730,"Inter":2731,"imur":2732,"iret":2733,"IN":2734,"xit":2735,"opolit":2736,"angel":2737,"Ġaedific":2738,"Ġanni":2739,"Ġcert":2740,"Ġaug":2741,"Ġlabor":2742,"Ġipsam":2743,"Ġimag":2744,"Ġeffic":2745,"ha":2746,"inere":2747,"Ġregem":2748,"Ġmanum":2749,"ĠBen":2750,"ĠColl":2751,"ĠGall":2752,"Ġtac":2753,"Î±á½":2754,"olum":2755,"Ġpopuli":2756,"Omn":2757,"Ġnonn":2758,"Ġprohib":2759,"Ġrecte":2760,"Ġsuscip":2761,"olv":2762,"andam":2763,"Ġsubstant":2764,"ĠNon":2765,"ĠCaes":2766,"Ġvia":2767,"Ġori":2768,"Ġomne":2769,"oniae":2770,"omm":2771,"Ġmyst":2772,"imis":2773,"ĠPaulus":2774,"arc":2775,"Ġsuffic":2776,"ĠVIII":2777,"Ġmerc":2778,"ĠGe":2779,"Ġscripta":2780,"ĠPatris":2781,"Ġmortuus":2782,"Ġder":2783,"Ġlegitur":2784,"Ġle":2785,"Ġculp":2786,"Ġpopulo":2787,"Ġmemb":2788,"Ġpor":2789,"requ":2790,"Ġloci":2791,"ĠAnd":2792,"ĠGregor":2793,"Ġfratribus":2794,"Ġcondit":2795,"amb":2796,"Ġfuerint":2797,"ioeces":2798,"Î³":2799,"ĠSitus":2800,"entio":2801,"Ġdomum":2802,"osa":2803,"ru":2804,"iles":2805,"deo":2806,"endas":2807,"elle":2808,"Anno":2809,"acob":2810,"ĠCiv":2811,"ĠAc":2812,"CAPUT":2813,"tii":2814,"ricus":2815,"Ġbrev":2816,"ĠEcclesiam":2817,"Ġhuman":2818,"Ġcongreg":2819,"Ġaffect":2820,"elmus":2821,"Ġá¼Ĳ":2822,"ĠChristian":2823,"edere":2824,"Ġnemo":2825,"Ġpotuit":2826,"Ġtract":2827,"ĠTur":2828,"Ġfere":2829,"dus":2830,"Item":2831,"Ġvindic":2832,"ĠRes":2833,"iem":2834,"Ġtota":2835,"Ġstat":2836,"itae":2837,"Ġconsuetud":2838,"21":2839,"ĠGen":2840,"Ġutil":2841,"Ġmala":2842,"alibus":2843,"Ġfilios":2844,"CC":2845,"ubern":2846,"Ġpeccata":2847,"Ġsuperb":2848,"lice":2849,"Ġfiliis":2850,"atibus":2851,"Ġsententiam":2852,"Ġsor":2853,"ĠAeg":2854,"embris":2855,"stero":2856,"Quam":2857,"Ġinterret":2858,"elium":2859,"Ġgenus":2860,"Ġren":2861,"Ġarbitr":2862,"lar":2863,"Ġiis":2864,"55":2865,"ardi":2866,"Ġmori":2867,"CO":2868,"Jo":2869,"ĠXXX":2870,"ographia":2871,"Ġposset":2872,"Ġparv":2873,"Ġiure":2874,"ĠRh":2875,"Ġmortis":2876,"Ġabbas":2877,"Ġult":2878,"uimus":2879,"Ġlitteras":2880,"tura":2881,"ulas":2882,"ido":2883,"AS":2884,"do":2885,"urum":2886,"Ġunam":2887,"uen":2888,"itudinis":2889,"Ġgrad":2890,"Ġquoti":2891,"Pro":2892,"Ġnav":2893,"mort":2894,"Ġcommend":2895,"eros":2896,"Ġgest":2897,"Ġnamque":2898,"ioni":2899,"Ġdeinde":2900,"Ġsupplic":2901,"Î¸":2902,"Ġda":2903,"ĠVerb":2904,"oseph":2905,"ĠXII":2906,"Ġprud":2907,"ĠEd":2908,"ĠEn":2909,"Quis":2910,"Ġpast":2911,"tig":2912,"ientes":2913,"Ġaqu":2914,"Ġmeis":2915,"Ġdomino":2916,"Ġoportet":2917,"iliae":2918,"iÃ¦":2919,"itium":2920,"St":2921,"Italiane":2922,"ĠSch":2923,"Ġcompar":2924,"ĠCo":2925,"Ġmorte":2926,"Ġaliquando":2927,"Ġpartes":2928,"Ġurbem":2929,"Ġarc":2930,"Ġdicta":2931,"ĠIoannes":2932,"ativ":2933,"asch":2934,"abiliter":2935,"Ġvix":2936,"avimus":2937,"Ġomnipot":2938,"onte":2939,"enc":2940,"ĠMortui":2941,"abor":2942,"olam":2943,"ĠSalv":2944,"otus":2945,"Ġclar":2946,"Ġbaptis":2947,"ilipp":2948,"Ġdominus":2949,"ĠFoed":2950,"Ġsig":2951,"Ġconsens":2952,"Ġquamvis":2953,"ravit":2954,"58":2955,"ES":2956,"ursus":2957,"Ġseptem":2958,"nae":2959,"Ġtran":2960,"Ġdiscret":2961,"ĠEl":2962,"Ġsuscep":2963,"ostoli":2964,"Ġvac":2965,"Ġrever":2966,"ectis":2967,"ĠCal":2968,"Ġdomn":2969,"ista":2970,"Ġrestitu":2971,"Ġoccas":2972,"ipsum":2973,"Ergo":2974,"eum":2975,"Ali":2976,"inas":2977,"Ġit":2978,"Ġabst":2979,"ĠFranciae":2980,"ecum":2981,"Ġconsilio":2982,"Ġexig":2983,"emor":2984,"Ġpopulus":2985,"Ġfamilia":2986,"Ġfrequ":2987,"Ġpatris":2988,"land":2989,"ay":2990,"Ġvelut":2991,"Ġdico":2992,"Sc":2993,"ĠSuper":2994,"Ġ2006":2995,"Ġlitteris":2996,"Ġlarg":2997,"44":2998,"Ġamplius":2999,"Ġquinque":3000,"tionibus":3001,"70":3002,"Ġmale":3003,"unde":3004,"Ġcleric":3005,"Ġq":3006,"ĠFilium":3007,"amentum":3008,"Ġpri":3009,"Ġanimae":3010,"steroides":3011,"otum":3012,"prim":3013,"Ġcordis":3014,"Ġfides":3015,"Ġinj":3016,"tiz":3017,"Ġcomes":3018,"rius":3019,"Ġpapa":3020,"inistr":3021,"Ġquatenus":3022,"Ġnecesse":3023,"ĠPatre":3024,"Ġimpl":3025,"Ġpersona":3026,"Ġquidquid":3027,"Ġquaedam":3028,"Ġtribus":3029,"atas":3030,"Ġjudicium":3031,"Ġsaepe":3032,"Ġglad":3033,"ationum":3034,"Ġfem":3035,"Ġpotestatem":3036,"ĠBrit":3037,"Ġsancta":3038,"enis":3039,"68":3040,"ĠAngl":3041,"Ġpaginam":3042,"59":3043,"Ġtestimonium":3044,"lud":3045,"Ġmarty":3046,"pici":3047,"Ġservus":3048,"Ġnomina":3049,"Ġaccus":3050,"rix":3051,"Ġquic":3052,"ittit":3053,"Ġprofect":3054,"hoc":3055,"69":3056,"Ġsubscrip":3057,"alter":3058,"Ġreliqu":3059,"tas":3060,"á½³":3061,"Ġore":3062,"Ġpleb":3063,"ors":3064,"Ġintra":3065,"igne":3066,"Ġmentis":3067,"Ġhonor":3068,"Ġmundo":3069,"Ġom":3070,"34":3071,"Ġpotestate":3072,"Ġillic":3073,"Ġabsque":3074,"Ġmedio":3075,"tiv":3076,"Ġrefer":3077,"Ġlo":3078,"ote":3079,"iamus":3080,"rac":3081,"Ġstatim":3082,"...":3083,"raes":3084,"ejun":3085,"Ap":3086,"Ġduobus":3087,"Ġfuerunt":3088,"Ġunius":3089,"Â°":3090,"ariae":3091,"ĠLa":3092,"Ġá½":3093,"Ġmox":3094,"Tunc":3095,"Ġolim":3096,"istim":3097,"ices":3098,"irum":3099,"asti":3100,"urus":3101,"Ġnasc":3102,"Ġhabeat":3103,"orp":3104,"Ġepistola":3105,"yc":3106,"itiam":3107,"Ġnullo":3108,"ationi":3109,"ecess":3110,"ĠLeg":3111,"Ġsaeculi":3112,"Ġillorum":3113,"Î¿Î½":3114,"iliter":3115,"Ġnostrorum":3116,"ered":3117,"aci":3118,"tes":3119,"Ill":3120,"Ġmalum":3121,"Ġperman":3122,"Ġhodie":3123,"Ġov":3124,"Ġinterretialis":3125,"Ġestis":3126,"admodum":3127,"Ġostendit":3128,"ĠDi":3129,"Ġquodam":3130,"Ġhuic":3131,"Ġcarnem":3132,"unti":3133,"Res":3134,"Ġgem":3135,"Th":3136,"Ġhaeret":3137,"Ġmov":3138,"Ġvere":3139,"una":3140,"endus":3141,"reg":3142,"Ġsubd":3143,"Ġpopulum":3144,"ĠSaint":3145,"Ġdemon":3146,"67":3147,"odi":3148,"Ġprovinc":3149,"Ġcess":3150,"Verum":3151,"Id":3152,"Ġservi":3153,"Deus":3154,"Ġcarne":3155,"Ġaccepit":3156,"uisset":3157,"idus":3158,"alt":3159,"Ġcompl":3160,"Ġrege":3161,"ecund":3162,"Ġoptim":3163,"Ġsedis":3164,"Ġvirtute":3165,"Sicut":3166,"Ġves":3167,"Ġessent":3168,"lev":3169,"Ġct":3170,"ĠIndicem":3171,"65":3172,"ilem":3173,"ĠFeb":3174,"ĠHeb":3175,"ĠÐ":3176,"Ġpraeb":3177,"berg":3178,"Ġloquitur":3179,"uas":3180,"Vers":3181,"iva":3182,"uch":3183,"Ġtanto":3184,"erre":3185,"Ġdonec":3186,"Ġeidem":3187,"ĠAlb":3188,"Ġpersec":3189,"ĠVen":3190,"Ġabsc":3191,"Ġmulti":3192,"Ġpeccatorum":3193,"ertus":3194,"Ġprimus":3195,"arch":3196,"ela":3197,"co":3198,"ĠGeorg":3199,"Ġanimo":3200,"Ġdecem":3201,"ibliographia":3202,"Ġalias":3203,"ĠRob":3204,"ok":3205,"Ġtut":3206,"Est":3207,"Ġaliquis":3208,"31":3209,"Ġdelect":3210,"andus":3211,"ĠVer":3212,"Ġauct":3213,"emur":3214,"Ġadul":3215,"Ġjub":3216,"Ġeiusdem":3217,"Ġmill":3218,"Ġnunquam":3219,"Ġcad":3220,"Î´":3221,"Ġmonasterium":3222,"uxit":3223,"eccles":3224,"Ġsacrific":3225,"ĠMan":3226,"Ġtanta":3227,"Ġrob":3228,"ulf":3229,"circ":3230,"Ġtotius":3231,"Ġconced":3232,"Ġexspect":3233,"stitut":3234,"arb":3235,"abunt":3236,"Ġcoelo":3237,"Ġdeser":3238,"Rom":3239,"á¾":3240,"ellum":3241,"80":3242,"Ġtert":3243,"Ġtradit":3244,"Ġsch":3245,"abb":3246,"emos":3247,"uf":3248,"ĠSteph":3249,"Ġantiqu":3250,"Ġsolv":3251,"ĠPress":3252,"ittere":3253,"Ġmagni":3254,"ala":3255,"Ġgentes":3256,"Pl":3257,"ĠInc":3258,"Î¿á¿":3259,"Ġdulc":3260,"Ġopin":3261,"Ġsolid":3262,"Ġhabuit":3263,"Ġcompos":3264,"ĠCod":3265,"vel":3266,"Ġmodum":3267,"Ã¼":3268,"Ġlonge":3269,"ĠNic":3270,"ĠSam":3271,"ĠRe":3272,"57":3273,"Ġconsider":3274,"Ġlocus":3275,"Ġobtin":3276,"Ġvera":3277,"eunt":3278,"ĠCast":3279,"uni":3280,"asi":3281,"tent":3282,"32":3283,"inu":3284,"ater":3285,"Ġz":3286,"Vid":3287,"Ġoperibus":3288,"iantur":3289,"Ġfab":3290,"Ġmanibus":3291,"Ġmonasterio":3292,"inibus":3293,"Dic":3294,"Ġlingua":3295,"enum":3296,"imam":3297,"Ġdomo":3298,"ĠPatrem":3299,"Ġpacem":3300,"Ġvocem":3301,"Ġexcep":3302,"Ġprofic":3303,"Psal":3304,"Ġobedi":3305,"Ġepiscopum":3306,"Ideo":3307,"Ġingen":3308,"Ġsanctis":3309,"54":3310,"uer":3311,"ichae":3312,"Gr":3313,"ecto":3314,"ĠCant":3315,"ĠBritann":3316,"Ġsuff":3317,"Ġextra":3318,"Ġbonorum":3319,"á½±":3320,"Ġvoce":3321,"Ġveni":3322,"bertus":3323,"Ġcreatur":3324,"Ġviol":3325,"á¿¶":3326,"Ġsola":3327,"Ġpromiss":3328,"Î¿Ïħ":3329,"Ġquibusdam":3330,"Ġmeli":3331,"Ġpropria":3332,"Ġsitum":3333,"ĠAbrah":3334,"ĠHug":3335,"Ġjudicio":3336,"Ġaliquo":3337,"pectu":3338,"Ġjejun":3339,"ĠIun":3340,"init":3341,"Ġorig":3342,"Ġphilosoph":3343,"Ġfiat":3344,"Ġalius":3345,"Ġpoterit":3346,"Ġmulto":3347,"Ġlex":3348,"Pa":3349,"AT":3350,"Ġviam":3351,"ĠSpiritu":3352,"Ang":3353,"Ġbaptiz":3354,"Ġduos":3355,"uerint":3356,"Ġmelius":3357,"me":3358,"ĠMunicipia":3359,"Ġemend":3360,"Ġvoluit":3361,"Ġexistim":3362,"Ġapostolica":3363,"ĠMax":3364,"Ġrad":3365,"ain":3366,"arios":3367,"Prae":3368,"yth":3369,"ensium":3370,"tra":3371,"ĠPhilipp":3372,"aed":3373,"Ġtoto":3374,"ĠHer":3375,"ĠEdit":3376,"Fr":3377,"Ġusus":3378,"ĠIanuarii":3379,"Ġrecep":3380,"Ġdei":3381,"Ġconsum":3382,"Ġprivileg":3383,"ituit":3384,"Ġhom":3385,"Ġcivitatis":3386,"ĠAegyp":3387,"Ġcognov":3388,"Ġtemporibus":3389,"Ġlocis":3390,"ĠLud":3391,"Ġsolus":3392,"inti":3393,"ĠHieronym":3394,"Ġconi":3395,"Ġvestris":3396,"Ġmai":3397,"Ġplures":3398,"Ġveritatis":3399,"Ġmedi":3400,"Ġpolit":3401,"Ġsenti":3402,"ĠAmb":3403,"ello":3404,"orus":3405,"ĠIX":3406,"vid":3407,"ĠIul":3408,"urn":3409,"Ġaliter":3410,"Ġos":3411,"ĠEur":3412,"Ġperse":3413,"ertur":3414,"Ġmonasterii":3415,"Ġmense":3416,"Ġmo":3417,"Ġnumero":3418,"66":3419,"Ġtex":3420,"Ġflum":3421,"Ġtribul":3422,"Ġequ":3423,"88":3424,"Ġ2012":3425,"Ġibidem":3426,"Ġregno":3427,"Ġiuris":3428,"Ġnominis":3429,"90":3430,"eta":3431,"Ġá¼Ģ":3432,"abile":3433,"ĠAnti":3434,"Ġconsequ":3435,"ĠAs":3436,"Ġpp":3437,"etus":3438,"ĠLig":3439,"Ġoculis":3440,"Ġminime":3441,"Ġdecret":3442,"Ġelig":3443,"aginta":3444,"Ġsepar":3445,"Ġboni":3446,"Ġreligios":3447,"Ġconcup":3448,"Ġlux":3449,"ursum":3450,"Ġpariter":3451,"ĠKal":3452,"Ġdiscipl":3453,"Ġopere":3454,"Ġtempora":3455,"ophet":3456,"iar":3457,"cumque":3458,"Christ":3459,"Ġuol":3460,"Ġaqua":3461,"egit":3462,"Imper":3463,"ĠSoc":3464,"Ġol":3465,"iderunt":3466,"Ġjustitiam":3467,"á½¹":3468,"ĠBern":3469,"Ġagnosc":3470,"Ġexper":3471,"anter":3472,"Ġdubit":3473,"Ġabsol":3474,"acc":3475,"ĠCathol":3476,"abilem":3477,"Ġnullum":3478,"ixit":3479,"ow":3480,"Ġflag":3481,"ĠWill":3482,"Ġnondum":3483,"Ġinstitu":3484,"Ġsimplic":3485,"Ã¶":3486,"atore":3487,"Ġrevoc":3488,"Ġmisericordia":3489,"EPIS":3490,"EM":3491,"men":3492,"Ġcaro":3493,"ĠScriptur":3494,"Ġson":3495,"Ġinterrog":3496,"á½¸":3497,"Ġtrium":3498,"onc":3499,"Ġdelic":3500,"Ġurbe":3501,"estig":3502,"Ġard":3503,"Ġlibri":3504,"Ġdicunt":3505,"iscum":3506,"Ġperpetuum":3507,"cunque":3508,"Mat":3509,"Ġverbo":3510,"son":3511,"elis":3512,"Stipulae":3513,"Ġdici":3514,"Ġadministr":3515,"Ïĩ":3516,"Ġordine":3517,"Ġsump":3518,"Ġmente":3519,"ionum":3520,"Ġpertinet":3521,"ĠAnton":3522,"rit":3523,"ese":3524,"Ġadmon":3525,"Ġeffect":3526,"Ġetsi":3527,"Ġmundum":3528,"tic":3529,"ĠIndex":3530,"Ġsuperi":3531,"79":3532,"Ġdare":3533,"Ġrepr":3534,"Ġhosp":3535,"Ġvoluntate":3536,"apr":3537,"Ġmend":3538,"Ġtempor":3539,"Ġfine":3540,"ique":3541,"Ġalic":3542,"AE":3543,"lu":3544,"Ġoculos":3545,"ilibus":3546,"Ġindign":3547,"56":3548,"Î¿ÏĤ":3549,"tav":3550,"Ġprocur":3551,"Ġconsol":3552,"otheca":3553,"Ġipsos":3554,"athem":3555,"Hinc":3556,"ĠInter":3557,"Ġdesign":3558,"Ġincarn":3559,"Ġconsci":3560,"initatis":3561,"amen":3562,"mortuus":3563,"Ġii":3564,"des":3565,"Ġpostquam":3566,"escit":3567,"ove":3568,"tere":3569,"sis":3570,"Ġurbis":3571,"Ġcib":3572,"Ġhi":3573,"our":3574,"cis":3575,"Ġquanto":3576,"Ġfidelium":3577,"Ġapostolorum":3578,"Î±á½¶":3579,"epos":3580,"ĠIoh":3581,"Nos":3582,"Ġambul":3583,"ologia":3584,"ĠET":3585,"ĠSi":3586,"Ġast":3587,"53":3588,"Ġmultip":3589,"Ġveritatem":3590,"Ġfelic":3591,"ĠHel":3592,"erna":3593,"Ġ);":3594,"Ġmerito":3595,".\"":3596,"Ġvoluntatem":3597,"idere":3598,"Ġduod":3599,"Ġfra":3600,"Ġdefens":3601,"ĠVirg":3602,"Ġsingulis":3603,"Ġsequitur":3604,"ommunic":3605,"Ġultim":3606,"Ġtuus":3607,"Ġjustitia":3608,"Ġmeae":3609,"Ġincip":3610,"Ġofficium":3611,"Ġhujusmodi":3612,"Ġcerte":3613,"Ġhomine":3614,"Nov":3615,"Ġca":3616,"Ġuir":3617,"ĠhÃ¦c":3618,"Ġhonore":3619,"Ġratio":3620,"Ġpatria":3621,"Ġsignificat":3622,"??":3623,"Ġamore":3624,"Ġconserv":3625,"ga":3626,"tif":3627,"Ġobt":3628,"Ġoccup":3629,"fici":3630,"Ġvirtus":3631,"Ġagere":3632,"Ġsermo":3633,"Ġmitt":3634,"Ġultra":3635,"ustra":3636,"die":3637,"ĠGerman":3638,"Ġampl":3639,"Ġvestram":3640,"uerat":3641,"Ġhonorem":3642,"Ġvine":3643,"hab":3644,"43":3645,"ĠVerbum":3646,"IX":3647,"Ġfratrum":3648,"Ġrationem":3649,"tamen":3650,"averat":3651,"77":3652,"ĠImper":3653,"ring":3654,"Ġgubern":3655,"Ġpeccato":3656,"Ġ31":3657,"ĠMunicipium":3658,"Ġscel":3659,"Ġadhib":3660,"ĠJacob":3661,"aculum":3662,"Ġcunctis":3663,"uria":3664,"erimus":3665,"Ġjure":3666,"ĠUl":3667,"usque":3668,"ÏĥÏĦ":3669,"Ġort":3670,"Ġdiacon":3671,"Ġsimiliter":3672,"Ġerud":3673,"ĠSp":3674,"Ġrepet":3675,"á¾¾":3676,"erusalem":3677,"ĠHil":3678,"ĠPetro":3679,"ĠÎ´":3680,"Ġteneb":3681,"Ġconsilium":3682,"Î¿á¿¦":3683,"hn":3684,"Ġcardin":3685,"á¿Ĩ":3686,"Ġquemadmodum":3687,"Ġclem":3688,"89":3689,"Ġnub":3690,"ĠPap":3691,"amm":3692,"ĠMai":3693,"Ġrequir":3694,"eperunt":3695,"ellae":3696,"Ġsecundo":3697,"Ġabund":3698,"entorum":3699,"Ġhinc":3700,"antum":3701,"ase":3702,"Ġtandem":3703,"42":3704,"Ġador":3705,"ĠIuli":3706,"Ġalium":3707,"Ġfav":3708,"atoribus":3709,"Neque":3710,"rig":3711,"ĠMariae":3712,"Ð¾":3713,"Ġcaeteris":3714,"circo":3715,"Ġmisericordiam":3716,"Ġdevo":3717,"Quo":3718,"ĠMer":3719,"Ġexcommunic":3720,"Ġcompet":3721,"Ġvirum":3722,"Ġmyster":3723,"ĠRem":3724,"41":3725,"Ġrelinqu":3726,"Ġmultum":3727,"Ð°":3728,"61":3729,"asset":3730,"ĠJoannes":3731,"Aud":3732,"Ġfacult":3733,"Ġpossumus":3734,"idis":3735,"Ġconcupisc":3736,"ĠMaria":3737,"ener":3738,"Ġnaturam":3739,"Quoniam":3740,"andis":3741,"Ġdivis":3742,"Ġadi":3743,"TOLA":3744,"Ġdicuntur":3745,"Ins":3746,"Ġapostolicae":3747,"Ġcivitatem":3748,"ellic":3749,"ularis":3750,"Sanc":3751,"ĠArch":3752,"so":3753,"Ġfilia":3754,"Ġsubs":3755,"Mag":3756,"man":3757,"ellus":3758,"atium":3759,"ubi":3760,"eno":3761,"ulta":3762,"Ġvalde":3763,"Ġ2007":3764,"Ġvenire":3765,"Ġbib":3766,"Ġdefunc":3767,"idium":3768,"ĠCam":3769,"ary":3770,"Ġsuperius":3771,"ebunt":3772,"Ġhor":3773,"Ð¸":3774,"Ġvestrum":3775,"Ġforma":3776,"ĠGer":3777,"issimis":3778,"imae":3779,"Ġfaciat":3780,"ĠAmeric":3781,"acula":3782,"allis":3783,"Ġsumm":3784,"Ġpulch":3785,"Ġfaciem":3786,"iensi":3787,"pro":3788,"Ġnocte":3789,"Ġpugn":3790,"Ġdispos":3791,"eamus":3792,"Ġmare":3793,"ĠCali":3794,"ĠXIII":3795,"Ġipsorum":3796,"Itaque":3797,"rehend":3798,"Ġimperator":3799,"Ġcult":3800,"OS":3801,"Ġcorrup":3802,"eas":3803,"uos":3804,"Ġcoelum":3805,"Ġpartibus":3806,"Ġsanguine":3807,"ingu":3808,"ĠBenedic":3809,"Ġdata":3810,"Ġpacis":3811,"las":3812,"arie":3813,"Ġpeccatis":3814,"uers":3815,"ĠĠĠĠĠĠĠ":3816,"Ġdiximus":3817,"Ġtoll":3818,"abantur":3819,"inet":3820,"Ġcollig":3821,"ule":3822,"Ġpedes":3823,"Ġcivitate":3824,"Ġsublim":3825,"):":3826,"Ġsecret":3827,"Ġ2009":3828,"Ġmisit":3829,"\".":3830,"ĠClun":3831,"52":3832,"asil":3833,"Ġinstitut":3834,"ribu":3835,"Ġaliorum":3836,"inn":3837,"Ġexcus":3838,"rimon":3839,"Ġcontemp":3840,"arem":3841,"ĠId":3842,"ĠÎºÎ±á½¶":3843,"tentr":3844,"Ġconstat":3845,"Ġcondic":3846,"Ġpenitus":3847,"mat":3848,"mon":3849,"Ġdiceret":3850,"Ġinnoc":3851,"prop":3852,"51":3853,"Ġdiffic":3854,"ĠSpiritum":3855,"eritis":3856,"Ġpeccati":3857,"quem":3858,"ĠCamp":3859,"ĠRomani":3860,"Ġration":3861,"auc":3862,"Ġnaturae":3863,"OR":3864,"ologiae":3865,"entiis":3866,"ke":3867,"Ġprav":3868,"ratus":3869,"Ġcoron":3870,"Nunc":3871,"Ġquon":3872,"Ġordinem":3873,"87":3874,"Ipse":3875,"ÏĨ":3876,"ah":3877,"amento":3878,"tioni":3879,"Ig":3880,"Ġfacile":3881,"Ġvulg":3882,"illum":3883,"Ġdebeat":3884,"Ġdesid":3885,"Ġpasc":3886,"IT":3887,"ĠAth":3888,"Ġvirtutem":3889,"Ġvidere":3890,"iz":3891,"Ġpan":3892,"Ġcoepit":3893,"Ġmedic":3894,"Ġfructus":3895,"ein":3896,"omp":3897,"Sim":3898,"itionis":3899,"Ġgeneris":3900,"Ġnut":3901,"Ġaus":3902,"antiam":3903,"ĠJesum":3904,"Ġ39":3905,"Idem":3906,"ortun":3907,"ĠSu":3908,"eperit":3909,"esimo":3910,"sicut":3911,"Ubi":3912,"ĠCons":3913,"Ġtermin":3914,"ĠOri":3915,"Ġassump":3916,"iliam":3917,"Deinde":3918,"Ġpatrem":3919,"Ġfaciunt":3920,"Ġviro":3921,"Ġextrem":3922,"toris":3923,"pianus":3924,"untia":3925,"icas":3926,"Ġnem":3927,"Ġmetr":3928,"uven":3929,"Ġspiritum":3930,"Ġmors":3931,"ĠPal":3932,"Ġalterius":3933,"Ġofficio":3934,"Ġecce":3935,"iciis":3936,"pera":3937,"ĠXL":3938,"fl":3939,"Ġsensus":3940,"Ġaestim":3941,"Ġdaem":3942,"Ġtom":3943,"Ġarm":3944,"Ġantequam":3945,"Inc":3946,"istere":3947,"Ġfuisset":3948,"64":3949,"ĠRomana":3950,"ĠPauli":3951,"Ġexist":3952,"Ġdebemus":3953,"acta":3954,"Ġcapite":3955,"ulari":3956,"Ġbellum":3957,"Ġmore":3958,"Ġduas":3959,"Ġmus":3960,"ivi":3961,"ogn":3962,"ioecesis":3963,"ĠNotae":3964,"rym":3965,"ĠMac":3966,"Ġperegr":3967,"Ġvend":3968,"Ġascend":3969,"Ġgentium":3970,"ĠPrincip":3971,"inos":3972,"Ġevangel":3973,"OM":3974,"atia":3975,"otis":3976,"Ġuest":3977,"quaquam":3978,"Ġignis":3979,"Ġtribu":3980,"liv":3981,"Ġhonest":3982,"63":3983,"inac":3984,"Ġbeatus":3985,"ĠOl":3986,"ge":3987,"Ġabbatis":3988,"Ġ40":3989,"Ġuxorem":3990,"ensum":3991,"ĠPer":3992,"Nati":3993,"Ġspecies":3994,"Ġdescend":3995,"post":3996,"Ġexpos":3997,"ĠCass":3998,"quoniam":3999,"Ġgenere":4000,"Ġanimi":4001,"Ġindig":4002,"ĠRomanae":4003,"Tu":4004,"ET":4005,"Ġcontradic":4006,"Ġpapae":4007,"etum":4008,"erim":4009,"Î±Î½":4010,"Ġrevel":4011,"Ġfuturum":4012,"ĠIns":4013,"Ġexh":4014,"icarum":4015,"Ġexemplum":4016,"Ġvirtutum":4017,"Lat":4018,"Ġfidelibus":4019,"Ġsemet":4020,"Ġaeternum":4021,"uth":4022,"Ġuero":4023,"Ġinvicem":4024,"ĠEurop":4025,"ĠIbid":4026,"Ġgratiae":4027,"Ġsociet":4028,"Î±Î¹":4029,"Ġdig":4030,"Ġuxor":4031,"ĠBon":4032,"Ġmembra":4033,"ĠLatinitas":4034,"Ġcav":4035,"enit":4036,"Ġrelic":4037,"odum":4038,"85":4039,"Ġpropheta":4040,"Ġearum":4041,"orte":4042,"ĠSab":4043,"ĠEpist":4044,"Ġsalutis":4045,"Ġepiscopis":4046,"Ġprofess":4047,"Ġcorrig":4048,"ares":4049,"Ġconcord":4050,"Ġdorm":4051,"ĠEvangelio":4052,"Ġcler":4053,"Ġrequi":4054,"Ġpron":4055,"Ġglorios":4056,"Ġcamp":4057,"Ġiuxta":4058,"Ġvox":4059,"CH":4060,"Ġspirit":4061,"Ġdexter":4062,"Ġconting":4063,"esaur":4064,"Ġ2008":4065,"endos":4066,"Ġjug":4067,"Ġdebere":4068,"ident":4069,"Ġsupradic":4070,"Ġhort":4071,"Ġceleb":4072,"IO":4073,"iali":4074,"ĠcÃ¦":4075,"echn":4076,"Ġvuln":4077,"abis":4078,"sur":4079,"ĠRomae":4080,"ĠRuss":4081,"Ġhabebat":4082,"Ġpraesum":4083,"Propter":4084,"Ġredemp":4085,"entu":4086,"ariam":4087,"ocatio":4088,"Ġelabor":4089,"iensis":4090,".:":4091,"ĠFebr":4092,"Ġsapientia":4093,"Ġaltare":4094,"Ġcuncta":4095,"issum":4096,"Ġquadrag":4097,"75":4098,"aeter":4099,"Ġmulier":4100,"Ġadeo":4101,"onom":4102,"Ġerunt":4103,"Ġprincipes":4104,"Ġquondam":4105,"Ist":4106,"Ġliceat":4107,"venit":4108,"ĠPyr":4109,"aph":4110,"aldus":4111,"Ġdup":4112,"Luc":4113,"ĠNorm":4114,"Ġsignum":4115,"Ġtes":4116,"cr":4117,"burg":4118,"Ġ<":4119,"ĠSeptem":4120,"Matth":4121,"Ġpoterat":4122,"Ġconvert":4123,"atori":4124,"62":4125,"Ġoppidum":4126,"ĠMoys":4127,"Ġveritas":4128,"Ġpisc":4129,"ĠMichae":4130,"idia":4131,"ĠSim":4132,"Quare":4133,"Ġvidentur":4134,"sch":4135,"ĠSm":4136,"Ġdebent":4137,"Ġvell":4138,"ĠMos":4139,"ww":4140,"Ġscripsit":4141,"Ġfraud":4142,"apropter":4143,"Ġpari":4144,"inter":4145,"Ġdixi":4146,"Ġveritate":4147,"Ġdeclar":4148,"Ġdeduc":4149,"ugd":4150,"Ġil":4151,"ĠBe":4152,"eatur":4153,"ominus":4154,"ĠEbor":4155,"eram":4156,"aro":4157,"ĠOctob":4158,"Ġlit":4159,"Ġtur":4160,"Ġ190":4161,"Ġdicimus":4162,"orro":4163,"ierunt":4164,"Ġeumdem":4165,"Ġdepr":4166,"ĠArn":4167,"Ġquat":4168,"ĠprÃ¦c":4169,"ecundum":4170,"ai":4171,"ellis":4172,"Ġterris":4173,"Ġmali":4174,"Quomodo":4175,"Ġaliam":4176,"lem":4177,"itiae":4178,"ele":4179,"Ġveh":4180,"Ġoccurr":4181,"Ġmagnum":4182,"Ġalibi":4183,"ĠJerusalem":4184,"Ġoblig":4185,"Ġcura":4186,"ĠTim":4187,"Ph":4188,"Ġalterum":4189,"omines":4190,"99":4191,"Vel":4192,"ĠAD":4193,"ĠHistor":4194,"rii":4195,"Ġaufer":4196,"Ġconjug":4197,"Datum":4198,"Ġdepos":4199,"Vir":4200,"onae":4201,"abus":4202,"ĠQui":4203,"ĠCalif":4204,"leg":4205,"Ġjustific":4206,"Ġtamquam":4207,"Ġpaulo":4208,"Ġsecum":4209,"Num":4210,"Ġpublicus":4211,"Ġpace":4212,"isci":4213,"Ġhumana":4214,"ĠThom":4215,".;":4216,"Ġcorpora":4217,"Ġeloqu":4218,"opoli":4219,"onensis":4220,"ĠPic":4221,"Ġexpon":4222,"Reg":4223,"abiles":4224,"Ġjustitiae":4225,"Ġoperis":4226,"Ġtalis":4227,"Im":4228,"Ġinterdic":4229,"ĠLudov":4230,"Ġsemel":4231,"urs":4232,"ĠCat":4233,"undus":4234,"iscret":4235,"Ġtali":4236,"aei":4237,"ĠMus":4238,"ak":4239,"Ġvan":4240,"uto":4241,"Ġmultiplic":4242,"ĠTest":4243,"ĠPasch":4244,"Ġvoluerit":4245,"Ġapostoli":4246,"Ġseptim":4247,"ancip":4248,"essum":4249,"Leg":4250,"Ġcredit":4251,"Ġtrah":4252,"ĠcÅĵ":4253,"Ġpraev":4254,"ĠÎ¼":4255,"Or":4256,"Ġregi":4257,"Ġbono":4258,"ĠAdam":4259,"Ġcat":4260,"Ġpublica":4261,"Dominus":4262,"(??":4263,"da":4264,"erti":4265,"Î±ÏĦ":4266,"Ġcaptiv":4267,"arentur":4268,"Ġvilla":4269,"Ġordinis":4270,"Ġobsc":4271,"Ġdivinae":4272,"Ġformam":4273,"endae":4274,"His":4275,"Ġsubdit":4276,"Ġvill":4277,"com":4278,"Ġfacti":4279,"Ġinjus":4280,"Ġcec":4281,"Ġcontempl":4282,"anim":4283,"Ġarchid":4284,"ĠMed":4285,"Ġlacrym":4286,"Ġ):":4287,"ych":4288,"Ġexplic":4289,"Ġmodis":4290,"Ġjac":4291,"ĠEph":4292,"arus":4293,"ĠCC":4294,"Ġcorpor":4295,"Ġinh":4296,"ĠSed":4297,"Ġpror":4298,"ĠHenricus":4299,"Ġagit":4300,"Actum":4301,"Ġvocatur":4302,"lor":4303,"Ġmur":4304,"Ġ1997":4305,"Ġaltera":4306,"Ġuid":4307,"Ġinferi":4308,"igen":4309,"Ġneglig":4310,"utor":4311,"ĠFilii":4312,"quisque":4313,"Ġimit":4314,"ĠMaii":4315,"Ġprope":4316,"Ġsatisfac":4317,"lex":4318,"Eccles":4319,"Ġfoed":4320,"escere":4321,"itit":4322,"Aug":4323,"ibile":4324,"ĠSac":4325,"rid":4326,"Ġtransm":4327,"ĠMs":4328,"eriis":4329,"eam":4330,"rch":4331,"Ġdur":4332,"Ġmalis":4333,"Ġgenti":4334,"serit":4335,"Ġsumma":4336,"AD":4337,"queb":4338,"Ġmanduc":4339,"rehens":4340,"ĠMor":4341,"ĠUrbes":4342,"alc":4343,"actus":4344,"76":4345,"Ġcontig":4346,"hi":4347,"noc":4348,"Lib":4349,"Ġ2011":4350,"Ġtertio":4351,"Ġvidit":4352,"Ġtotam":4353,"atque":4354,"Ġibid":4355,"iscus":4356,"demn":4357,"nos":4358,"ĠAlp":4359,"ulla":4360,"Ġfratrem":4361,"Ġmalo":4362,"ularum":4363,"ĠBer":4364,"Ġiac":4365,"86":4366,"amin":4367,"ĠConstantin":4368,"Ġconspectu":4369,"Cap":4370,"Ġqualiter":4371,"Ġpatre":4372,"ĠAugusti":4373,"Ġpossint":4374,"Ġargum":4375,"Ġlibris":4376,"Ġvideatur":4377,"veni":4378,"Ġaccipi":4379,"ren":4380,"abuntur":4381,"eld":4382,"ĠPrae":4383,"Ġconcilio":4384,"ho":4385,"EPISTOLA":4386,"esn":4387,"ĠRomanorum":4388,"Ġnimirum":4389,"Ġfructum":4390,"Ġaccipere":4391,"Ġinduc":4392,"ĠXIV":4393,"Ġfuturis":4394,"Denique":4395,"Ġpraepar":4396,"rarum":4397,"itos":4398,"Ġvestri":4399,"ler":4400,"'s":4401,"ĠCluniac":4402,"erere":4403,"onibus":4404,"oro":4405,"Ġnegoti":4406,"Ġhuiusmodi":4407,"ĠFoederat":4408,"Ġprior":4409,"Ġinterc":4410,"Ġpietatis":4411,"aeus":4412,"ardo":4413,"Ġpurg":4414,"Ġconfit":4415,"inarum":4416,"Ġindulg":4417,"Ġgreg":4418,"idae":4419,"ĠAprilis":4420,"Ġ50":4421,"Ġchrist":4422,"Ġnud":4423,"Ãº":4424,"Ġsomn":4425,"vol":4426,"Ġtemplum":4427,"Ġduodecim":4428,"Ġgratias":4429,"84":4430,"Ġvirtutis":4431,"Ġquare":4432,"74":4433,"Ġnarr":4434,"icumque":4435,"ĠAmbros":4436,"CI":4437,"estia":4438,"ĠVide":4439,"Ġobsequ":4440,"Ðµ":4441,"ĠAqu":4442,"oto":4443,"Ġtenebr":4444,"Ġaeterna":4445,"Ġaddit":4446,"ute":4447,"ĠFilio":4448,"Ġvolupt":4449,"Ġgentibus":4450,"Ġmatris":4451,"ĠOcc":4452,"ÏīÎ½":4453,"ĠâĢĵ":4454,"Ġfiliorum":4455,"Ġemp":4456,"anorum":4457,"Ġhabetur":4458,"Ġmagister":4459,"Cons":4460,"Ġpic":4461,"Î¿á½":4462,"Hab":4463,"Ġconsecr":4464,"Ġobst":4465,"itius":4466,"ialiter":4467,"Qua":4468,"Ġnequaquam":4469,"Ġvocab":4470,"illo":4471,"rium":4472,"Ġvolumus":4473,"Ġacced":4474,"yd":4475,"73":4476,"uriam":4477,"Ġcommuni":4478,"Ġsiquidem":4479,"Ġterm":4480,"Ġexsult":4481,"uisti":4482,"itatu":4483,"ĠPol":4484,"Ġprocul":4485,"Ġquisque":4486,"berti":4487,"ĠInf":4488,"ĠLXX":4489,"Ġparticip":4490,"ĠEm":4491,"Ġheres":4492,"Ġcommunis":4493,"Ġisti":4494,"Ġinitio":4495,"bona":4496,"ca":4497,"83":4498,"Ġnulli":4499,"ĠAndre":4500,"ĠPyrenae":4501,"Ġinquam":4502,"Ġfall":4503,"Ġorient":4504,"Ġloca":4505,"á½°":4506,"ĠDem":4507,"ultus":4508,"Ġsusp":4509,"Ġspon":4510,"Ġpol":4511,"Ġtene":4512,"Ġhaered":4513,"Ã¡":4514,"undi":4515,"ĠProphet":4516,"edem":4517,"ĠCr":4518,"Ġexemplo":4519,"Cui":4520,"ical":4521,"til":4522,"inii":4523,"ĠAustr":4524,"arunt":4525,"Ġ2016":4526,"Ġdatur":4527,"Ġopt":4528,"ment":4529,"Ġcentum":4530,"Ġsuav":4531,"entii":4532,"Ġsanctific":4533,"Ġtabern":4534,"Ġsustin":4535,"ĠInstitut":4536,"Ġadulter":4537,"Ġantea":4538,"Ġdemonstr":4539,"Ġsensu":4540,"Ġhabemus":4541,"ilias":4542,"Ġdeinceps":4543,"Ġhabens":4544,"Ġappet":4545,"ĠHistoria":4546,"ĠCan":4547,"Ġsedem":4548,"Ġsolemn":4549,"ĠFlor":4550,"Ġlumen":4551,"Ġ2010":4552,"Ġusum":4553,"Ġsermone":4554,"Ġfacto":4555,"72":4556,"atius":4557,"neque":4558,"umni":4559,"Ġretin":4560,"Ġdat":4561,"Ġincon":4562,"Ġnego":4563,"Ġabbati":4564,"ĠUniversity":4565,"Ġvas":4566,"Ġmagno":4567,"Ġlud":4568,"eu":4569,"ĠAnt":4570,"Ġinterf":4571,"utis":4572,"Ġstudio":4573,"ĠPo":4574,"Porro":4575,"Ġprog":4576,"Ġscand":4577,"Ġillumin":4578,"Ġexaud":4579,"elius":4580,"itibus":4581,"ulerunt":4582,"ars":4583,"ode":4584,"ĠXVI":4585,"Ġconsumm":4586,"ĠSuperioris":4587,"Ġpur":4588,"Ġexalt":4589,"Ġeleg":4590,"Ġdilect":4591,"ĠCivitatum":4592,"Ġdictus":4593,"Ġdubio":4594,"inacotheca":4595,"Ġvestro":4596,"Ġtimore":4597,"Ġdispens":4598,"Ġsancte":4599,"Ġcern":4600,"Ġcrucis":4601,"Ille":4602,"quando":4603,"Ġcommemor":4604,"ĠIta":4605,"Ġfuerant":4606,"ĠMartii":4607,"Ġcaec":4608,"Ġquadam":4609,"ĠBiograph":4610,"Ġqual":4611,"Ġsane":4612,"Ġsanguinem":4613,"Jam":4614,"Ġspem":4615,"Ġcupid":4616,"Ġresp":4617,"Ġpuer":4618,"Ġmultos":4619,"bo":4620,"Quem":4621,"Ġnotum":4622,");":4623,"Ġimo":4624,"Ġadmir":4625,"ĠJoann":4626,"Anglice":4627,"Ġinsign":4628,"ĠSen":4629,"AP":4630,"pectus":4631,"Ġremed":4632,"Ġperp":4633,"Ġcand":4634,"Ġubique":4635,"actiones":4636,"Ġintelligi":4637,"Ġscribit":4638,"Ġpraesump":4639,"ÎµÎ¹":4640,"Ġitem":4641,"Ġreligionis":4642,"Ġreges":4643,"Ġepistolam":4644,"Ġaliquam":4645,"ĠDat":4646,"Ġulla":4647,"Ġpoena":4648,"Ġdiffer":4649,"âĢ²":4650,"Ġfrag":4651,"Ġtol":4652,"ĠCy":4653,"not":4654,"ĠAsteroides":4655,"ariorum":4656,"Ibid":4657,"Ġvirtu":4658,"erumque":4659,"ry":4660,"titia":4661,"Ġcommunic":4662,"ratum":4663,"Ġnupt":4664,"Ġdefic":4665,"axa":4666,"Ġhabeant":4667,"uel":4668,"Ġcomitis":4669,"Ġhomini":4670,"Ġpersecu":4671,"ende":4672,"Ġdisput":4673,"ĠNation":4674,"Ġnimis":4675,"Ġsecunda":4676,"Ġbenign":4677,"Ġcharitatis":4678,"ĠAbraham":4679,"Ġec":4680,"Ġinsid":4681,"Ġmetu":4682,"gg":4683,"Ġsolis":4684,"Ġthesaur":4685,"Ġsacerdos":4686,"Scrip":4687,"Ġedic":4688,"Ġpoenitentiam":4689,"ole":4690,"ĠOm":4691,"Ġillust":4692,"Ġdiligenter":4693,"Ġepiscoporum":4694,"Ġscr":4695,"Ġclaus":4696,"Ġlect":4697,"Ġdirig":4698,"Ã¤":4699,"Ġconsensu":4700,"Ġub":4701,"Ġprem":4702,"Ġdistric":4703,"Ġhaud":4704,"Ġeisdem":4705,"omi":4706,"Ġsaep":4707,"ĠMal":4708,"Ġinqui":4709,"71":4710,"Ġrursus":4711,"Ġirr":4712,"Ġlim":4713,"Ġmemoria":4714,"ĠMartini":4715,"ĠBel":4716,"81":4717,"eremus":4718,"olym":4719,"Ġeamdem":4720,"Ġrespondit":4721,"Ġcivitas":4722,"Ġurbs":4723,"assis":4724,"Franc":4725,"torem":4726,"ellam":4727,"Ġpref":4728,"Ġcam":4729,"ford":4730,"anni":4731,"ĠSanctae":4732,"Bibliographia":4733,"Ġdominum":4734,"ipp":4735,"Ġsuffrag":4736,"Ġnam":4737,"Ġ].":4738,"Ġinfer":4739,"Ġfecerit":4740,"Ġpraesenti":4741,"á¿¶Î½":4742,"Ġtertia":4743,"Ġscriptor":4744,"ulti":4745,"ĠFoederatarum":4746,"Ġproprium":4747,"ĠPro":4748,"Ġanc":4749,"82":4750,"adis":4751,"Hanc":4752,"Ġtransl":4753,"raque":4754,"ĠPatri":4755,"ĠTechn":4756,"lend":4757,"ĠMel":4758,"ĠCas":4759,"Ġprovid":4760,"Ġarchiepiscopus":4761,"Ob":4762,"Ġumb":4763,"Ġmajest":4764,"Ġcardinalis":4765,"Ġvivere":4766,"Ġcontum":4767,"Ġelect":4768,"Ġintro":4769,"anto":4770,"Cumque":4771,"ĠCarolus":4772,"Ġfratris":4773,"inorum":4774,"entiÃ¦":4775,"Ġcives":4776,"ĠAur":4777,"riusque":4778,"Ġpraepos":4779,"ianae":4780,"Ġdid":4781,"Ġcorda":4782,"iscretiva":4783,"Ġ189":4784,"Ġimperium":4785,"Ġfideles":4786,"enob":4787,"ĠVatic":4788,"ĠCum":4789,"ĠFland":4790,"Super":4791,"Ġdoctrina":4792,"ept":4793,"Ġextr":4794,"Ġmundus":4795,"ĠSalom":4796,"Is":4797,"etiae":4798,"AM":4799,"ade":4800,"ĠGl":4801,"Ġlocutus":4802,"Ġcondemn":4803,"ĠSancto":4804,"Ġstipul":4805,"emb":4806,"Ġinveni":4807,"amenti":4808,"Sa":4809,"Ġpraesentia":4810,"ilus":4811,"eruntur":4812,"Ġvt":4813,"Ġpetit":4814,"Ġconsu":4815,"âĢ³":4816,"tifex":4817,"Ġseni":4818,"tt":4819,"ĠBal":4820,"ertim":4821,"Ġquinqu":4822,"Ġsese":4823,"iod":4824,"Ġprinceps":4825,"Ġjud":4826,"ocin":4827,"itui":4828,"ĠSax":4829,"orni":4830,"Ġdono":4831,"tionum":4832,"Ġasser":4833,"ĠJoannis":4834,"Ġdignum":4835,"Ġcrucif":4836,"Ġhora":4837,"Ġsubscripsi":4838,"ĠJob":4839,"Ġbonus":4840,"anam":4841,"Ġfratern":4842,"ĠNum":4843,"Ġmaledic":4844,"Ġnullam":4845,"ĠDecembris":4846,"Ġconvenit":4847,"ĠLaur":4848,"nic":4849,"Ġhorum":4850,"dis":4851,"iliis":4852,"Ġspe":4853,"Ġcontemn":4854,"Ġrobor":4855,"ĠEs":4856,"Ġnit":4857,"stitu":4858,"Ġira":4859,"Ġaquam":4860,"\",":4861,"Igitur":4862,"Ġconu":4863,"Ġremiss":4864,"Ġfinit":4865,"Ġapostolicam":4866,"onius":4867,"Ġpecuniam":4868,"ody":4869,"Ġru":4870,"Ġnecessaria":4871,"etatem":4872,"ecclesia":4873,"Ġpax":4874,"Ġvivi":4875,"Ġsensum":4876,"Ep":4877,"terea":4878,"Ġpercip":4879,"Edit":4880,"actum":4881,"Ġpraefect":4882,"Ġorn":4883,"Ġsolet":4884,"ĠIud":4885,"issimam":4886,"Ġsplend":4887,"Ġsalute":4888,"09":4889,"Ġhec":4890,"ĠBas":4891,"Ġsaltem":4892,"Ġvirtutes":4893,"Ġreddit":4894,"Ġutriusque":4895,"ĠLigeris":4896,"Ġrevert":4897,"Ġimperii":4898,"XL":4899,"Tr":4900,"Ġauxilium":4901,"ĠHa":4902,"ĠPon":4903,"Ġcoelestis":4904,"imas":4905,"Joan":4906,"Ġcrud":4907,"ĠEvangelium":4908,"itorum":4909,"inguli":4910,"Ġmeritis":4911,"Ġproced":4912,"Ġdenique":4913,"Ġsag":4914,"Ġtemper":4915,"Ġsacerdo":4916,"Ġtyr":4917,"Ġsuccessoribus":4918,"Ġvent":4919,"abase":4920,"Ġpersever":4921,"umn":4922,"ĠĠĠĠĠĠĠĠ":4923,"atura":4924,"eng":4925,"Ġprout":4926,"Ġanimum":4927,"Ġdissim":4928,"Ġfacie":4929,"Ġsacr":4930,"Ġservorum":4931,"epta":4932,"Ġdicentes":4933,"Ġanathem":4934,"Ġutrumque":4935,"Ġscire":4936,"Ġnostros":4937,"Ġviginti":4938,"à¤":4939,"Ġfortasse":4940,"Ġvoluntas":4941,"Ġquer":4942,"Ġmajor":4943,"ĠOctobris":4944,"Ġimperatoris":4945,"Ġpene":4946,"uz":4947,"ĠConc":4948,"iaco":4949,"Ġsubstantia":4950,"ĠRa":4951,"Ġpropon":4952,"ĠScriptura":4953,"á½´":4954,"Ġregum":4955,"ibilis":4956,"Ġcuram":4957,"Ġplant":4958,"Ġconfus":4959,"irent":4960,".(":4961,"ĠÏĥ":4962,"Ġvehem":4963,"acobus":4964,"ÎµÎ½":4965,"Ġsat":4966,"Ġposuit":4967,"Ġsepulc":4968,"Sequ":4969,"Ġdetr":4970,"Ġscientia":4971,"Ġmatrimon":4972,"Ġnovum":4973,"issis":4974,"Ġspecie":4975,"ĠUt":4976,"Ġloqui":4977,"Ġej":4978,"ĠRed":4979,"Ġdispon":4980,"duc":4981,"Ġpropriis":4982,"Ġmenti":4983,"Ġdeprec":4984,"ĠGo":4985,"Ġsacra":4986,"ĠDatabase":4987,"Ġquicquid":4988,"Ġvalet":4989,"Ġtriumph":4990,"Ġtrig":4991,"ĠHebrae":4992,"Ð½":4993,"Ġresurg":4994,"Ãºs":4995,"nes":4996,"eti":4997,"PL":4998,"Acc":4999,"Ġprol":5000,"Ġerga":5001,"ebam":5002,"Ġdeg":5003,"Ġfiunt":5004,"eru":5005,"Î±ÏĤ":5006,"Ġunusquisque":5007,"ĠCorb":5008,"ĠhÃ¦":5009,"aciter":5010,"Ġmagnific":5011,"Ġcub":5012,"ĠprÃ¦dic":5013,"ĠMont":5014,"Ġprael":5015,"Ġquotidie":5016,"Ġturp":5017,"Ġnox":5018,"esta":5019,"Ġvideri":5020,"Ġmentem":5021,"ĠGermaniae":5022,"Ġpign":5023,"Ġsupr":5024,"Ġdocet":5025,"Ġsacerdotes":5026,"Ġ49":5027,"age":5028,"ba":5029,"Ġconsenti":5030,"Ġaudire":5031,"ĠÃ¦ter":5032,"ĠAlexander":5033,"rici":5034,"Ġge":5035,"Ġiub":5036,"Ġtrist":5037,"Ġsaecula":5038,"Ġlibertatem":5039,"Ġapostolus":5040,"Ġmonachi":5041,"ace":5042,"ittitur":5043,"ĠPers":5044,"ĠAntioch":5045,"acia":5046,"Ven":5047,"rump":5048,"Ġpersonam":5049,"Ġarma":5050,"Ġcarc":5051,"Ġtalia":5052,"Ġterrarum":5053,"Ġgloriae":5054,"Ġusu":5055,"Ġexcell":5056,"Ġdiscipulis":5057,"escat":5058,"Car":5059,"ĠNovembris":5060,"undo":5061,"Ġvivit":5062,"ĠInstitutum":5063,"Ġtestes":5064,"Ġ978":5065,"sub":5066,"Ġferre":5067,"ĠHomines":5068,"Ġpotestas":5069,"EL":5070,"inianus":5071,"ĠBab":5072,"Ġsigna":5073,"RA":5074,"Ġcaetera":5075,"Ġmillia":5076,"idel":5077,"ĠCur":5078,"ĠIm":5079,"oduc":5080,"acensis":5081,"Ġintenti":5082,"Ġpatriarch":5083,"anice":5084,"Ġcharitas":5085,"Ġele":5086,"Ġbiograph":5087,"Ġcoeli":5088,"Ġjustus":5089,"ĠâĪ":5090,"Ġsuspic":5091,"ĠSar":5092,"Ġhaeres":5093,"Ġpluribus":5094,"Ġdixerunt":5095,"Ġquanta":5096,"Ġxx":5097,"Ġbasil":5098,"Ġcolleg":5099,"ĠPaul":5100,"ĠGregorius":5101,"Ġleges":5102,"aculo":5103,"Ġservitut":5104,"nit":5105,"ĠAmer":5106,"Ġconsc":5107,"Ġvestim":5108,"Ġnova":5109,"ĠJudaeorum":5110,"ensus":5111,"ila":5112,"Be":5113,"anas":5114,"rie":5115,"ĠLugd":5116,"Ġsemp":5117,"ensa":5118,"Ġnuncup":5119,"amine":5120,"Ġcredimus":5121,"Ġexercitus":5122,"ultum":5123,"Quibus":5124,"Ġidcirco":5125,"Ġmetropolit":5126,"ĠMerid":5127,"econom":5128,"Ġcharitate":5129,"itiis":5130,"ÑĢ":5131,"iderit":5132,"olu":5133,"Ġmeorum":5134,"ianis":5135,"ĠPrincipalis":5136,"isch":5137,"Ġmit":5138,"Ġassum":5139,"Ġreperti":5140,"Ġexternus":5141,"uorum":5142,"une":5143,"Ġaeternam":5144,"Ġdefin":5145,"Ġidone":5146,"ki":5147,"ĠMaur":5148,"Ġbello":5149,"Ġprovoc":5150,"ĠOp":5151,"Ġuniversa":5152,"Ġtuorum":5153,"Ġdeclin":5154,"ĠCinguli":5155,"lio":5156,"Ġministr":5157,"ĠUniversitatis":5158,"ĠCO":5159,"RO":5160,"ten":5161,"essi":5162,"phem":5163,"Ġadduc":5164,"Ġadjuv":5165,"Ġmortuis":5166,"Ġfidelis":5167,"ĠDon":5168,"Ġanimarum":5169,"scrib":5170,"ĠFrancorum":5171,"ĠIoseph":5172,"Ġpraeced":5173,"Ġpartic":5174,"ĠAct":5175,"ĠLam":5176,"extus":5177,"Ġlitterarum":5178,"eria":5179,"ĠEgo":5180,"Ġcredere":5181,"Ġhaberet":5182,"ASA":5183,"Ġmonachis":5184,"Ġexercitu":5185,"Ġsubi":5186,"otest":5187,"Ġisto":5188,"Ġmemoriae":5189,"ĠAugustinus":5190,"000":5191,"Ġpostmodum":5192,"ĠIulii":5193,"ĠâŁ":5194,"Ġimpos":5195,"Ġsugg":5196,"Ġpresbiter":5197,"Dec":5198,"Com":5199,"Respon":5200,"ĠBald":5201,"Ġtales":5202,"Ġmecum":5203,"Ġvideb":5204,"Ġfecerunt":5205,"orta":5206,"ĠRhod":5207,"Ġprorsus":5208,"Ġpretios":5209,"ĠFractiones":5210,"ĠFebruarii":5211,"Ġtransf":5212,"ĠÎµ":5213,"Ġcass":5214,"Sub":5215,"Ġprofecto":5216,"Ġdeput":5217,"Ġseri":5218,"ocrat":5219,"ĠQuod":5220,"Ġintus":5221,"Ġprecibus":5222,"Cur":5223,"ĠCaliforni":5224,"Ġexprim":5225,"ago":5226,"Cl":5227,"Ġmeos":5228,"turus":5229,"Ġsurg":5230,"ĠNASA":5231,"Ġviris":5232,"Ġculpa":5233,"Ġdicti":5234,"erebat":5235,"Ġmemoriam":5236,"Ġvulgo":5237,"Ġ|":5238,"ĠâĪĴ":5239,"Ġnep":5240,"Ġsermonem":5241,"Ġinop":5242,"Ind":5243,"Ġiudicium":5244,"Ġfutura":5245,"Ġprepos":5246,"Ġpersequ":5247,"ĠsÃ¦c":5248,"Amen":5249,"UL":5250,"Ġimpet":5251,"Ġcollect":5252,"idam":5253,"evit":5254,"Ġoccident":5255,"Ġfesti":5256,"Ġapprob":5257,"Ġcalc":5258,"Ġabl":5259,"Ġaliquem":5260,"Ġassign":5261,"ema":5262,"odus":5263,"Ġinterim":5264,"Ġvictor":5265,"ĠAf":5266,"Ġnativ":5267,"Ġconcilium":5268,"ĠSil":5269,"Ġpect":5270,"Ġcasu":5271,"Ġindictione":5272,"elix":5273,"Ġbis":5274,"Ġpup":5275,"ĠRomam":5276,"Ġvigil":5277,"Ġdicebat":5278,"Ġsuppl":5279,"ĠEPIS":5280,"ĠTechnologiae":5281,"Ġkal":5282,"Ġjur":5283,"Ġ1996":5284,"Ġlucem":5285,"Op":5286,"Ġvestig":5287,"ĠMass":5288,"rop":5289,"Ġvex":5290,"atig":5291,"Ġmancip":5292,"anta":5293,"Ġiudicio":5294,"ede":5295,"Ġaquae":5296,"Ġ35":5297,"Ġigne":5298,"ĠEboraci":5299,"ĠAnglic":5300,"Ġnostras":5301,"Sal":5302,"annus":5303,"Domine":5304,"Ġserp":5305,"Ġdestin":5306,"Ġuniu":5307,"ĠSmall":5308,"Ġdescrip":5309,"Ġnumerus":5310,"ĠXVIII":5311,"ĠSeptentr":5312,"ĠUlpianus":5313,"este":5314,"Ġvim":5315,"Ġrevers":5316,"Ġdiversis":5317,"Ġoctav":5318,"ĠJuda":5319,"Ġ32":5320,"Ġprincipio":5321,"Ġcu":5322,"DE":5323,"Ġsolo":5324,"Ġsedes":5325,"Ġjusti":5326,"Ġvici":5327,"Ġperdit":5328,"Ġvocat":5329,"arias":5330,"Ġadf":5331,"Ġperpetuo":5332,"Ġciu":5333,"Ġmaris":5334,"Ġster":5335,"Ġferv":5336,"Ġpraecipue":5337,"ĠJPL":5338,"Omnes":5339,"Ter":5340,"hic":5341,"issimae":5342,"athed":5343,"Ġfieret":5344,"Pat":5345,"Ġsinist":5346,"Ġdecern":5347,"icibus":5348,"diu":5349,"onor":5350,"Ġdatum":5351,"Ġmunicipium":5352,"Ġmalig":5353,"abilia":5354,"Ġpraesens":5355,"NO":5356,"Ġabbatem":5357,"Ġuniuers":5358,"idio":5359,"Ġignem":5360,"Ġpatron":5361,"Ġtale":5362,"Ġ33":5363,"unda":5364,"Ġhabes":5365,"Ġpertinere":5366,"ĠBap":5367,"ĠTer":5368,"Ġistis":5369,"amini":5370,"ĠSeptembris":5371,"Asteroides":5372,"Ġsimilitudinem":5373,"Body":5374,"ancell":5375,"Ġcausis":5376,"Ġrecord":5377,"ĠCaliforniense":5378,"Ġelaboraverunt":5379,"Ġsempiter":5380,"Ġsuscepit":5381,"ka":5382,"Ġimped":5383,"ĠLoth":5384,"istae":5385,"judic":5386,"ĠsitÃºs":5387,"Ġads":5388,"Ġdiabolus":5389,"Cod":5390,"iaconi":5391,"Äĥ":5392,"Ġegreg":5393,"isus":5394,"Ġsaeculum":5395,"Ġmac":5396,"Ġperturb":5397,"illis":5398,"Ġced":5399,"ĠSub":5400,"ĠJoseph":5401,"Î¿Î¹":5402,"Ġnecessitate":5403,"Ġaure":5404,"Ed":5405,"Ġnostre":5406,"Ġcolloc":5407,"Ġseq":5408,"enam":5409,"pec":5410,"Ñģ":5411,"Nihil":5412,"Ġpatri":5413,"Ġservum":5414,"RE":5415,"Ġtuos":5416,"Ġmilites":5417,"Ġutraque":5418,"itare":5419,"Ġordo":5420,"Mar":5421,"udum":5422,"Ġtria":5423,"Ġvetus":5424,"tenus":5425,"Ġsecur":5426,"Ġdefend":5427,"ĠJudaei":5428,"Ġsolidos":5429,"oh":5430,"ĠAlexandr":5431,"ĠSequ":5432,"Ġpud":5433,"Ġconsist":5434,"Ġcirciter":5435,"Ġmonte":5436,"ose":5437,"Ġfluv":5438,"Ġ34":5439,"Ġcomitatu":5440,"Ġfals":5441,"Conf":5442,"cujus":5443,"ertum":5444,"Ġspes":5445,"Ġtranse":5446,"ĠprÃ¦s":5447,"Ġpropterea":5448,"itatur":5449,"Ġfe":5450,"Ġtalem":5451,"Ġinvenit":5452,"ullius":5453,"ĠAss":5454,"Ġjustum":5455,"Ġepiscopos":5456,"Ġquum":5457,"aldi":5458,"Ġversus":5459,"Ġpecunia":5460,"Ġdisper":5461,"ĠVers":5462,"amenta":5463,"Ġdonum":5464,"á¿ĨÏĤ":5465,"Ġbarb":5466,"Ġaffirm":5467,"Ġmartyr":5468,"Ġgaudium":5469,"Ġrepertae":5470,"ĠRuf":5471,"05":5472,"ĠBurg":5473,"ondinii":5474,"Ġpresentibus":5475,"ermin":5476,"Ġmatrem":5477,"Ġforis":5478,"Ġinsuper":5479,"Ġdona":5480,"Ġsin":5481,"Ġsanguinis":5482,"Ġbonae":5483,"Ġnumer":5484,"Ġfinium":5485,"Ġintelleg":5486,"Ġmedia":5487,"iph":5488,"vert":5489,"Ġannorum":5490,"Ġinvoc":5491,"Ben":5492,"Ġinstrum":5493,"Ġposteri":5494,"Ġsita":5495,"ensibus":5496,"erte":5497,"Ð¾Ð":5498,"isque":5499,"ĠMedi":5500,"Ġdo":5501,"Ġtemer":5502,"Ġecclesiis":5503,"ĠPort":5504,"ĠCollocatio":5505,"Ġpossessionem":5506,"rÃ¦":5507,"Cujus":5508,"ĠSyr":5509,"ĠÂ«":5510,"Ġpraecepta":5511,"Ġcurr":5512,"ĠWalter":5513,"Ġplerumque":5514,"uitu":5515,"Ġprincipum":5516,"Ġvelle":5517,"Ġcompell":5518,"Ġomnipotens":5519,"ÎµÏģ":5520,"Ġsinc":5521,"ĠLX":5522,"Ġbenedictionem":5523,"Ġocto":5524,"isso":5525,"Ġmedium":5526,"Ġauri":5527,"Ġblas":5528,"Ġjudicii":5529,"Ġproprio":5530,"Ibi":5531,"olas":5532,"Ġdicam":5533,"Ġimpon":5534,"Quapropter":5535,"Le":5536,"eperat":5537,"Ġlav":5538,"aturus":5539,"ĠPom":5540,"empe":5541,"ĠPetrum":5542,"Ġhumili":5543,"Conc":5544,"Ġfore":5545,"ĠDE":5546,"Ġoperum":5547,"onensi":5548,"Ġveniam":5549,"Ġfun":5550,"Ġpoll":5551,"inensis":5552,"Ġreprob":5553,"Ġverborum":5554,"Ġtang":5555,"ĠRad":5556,"Ġprincipis":5557,"Ġtitulo":5558,"agog":5559,"aric":5560,"quibus":5561,"ĠEuropae":5562,"etas":5563,"Ġhabentes":5564,"Ġdesper":5565,"Ġung":5566,"ĠLing":5567,"Ġinvis":5568,"Ġimmort":5569,"95":5570,"Ġfratri":5571,"ĠSociet":5572,"ivam":5573,"Ġsapientiae":5574,"elo":5575,"ĠTaxa":5576,"ly":5577,"toria":5578,"ineat":5579,"Ġpossessiones":5580,"Par":5581,"Ġintim":5582,"Ġvirtutibus":5583,"Ġviros":5584,"Sunt":5585,"Ġoffer":5586,"Ġdivid":5587,"Ġlibere":5588,"vir":5589,"Ġhabitat":5590,"ĠConst":5591,"elmi":5592,"ĠMil":5593,"ĠGuli":5594,"Ġdistinc":5595,"Ġoratione":5596,"Ġmandatum":5597,"ĠEphes":5598,"ĠAfr":5599,"lav":5600,"liber":5601,"98":5602,"ĠVicidata":5603,"ĠAch":5604,"Ġpublicae":5605,"nunc":5606,"Ġexpedit":5607,"Ġviribus":5608,"Ġistud":5609,"Ġmiles":5610,"Ġfic":5611,"Ġ1995":5612,"rio":5613,"Ġanimus":5614,"Ġperduc":5615,"aribus":5616,"Ġdescrib":5617,"Ġdivino":5618,"ĠArd":5619,"Ġexcel":5620,"ĠSym":5621,"Ġpotentia":5622,"yll":5623,"Ġvert":5624,"UG":5625,"Ġparum":5626,"Ġobj":5627,"Ġnecnon":5628,"ĠGeorgius":5629,"Ġsect":5630,"api":5631,"andos":5632,"Ġfulg":5633,"Ġmendac":5634,"Ġ38":5635,"Ġaliquod":5636,"Ġappellantur":5637,"Ġheb":5638,"Ġnumerum":5639,"Ġdiaboli":5640,"Ġvendit":5641,"eus":5642,"Ġcoh":5643,"Mon":5644,"Ġprovinciae":5645,"Î±Ïģ":5646,"ĠIll":5647,"Ġapostolis":5648,"Ġexemp":5649,"Ġlegatus":5650,"Ġnumquam":5651,"Ġdicatur":5652,"Ġreman":5653,"Ġeat":5654,"Pet":5655,"olia":5656,"ĠXVII":5657,"Ġhuc":5658,"Ġplena":5659,"Ġpatres":5660,"Ġvidet":5661,"estus":5662,"andae":5663,"ÏĥÎ¹":5664,"Ġvale":5665,"roque":5666,"Ġmane":5667,"cus":5668,"Ġfuturo":5669,"Ġfaceret":5670,"Ġanimas":5671,"Ġjuste":5672,"hil":5673,"Ġquosdam":5674,"ronae":5675,"Ġpatern":5676,"orsum":5677,"Ġiud":5678,"olaus":5679,"etiam":5680,"Ġattend":5681,"unum":5682,"elag":5683,"Ġsiue":5684,"ĠEpiscop":5685,"Ġdicendum":5686,"Ġhas":5687,"Ġaudit":5688,"Ġpossent":5689,"ego":5690,"Ġmere":5691,"Ġadim":5692,"Ġprimi":5693,"DI":5694,"ĠUr":5695,"Ġpug":5696,"ett":5697,"Ġnonnull":5698,"eritas":5699,"Ġcausas":5700,"ht":5701,"ĠNo":5702,"ĠCorn":5703,"Ġfrig":5704,"Spir":5705,"erp":5706,"Ġmilitum":5707,"Ġiur":5708,"Quando":5709,"Ġtotus":5710,"Ġnunti":5711,"Ul":5712,"Ġae":5713,"ĠTe":5714,"Ġaliquot":5715,"Ġpublice":5716,"Ġascendit":5717,"Ġlegibus":5718,"Î¯":5719,"Ġmonast":5720,"Ġcst":5721,"itavit":5722,"CL":5723,"ĠJust":5724,"ĠAuc":5725,"Ġresurrectionem":5726,"Ġoratio":5727,"Ġquarum":5728,"ĠPra":5729,"Ġfigur":5730,"Ġproduc":5731,"Ġdomni":5732,"Ġfestin":5733,"erique":5734,"ÃŃ":5735,"Ġur":5736,"Ġclaud":5737,"Ġspecialiter":5738,"aj":5739,"Ġmoribus":5740,"Ġoccasione":5741,"Ġimb":5742,"zech":5743,"nov":5744,"Ġcastra":5745,"97":5746,"ĠDom":5747,"Ġprofer":5748,"Ġfiduc":5749,"ontes":5750,"discretiva":5751,"Ġmarg":5752,"Ġdicata":5753,"ĠHispan":5754,"Ġhumanae":5755,"Ġelectus":5756,"ĠIunii":5757,"ecus":5758,"Pages":5759,"ĠXIX":5760,"Ġimaginem":5761,"Ġfinitima":5762,"ĠSig":5763,"Ġminor":5764,"Ġverbi":5765,"Ġistam":5766,"Ġfirma":5767,"Ġperhib":5768,"Ġimperio":5769,"ĠLang":5770,"Ġsacramentum":5771,"turae":5772,"Ġauctoritatem":5773,"Ġpanem":5774,"Ġhactenus":5775,"uncta":5776,"Ġangeli":5777,"ĠSalvatoris":5778,"orium":5779,"ĠComitatus":5780,"Ġterre":5781,"Ġantiqui":5782,"Ġvinum":5783,"96":5784,"ĠVulg":5785,"ebo":5786,"Ġcomit":5787,"Ġhodi":5788,"Ġmom":5789,"ĠRegione":5790,"Ġfinis":5791,"ĠPhil":5792,"Ġmandata":5793,"Ġasper":5794,"rico":5795,"Ġeduc":5796,"ionalis":5797,"Ġlatere":5798,"Ġappellatur":5799,"ideo":5800,"ĠRomanus":5801,"ner":5802,"Ġplacet":5803,"Ġnota":5804,"ĠIl":5805,"ĠSe":5806,"ĠSh":5807,"Ġfornic":5808,"Ġdescendit":5809,"erio":5810,"Ġglorific":5811,"Ġconscientia":5812,"itias":5813,"Ġdictis":5814,"Ġabbat":5815,"Ġlaudem":5816,"orb":5817,"ĠRod":5818,"ĠChar":5819,"timus":5820,"ien":5821,"Ġpun":5822,"Ġarchidiacon":5823,"sae":5824,"Inde":5825,"uin":5826,"Ġdari":5827,"Ġpatet":5828,"ĠBad":5829,"Ġplacuit":5830,"Î²":5831,"Ġtriginta":5832,"eptum":5833,"Caeter":5834,"Ġeleemos":5835,"ĠVallis":5836,"emper":5837,"odis":5838,"ĠMoy":5839,"Ġsimilis":5840,"olet":5841,"ĠMichael":5842,"Ġcommut":5843,"Ġobv":5844,"Ġpertinent":5845,"ĠRo":5846,"Ġconcilii":5847,"Ġtestatur":5848,"hem":5849,"eptus":5850,"andiu":5851,"Ġauctoritas":5852,"Ġventur":5853,"erito":5854,"Ġpraeses":5855,"eda":5856,"ĠDani":5857,"Ġsenatus":5858,"Ġnosc":5859,"Ġconfid":5860,"occ":5861,"Ġmunus":5862,"Ġtribun":5863,"Ġinterpretatur":5864,"Ġpend":5865,"Br":5866,"lici":5867,"Ġlabore":5868,"Ġtalibus":5869,"Fac":5870,"Ġire":5871,"Ġmultorum":5872,"Ġquadraginta":5873,"inia":5874,"Ġcito":5875,"inf":5876,"Ġflor":5877,"Ġtestimonio":5878,"ĠBibli":5879,"ionys":5880,"ology":5881,"Ġpraesentis":5882,"ĠIncolae":5883,"Ġum":5884,"cho":5885,"Ġplag":5886,"Ġwww":5887,"ĠBabyl":5888,"ĠInnoc":5889,"Ġcharitatem":5890,"Ġbr":5891,"Ġcodd":5892,"ĠLaud":5893,"undem":5894,"ĠCJ":5895,"Ġparc":5896,"Ġcompon":5897,"Col":5898,"ĠCre":5899,"Ġparoch":5900,"Ġaliena":5901,"Ġjuv":5902,"ĠPagina":5903,"Ġrecipi":5904,"Ġabbate":5905,"Ġauctore":5906,"Ġinquir":5907,"ericus":5908,"Ġpotestatis":5909,"Ġpeccatores":5910,"erto":5911,"Ġsupp":5912,"Ġdoctrinam":5913,"Ġlibera":5914,"Ġblasphem":5915,"Ġprimis":5916,"Ġarbit":5917,"Ġangelus":5918,"Ġnovit":5919,"Ġdiei":5920,"Ġinclin":5921,"Ġsalub":5922,"ogen":5923,"Ġincend":5924,"Ġvenerabilis":5925,"iturus":5926,"ĠBur":5927,"ĠSol":5928,"Ġgenera":5929,"ĠJudaeis":5930,"Ġaeternae":5931,"Ġplane":5932,"Ġactio":5933,"erii":5934,"ĠEg":5935,"Ġscrips":5936,"Ġagitur":5937,"Ġ],":5938,"93":5939,"igr":5940,"Ġevid":5941,"04":5942,"iora":5943,"Ġsacris":5944,"Ġnobil":5945,"Ġlegi":5946,"fred":5947,"ejus":5948,"eras":5949,"Ġpraet":5950,"Ġvoluntatis":5951,"elu":5952,"Ġelemos":5953,"DO":5954,"Ġarmis":5955,"ĠJoh":5956,"ĠPost":5957,"sim":5958,"useb":5959,"ucc":5960,"07":5961,"Ġquot":5962,"Ġlegimus":5963,"94":5964,"nisi":5965,"ivis":5966,"MO":5967,"ĠGa":5968,"lac":5969,"Ġmari":5970,"ĠHe":5971,"ham":5972,"tior":5973,"Ġpraetor":5974,"Ġdixerit":5975,"IL":5976,"Ġinitium":5977,"Ġhistoria":5978,"Ġfluc":5979,"Ġmonachorum":5980,"Ġvitia":5981,"ensu":5982,"quin":5983,"Ġusurp":5984,"Ġintegrum":5985,"Praeterea":5986,"ĠSev":5987,"averint":5988,"Ġmotus":5989,"Ġcong":5990,"Ġperg":5991,"ĠOd":5992,"ĠVind":5993,"titiam":5994,"ĠVictor":5995,"Ġeb":5996,"Ġvaleat":5997,"Ġps":5998,"ĠWil":5999,"En":6000,"ĠHar":6001,"lat":6002,"ĠDam":6003,"Ġpastor":6004,"usa":6005,"Saint":6006,"ĠAlumni":6007,"Ġtoti":6008,"ĠQuesn":6009,"estum":6010,"Ġnef":6011,"haec":6012,"Ġsede":6013,"ĠBibliographia":6014,"Ġexac":6015,"estin":6016,"Ġtenet":6017,"Ġlibrum":6018,"Ġles":6019,"Ġ1993":6020,"Ġmunere":6021,"ĠFoeder":6022,"ĠMaxim":6023,"Ġaetate":6024,"Ġfideliter":6025,"ipso":6026,"Ġdiabolo":6027,"mate":6028,"essu":6029,"Ġpedibus":6030,"Ġtecum":6031,"ĠAnn":6032,"ĠCa":6033,"uoc":6034,"ĠIS":6035,"Ġregim":6036,"ĠRich":6037,"Ġduximus":6038,"Ġcoelorum":6039,"picit":6040,"Ġmagnus":6041,"ĠHieronymus":6042,"06":6043,"Ġbelli":6044,"iatur":6045,"anos":6046,"Ġaltero":6047,"Ġtenebris":6048,"Ġdeest":6049,"Ġtor":6050,"Ġfrequenter":6051,"aeculo":6052,"Ġdivinis":6053,"Ġ37":6054,"ĠArg":6055,"Ðº":6056,"quÃ¦":6057,"Ġexpress":6058,"Ġtantummodo":6059,"dom":6060,"Ġimpr":6061,"Ġadop":6062,"ĠDic":6063,"Ġetenim":6064,"mina":6065,"Ġfactionis":6066,"03":6067,"Ġsacrificium":6068,"Ġ43":6069,"Ġquisquam":6070,"vo":6071,"Ġconscrip":6072,"ĠRomano":6073,"Ġaurum":6074,"Ġconstituit":6075,"Ġplurimum":6076,"Ġistius":6077,"Quasi":6078,"Ġtuas":6079,"Ġelem":6080,"Ġdemonst":6081,"iderat":6082,"Ġtorm":6083,"Ġintelligere":6084,"ĠÃł":6085,"nox":6086,"ĠThomas":6087,"uls":6088,"Ġunc":6089,"Ġorbis":6090,"Ġpassus":6091,"ĠNovi":6092,"Ġspeciem":6093,"cm":6094,"Ġperitus":6095,"Ġpacific":6096,"Ġsapientiam":6097,"Ġcapitulo":6098,"Ġaetatis":6099,"arae":6100,"illam":6101,"deb":6102,"Ġpervers":6103,"Ag":6104,"ics":6105,"ĠâŁ¨":6106,"Ġ36":6107,"Ġpaucis":6108,"ĠLov":6109,"alog":6110,"Ġmalorum":6111,"Ġarchiepiscopo":6112,"Ġpropositum":6113,"issem":6114,"Ġilluc":6115,"Ġunquam":6116,"Ġconfund":6117,"Ġfatig":6118,"Ġhumani":6119,"Ġreput":6120,"ecr":6121,"Ġdiligit":6122,".]":6123,"ulp":6124,"Ġpanis":6125,"Ġlaet":6126,"ulph":6127,"Marc":6128,"Ã«":6129,"Ġcit":6130,"Ġpermitt":6131,"TIO":6132,"Ġcaut":6133,"iosa":6134,"Ġcomed":6135,"ardia":6136,"Ġpoenam":6137,"erium":6138,"Int":6139,"Ġofficia":6140,"iol":6141,"Ġpresentes":6142,"Ġprosper":6143,"Ġfast":6144,"Ġsigilli":6145,"Ġadven":6146,"ures":6147,"Ġmedit":6148,"Ġorationem":6149,"alum":6150,"Ġactionem":6151,"Ġtradidit":6152,"Ġeandem":6153,"Ġfiliam":6154,"Ġpuls":6155,"Ġmeas":6156,"urbs":6157,"Ġiram":6158,"tib":6159,"ĠJul":6160,"ratis":6161,"ungit":6162,"iebat":6163,"ĠIN":6164,"La":6165,"olf":6166,"Ġperfic":6167,"Ġrub":6168,"Ġpassionis":6169,"Ġconviv":6170,"Nemo":6171,"Ġdiversa":6172,"ĠPaulo":6173,"Ġmisericordiae":6174,"eto":6175,"ĠFab":6176,"uinus":6177,"Ġrespons":6178,"ĠKar":6179,"eff":6180,"ĠChron":6181,"Ġcoelis":6182,"oma":6183,"Imperator":6184,"EO":6185,"Ġecclesiastica":6186,"ĠMoyses":6187,"Ġsubm":6188,"anu":6189,"umentum":6190,"ĠDes":6191,"á½µ":6192,"Ġaffectu":6193,"ĠMet":6194,"ĠInferi":6195,"Latinitas":6196,"itti":6197,"ĠTar":6198,"Ġputo":6199,"ĠCarth":6200,"Ġcancell":6201,"Ġfon":6202,"ĠSion":6203,"ĠĠĠĠĠĠĠĠĠĠĠ":6204,"Ġsummo":6205,"Ġhostes":6206,"Ġmaxima":6207,"08":6208,"Ġger":6209,"Ġnihilominus":6210,"Ġaures":6211,"Ġdemum":6212,"Ã³":6213,"Ġcivitatum":6214,"Ġabstin":6215,"ennae":6216,"Paulus":6217,"Ġnar":6218,"Ġdeo":6219,"Ġtemplo":6220,"olesc":6221,"Ġoperatur":6222,"ipse":6223,"NI":6224,"Ġecclesiarum":6225,"Ġrefert":6226,"Ġintegr":6227,"Ġfat":6228,"Ġsaepius":6229,"urrit":6230,"cl":6231,"Hujus":6232,"etate":6233,"ĠXXI":6234,"Ġsuarum":6235,"pell":6236,"Ġassid":6237,"ais":6238,"Omnia":6239,"Ġpontifex":6240,"Ġspons":6241,"Ġpretium":6242,"Verb":6243,"Ġnat":6244,"Ġambig":6245,"Ġincrep":6246,"ĠLater":6247,"Ġdignitate":6248,"Ġpond":6249,"Ġinvenitur":6250,"Ġluce":6251,"Ġtanti":6252,"Ġcrucifix":6253,"fess":6254,"Ġintelligitur":6255,"Ġtemporum":6256,"Ġreduc":6257,"Ġdicto":6258,"Ġproprie":6259,"DU":6260,"Ġsolent":6261,"Ġdierum":6262,"ques":6263,"Rec":6264,"Ġsanctam":6265,"enia":6266,"Ġexhort":6267,"Ġnup":6268,"iacum":6269,"Die":6270,"Ġ1994":6271,"Ġdext":6272,"Alii":6273,"Ġannu":6274,"Ġquarto":6275,"ĠHugo":6276,"Ġcoenob":6277,"Univers":6278,"iores":6279,"Ġvelit":6280,"Ġpertinentiis":6281,"met":6282,"âĢī":6283,"Ġ??":6284,"ĠItalia":6285,"Ġhereditatem":6286,"ĠÈ©":6287,"Ġangelorum":6288,"oper":6289,"ĠVita":6290,"etae":6291,"Ġvideretur":6292,"Ġaperte":6293,"Ġlegatum":6294,"Ġapparuit":6295,"Ġdecrev":6296,"Ġinspect":6297,"ĠTheodos":6298,"ierit":6299,"anguis":6300,"ĠPatrum":6301,"Ġy":6302,"Ġveluti":6303,"onium":6304,"Ġscientiam":6305,"92":6306,"elam":6307,"Ġtemere":6308,"ultis":6309,"itata":6310,"Ġabj":6311,"Ġinvid":6312,"old":6313,"ĠGoth":6314,"Ġamor":6315,"Theod":6316,"Ġangelis":6317,"Ġcoeles":6318,"iose":6319,"Ã¨s":6320,"Incolae":6321,"Ġadventum":6322,"Ġmonstr":6323,"Ġpraesertim":6324,"yss":6325,"Ġobliv":6326,"Ġfideic":6327,"ĠColb":6328,"ĠEvangelii":6329,"Urb":6330,"Ġmissus":6331,"Ġstet":6332,"Ġelev":6333,"Ġcodice":6334,"Ġdebeant":6335,"eatis":6336,"Ġvivific":6337,"orrig":6338,"Ġpericulum":6339,"hum":6340,"Ġexinde":6341,"Ġqualis":6342,"Ġpervenit":6343,"ulare":6344,"Ġconss":6345,"Ġuxore":6346,"Ġmultitudo":6347,"Ġsubsequ":6348,"loc":6349,"Ġapparet":6350,"ĠXXII":6351,"ĠScriptores":6352,".'":6353,"ĠHo":6354,"Ġconver":6355,"Ġsubito":6356,"Ġquoc":6357,"Imperatores":6358,"Ev":6359,"Ġmunera":6360,"Ġmembris":6361,"Erat":6362,"Ġdiaconus":6363,"Ġdict":6364,"Ġmonachus":6365,"Aut":6366,"Ġinscrip":6367,"ulfus":6368,"Ġcalumn":6369,"ĠMin":6370,"91":6371,"Ġgerm":6372,"á¿ĸ":6373,"Ġprost":6374,"Ġceteris":6375,"terius":6376,"ĠMatronae":6377,"acum":6378,"ĠNormann":6379,"ĠTrinitatis":6380,"Ġcathed":6381,"á½»":6382,"Ġtenere":6383,"imos":6384,"Ġpersonae":6385,"Ġresist":6386,"cons":6387,"ĠÎ³":6388,"Ġlangu":6389,"Ġvidebatur":6390,"Ġoperam":6391,"Ġlinguae":6392,"Ġrig":6393,"Ġamorem":6394,"Ġfamiliae":6395,"Ġexor":6396,"ĠAngel":6397,"ullus":6398,"Ġgenuit":6399,"ĠMediol":6400,"ence":6401,"idisse":6402,"Ġsynodo":6403,".>":6404,"ipit":6405,"Ġoves":6406,"Ġdiscretivam":6407,"ĠDiv":6408,"Ġhabeo":6409,"Ġvari":6410,"Ġinsinu":6411,"Atque":6412,"Ġincarnationis":6413,"Tum":6414,"isco":6415,"Ġsolu":6416,"abimus":6417,"Ġincred":6418,"Ġprou":6419,"ĠÏĢÏģ":6420,"Gen":6421,"ĠHerm":6422,"Ġduabus":6423,"Ġnecessarium":6424,"ĠÃĨ":6425,"ĠApoll":6426,"anensis":6427,"Ġreform":6428,"Ġgladio":6429,"Ġpens":6430,"ank":6431,"Ġprist":6432,"Ġmanet":6433,"escunt":6434,"Ġtestamentum":6435,"Ġfestiv":6436,"ĠIes":6437,"Ġdiscipuli":6438,"Ġsord":6439,"ondit":6440,"Ġfecisse":6441,"Ġinimici":6442,"lop":6443,"Ġvellet":6444,"otes":6445,"iculum":6446,"Ġmontem":6447,"Ġpreces":6448,"aculis":6449,"Ġcommon":6450,"Ġincipit":6451,"unae":6452,"Ġdignitatem":6453,"Ġillas":6454,"Ġlectio":6455,"ĠParisi":6456,"Dum":6457,"Ġreced":6458,"Ġ\\":6459,"Ġaccess":6460,"Ġuxoris":6461,"Ġuen":6462,"Ġconsuetudinem":6463,"ĠÏĦÎ¿á¿¦":6464,"Ġmanifestum":6465,"Ġanimad":6466,"Ġvenerabili":6467,"Ġcircumcis":6468,"Ġteste":6469,"Christus":6470,"Ġamic":6471,"ĠEug":6472,"Ġpermaneat":6473,"imentum":6474,"be":6475,"nia":6476,"itiones":6477,"ley":6478,"Ġnullatenus":6479,"COP":6480,"UR":6481,"ivimus":6482,"Ġuniversis":6483,"levit":6484,"ĠRobertus":6485,"sitan":6486,"Nun":6487,"ĠBat":6488,"Novi":6489,"quebatur":6490,"addit":6491,"Ġpraedecess":6492,"ĠLeo":6493,"Pater":6494,"Î¾":6495,"cyc":6496,"ĠAv":6497,"ĠFret":6498,"ĠQuid":6499,"Ġtempest":6500,"initate":6501,"Ġdebitum":6502,"Ġmores":6503,"Ġdedic":6504,"ĠChr":6505,"ativa":6506,"ĠHelv":6507,"aron":6508,"ennium":6509,"endat":6510,"Ġsacerdotum":6511,"Ġpersonis":6512,"obiscum":6513,"Ġcruce":6514,"opolis":6515,"Ġcertum":6516,"ĠClaud":6517,"Ġvisum":6518,"Ġregnante":6519,"ĠMA":6520,"Ġfrum":6521,"ulerit":6522,"Ġcommod":6523,"Ġlibros":6524,"Ġadvoc":6525,"ĠTra":6526,"Ġosc":6527,"Ġservo":6528,"Ġactione":6529,"ÑĤ":6530,"Ġfructu":6531,"Ġerub":6532,"ĠNor":6533,"Ġuobis":6534,"Ġreddere":6535,"Ġomnim":6536,"Ġnuper":6537,"Ġrescrip":6538,"Ġtestamento":6539,"Ġavar":6540,"Ġresurrectionis":6541,"ois":6542,"tiis":6543,"Ġconfer":6544,"Hi":6545,"ĠVet":6546,"Ġfecimus":6547,"Ġsingulos":6548,"Ġpartim":6549,"Ġvolo":6550,"Ġfrustra":6551,"Ġgesta":6552,"sequi":6553,"ĠRot":6554,"heim":6555,"Ġjuris":6556,"stat":6557,"Ġmagnam":6558,"Ġbeneficium":6559,"ĠPsalm":6560,"Ġdimitt":6561,"utetiae":6562,"Ġ45":6563,"ules":6564,"ĠCX":6565,"Ġutroque":6566,"ĠRog":6567,"Ġoculi":6568,"Sch":6569,"ĠDionys":6570,"Val":6571,"ext":6572,"Ġdecima":6573,"anne":6574,"ĠIohannes":6575,"Sequitur":6576,"ĠFranciscus":6577,"Ġreconc":6578,"Insigne":6579,"ÏģÎ¹":6580,"oniensis":6581,"Ġliberum":6582,"ĠSat":6583,"Ġmeruit":6584,"Ġcordibus":6585,"ernum":6586,"Ġdicis":6587,"ĠRedemp":6588,"Ġoct":6589,"ĠRomanum":6590,"Mortui":6591,"Ġverus":6592,"Ġpraecepit":6593,"Ġtranqu":6594,"fectus":6595,"Ġcomment":6596,"cui":6597,"Ġpartis":6598,"Ġfratre":6599,"Ġhumiliter":6600,"Italia":6601,"unxit":6602,"nihil":6603,"oquin":6604,"ker":6605,"Ġveniens":6606,"Ġpraeceptum":6607,"antius":6608,"Ġdecet":6609,"eder":6610,"Ġcontenti":6611,"Ġstudium":6612,"ĠValent":6613,"Ġfaciant":6614,"Ġfaciet":6615,"Ġinquis":6616,"Ġperi":6617,"ĠGir":6618,"tuor":6619,"Ġinnum":6620,"Ġetiamsi":6621,"Ġformid":6622,"matis":6623,"Ġlibenter":6624,"Londinii":6625,"Ġterras":6626,"ĠCyr":6627,"Ġprincipibus":6628,"Ġprophetam":6629,"lia":6630,"osum":6631,"Ġadjutor":6632,"ĠGraeco":6633,"ĠHieros":6634,"ĠMarie":6635,"ĠRE":6636,"ester":6637,"ait":6638,"Ġnobiscum":6639,"orrup":6640,"Illud":6641,"Ġsabb":6642,"Ġdog":6643,"Ġofficialis":6644,"ergo":6645,"Ġdioeces":6646,"Ġpaul":6647,"Ġmunicipio":6648,"Ġcorn":6649,"Ġfactam":6650,"ĠAfric":6651,"Ġredim":6652,"Ġdecimam":6653,"Ġteg":6654,"Ġdecimo":6655,"Ġsis":6656,"gyp":6657,"Ġmilia":6658,"ĠEcc":6659,"iscip":6660,"ling":6661,"Ġjuven":6662,"italis":6663,"ĠNew":6664,"ognosc":6665,"ĠGuill":6666,"ld":6667,"Ġaquis":6668,"Ġinterdum":6669,"Ġ1990":6670,"ehess":6671,"Ġmontes":6672,"Ġcassini":6673,"cont":6674,"ĠLex":6675,"Ġhonoris":6676,"ĠEng":6677,"Benedic":6678,"ĠCONS":6679,"Ġsuad":6680,"Ġuic":6681,"Apud":6682,"Ġmysterium":6683,"Î½ÏĦ":6684,"ĠAngliae":6685,"Ġpago":6686,"Ġpauperes":6687,"Ġpericulo":6688,"Ġperv":6689,"Ġcomper":6690,"Secund":6691,"lii":6692,"Ġdebit":6693,"Ġvirorum":6694,"ĠApostoli":6695,"Omnis":6696,"mag":6697,"Ġterrena":6698,"Ġdulced":6699,"Ġposita":6700,"Ġorbem":6701,"fam":6702,"riter":6703,"Ġdubium":6704,"Ġjuss":6705,"iii":6706,"Ġantiqua":6707,"ĠBell":6708,"Ġtransfer":6709,"Ġadversum":6710,"Ġiniquitatem":6711,"Ġnescio":6712,"Ġline":6713,"Ġmorta":6714,"posita":6715,"Ġaliae":6716,"Ġreserv":6717,"mine":6718,"Ġfideicomm":6719,"emin":6720,"Ġimmol":6721,"ĠISBN":6722,"PD":6723,"Ġrecens":6724,"Ġhostium":6725,"Ġpontificatus":6726,"Ġinimicos":6727,"ENS":6728,"Ġaegr":6729,"Ġinuti":6730,"oldus":6731,"Ġfines":6732,"issi":6733,"Ġnata":6734,"Ġ41":6735,"Ġimpiet":6736,"Ġsequuntur":6737,"ĠEcclesiÃ¦":6738,"Ġvenerit":6739,"Ġangust":6740,"Ġheredes":6741,"hinc":6742,"Ġsanctos":6743,"BER":6744,"Ġconsilia":6745,"ĠLatine":6746,"ĠStephanus":6747,"po":6748,"Pinacotheca":6749,"ĠGulielmus":6750,"Ġecclesias":6751,"Ġsemin":6752,"Ġsemen":6753,"Ġtel":6754,"Ġcomput":6755,"Ġcreditur":6756,"Ġmille":6757,"Ġhumilis":6758,"ĠLac":6759,"ĠCarant":6760,"Ġnequit":6761,"Ġvad":6762,"Ġutero":6763,"Ġuni":6764,"uad":6765,"berto":6766,"ulto":6767,"arit":6768,"Graec":6769,"Ġrursum":6770,"ĠCic":6771,"Ġhonori":6772,"Ġdigna":6773,"Co":6774,"inth":6775,"Ġputant":6776,"auit":6777,"ĠHist":6778,"Ġnonnulli":6779,"Ġintu":6780,"ĠOrient":6781,"ĠCypr":6782,"Ġ44":6783,"pa":6784,"venire":6785,"ĠCamer":6786,"acione":6787,"Indic":6788,"Ġsubstantiam":6789,"Ġpatriam":6790,"ĠEzech":6791,"nation":6792,"Ġdeos":6793,"Ġuoc":6794,"mata":6795,"ĠAst":6796,"Ġpromp":6797,"Ġdepon":6798,"emet":6799,"Ġlectionem":6800,"ĠPublic":6801,"Ġepistolae":6802,"Ġsponte":6803,"Ġpervenire":6804,"Ġmach":6805,"Ġlibertate":6806,"aev":6807,"esset":6808,"Ġmatre":6809,"Ġsustent":6810,"ze":6811,"Ġscriptis":6812,"Ġvisc":6813,"ĠRomanis":6814,"Dei":6815,"Ġlibras":6816,"Ġvirgo":6817,"ĠIosephus":6818,"ĠEuseb":6819,"âĢĻ":6820,"Ġrepar":6821,"Ġfacio":6822,"Ġexempla":6823,"Ġmolest":6824,"udit":6825,"Ġsimpliciter":6826,"Ġpersonas":6827,"Ġsti":6828,"Ġinstruc":6829,"Ġconsor":6830,"Ġundique":6831,"Ġimprob":6832,"elmo":6833,"Ġactum":6834,"Ġresid":6835,"sanc":6836,"dub":6837,"serv":6838,"Ġsimpl":6839,"Ġexpl":6840,"Ġmi":6841,"Ġ42":6842,"Ġmonst":6843,"Ġdiscord":6844,"Ġ47":6845,"Ġmortui":6846,"Ox":6847,"orth":6848,"Ġcontinuo":6849,"super":6850,"urt":6851,"Ġadip":6852,"Inf":6853,"Hunc":6854,"Ġmolend":6855,"Ġvariis":6856,"ĠHic":6857,"uat":6858,"ilo":6859,"Ġsuperst":6860,"ĠJudÃ¦":6861,"Ġministerium":6862,"Ġconveni":6863,"Ġingredi":6864,"ĠCirc":6865,"ĠJoannem":6866,"Re":6867,"rup":6868,"voc":6869,"mann":6870,"ĠLong":6871,"endunt":6872,"ĠRep":6873,"Ġsaeculorum":6874,"Ġcreatura":6875,"Ġsort":6876,"Ġcivitates":6877,"Ġliter":6878,"Cant":6879,"Ġfacies":6880,"sh":6881,"Ġpoterant":6882,"CT":6883,"ĠAll":6884,"Ġ1992":6885,"ricis":6886,"ĠTor":6887,"02":6888,"za":6889,"Ġalteri":6890,"Ġgaudio":6891,"MA":6892,"á½¸Î½":6893,"quos":6894,"ONI":6895,"Ġgradus":6896,"ĠSanctus":6897,"Ġvice":6898,"Ġcompreh":6899,"Ġscientiae":6900,"ĠFlav":6901,"ville":6902,"Ġinsula":6903,"Ġevangeli":6904,"Petr":6905,"iterit":6906,"ĠÄĻ":6907,"Ġerig":6908,"Ġcapitis":6909,"Ġnovi":6910,"esb":6911,"areat":6912,"vici":6913,"endens":6914,"mae":6915,"ĠGrat":6916,"yg":6917,"Ġformulam":6918,"Ġpossum":6919,"Ġ1991":6920,"Ġvitiis":6921,"Ġdivinitatis":6922,"Ġsubl":6923,"Ġdicente":6924,"Ġpercus":6925,"Ġ46":6926,"Nonne":6927,"Ġnil":6928,"Ġbiographiam":6929,"Ġaed":6930,"Ġveniat":6931,"August":6932,"Ġcreatus":6933,"Ġnatum":6934,"Ġimplet":6935,"issimos":6936,"Ġinfidel":6937,"Ġabscond":6938,"Ġdomest":6939,"Ġ48":6940,"Ġquarta":6941,"Ġimmut":6942,"Ġfama":6943,"XI":6944,"Ġcrimen":6945,"ĠBiographicae":6946,"Ġic":6947,"Ġsuscipi":6948,"Ġducis":6949,"ĠCaesar":6950,"Ġnavig":6951,"El":6952,"Ġtrem":6953,"Ġcontinetur":6954,"olite":6955,"Ġcoep":6956,"Sep":6957,"Ġpromis":6958,"Ġintroduc":6959,"propter":6960,"á½´Î½":6961,"Ġtantam":6962,"Ġperegrin":6963,"QU":6964,"tax":6965,"Ġcharissimi":6966,"uras":6967,"nost":6968,"Ġsequi":6969,"ĠChristiani":6970,"Ġmoder":6971,"emini":6972,"ĠOb":6973,"ententia":6974,"ĠEst":6975,"ĠCatholica":6976,"iuntur":6977,"Ġquolibet":6978,"Ã¢":6979,"Ġhym":6980,"ott":6981,"Ġstatum":6982,"Ġerrore":6983,"Ġdidic":6984,"Ġretribu":6985,"HÃ¦c":6986,"ĠAugustini":6987,"Ġcerta":6988,"ĠIsid":6989,"Sac":6990,"Ġopportun":6991,"Ġauro":6992,"Ġtoler":6993,"Vos":6994,"iÄĻ":6995,"Ġafflic":6996,"enditur":6997,"ues":6998,"ÃĨ":6999,"ĠHierosolym":7000,"Ġdesiderio":7001,"cap":7002,"otem":7003,"Ġvires":7004,"onii":7005,"Ġmultas":7006,"averis":7007,"Ġcensu":7008,"lix":7009,"elles":7010,"Ġdignus":7011,"ART":7012,"ĠIacobus":7013,"Ġmoritur":7014,"rec":7015,"Ġregio":7016,",\"":7017,"igil":7018,"Ġmirum":7019,"Ġpsalmo":7020,"Ġingressus":7021,"ĠBert":7022,"Ġantist":7023,"Ġprimam":7024,"Ġinp":7025,"Ġsolem":7026,"Ġmandamus":7027,"ibil":7028,"ĠAegypti":7029,"fi":7030,"Ġsue":7031,"Ġveram":7032,"Ġeditis":7033,"Ġdignatus":7034,"esis":7035,"ĠHoc":7036,"ĠClem":7037,"ialem":7038,"estor":7039,"Ġprotinus":7040,"Ġhumanum":7041,"autem":7042,"Ġconfirmamus":7043,"Ġcrucem":7044,"Ġcolumb":7045,"Ġpatitur":7046,"ĠMaced":7047,"á½²":7048,"Ġsalus":7049,"Ġhomic":7050,"huc":7051,"Ġponit":7052,"Ġbonos":7053,"Ġvester":7054,"Ġcrudel":7055,"Cor":7056,"dae":7057,"ages":7058,"ĠPhilosoph":7059,"othe":7060,"ĠGeographia":7061,"eunte":7062,"Ġarbitrio":7063,"ichil":7064,"Ġgrati":7065,"Ġmateria":7066,"Ġlumine":7067,"Ġadolesc":7068,"ey":7069,"liqu":7070,"Ġofficii":7071,"Ġnecessitas":7072,"alitas":7073,"Ġanimos":7074,"val":7075,"Ġomnipotentis":7076,"iorem":7077,"Ġobsid":7078,"Ġsanguis":7079,"ĠIsaac":7080,"pex":7081,"ĠAquit":7082,"rea":7083,"Ġiu":7084,"ĠÅ":7085,"isce":7086,"ueris":7087,"ĠSo":7088,"ĠTib":7089,"Ġexercitum":7090,"ĠsuÃ¦":7091,"Ġcausae":7092,"Ġfeci":7093,"Ġorationis":7094,"Ġmultitudine":7095,"Ġvolum":7096,"ĠRoma":7097,"ĠÏĦá¿ĨÏĤ":7098,"mentum":7099,"aces":7100,"fridus":7101,"Vol":7102,"Ġinm":7103,"Ġclav":7104,"Ġpositum":7105,"Ġsepult":7106,"Ġprophetae":7107,"Ġora":7108,"form":7109,"Ġdebita":7110,"Ġquaerit":7111,"Ġpollic":7112,"ĠIap":7113,"alitatem":7114,"ĠSequanae":7115,"Ġamoris":7116,"ĠLatin":7117,"Ecclesia":7118,"unus":7119,"Ġfiant":7120,"Ġincom":7121,"umenta":7122,"Ġaquarum":7123,"ĠpÅĵ":7124,"Ġnati":7125,"Ġlec":7126,"Ġremove":7127,"alitate":7128,"Ġtransgr":7129,"Ġcircumd":7130,"ĠNam":7131,"Ġauf":7132,"Ġclerici":7133,"Ġvenerunt":7134,"Ġpatriae":7135,"ĠStephani":7136,"Ġsurr":7137,"Ġorationibus":7138,"Ġduxit":7139,"rast":7140,"itte":7141,"Ġputat":7142,"Ġcalam":7143,"Ġclericorum":7144,"tori":7145,"Ġlibid":7146,"alitatis":7147,"Ġmartyrum":7148,"Ġreb":7149,"Ġproj":7150,"ĠAA":7151,"Gl":7152,"Ġsuperbia":7153,"Ġliberi":7154,"radus":7155,"gn":7156,"Ġconstruc":7157,"Ġalicui":7158,"ulch":7159,"Ġrecipere":7160,"Ġvast":7161,"Ġhabebant":7162,"Ġsciens":7163,"icÃ¦":7164,"Ġcodices":7165,"ĠJohn":7166,"Ġhorr":7167,"iare":7168,"Ġprincipem":7169,"roix":7170,"Ġpraeterea":7171,"issam":7172,"Ġinfin":7173,"ĠDo":7174,"Ġprincipium":7175,"Ġpav":7176,"ymp":7177,"ĠTorn":7178,"Ġdiscern":7179,"Ġdignitatis":7180,"ÎµÏĦ":7181,"Ġprocess":7182,"Ġejusque":7183,"ogal":7184,"Io":7185,"Ġpre":7186,"Ġpassionem":7187,"ĠVill":7188,"ĠBapt":7189,"Ġvocant":7190,"Ġsermonis":7191,"Ġinnot":7192,"ĠLudovicus":7193,"Ġinspir":7194,"Ġservos":7195,"Ġduce":7196,"Ġá¼ĲÏĢ":7197,"Ġfecisti":7198,"sunt":7199,"deinde":7200,"roc":7201,"ĠUrbis":7202,"Similiter":7203,"Ġeu":7204,"Ġhist":7205,"ianos":7206,"ĠAns":7207,"Ġdolore":7208,"Ġparentum":7209,"Ġcerv":7210,"Ġprobat":7211,"aring":7212,"ebis":7213,"Ġappend":7214,"Ġmensis":7215,"ENT":7216,"riae":7217,"Mense":7218,"ĠCruc":7219,"ĠDuc":7220,"Î¬":7221,"Ġvobiscum":7222,"iger":7223,"Ġtet":7224,"entos":7225,"Ġobscur":7226,"Secundum":7227,"Ġturba":7228,"Illi":7229,"odie":7230,"Ġdesiderium":7231,"Ġdixerat":7232,"icon":7233,"Ġdexteram":7234,"ulariter":7235,"Ġdej":7236,"Ġhumilitatis":7237,"Ġcuria":7238,"sive":7239,"Ġfugit":7240,"Vic":7241,"Ġfaciam":7242,"Ġmultitudinem":7243,"Ġreliqua":7244,"Ġpertr":7245,"Ġlaque":7246,"regio":7247,"Ġsubst":7248,"Ġdabit":7249,"estes":7250,"Ġbi":7251,"Ġclericis":7252,"Jud":7253,"uk":7254,"Ġaem":7255,"ĠJun":7256,"ĠHistory":7257,"Ġpauperum":7258,"Ġconjunc":7259,"ĠHein":7260,"Ġlep":7261,"ĠDominicae":7262,"osus":7263,"ĠSci":7264,"essa":7265,"ians":7266,"Ġcetera":7267,"his":7268,"Ġistum":7269,"Ġsacramenta":7270,"Ġsur":7271,"ĠAuctores":7272,"Ġpellic":7273,"Ġjact":7274,"Ġgenit":7275,"aniam":7276,"ĠSan":7277,"Ġhabuerit":7278,"ĠAntonius":7279,"put":7280,"mur":7281,"Ġfiliae":7282,"Äģ":7283,"Ġcorrump":7284,"ĠAcadem":7285,"iosus":7286,"Ġimperatore":7287,"Ġbeneficia":7288,"andas":7289,"aust":7290,"bis":7291,"Ġcertam":7292,"Ġforsitan":7293,"Ġretinere":7294,"ĠImperii":7295,"Ġcondita":7296,"arm":7297,"ĠAmericae":7298,"uitur":7299,"Ġcomprob":7300,"udo":7301,"ungitur":7302,"Ġdeleg":7303,"ĠSer":7304,"Ġacquir":7305,"Ġbonam":7306,"Ġpotentiam":7307,"ĠRic":7308,"ĠLiv":7309,"issus":7310,"Ġperfecta":7311,"ĠPellic":7312,"Ġsacrileg":7313,"á¼°":7314,"ĠCarthag":7315,"Dicit":7316,"Caeterum":7317,"Ġurg":7318,"ĠMarcus":7319,"omus":7320,"Ġparentibus":7321,"picere":7322,"etem":7323,"ft":7324,"Ġjuc":7325,"Ġpopulis":7326,"ĠPhilippus":7327,"Ġaquas":7328,"Ġdisciplina":7329,"Dixit":7330,"Ġitin":7331,"ectu":7332,"Ġsententiae":7333,"Ġbreviter":7334,"Ġseduc":7335,"Ġlinguam":7336,"Ġintellectum":7337,"Ġpraen":7338,"ipsos":7339,"Prov":7340,"Ġregna":7341,"Ġsuperioris":7342,"Ġbeneficio":7343,"Ġpromitt":7344,"AB":7345,"Ġdeus":7346,"ĠMontis":7347,"apud":7348,"Ġparentes":7349,"Ġamar":7350,"antiae":7351,"Ġullo":7352,"Ġdeliber":7353,"ĠAmericanus":7354,"Ġmerid":7355,"Ġauxilio":7356,"Bene":7357,"ĠFrider":7358,"Ġ2014":7359,"Ġnau":7360,"Ġimpress":7361,"Ġquodammodo":7362,"ĠLangob":7363,"terum":7364,"Ġbeato":7365,"Ġpatrum":7366,"Ġremans":7367,"Ġuer":7368,"Ġquattuor":7369,"otia":7370,"Ġcontulit":7371,"Ġ1981":7372,"ĠSalvator":7373,"Ġpassione":7374,"ez":7375,"Ġpositus":7376,"ĠAlt":7377,"ÏĮ":7378,"Ġjustis":7379,"Ġsingula":7380,"irca":7381,"Ġquinto":7382,"omnes":7383,"ustus":7384,"ulatus":7385,"Ġrecus":7386,"ĠLitter":7387,"Ġconduc":7388,"ĠBeth":7389,"ĠLatina":7390,"Ġodio":7391,"sec":7392,"uscrip":7393,"ordin":7394,"Ġopor":7395,"Ġadimpl":7396,"ĠApoc":7397,"Ante":7398,"Ġdilectionem":7399,"Ġhumilitate":7400,"editur":7401,"Ġflu":7402,"Mox":7403,"dec":7404,"uerant":7405,"Ġhostis":7406,"ĠMosellae":7407,"UN":7408,"Numquid":7409,"Ġinjur":7410,"Ġministri":7411,"Ġconcessa":7412,"Ver":7413,"Ġretr":7414,"ĠLeonis":7415,"ĠAx":7416,"Ġplenius":7417,"ĠDaniel":7418,"Ġobiit":7419,"Ġimpetr":7420,"Ġediti":7421,"Ġmeritum":7422,"erebant":7423,"nas":7424,"Ġlicentia":7425,"ĠHebr":7426,"Ġscab":7427,"Ġdubia":7428,"ĠÎ±á½":7429,"ns":7430,"Ġarchiepiscopi":7431,"fuit":7432,"overs":7433,"Ġeditio":7434,"ĠOce":7435,"uari":7436,"Ġcorrip":7437,"astis":7438,"Ġstup":7439,"Ġerip":7440,"Ġrefug":7441,"ĠMarit":7442,"Ġsa":7443,"ustria":7444,"Ġscit":7445,"Ġappellatione":7446,"ĠIdem":7447,"achus":7448,"Ġmisc":7449,"edire":7450,"Saeculo":7451,"ĠIng":7452,"Ġarte":7453,"remo":7454,"Ġtard":7455,"Ġrum":7456,"Ant":7457,"ĠJuli":7458,"Ġiura":7459,"Ġnominibus":7460,"lag":7461,"ĠEditi":7462,"ĠPP":7463,"ĠVol":7464,"iante":7465,"ĠSyn":7466,"ĲÏĦ":7467,"Ġliberos":7468,"Ġmaior":7469,"ĠBa":7470,"Ġantecess":7471,"Ġhumilitatem":7472,"Ġvidemus":7473,"elio":7474,"icere":7475,"Ġnobilis":7476,"Ġposterum":7477,"propinqu":7478,"Ġassensu":7479,"insecus":7480,"Ġexord":7481,"tuaginta":7482,"Ġpalam":7483,"Ġfigura":7484,"ĠScripturarum":7485,"Ġferm":7486,"osp":7487,"Ġconstituta":7488,"Ġvisit":7489,"Ġmelior":7490,"Ġdevotione":7491,"Ġquinquaginta":7492,"Anti":7493,"lant":7494,"Ġhabebit":7495,"Ġsummum":7496,"ĠÈ©ccles":7497,"ĠTaur":7498,"Ġlapid":7499,"ioribus":7500,"Isa":7501,"zo":7502,"Ġdivini":7503,"ebitur":7504,"Ġdoctrinae":7505,"onam":7506,"Ġerrorem":7507,"Ġpauca":7508,"Cast":7509,"Ġpersolv":7510,"abam":7511,"Ġuter":7512,"Ġpassim":7513,"ĠGre":7514,"Ġaggr":7515,"etia":7516,"Ġparadis":7517,"Ġtenetur":7518,"Ġrenov":7519,"Ġpasch":7520,"Ġexclud":7521,"Ġsob":7522,"Ġnegotio":7523,"astas":7524,"Ġdecess":7525,"Ġtantae":7526,"Ġdeneg":7527,"ĠVinc":7528,"ĠHonor":7529,"Ġesto":7530,"Ġpraesentibus":7531,"Ġhostibus":7532,"Ġpess":7533,"Ġnuptias":7534,"ave":7535,"illus":7536,"Ġtimor":7537,"pote":7538,"Ġvoces":7539,"ĠPop":7540,"Ġpontificis":7541,"Ġpromisit":7542,"oque":7543,"vern":7544,"ologus":7545,"ĠAlpibus":7546,"Ġtub":7547,"quorum":7548,"ada":7549,"entesimo":7550,"Ġfacilius":7551,"Ġapostolos":7552,"ĠAsc":7553,"Ġferia":7554,"rom":7555,"Ġnequ":7556,"ĠMoysi":7557,"Ġretro":7558,"Ġcastig":7559,"Ġstare":7560,"ĠÂ§":7561,"Ġpauperibus":7562,"Ġpretio":7563,"ulares":7564,"Ġaccipit":7565,"Ġdolo":7566,"Ġĉĉ":7567,"Ġposc":7568,"Ġdilectionis":7569,"Germ":7570,"onus":7571,"ork":7572,"mos":7573,"Ġaliqui":7574,"Ġscripti":7575,"Ġrust":7576,"Ġpraescrip":7577,"terra":7578,"Ġsacros":7579,"Ġmerita":7580,"ĠHebra":7581,"uique":7582,"ĠFac":7583,"Ġpoenitentia":7584,"Ġflam":7585,"Ġillustr":7586,"ĠvitÃ¦":7587,"Ġcomitatus":7588,"Ġcanonice":7589,"nem":7590,"Ġpraesentiam":7591,"Ġpraestare":7592,"Des":7593,"Ġdocuit":7594,"Ġlegitime":7595,"Ġcell":7596,"Ġquidquam":7597,"ĠBook":7598,"Ġaffectus":7599,"Ġeffectus":7600,"Ġdixisse":7601,"Ġdesiderat":7602,"ĠMeridiano":7603,"ance":7604,"Ġartific":7605,"Ġregia":7606,"aldo":7607,"Ġjudicia":7608,"Ġlegati":7609,"hel":7610,"Ġreliquit":7611,"Ġexamin":7612,"ĠOt":7613,"Ġveteres":7614,"Quin":7615,"Ġpotuerunt":7616,"Ġiug":7617,"Ð»":7618,"Ġfactis":7619,"Ġquandoque":7620,"Ġmora":7621,"Ġintellectus":7622,"ularibus":7623,"Ġantiquis":7624,"Ġnullius":7625,"ibilia":7626,"Ġliberis":7627,"Ġexpet":7628,"Ġunitatem":7629,"Ġaudivit":7630,"Ġconstitutus":7631,"Ġtyp":7632,"Ġtertium":7633,"Ġclass":7634,"Ġidol":7635,"Ġlucis":7636,"ĠÎ´Î¹":7637,"Ġinfirmitate":7638,"Ġconclus":7639,"Ġmilitibus":7640,"ono":7641,"Ġdivitias":7642,"Ġconclud":7643,"Ġmunim":7644,"Ġaest":7645,"Ġipsas":7646,"Ġliqu":7647,"ĠStr":7648,"Ġdextera":7649,"Ġimmin":7650,"Ġmulieres":7651,"Ġincho":7652,"Ġalleg":7653,"Ġproximum":7654,"Etiam":7655,"Ġconcilia":7656,"Ġlaude":7657,"aturum":7658,"Ġcau":7659,"Ġpatientia":7660,"Ġreus":7661,"Ġsod":7662,"alii":7663,"Ġtenebras":7664,"áĥ":7665,"Ġmissa":7666,"issae":7667,"ularem":7668,"Ġeffectum":7669,"Ġremun":7670,"Ġmillesimo":7671,"erta":7672,"Ġquaecunque":7673,"Ġauribus":7674,"ovis":7675,"SER":7676,"trah":7677,"Ġvali":7678,"Ġ55":7679,"Ġitinere":7680,"Ġtyrann":7681,"Ġmagnis":7682,"br":7683,"Ġhyp":7684,"ĠCel":7685,"ĠEugen":7686,"pectum":7687,"Ġconcessit":7688,"Ġtenuit":7689,"Ġmulierem":7690,"ĠPis":7691,"ĠLand":7692,"Ġabsit":7693,"Ġdives":7694,"ecerunt":7695,"Ġdolor":7696,"Ġauctorem":7697,"Ġcapita":7698,"Ġvitiorum":7699,"Gregor":7700,"uissent":7701,"ĠDan":7702,"Ġpapam":7703,"ek":7704,"Ġimperatorem":7705,"Ġbrach":7706,"Ġorientali":7707,"ĠHom":7708,"ĠÄĻccles":7709,"entissime":7710,"inistri":7711,"Ġbest":7712,"Ġscripto":7713,"Ġmunicipii":7714,"usus":7715,"epid":7716,"Ġservis":7717,"Ġá¼ĲÎ½":7718,"fectum":7719,"Ġperag":7720,"tore":7721,"Ġlicentiam":7722,"Ġporro":7723,"ĠConstantinopolit":7724,"Ġcodex":7725,"Ġcognoscere":7726,"Ġxv":7727,"Ġpersonarum":7728,"ensione":7729,"elia":7730,"Ġflumen":7731,"Ġnempe":7732,"Grat":7733,"Ġrecta":7734,"Ġgra":7735,"Ġterritor":7736,"ANO":7737,"itania":7738,"Ġfacimus":7739,"ĠMur":7740,"ianorum":7741,"Ġ=":7742,"Ġcreb":7743,"ĠCampania":7744,"Sane":7745,"Ġlegendum":7746,"Ġseipsum":7747,"ĠNicolaus":7748,"ĠAbrahae":7749,"ĠBurgund":7750,"Ġscriptur":7751,"Ġmenses":7752,"ĠDioc":7753,"Ġlitterae":7754,"Ġcorporum":7755,"ĠParis":7756,"Ġclari":7757,"SI":7758,"ĠDioecesis":7759,"Ġdilectione":7760,"Ġintegra":7761,"du":7762,"atii":7763,"Ġalienum":7764,"ĠWal":7765,"onio":7766,"Ġpia":7767,"idimus":7768,"Ġfirmiter":7769,"ardum":7770,"Ġsufficit":7771,"nici":7772,"Ġaer":7773,"aet":7774,"Î¿Î»":7775,"Ġseptimo":7776,"Data":7777,"Ġnihilo":7778,"ĠXXIII":7779,"Ġcontraria":7780,"Ġdifficult":7781,"Ġulterius":7782,"Ġresurrectione":7783,"ĠÎ±á½ĲÏĦ":7784,"Ġpropinqu":7785,"Ġalteram":7786,"ĠPub":7787,"Ġduorum":7788,"ĠquÃ¦r":7789,"ĠProvinc":7790,"abula":7791,"Ġfuturi":7792,"ĠArab":7793,"Ġpromulg":7794,"ĠNicola":7795,"uno":7796,"prÃ¦":7797,"lish":7798,"temp":7799,"Etenim":7800,"Ġsimilia":7801,"Ġfalsa":7802,"Ġeciam":7803,"Ġvetust":7804,"Ġlup":7805,"Ġcommunione":7806,"Ġheredem":7807,"Ġ/":7808,"enas":7809,"Ġduae":7810,"Ġpietate":7811,"Ġpresbyteri":7812,"Ġcali":7813,"Ġuolunt":7814,"Ġcroix":7815,"unam":7816,"adr":7817,"Ġvidi":7818,"yt":7819,"osque":7820,"Ġdonationem":7821,"Mis":7822,"Ġdiscrim":7823,"Ġtimorem":7824,"Ġdesunt":7825,"Ġvota":7826,"Cred":7827,"ecte":7828,"ĠXXV":7829,"Ġquaeque":7830,"Ġsapiens":7831,"Ġincur":7832,"ĠGallic":7833,"ĠLatini":7834,"Ġoppon":7835,"roch":7836,"Ġplebis":7837,"ĠBenedicti":7838,"ramus":7839,"Serv":7840,"Ġreverentia":7841,"Ġnegotium":7842,"ĠÎ¿á½":7843,"Ġmorum":7844,"ector":7845,"Ġrationis":7846,"Ġdoctor":7847,"Ġaeter":7848,"Ġfabric":7849,"Ġdivinam":7850,"Ġcontrarium":7851,"Ġvehementer":7852,"Ġmatur":7853,"Ġhabitu":7854,"onice":7855,"Ġquisquis":7856,"ĠOrig":7857,"Huic":7858,"urch":7859,"ĠGab":7860,"ĠNaz":7861,"ĠPs":7862,"ande":7863,"utem":7864,"ĠLev":7865,"ĠLotharing":7866,"Ġrepell":7867,"Ġutilitatem":7868,"Ġá¼¡":7869,"Ġaccepta":7870,"ĠCalv":7871,"ralis":7872,"Ġmarch":7873,"Ġproximo":7874,"Ġbella":7875,"acem":7876,"Ġagro":7877,"Ġcapitulum":7878,"Ġvisus":7879,"Ġanimal":7880,"Ġterrib":7881,"Ġsuffici":7882,"Ġjussit":7883,"Ġbibli":7884,"quomodo":7885,"utrum":7886,"unensis":7887,"ĠGregorii":7888,"Occ":7889,"Ġlaudibus":7890,"Ġostenditur":7891,"Ġsemetipsum":7892,"inquit":7893,"Ġsimus":7894,"Ġimpugn":7895,"Ġcustodia":7896,"Ġduplic":7897,"Ġaffectum":7898,"Ġ)?":7899,"Ġcrimine":7900,"Ġneminem":7901,"Ġbland":7902,"escu":7903,"Ġfortis":7904,"ĠBerg":7905,"rique":7906,"imini":7907,"Î¹Îº":7908,"ĠPharis":7909,"acio":7910,"Ġesc":7911,"Ġregibus":7912,"Ġmartyris":7913,"Ġoccult":7914,"Ġbaptismum":7915,"Ġremedium":7916,"use":7917,"Ġcerto":7918,"Ġsuscipere":7919,"ĠIncarn":7920,"Ġinvenire":7921,"Ġdetermin":7922,"Ġscribere":7923,"Ġcatholica":7924,"Ġvias":7925,"LX":7926,"Ġmemin":7927,"Ġorbe":7928,"Ġtrip":7929,"ĠcÃ¦ter":7930,"iari":7931,"Ġsuus":7932,"Ġcogitationes":7933,"ĠDur":7934,"Ġmortuum":7935,"Ġculpam":7936,"Ġelegit":7937,"Quidam":7938,"Ġnascitur":7939,"Ġtestis":7940,"ĠIacob":7941,"Ġlaudes":7942,"Ġutpote":7943,"ĠRec":7944,"entior":7945,"Ġplerique":7946,"Ġdisplic":7947,"tuum":7948,"Ã¨re":7949,"Ġeosdem":7950,"cyclop":7951,"Ġmercedem":7952,"Ġmyth":7953,"Ġoccurrit":7954,"osi":7955,"Ãł":7956,"QuÃ¦":7957,"Ġsanctitatis":7958,"vest":7959,"Ġiudices":7960,"Ġquoddam":7961,"Ġinimicis":7962,"Ġsacerdotibus":7963,"Ġ100":7964,"Ġgratis":7965,"Ġconqu":7966,"wn":7967,"Ġaev":7968,"ĠAud":7969,"ĠQU":7970,"Ġadmitt":7971,"Quorum":7972,"menta":7973,"ĠRhodano":7974,"Ġpriusquam":7975,"Petrus":7976,"Ġconturb":7977,"Ġpotens":7978,"ĠAugustus":7979,"Ġdissol":7980,"Ġ54":7981,"Ġhabitum":7982,"Ġfaciens":7983,"Ġpropriam":7984,"yri":7985,"ean":7986,"Ġinu":7987,"ĠAnno":7988,"Ġnou":7989,"ĠTestamenti":7990,"Ġcontrovers":7991,"Ġcru":7992,"Ġstult":7993,"Ġconsuetudine":7994,"Ġ2013":7995,"Ġheredibus":7996,"Ġnimium":7997,"sp":7998,"emit":7999,"Ġpoenitentiae":8000,"ĠServ":8001,"Ġincorrup":8002,"ĠEvangel":8003,"ĠGraeci":8004,"alam":8005,"Ġeundem":8006,"ĠPascha":8007,"esi":8008,"ĠLXXX":8009,"Ġoris":8010,"Ġvestigia":8011,"ibilem":8012,"audi":8013,"Ġdisciplinam":8014,"olph":8015,"Ġintellex":8016,"ignific":8017,"ĠLo":8018,"Ġobnox":8019,"Ġrequiem":8020,"lid":8021,"Ġhabetis":8022,"Ġnichil":8023,"actis":8024,"ĠVig":8025,"Ġrepugn":8026,"Po":8027,"Ġcanonici":8028,"Ġvictoria":8029,"Ġunic":8030,"ĠLab":8031,"Ġconsilii":8032,"ÏīÏĤ":8033,"ĠComp":8034,"Ġadministratio":8035,"Ġvidens":8036,"Ġnolite":8037,"Ġlaborem":8038,"ĠHispaniae":8039,"quasi":8040,"elum":8041,"peram":8042,"Ġcomplet":8043,"Ġfestum":8044,"ĠPropheta":8045,"Ġedictum":8046,"Ġdixisset":8047,"ĠArist":8048,"Ġ1989":8049,"erico":8050,"additis":8051,"Ġmonachos":8052,"Ġpsall":8053,"ĠSE":8054,"Ġsexto":8055,"Ġmot":8056,"Ġpulchr":8057,"Ġactus":8058,"Ġadha":8059,"ulfi":8060,"Ġlocorum":8061,"Ġsimili":8062,"Ġpossidet":8063,"acul":8064,"Ġlaudis":8065,"Ġdederit":8066,"eluia":8067,"Ġexpugn":8068,"Frat":8069,"orld":8070,"Ġcommis":8071,"Ġlingu":8072,"ĠOrd":8073,"ĠChristianorum":8074,"ĠAem":8075,"Ġdenarios":8076,"ĠArvern":8077,"Ġfecerat":8078,"Ġmandatis":8079,"Ġcibum":8080,"Ġinfam":8081,"ĠAndreas":8082,"Ġdedi":8083,"Ġaccid":8084,"Ġpopulos":8085,"ĠLond":8086,"ĠBl":8087,"Ġmortuorum":8088,"Ġelecti":8089,"ĠRomanos":8090,"Amb":8091,"ĠTrans":8092,"Ġproposito":8093,"ĠScripturis":8094,"á½¶":8095,"Ġaeg":8096,"usalem":8097,"Ġfinibus":8098,"ĠCister":8099,"Ġpotuerit":8100,"Ġmanere":8101,"LXX":8102,"decim":8103,"odox":8104,"Ġdefer":8105,"ascrip":8106,"ĠPompe":8107,"tunc":8108,"Ġequit":8109,"Ġaere":8110,"ĠArc":8111,"Ġvon":8112,"Ġqualibet":8113,"Ġcent":8114,"ĠÃ¦qu":8115,"ulimus":8116,"Index":8117,"Ġvolens":8118,"Ġeleemosy":8119,"ĠConstantinus":8120,"Ġclericus":8121,"ĠPraem":8122,"ĠRain":8123,"Ġcastrum":8124,"ĠMons":8125,"Ġcapti":8126,"Ġdiut":8127,"Ġappon":8128,"ĠPraes":8129,"Ġgaudia":8130,"Ġuidelicet":8131,"Ġdebuit":8132,"jam":8133,"Ġquamdam":8134,"Vere":8135,"Ġimmun":8136,"Ġamicit":8137,"icula":8138,"Ġhonorific":8139,"Ġheredit":8140,"Ġveniet":8141,"ĠOx":8142,"her":8143,"Ġaudeat":8144,"Ġconfessione":8145,"olarum":8146,"Ġpauci":8147,"elus":8148,"Ġadventu":8149,"Ġpluv":8150,"Ġmajorem":8151,"Ġmagistri":8152,"Ġeditione":8153,"Ġmanifeste":8154,"estem":8155,"Ġinterfic":8156,"ĠOtt":8157,"Ġdiscipulos":8158,"Ġhumanis":8159,"ĠPelag":8160,"ĠOs":8161,"Indicem":8162,"Ġgradu":8163,"Ġdomno":8164,"ebas":8165,"Ġlonga":8166,"ĠSimon":8167,"Ġconcedimus":8168,"Ġumbra":8169,"itura":8170,"Ġcaes":8171,"ĠExod":8172,"Ġalicujus":8173,"Ġtestimonia":8174,"Ġvasa":8175,"Ġdudum":8176,"Ġacta":8177,"Ġpi":8178,"Ġlocu":8179,"Ġpalm":8180,"Ġinjuriam":8181,"Ġ119":8182,"ĠClass":8183,"Ġprosequ":8184,"Ãª":8185,"Ġconstitutum":8186,"bum":8187,"uini":8188,"ĠEth":8189,"Ġpoti":8190,"Ġdestr":8191,"Ġregnat":8192,"ustrali":8193,"ĠQuia":8194,"Ġsucced":8195,"ĠBarb":8196,"Ġconiug":8197,"Ġquicumque":8198,"ĠMen":8199,"Ġá½ĳ":8200,"Ġargentum":8201,"Hier":8202,"Ġaa":8203,"Ġpie":8204,"Ġpontificum":8205,"ĠJan":8206,"Ġimposs":8207,"ock":8208,"ĠAlc":8209,"Ġfonte":8210,"Ġoccidit":8211,"Spiritus":8212,"Ġpoliticarum":8213,"ĠRemig":8214,"ĠNormannia":8215,"Ġcanonicis":8216,"Ġsimile":8217,"Ġegredi":8218,"Ġregulam":8219,"inio":8220,"Ġvino":8221,"Ġmalitia":8222,"Ġthron":8223,"Ġobi":8224,"Ġliberam":8225,"Ġprophetarum":8226,"Ġvaria":8227,"Ġinvas":8228,"ystem":8229,"Ġpossidere":8230,"Ġere":8231,"Ġpernici":8232,"Ġiuss":8233,"ack":8234,"Ġfunc":8235,"Ġpeccator":8236,"Ġ57":8237,"Mart":8238,"Ġangelos":8239,"Nisi":8240,"ĠGis":8241,"Ġsustinere":8242,"ĠMonte":8243,"Ġtranst":8244,"Ġ59":8245,"ARI":8246,"Ġnoluit":8247,"Ġpraemium":8248,"Ġsimiles":8249,"eles":8250,"raesent":8251,"uns":8252,"Ġregionis":8253,"ymb":8254,"ĠDemocrat":8255,"ĠĠĠĠĠĠĠĠĠĠ":8256,"Ġdilectis":8257,"Ġá½ģ":8258,"ĠAraris":8259,"Ġbrevi":8260,"Ġplan":8261,"ĠDeut":8262,"ĠAure":8263,"Ġponitur":8264,"Historia":8265,"ĠlÃ¦":8266,"omina":8267,"turum":8268,"Ġpietas":8269,"ĠIohannis":8270,"ILI":8271,"uistis":8272,"Ġsab":8273,"Ġpossimus":8274,"Ea":8275,"Ġgentis":8276,"Ġcolloqu":8277,"inensi":8278,"Ġjan":8279,"Ġinform":8280,"Ġirasc":8281,"Hisp":8282,"Ġtaliter":8283,"Ġparva":8284,"Ġhumilia":8285,"Ait":8286,"esch":8287,"Ġmortuos":8288,"Ġservare":8289,"ĠCAP":8290,"ĠRub":8291,"Ġsalva":8292,"Ġsacramento":8293,"ĠMyr":8294,"Ġplurima":8295,"Ġtestibus":8296,"icio":8297,"Ġreliquis":8298,"olom":8299,"Ġaliquibus":8300,"Ġtransire":8301,"entiarum":8302,"Proinde":8303,"Ġmalos":8304,"iensem":8305,"icunque":8306,"Ġcomitem":8307,"Ïį":8308,"Ġtempli":8309,"turi":8310,"uff":8311,"Ġsequenti":8312,"Ġdia":8313,"Ġpraesid":8314,")?":8315,"Ġhumano":8316,"Ġsubjac":8317,"ellas":8318,"Îµá½·":8319,"Ġpatrocin":8320,"Ġornam":8321,"pere":8322,"Ġvitium":8323,"ongo":8324,"ĠRav":8325,"Ġinvestig":8326,"ades":8327,"Ġseptentr":8328,"ĠÎ»":8329,"Ġremedio":8330,"Îµá¿ĸ":8331,"exillum":8332,"Ġamici":8333,"usti":8334,"Ġnotitiam":8335,"ĠWillelmus":8336,"ires":8337,"Ġseren":8338,"Ġofficiis":8339,"verum":8340,"anif":8341,"Ġartic":8342,"ĠPed":8343,"Ġincrem":8344,"Ġmortuo":8345,"Ġbeatum":8346,"Propterea":8347,"anem":8348,"Ġrespici":8349,"ĠChrys":8350,"nix":8351,"ama":8352,"ĠDum":8353,"Ioannes":8354,"ĠprÃ¦ter":8355,"iel":8356,"Ġsecundus":8357,"Ġdomnus":8358,"ĠAnglorum":8359,"Ġcustodi":8360,"Ġinterest":8361,"ĠJudaeos":8362,"Ġinspecturis":8363,"prov":8364,"Ġpred":8365,"Ġspatium":8366,"Ġlus":8367,"Ġsoll":8368,"igur":8369,"Ġvag":8370,"Ġsicuti":8371,"Ġredire":8372,"Ġcondicione":8373,"Ġlacrymis":8374,"osis":8375,"fecta":8376,"Ġtribuit":8377,"uct":8378,"Ġquemdam":8379,"Ġcontinet":8380,"Ġdeum":8381,"Sci":8382,"ĠSabb":8383,"Ġprofectus":8384,"anna":8385,"ĠChristianus":8386,"Ġconditione":8387,"Ġcomite":8388,"Ġagn":8389,"Ġexplor":8390,"Ġsepeli":8391,"Ġforas":8392,"Ġreligione":8393,"SERMO":8394,"Ġinterv":8395,"Ġquicunque":8396,"Em":8397,"SAL":8398,"Ġcontrist":8399,"ĠXXIV":8400,"Ġdiligere":8401,"Ġseg":8402,"adrag":8403,"ĠGraeca":8404,"ianam":8405,"Ġprobatur":8406,"ĠDI":8407,"ĠTH":8408,"Ġnovo":8409,"Ġpersuas":8410,"Opera":8411,"unx":8412,"Ġpsalmi":8413,"Ġquilibet":8414,"Ġdecimas":8415,"iteri":8416,"Ġfov":8417,"Ġhabuisse":8418,"Ġquamdiu":8419,"Ġdisced":8420,"Ã§":8421,"ĠStud":8422,"Ġimago":8423,"Nunquid":8424,"alli":8425,"Ġungu":8426,"Ġpraevaric":8427,"Å©":8428,"ĠquÈ©":8429,"iuss":8430,"Ġvocavit":8431,"ĠHum":8432,"vum":8433,"Ġpatribus":8434,"ĠRos":8435,"Ġauferre":8436,"Ġaduers":8437,"Ġvitio":8438,"ĠEut":8439,"Ġdiutius":8440,"ardin":8441,"inemat":8442,"nondum":8443,"elas":8444,"Ġgraviter":8445,"Ġfalsum":8446,"Ġperfectum":8447,"oriae":8448,"imento":8449,"Ġmansuetud":8450,"ĠVirginis":8451,"Ġannot":8452,"Ġmiracula":8453,"Certe":8454,"Rex":8455,"athemat":8456,"iÈ©":8457,"orumque":8458,"ĠElis":8459,"Ġintend":8460,"ĠZach":8461,"Ġministrorum":8462,"Notum":8463,"Ġostendere":8464,"ĠPolit":8465,"ĠEPISCOP":8466,"aneant":8467,"ĠLes":8468,"Ġcredidit":8469,"Ġphys":8470,"Ġparroch":8471,"aeum":8472,"Î·ÏĤ":8473,"Primum":8474,"Ġrogatus":8475,"Ġhodiern":8476,"Ġquaerere":8477,"ulat":8478,"Ġoccis":8479,"Ã©s":8480,"Ġtransit":8481,"Illa":8482,"ira":8483,"iales":8484,"Ġpraesentem":8485,"asque":8486,"Ġagric":8487,"ĠCapit":8488,"Ġextoll":8489,"á½¸ÏĤ":8490,"yz":8491,"Ġmedietatem":8492,"BUS":8493,"Ġnullis":8494,"ĠThess":8495,"Ġcorrob":8496,"Ġsuprascrip":8497,"Ġcommunem":8498,"icia":8499,"Ġdecor":8500,"ulisse":8501,"acius":8502,"eos":8503,"Ġnus":8504,"Ġcomprehend":8505,"Ġappos":8506,"iturum":8507,"Ġcredunt":8508,"ĠApp":8509,"omine":8510,"Ġumquam":8511,"Ġcastris":8512,"Ġschis":8513,"Ġtun":8514,"Quamvis":8515,"Ġlug":8516,"Ġpueri":8517,"iff":8518,"Ġpurp":8519,"Ġoleum":8520,"ĠSententia":8521,"Ġinimicus":8522,"Ġsummam":8523,"secundum":8524,"escens":8525,"Ġvirginis":8526,"Ġarbitrium":8527,"ger":8528,"ya":8529,"ament":8530,"Ġnovem":8531,"Ġjura":8532,"ĠOeconom":8533,"odium":8534,"fredus":8535,"Ġso":8536,"Ġpermans":8537,"Ġvinea":8538,"ĠJerem":8539,"omag":8540,"ĠMerc":8541,"ĠDominica":8542,"imet":8543,"Ġvideo":8544,"Ġrecepit":8545,"iori":8546,"Ġlaus":8547,"Ġsacrat":8548,"Ġsermones":8549,"Ġexhibere":8550,"Ġfiet":8551,"Ġiniquitatis":8552,"ĠMod":8553,"ĠOst":8554,"itteret":8555,"Ġpeccat":8556,"Ã¨res":8557,"ularium":8558,"Ġsigillo":8559,"Ġpub":8560,"Ġmilitiae":8561,"ĠTextus":8562,"Ġabscondit":8563,"TH":8564,"Ġstatus":8565,"Ġdeorum":8566,"Ġcael":8567,"Ġmensuram":8568,"Ġluna":8569,"Ġconvenire":8570,"Ġegit":8571,"Ġabsolv":8572,"ENTI":8573,"ĠAut":8574,"ĠGode":8575,"Ġveri":8576,"entias":8577,"Ġdilecti":8578,"ĠEburae":8579,"ĠAtlant":8580,"Ġvicum":8581,"Bo":8582,"ivid":8583,"ĠMiss":8584,"Ġmodicum":8585,"Ġinquiet":8586,"Ġinclus":8587,"Ġpraecipit":8588,"Ġaeccles":8589,"Ġiniquitate":8590,"Ġrespondere":8591,"net":8592,"Ġconcep":8593,"Ġsib":8594,"Ġfel":8595,"Ġexpr":8596,"Ġhaberi":8597,"Ġoppress":8598,"á½½":8599,"Coll":8600,"Ġintelligit":8601,"ĠAaron":8602,"Ġfaciendum":8603,"ĠApostolum":8604,"Ġprudentia":8605,"Ġram":8606,"abilibus":8607,"Ġlaetitia":8608,"Ġpertinentibus":8609,"ĠChalc":8610,"Ġanimalia":8611,"Î±Î»":8612,"Red":8613,"ĠAgost":8614,"Ġiniquitas":8615,"ĠHenrici":8616,"enb":8617,"ectae":8618,"Ġteneri":8619,"Ġtimere":8620,"Ġvestras":8621,"Ġcorporibus":8622,"urnal":8623,"ement":8624,"ingen":8625,"Ġreprom":8626,"Ġopprob":8627,"Ġimmund":8628,"iretur":8629,"Ġimplere":8630,"serunt":8631,"Ġreddidit":8632,"Ġpercep":8633,"Ġleguntur":8634,"eau":8635,"Laud":8636,"Ġveraciter":8637,"Ġsemine":8638,"Ġducem":8639,"Ġbeata":8640,"Ġsedit":8641,"Ġnoctis":8642,"Ġ58":8643,"esco":8644,"Ġpaupert":8645,"Ġquaeritur":8646,"oloc":8647,"inali":8648,"omb":8649,"Ġmanuscrip":8650,"Postea":8651,"trix":8652,"Ġenum":8653,"Ġexsequ":8654,"Ġperpetr":8655,"Ġlen":8656,"Ġsubtrah":8657,"frag":8658,"Ġrot":8659,"Ġ1988":8660,"Ġpraesent":8661,"ĠHierusalem":8662,"Ġgladium":8663,"aeorum":8664,"Ġauctoritatis":8665,"vide":8666,"quie":8667,",.":8668,"Primo":8669,"Ġfrang":8670,"Ġurbes":8671,"ĠTuron":8672,"Ġjudex":8673,"ipl":8674,"Ġtranquill":8675,"Ġmorem":8676,"Ġsuccessores":8677,"Ġproximi":8678,"Ġmajestatis":8679,"Mal":8680,"Ġmatrimonium":8681,"cur":8682,"ĠAnglice":8683,"Ġconfirmat":8684,"'.":8685,"Ġanimalium":8686,"Ġservire":8687,"omnia":8688,"ĠProc":8689,"Ġlatron":8690,"Ġelemosinam":8691,"Ġrefr":8692,"Ġgratiarum":8693,"ĠTheodor":8694,"ĠSatur":8695,"ĠIIII":8696,"Ġvideantur":8697,"enos":8698,"Ġcredentes":8699,"Ġlitig":8700,"Not":8701,"Ġnoli":8702,"Ġmulieris":8703,"Ġadmodum":8704,"igit":8705,"Ġfronte":8706,"Ġspiritualis":8707,"ĠUrbe":8708,"Ġdit":8709,"ĠAfrica":8710,"ĠAgostini":8711,"Ġsitis":8712,"ricum":8713,"Ġpoeta":8714,"grav":8715,"Ġfo":8716,"Ġcapell":8717,"Ġdomine":8718,"Ġreplet":8719,"Ġstatuta":8720,"Ġtulit":8721,"Arch":8722,"ĠPinacotheca":8723,"Ġfacias":8724,"ĠHispania":8725,"Ġplebem":8726,"Ġvillam":8727,"ĠAbb":8728,"Ġiisdem":8729,"Ġfesto":8730,"Ġcategoria":8731,"ations":8732,"ĠÏĦá¿¶Î½":8733,"Hac":8734,"ĠRex":8735,"Ġlegum":8736,"Ġconvoc":8737,"ts":8738,"ĠNomi":8739,"Ġintentione":8740,"ĠDel":8741,"Ġclericos":8742,"ittimus":8743,"Praec":8744,"ĠTurc":8745,"opere":8746,"Ġimpend":8747,"Ġsuperfl":8748,"Ġ51":8749,"revis":8750,"ĠLI":8751,"Ġuterque":8752,"der":8753,"Ġci":8754,"Quos":8755,"ĠColleg":8756,"Ġ101":8757,"Ġsummi":8758,"Ġpraedictum":8759,"Ġambo":8760,"Ġplenum":8761,"Ġpublicam":8762,"Ġdestru":8763,"Ġsuperbiam":8764,"Ġinfl":8765,"Ġerroris":8766,"Ġfa":8767,"ĠSS":8768,"Ġgeneralis":8769,"Ġprodest":8770,"Ġfemina":8771,"Ġconstr":8772,"mar":8773,"ocr":8774,"Ġveloc":8775,"Ġperpetua":8776,"ja":8777,"Ġ56":8778,"itz":8779,"Ġsole":8780,"Ġquotid":8781,"idius":8782,"Ġterc":8783,"neg":8784,"Ġobitum":8785,"Ġarchiepiscopum":8786,"titiae":8787,"Ġcatholicae":8788,"ĠJos":8789,"Ġnecdum":8790,"Ġ52":8791,"sep":8792,"itali":8793,"Ġsecutus":8794,"Ġlitteram":8795,"Ġdatus":8796,"ovi":8797,"iamur":8798,"Ġsynodum":8799,"ĠScripturae":8800,"Ġappropinqu":8801,"Ġprivilegio":8802,"Ms":8803,"abeth":8804,"Ġregina":8805,"Ġ1960":8806,"Ġindicat":8807,"Ġaccepimus":8808,"Ġpartium":8809,"Ġsacro":8810,"itudines":8811,"Ġdecanus":8812,"ocus":8813,"Verumtamen":8814,"iale":8815,"Ġcommitt":8816,"Ġaccipiat":8817,"Ġconfessionem":8818,"Ġprogr":8819,"Ġargu":8820,"Ġhiem":8821,"Ġpraedicta":8822,"Ġmasc":8823,"Ġ53":8824,"Temp":8825,"initatem":8826,"Ġlaes":8827,"Ġviderunt":8828,"Ġiuven":8829,"Unus":8830,"ĠLeod":8831,"jur":8832,"Ġsacrae":8833,"Ge":8834,"Ġauctores":8835,"Sol":8836,"ĠLeon":8837,"Ġexstitit":8838,"amilia":8839,"ĠSum":8840,"Ġostium":8841,"Ġsolam":8842,"Ġcredo":8843,"Ġeffug":8844,"Ġsacerdotis":8845,"encia":8846,"Ġá¼ĢÏĢ":8847,"the":8848,"ĠTusc":8849,"Ġrepente":8850,"Ġrecipit":8851,"Ġcopia":8852,"Ġincolum":8853,"Ġexcommunicationis":8854,"CDU":8855,"quare":8856,"ĠAmbrosius":8857,"issione":8858,"ington":8859,"Ġactiones":8860,"Ġdiabolum":8861,"Ġbl":8862,"Ġastr":8863,"Ġdicentem":8864,"Ġdetrah":8865,"etes":8866,"Ġconsump":8867,"ĠRheni":8868,"Ġossa":8869,"acus":8870,"ienses":8871,"Ġlibertatis":8872,"erisque":8873,"eantur":8874,"hus":8875,"Ġimmo":8876,"Ġtertiam":8877,"Ġmess":8878,"Ġomitt":8879,"Ġdesiderati":8880,"Î®":8881,"ient":8882,"Ġamicos":8883,"gen":8884,"Ġecclesiasticis":8885,"Ġunitate":8886,"VV":8887,"sque":8888,"atic":8889,"Ġrip":8890,"ĠÎ¸":8891,"Ġfacultatem":8892,"Ġpratis":8893,"aco":8894,"Ġtitulus":8895,"ĠIr":8896,"ologi":8897,"Ġconspic":8898,"Postquam":8899,"Ġcivium":8900,"Ġlaboris":8901,"Ġministerio":8902,"Ġcodicibus":8903,"Ġpromov":8904,"Ġlittera":8905,"ogit":8906,"iendo":8907,"Ġobedientiam":8908,"eter":8909,"ingit":8910,"Ġplacere":8911,"Ġsoror":8912,"ĠPent":8913,"Ulpianus":8914,"onica":8915,"Ġcongru":8916,"Ġexcit":8917,"Ġpublico":8918,"Ġcasus":8919,"ĠConstantinopoli":8920,"Ġactu":8921,"vero":8922,"Äį":8923,"Ġpredicta":8924,"acis":8925,"Ġcoelestia":8926,"Ġunicuique":8927,"orat":8928,"Ġrestitut":8929,"Filius":8930,"ĠRen":8931,"Arg":8932,"á½³Î½":8933,"Ġoffend":8934,"Ġnig":8935,"ĠMe":8936,"ibit":8937,"inone":8938,"Ġmanuum":8939,"erator":8940,"ĠAnastas":8941,"Ġconfug":8942,"Ġsolummodo":8943,"Ġfideiuss":8944,"Ġpetere":8945,"ĠSid":8946,"allo":8947,"ĠPaulum":8948,"Ġtextu":8949,"Ġextrane":8950,"Ġmentes":8951,"Ġcoelesti":8952,"ĠApostolo":8953,"Ġarbitror":8954,"Ġoccasionem":8955,"Ġmysteria":8956,"Ġinhabit":8957,"eterum":8958,"Ġjusta":8959,"Ġconn":8960,"Ġreversus":8961,"sup":8962,"Ġfundum":8963,"Ġafflig":8964,"Ġcustodiam":8965,"Ġingenio":8966,"Mss":8967,"ĠTro":8968,"Ġsuccessit":8969,"ingere":8970,"Ġtempt":8971,"entina":8972,"ĠMari":8973,"Ġdilectio":8974,"ĠOpus":8975,"ĠSte":8976,"Ġinveniri":8977,"nm":8978,"ĠDoc":8979,"Ġhabita":8980,"Ġ60":8981,"Ġmuneribus":8982,"Ġlinguis":8983,"ĠHugonis":8984,"edo":8985,"Ġadversa":8986,"Ġnecessitatem":8987,"Ġvultus":8988,"ĠGermanicus":8989,"Vita":8990,"Ġsenex":8991,"Ġconstituti":8992,"Ġtenebat":8993,"Ġ1972":8994,"Ġoccidentali":8995,"Ġgens":8996,"Ġpercuss":8997,"Ġpraeterm":8998,"Ġremuner":8999,"Ġdivinitus":9000,"ĠAN":9001,"Licet":9002,"Ġutitur":9003,"Ġaddidit":9004,"Ġcapituli":9005,"Ġvideamus":9006,"Ð²":9007,"Ġquamquam":9008,"Ġpotuisset":9009,"Ġconsuev":9010,"ĠsÃ¦":9011,"ĠRev":9012,"ĠLup":9013,"Ġinex":9014,"Ġfrug":9015,"Ġevad":9016,"Gu":9017,"Ġcoronam":9018,"we":9019,"Contra":9020,"Ġhumanam":9021,"Ġnarrat":9022,"Ġgram":9023,"Ġineff":9024,"Ġcoelos":9025,"2007":9026,"ĠCastrum":9027,"Ġinsol":9028,"enberg":9029,"Ã©r":9030,"Ġappellat":9031,"ection":9032,"ĠNec":9033,"Ġoppido":9034,"Ġpraefer":9035,"Ġquoad":9036,"ĠMoysen":9037,"pha":9038,"Ġordines":9039,"Ġpraeval":9040,"ĠDioclet":9041,"Man":9042,"Ġjubet":9043,"Ġperspic":9044,"Audi":9045,"Ġdissip":9046,"MI":9047,"Ġprioris":9048,"ÎŃ":9049,"Ġhostem":9050,"Ġquales":9051,"Ġoportere":9052,"Ġconcurr":9053,"ĠPaginae":9054,"ĠVid":9055,"intellig":9056,"Ġmodus":9057,"erici":9058,"Ġdederunt":9059,"Ġpraemia":9060,"ĠXXVI":9061,"Ġobsec":9062,"Ġveniunt":9063,"scr":9064,"ĠAugusto":9065,"Ġterminum":9066,"ĠBernardus":9067,"Ġimput":9068,"Nolite":9069,"ĠEdu":9070,"Ġsubter":9071,"Ġpecuniae":9072,"Ġpuni":9073,"idiam":9074,"escrip":9075,"temberg":9076,"And":9077,"Ġamicis":9078,"Î¼ÎµÎ½":9079,"ĠMarg":9080,"Ġsubstitu":9081,"piam":9082,"Ġregnavit":9083,"ĠMartin":9084,"Ġvinculis":9085,"Ġsubstantiae":9086,"Ġintercess":9087,"Ġmiseric":9088,"Ġpraecipimus":9089,"Ġaeque":9090,"Ġpeculi":9091,"Ideoque":9092,"Ġdisciplinae":9093,"Ġnonnullis":9094,"Ġgestis":9095,"Ġorg":9096,"Ġrecogn":9097,"olat":9098,"Ġcoeperunt":9099,"Ġedoc":9100,"Ġonus":9101,"aciam":9102,"acti":9103,"Ġprincipe":9104,"ĠBooks":9105,"Ġoculus":9106,"ĠNob":9107,"anea":9108,"Ġ2015":9109,"ĠLiber":9110,"Ġdictam":9111,"rich":9112,"iore":9113,"Ġremissionem":9114,"ĠFerr":9115,"Ġpresens":9116,"Ġcrediderunt":9117,"inea":9118,"Ġpropin":9119,"Ġpraedestin":9120,"Ġflamm":9121,"Ġpatientiam":9122,"ulsus":9123,"Ġexim":9124,"ĠLaterani":9125,"Ġdamnum":9126,"Ġero":9127,"Ġscio":9128,"ilip":9129,"Ġdicamus":9130,"Ġveteri":9131,"sac":9132,"inv":9133,"Ġdebito":9134,"Prop":9135,"Ġintellectu":9136,"of":9137,"Ġacquis":9138,"Ġdomos":9139,"urge":9140,"Ġdeberet":9141,"als":9142,"Ġfortiter":9143,"Ġconsuetudo":9144,"Municip":9145,"ĠPan":9146,"agn":9147,"ÏģÎ±":9148,"ĠCantuari":9149,"Ġclementia":9150,"ĠCrucis":9151,"Ġcreavit":9152,"Ġnegotiis":9153,"Ġeris":9154,"Ġnosse":9155,"Ġdebeamus":9156,"Ġremov":9157,"Ġemin":9158,"unctum":9159,"Ġaquil":9160,"Ġfrequent":9161,"ilitate":9162,"Ġactibus":9163,"ĠQuae":9164,"inematograph":9165,"ecu":9166,"ĠPatres":9167,"Ġinstr":9168,"Ġresponde":9169,"ĠLibr":9170,"Ġpacto":9171,"ĠNova":9172,"Ġfeliciter":9173,"esto":9174,"Ġpsalmus":9175,"Ġdeserto":9176,"sin":9177,"Ġoti":9178,"ĠSpec":9179,"atoria":9180,"Ġdabo":9181,"ibili":9182,"Ġpropriet":9183,"ĠÏĦá½´Î½":9184,"Max":9185,"ipere":9186,"dific":9187,"Ġcursu":9188,"ĠChristianis":9189,"Ġprimogen":9190,"Ġcaelo":9191,"Cr":9192,"Ġhae":9193,"ullum":9194,"Ġsever":9195,"Ġlegunt":9196,"ĠMaj":9197,"lae":9198,"ĠVit":9199,"Ġdivinum":9200,"exi":9201,"ĠHD":9202,"Ġagunt":9203,"Ġdilecto":9204,"Ġsermonibus":9205,"Ġveteris":9206,"ulatur":9207,"Ġlectione":9208,"ĠRusc":9209,"Potest":9210,"ĠCaesare":9211,"Ġcontigerit":9212,"inium":9213,"Ġlapides":9214,"Ġquandiu":9215,"Ġconter":9216,"Ġfru":9217,"ĠSU":9218,"Fuit":9219,"imp":9220,"Ġapt":9221,"crib":9222,"hen":9223,"Ġamicus":9224,"ĠAAVV":9225,"ecerit":9226,"Ġtituli":9227,"Ġaustrali":9228,"aequ":9229,"itaque":9230,"Ġdicebant":9231,"Ġcolum":9232,"Ġexstat":9233,"ĠEpistola":9234,"Long":9235,"orc":9236,"Ġcognovit":9237,"Ġquac":9238,"Ġhaberent":9239,"Ġpraesentium":9240,"Ġpraesumat":9241,"elinqu":9242,"Ġcivitatibus":9243,"Ġbeatae":9244,"Ġiv":9245,"Ġsexta":9246,"Mo":9247,"Ġedidit":9248,"Ġcapere":9249,"Ġdolorem":9250,"Ġterminos":9251,"No":9252,"Ġpriori":9253,"tia":9254,"erebatur":9255,"Comm":9256,"den":9257,"feld":9258,"ĠVes":9259,"Ġagens":9260,"Ġtantis":9261,"Ġsilv":9262,"LXXX":9263,"ĠOn":9264,"Ġcrimina":9265,"ĠJord":9266,"niuers":9267,"Ġallig":9268,"Ġcorpori":9269,"Ġreligionem":9270,"Ġcommendat":9271,"ĠCatholicae":9272,"Ġfrom":9273,"Ġsynod":9274,"Rev":9275,"averant":9276,"Ġdigne":9277,"Ġinius":9278,"Voc":9279,"Î»Î·":9280,"nata":9281,"Ġlaboribus":9282,"ĠEcclesiarum":9283,"Ġinstituta":9284,"Ġelectionem":9285,"Sp":9286,"ogra":9287,"Ġepiscopatu":9288,"ĠFridericus":9289,"].":9290,"Ġrup":9291,"Ġjustorum":9292,"ĠItaliam":9293,"Ġfons":9294,"ĠConf":9295,"Ġmissi":9296,"umentis":9297,"scilicet":9298,"Ġni":9299,"Ġratum":9300,"Ġpondus":9301,"ortet":9302,"Ġduces":9303,"Ġrevera":9304,"Ġmittere":9305,"ĠHib":9306,"Ġinstru":9307,"ĠGarum":9308,"ĠEcce":9309,"ĠMir":9310,"ĠLem":9311,"Ġsequentibus":9312,"abrig":9313,"Ġaduoc":9314,"isses":9315,"Ġvisa":9316,"Ġsilentio":9317,"Editi":9318,"Ġuniuersis":9319,"Ġvoluerint":9320,"olim":9321,"Ġfluvium":9322,"idii":9323,"Ġusibus":9324,"Ipsa":9325,"Ġmel":9326,"ulsa":9327,"Ġmonet":9328,"olle":9329,"ĠSov":9330,"Ġbore":9331,"prom":9332,"ĠGraece":9333,"Ġfung":9334,"Ġaccessit":9335,"Ġdenuo":9336,"Ġsel":9337,"sen":9338,"Ġpontificem":9339,"Ġsinu":9340,"enorum":9341,"Char":9342,"Ġcommunionem":9343,"Ġmortua":9344,"acto":9345,"TAN":9346,"Ġunigen":9347,"Ġrequis":9348,"ĠBeati":9349,"acter":9350,"edes":9351,"aen":9352,"ise":9353,"Ġpermaneant":9354,"ĠCaesaris":9355,"Ġfacis":9356,"Ġsinguli":9357,"rato":9358,"Ġnoctem":9359,"olini":9360,"Ġangus":9361,"ĠCarantoni":9362,"Ġmons":9363,"ĠPictav":9364,"Ġhiis":9365,"Graece":9366,"Ġsaluti":9367,"Ġlibertas":9368,"OMIN":9369,"Ġtal":9370,"ulerat":9371,"ĠClari":9372,"escant":9373,"Ġcognatae":9374,"oso":9375,"ĠBi":9376,"Ġoleo":9377,"eck":9378,"Ġiii":9379,"Ġfas":9380,"respon":9381,"Ġproteg":9382,"Ost":9383,"allum":9384,"ĠPraefecturae":9385,"homin":9386,"Ġ1977":9387,"ĠJoanne":9388,"MUS":9389,"Ġcecidit":9390,"Ġmajus":9391,"ĠPhara":9392,"versus":9393,"etc":9394,"Ġnoctur":9395,"Ġpraecl":9396,"ĠSalomon":9397,"leb":9398,"ĠVar":9399,"Ġuis":9400,"Ġhereditate":9401,"Ġnescit":9402,"Ġsignis":9403,"ĠInsula":9404,"Ġqualem":9405,"Ġcaeteri":9406,"Ġhoram":9407,"iste":9408,"ood":9409,"ĠDiet":9410,"ĠGau":9411,"Ġvestros":9412,"Ġcircuitu":9413,"Ġprincipatus":9414,"ĠGraeciae":9415,"Ġligno":9416,"pat":9417,"ĠAR":9418,"Î½Î±":9419,"ĠAcc":9420,"ĠRoth":9421,"Ġperpetuam":9422,"Ġmanifesta":9423,"Ġferi":9424,"fecto":9425,"ĠanimÃ¦":9426,"ĠFlandrie":9427,"olem":9428,"Ġapplic":9429,"ĠAlexandri":9430,"Ġpronunti":9431,"vertere":9432,"Ġquicquam":9433,"ulia":9434,"ild":9435,"Ġlongo":9436,"unctis":9437,"ixi":9438,"Ġlignum":9439,"ĠTemp":9440,"ĠNich":9441,".âĢĶ":9442,"Ġpossessione":9443,"ERI":9444,"ĠBonif":9445,"Forte":9446,"Ġscrut":9447,"ĠIdus":9448,"Ġcommor":9449,"unquam":9450,"Ġpaginae":9451,"oda":9452,"adius":9453,"Ġmandato":9454,"Ġiudex":9455,"ĠPyrenaeis":9456,"ecost":9457,"Ġcommov":9458,"greg":9459,"ĠSaul":9460,"ĠVerbi":9461,"Sanctus":9462,"Ġpeccare":9463,"Ġpotestis":9464,"Ġprimae":9465,"Ġadesse":9466,"Ġlegere":9467,"itionibus":9468,"Ġ(-":9469,"otam":9470,"exc":9471,"Ġparab":9472,"Ġphilosophus":9473,"Hen":9474,"acionem":9475,"Ġcastell":9476,"Ġlapidem":9477,"Ġhaeretici":9478,"Ġsollicitudine":9479,"Ġdans":9480,"ĠCen":9481,"ĠGubern":9482,"ĠEsa":9483,"Ġcontrah":9484,"Ġobsequium":9485,"ĠOccitania":9486,"Ġvestrorum":9487,"isca":9488,"Ġsatur":9489,"Ġparatus":9490,"ĠApud":9491,"á¿¶á¾¾":9492,"inte":9493,"Apostol":9494,"temper":9495,"Ġinventus":9496,"ĠAquitania":9497,"Ġmagistro":9498,"ĠAegypto":9499,"Ġdecernimus":9500,"ĠVel":9501,"Ġsuperbi":9502,"Ġaliquos":9503,"Ġlegatos":9504,"zi":9505,"Ġanime":9506,"Ġdelinqu":9507,"Ġdistingu":9508,"ectos":9509,"Ġment":9510,"udi":9511,"ĠTol":9512,"Ġuig":9513,"Ġveli":9514,"Ġlate":9515,"Ġobseru":9516,"Ġinterpos":9517,"ĠJer":9518,"Ġresponsum":9519,"Domino":9520,"Ġreconcili":9521,"Ġinl":9522,"Ġnuntia":9523,"ava":9524,"Ġunanim":9525,"Ġvocis":9526,"Ġnaturalis":9527,"ourt":9528,"Ġevangelista":9529,"toribus":9530,"Deum":9531,"Ġsero":9532,"Sin":9533,"hes":9534,"Ġsyll":9535,"Ġlongum":9536,"uenna":9537,"Ġkalendas":9538,"Ġvident":9539,"ĠMich":9540,"ĠFanum":9541,"Ġpaginas":9542,"Ġdedisti":9543,"Ġsensibus":9544,"ĠNiv":9545,"eis":9546,"ĠSAN":9547,"eritur":9548,"Ġdilectissimi":9549,"Ġpenes":9550,"lit":9551,"Ġhabuerunt":9552,"Ġsapientes":9553,"sti":9554,"Ġcontigit":9555,"aremus":9556,"ecom":9557,"alo":9558,"Ġhistoriam":9559,"Ġprivilegium":9560,"Ġprepositus":9561,"Rem":9562,"Mor":9563,"Ġuener":9564,"ĠâĢł":9565,"Ġvictus":9566,"Ġaccom":9567,"Se":9568,"yb":9569,"Att":9570,"erea":9571,"Ġsexus":9572,"ipublic":9573,"Ġjusto":9574,"Ġquasdam":9575,"Ġinviol":9576,"Ġibique":9577,"Ġpericulos":9578,"ulte":9579,"Ġdestruc":9580,"Ġdistribu":9581,"Ġpoenas":9582,"Lex":9583,"Multi":9584,"fort":9585,"Ġinstituit":9586,"Ġbeneficiis":9587,"Ġvulner":9588,"Ġscandalum":9589,"Ġpraedicationis":9590,"Ġutile":9591,"Ġprofut":9592,"Ġgeneraliter":9593,"Ġobtulit":9594,"Ġfus":9595,"Ġ70":9596,"Ġdignosc":9597,"anensi":9598,"Ġdesideriis":9599,"Alia":9600,"Ġmarc":9601,"ĠHor":9602,"Ġsalutare":9603,"ĠCapsae":9604,"Ġorationes":9605,"Ġprocedit":9606,"ĠGraecis":9607,"Ġinjuste":9608,"Ġaltaris":9609,"Ġmartyres":9610,"Ġterrenis":9611,"Ġvultis":9612,"Ġparti":9613,"odiensis":9614,"ĠGali":9615,"Ġmedicus":9616,"Ġmarit":9617,"acch":9618,"Ġalta":9619,"ĠSoviet":9620,"itores":9621,"inx":9622,"ipsa":9623,"Ġasserit":9624,"ĠRuscinone":9625,"Ġuos":9626,"Ġnaturaliter":9627,"Ġpersecut":9628,"icitur":9629,"Ġgust":9630,"Ġcorrobor":9631,"assent":9632,"Ġelectione":9633,"ilitas":9634,"Ġprodesse":9635,"Ġgradum":9636,"ĠÏĨ":9637,"Ġpraepon":9638,"Ġerog":9639,"Ġerror":9640,"Ġpopulorum":9641,"Ġregr":9642,"ĠEcclesiis":9643,"Ġregula":9644,"Ġexemplis":9645,"ĠSap":9646,"Ġhebdom":9647,"Ġcarcere":9648,"Ġsciat":9649,"Div":9650,"Å¡":9651,"Ġobtinere":9652,"ĠSilv":9653,"Ġcanones":9654,"Ġpig":9655,"Ġcoerc":9656,"Ġamare":9657,"Ġstudiis":9658,"Ġeffus":9659,"ĠLi":9660,"Ġpotuisse":9661,"Ġlibr":9662,"Ġ65":9663,"ĠAurel":9664,"ylum":9665,"Ġconventus":9666,"Ġavert":9667,"Ġorth":9668,"Ġton":9669,"Ġducit":9670,"Ġconversus":9671,"ĠChristianae":9672,"Ġvini":9673,"olium":9674,"Ġlabores":9675,"Ġpublicis":9676,"Ġpane":9677,"Ġdetest":9678,"ĠLaz":9679,"All":9680,"avis":9681,"att":9682,"Ġdecretum":9683,"acu":9684,"acium":9685,"Ġpius":9686,"Ġnegotia":9687,"ĠFreti":9688,"2005":9689,"ĠInferioris":9690,"imorum":9691,"Ġprophetas":9692,"Ġhabeatur":9693,"Ġiniur":9694,"ĠAugustino":9695,"ĠRud":9696,"Ġfortuna":9697,"sump":9698,"Ġultimum":9699,"Epist":9700,"Ġpersuad":9701,"Ġsacerdoti":9702,"ĠPalat":9703,"uxerunt":9704,"FI":9705,"ĠNat":9706,"Ġodium":9707,"ĠIoannis":9708,"Ġcontingit":9709,"inÃ¦":9710,"Gregorius":9711,"EX":9712,"Ġdilectus":9713,"Ġhabentur":9714,"Ġaltari":9715,"despectus":9716,"Ġorigine":9717,"ĠHung":9718,"max":9719,"Ġmass":9720,"conc":9721,"eries":9722,"Exs":9723,"Ġscribitur":9724,"Ġrecenti":9725,"Eodem":9726,"Ġvenisse":9727,"dal":9728,"Ġportam":9729,"Ġdecreta":9730,"Rog":9731,"Ġpresentem":9732,"Ipsi":9733,"cs":9734,"Ġlatus":9735,"Prima":9736,"Virtemberg":9737,"Ġsoci":9738,"Ġdioc":9739,"Ġregionem":9740,"Ġgeopolit":9741,"Âº":9742,"contra":9743,"ĠMyrias":9744,"Ġrationabiliter":9745,"Ġinfring":9746,"ĠUnionis":9747,"Ġfen":9748,"aculi":9749,"Ġgign":9750,"AC":9751,"Ġdaret":9752,"Ġinferre":9753,"Ġcoelestibus":9754,"uario":9755,"ĠIp":9756,"ĠRomaniae":9757,"ĠCONSS":9758,"Ġjudices":9759,"Ġintelligendum":9760,"ogallice":9761,"Ġvocantur":9762,"Ġpoterunt":9763,"ĠBelg":9764,"Ġirac":9765,"2006":9766,"doc":9767,"orf":9768,"Ġrationibus":9769,"Ġdifficile":9770,"ko":9771,"aeque":9772,"TOR":9773,"Ġsecus":9774,"Ġhabitare":9775,"Ġjugiter":9776,"ĠArduenna":9777,"Ġvictoriam":9778,"Ġmentio":9779,"Ġquiete":9780,"ĠGod":9781,"Ġjuram":9782,"Ġvinculo":9783,"Ġsagitt":9784,"ĠLibrary":9785,"Ġsop":9786,"Ġtestium":9787,"epti":9788,"Ġvoluntati":9789,"Ġgeopoliticum":9790,"amina":9791,"Ġforet":9792,"Ġargenti":9793,"Lo":9794,"ĠSanctum":9795,"emplum":9796,"Ġsubsist":9797,"ridge":9798,"Ġabiit":9799,"Ġpromissa":9800,"imenta":9801,"endium":9802,"Ġconsangu":9803,"Ġmittit":9804,"ĠAra":9805,"Ġfamul":9806,"Ġpropriae":9807,"quot":9808,"Ġvocatus":9809,"lov":9810,"port":9811,"inxit":9812,"Ġsati":9813,"Ġful":9814,"esserunt":9815,"Ġconvinc":9816,"ĠHab":9817,"Ġodor":9818,"SPD":9819,"aeo":9820,"Ġfamilias":9821,"Ġcontinentur":9822,"Ġcensum":9823,"Ġmagistrum":9824,"Ġvidentes":9825,"icipaed":9826,"Ä«":9827,"cem":9828,"rus":9829,"ĠMath":9830,"add":9831,"eca":9832,"Ġaffic":9833,"Ġpus":9834,"Ġpresentia":9835,"Ġillib":9836,"Ġsursum":9837,"ATI":9838,"Ġoeconom":9839,"Ġportas":9840,"ĠAnth":9841,",,":9842,"Ġsid":9843,"Te":9844,"Ġaccidit":9845,"oriis":9846,"Ġinsidias":9847,"iente":9848,"Ġantiquae":9849,"Ġprotectione":9850,"Ġsecuti":9851,"ERS":9852,"Ġgravi":9853,"udis":9854,"ensionis":9855,"Ġsubdiacon":9856,"iosum":9857,"Ġoptime":9858,"Ġrecognosc":9859,"Ġstatuit":9860,"ĠSuec":9861,"ĠJam":9862,"Ġdella":9863,"ĠHann":9864,"Ġreverentiam":9865,"utae":9866,"Ġedd":9867,"etsi":9868,"Ġputa":9869,"Ġpell":9870,"Ġponere":9871,"Lege":9872,"obedi":9873,"Ġconfort":9874,"ituri":9875,"Ġmatut":9876,"Ġconscientiam":9877,"Ġinsipi":9878,"ĠÎµá¼°":9879,"Ġmob":9880,"ĠHol":9881,"taxat":9882,"idas":9883,"Ġexpect":9884,"Ġlaudat":9885,"Ġcanonicorum":9886,"Ġquique":9887,"Jes":9888,"Ġdetin":9889,"Ġfix":9890,"Ġverecund":9891,"Ġdiscipulus":9892,"ĠÃĨgyp":9893,"Dil":9894,"Ġartis":9895,"Ġdevor":9896,"Ġtri":9897,"Ġtextus":9898,"Ġfortitudo":9899,"Ġstren":9900,"Ġindustria":9901,"Ġsigno":9902,"Ġari":9903,"Ġoppos":9904,"ĠOpera":9905,"Ġimmob":9906,"ĠAntich":9907,"Huius":9908,"rex":9909,"igna":9910,"Ġinvidia":9911,"ossa":9912,"ĠEust":9913,"ĠBeat":9914,"Ġvolentes":9915,"Ġmultae":9916,"ĠTu":9917,"Ġremitt":9918,"Ġcontex":9919,"Ġaudivimus":9920,"Ġillustris":9921,"Ġmeminit":9922,"uln":9923,"utam":9924,"ĠAedific":9925,"ĠMog":9926,"ineant":9927,"Ġbone":9928,"Ġmensibus":9929,"Ġiussit":9930,"Ġcopul":9931,"Lutetiae":9932,"Rep":9933,"ĠIsai":9934,"ĠPil":9935,"Ġhabitus":9936,"Ġvoll":9937,"ĠCorinth":9938,"Ġbeatorum":9939,"Ġstatutum":9940,"ĠRam":9941,"Ġconstant":9942,"Ġplurimis":9943,"Ġquaestio":9944,"Ġdii":9945,"Ġfuissent":9946,"ĠGar":9947,"Ġdesideria":9948,"Ġquale":9949,"ĠEpiph":9950,"Ġaccedere":9951,"Su":9952,"ĠBor":9953,"ertia":9954,"Noli":9955,"pecc":9956,"alla":9957,"Ġprodig":9958,"Ma":9959,"OL":9960,"pi":9961,"anes":9962,"Quar":9963,"Ġsuperioribus":9964,"ĠCro":9965,"Ġmeret":9966,"ĠMc":9967,"Ġsynodus":9968,"Ġacceperunt":9969,"Ġrepraesent":9970,"Ġcultum":9971,"ĠDub":9972,"Ġdominium":9973,"Ġvestimenta":9974,"Ġorare":9975,"Ġtestamenti":9976,"Ġstim":9977,"Ġspatio":9978,"Ġpriorem":9979,"Ġpress":9980,"Ġdecimis":9981,"Ġexclus":9982,"Ġcanonum":9983,"Ġlegat":9984,"Ġepiscopatus":9985,"Alexand":9986,"ĠChristianos":9987,"Ġpraeceptis":9988,"Ling":9989,"aliae":9990,"illae":9991,"ĠLingua":9992,"Ġcust":9993,"ĠCassiod":9994,"Ġdoctores":9995,"Ġcensa":9996,"Iste":9997,"Ġistos":9998,"efac":9999,"ĠÎºÎ±ÏĦ":10000,"ĠLotharingia":10001,"Ġfret":10002,"Ġpriu":10003,"undis":10004,"Ġscriptura":10005,"ĠGalli":10006,"ws":10007,"ilitatem":10008,"Ġjudicem":10009,"',":10010,"Ġ1973":10011,"nim":10012,"wa":10013,"ĠÂł":10014,"ĠRomanam":10015,"Ġnostr":10016,"Ġnostrarum":10017,"Ġpedilus":10018,"Act":10019,"Ġgessit":10020,"ĠhÃ¦ret":10021,"Duo":10022,"Ġstabil":10023,"aliz":10024,"ĠPho":10025,"Ġextor":10026,"Ġcommin":10027,"ĠPam":10028,"Ġcart":10029,"Ġchris":10030,"Ġplenitudo":10031,"Ġtribulatione":10032,"Ġcapi":10033,"Ġlapide":10034,"Ġpriore":10035,"Ġloquebatur":10036,"Ġcc":10037,"Ġdrac":10038,"ogle":10039,"Hum":10040,"ĠCamb":10041,"ĠMess":10042,"Ġhonorum":10043,"Ġpublicum":10044,"Ġresurrexit":10045,"Î¹Î½":10046,"ĠEu":10047,"Episcop":10048,"Ġargumentum":10049,"inopoli":10050,"uj":10051,"Ġamat":10052,"ĠÎĩ":10053,"ĠAdm":10054,"Ġperfecte":10055,"Caes":10056,"Ġgentem":10057,"Ġdesuper":10058,"Ġpatrimon":10059,"Ġmontibus":10060,"Ġjudicare":10061,"Ġpectore":10062,"Deo":10063,"Homo":10064,"Ġinterm":10065,"Sive":10066,"Ġventi":10067,"Ġmaneat":10068,"Ġpuerum":10069,"ĠAmerican":10070,"Ejus":10071,"Ġmontis":10072,"Ġbenedictione":10073,"ĠIb":10074,"Ġdicendo":10075,"Ġinterius":10076,"Ġplenus":10077,"Ġmensura":10078,"Ġconfessio":10079,"Ġpossis":10080,"Ġinsulae":10081,"ĠAthanas":10082,"ĠSabaud":10083,"Trans":10084,"Ġinhib":10085,"Ġfideli":10086,"Ġmalus":10087,"Ġcontradictione":10088,"Ġmurmur":10089,"Ð¾Ð²":10090,"ensio":10091,"Ġspiritualibus":10092,"Ġmetropolitana":10093,"ietis":10094,"PH":10095,"Ġcalig":10096,"ĠMinistri":10097,"tad":10098,"Ġaetatem":10099,"ibunt":10100,"Ġvalent":10101,"Ġmedioc":10102,"Ġproper":10103,"ĠXXVIII":10104,"Ġangelum":10105,"Ġmorti":10106,"ĠMagni":10107,"ĠOccident":10108,"Ġfuturorum":10109,"Ãī":10110,"eriorum":10111,"Ġá¼ĲÎº":10112,"ID":10113,"Ġnovam":10114,"Ġdonavit":10115,"Ġattest":10116,"ĠDiction":10117,"Ġsubtil":10118,"Ġanx":10119,"Ġpraep":10120,"Ġquoties":10121,"Ġinferius":10122,"Ġmatrimonio":10123,"ĠChalced":10124,"Ġho":10125,"Ġexcepto":10126,"Ġsepulcrum":10127,"Î¼Î±":10128,"Idcirco":10129,"Ġcresc":10130,"ĠAdal":10131,"Nost":10132,"Ġintuitu":10133,"Ġcitius":10134,"Ġagendum":10135,"ĠÎ²":10136,"ĠComment":10137,"Pal":10138,"eptis":10139,"Ġorator":10140,"Ġeffund":10141,"Ġpeti":10142,"âĢł":10143,"Ġbeate":10144,"tera":10145,"Ġquemquam":10146,"hac":10147,"itiarum":10148,"Ġfate":10149,"ectam":10150,"Ġdocere":10151,"Ġsynodi":10152,"Ġdicant":10153,"Ġdivites":10154,"iosi":10155,"Ġdumtaxat":10156,"Ġmunimine":10157,"ĠEli":10158,"Ġaudiens":10159,"Ġfuturam":10160,"Ġcomiti":10161,"Ġhumilitas":10162,"oman":10163,"ĠEncyclop":10164,"ĠDa":10165,"Ġfui":10166,"Ġpetitionem":10167,"Ġfundamentum":10168,"Ġfiducia":10169,"rent":10170,"Ġcognoscitur":10171,"Ġadipisci":10172,"Praes":10173,"Ġmagnae":10174,"Ġvices":10175,"nalibus":10176,"Resp":10177,"Ġdemonstrat":10178,"onas":10179,"Ã©e":10180,"Ġultima":10181,"Ġcontest":10182,"Ġvideret":10183,"Ġcontumel":10184,"Doc":10185,"ĠNestor":10186,"Ġrelicta":10187,"Ġ64":10188,"Ġtend":10189,"Ġexistere":10190,"Ġuerb":10191,"div":10192,"ernis":10193,"ĠUA":10194,"Ġsolvere":10195,"Ġobtinuit":10196,"Ġexceptis":10197,"Ġpredicti":10198,"Ġarchidiaconus":10199,"ĠRussiae":10200,"ÏĦÎ·":10201,"Ġ67":10202,"Ġ68":10203,"Tim":10204,"ĠDie":10205,"Ġsacrum":10206,"Ġ69":10207,"nulli":10208,"Ġdecim":10209,"Ġtitulum":10210,"Ġpugna":10211,"iantes":10212,"Ġargente":10213,"Ġinfirmitatem":10214,"Ġ!":10215,"Ġvivunt":10216,"Ġedita":10217,"ĠTimothe":10218,"Ġdiceretur":10219,"Ps":10220,"Ġpropag":10221,"Ġocculta":10222,"Ġmuliere":10223,"iop":10224,"Ġtorr":10225,"Ġdilat":10226,"LIX":10227,"Ġcujusdam":10228,"Ġgente":10229,"ĠTa":10230,"Ġpraer":10231,"Ġpeper":10232,"raverunt":10233,"Ġ1987":10234,"Ġ90":10235,"Vulg":10236,"ĠSex":10237,"ĠMach":10238,"Ġdiligentius":10239,"Ġintrare":10240,"ĠLege":10241,"ĠXC":10242,"ĠWorld":10243,"Ġimple":10244,"ĠBro":10245,"Ġveterum":10246,"ientibus":10247,"ĠÃ©":10248,"iserit":10249,"Ġincurr":10250,"Ġnegat":10251,"Ġvirgine":10252,"Ġ1979":10253,"Ġsarc":10254,"Ġirae":10255,"Ġluxur":10256,"XC":10257,"Ġ...":10258,"riis":10259,"ĠBene":10260,"Ġamen":10261,"ĠMis":10262,"adi":10263,"Ġrelax":10264,"Ġdicte":10265,"Ġfactae":10266,"Ġlibrorum":10267,"Ġcontinu":10268,"Ġpossessio":10269,"edemon":10270,"Ġdiaconi":10271,"Ġbenigne":10272,"Ġexercere":10273,"Ġvo":10274,"abilium":10275,"Ġrefic":10276,"ĠÏĢÎ±Ïģ":10277,"vexillum":10278,"ĠOrb":10279,"Î»Î»":10280,"\")":10281,"ectitur":10282,"Ġcommerc":10283,"Ġcredid":10284,"ĠColumb":10285,"mer":10286,"eniae":10287,"ĠFel":10288,"Ġcorona":10289,"Ġquaest":10290,"bur":10291,"ĠSapi":10292,"Ġabyss":10293,"Ġannunt":10294,"Ġexstinc":10295,"Ġservitutem":10296,"Ġevidenter":10297,"Ġcinematograph":10298,"Ġadquir":10299,"fico":10300,"Ġortus":10301,"Ġoperari":10302,"Ġfertur":10303,"Ġdignitas":10304,"Ġconstitutis":10305,"Ã¶n":10306,"Ġhaereditatem":10307,"ĠSav":10308,"ĠMariam":10309,"ĠFrancicus":10310,"Ġnecessario":10311,"Ġdicitis":10312,"Don":10313,"ische":10314,"Ġillae":10315,"Ġreleg":10316,"Ġconiunc":10317,"Ġsupple":10318,"Ġhistoriae":10319,"Ð¸Ñ":10320,"Ġproficisc":10321,"Ġnusquam":10322,"\":":10323,"Mir":10324,"elat":10325,"ĠTre":10326,"Ġcommissa":10327,"Ġsollicitudinem":10328,"Ġcursum":10329,"Ġvideat":10330,"Ġagi":10331,"Ġare":10332,"Christi":10333,"Ġvenisset":10334,"ĠXXVII":10335,"Ġsentire":10336,"XII":10337,"tÃ¦":10338,"Ġimmacul":10339,"Corp":10340,"Ġinstar":10341,"Ġepistolas":10342,"cit":10343,"entui":10344,"Ġintest":10345,"ramque":10346,"Ġnutr":10347,"Ġorientalis":10348,"rior":10349,"Ġinterpr":10350,"Ġfaciatis":10351,"Ġperfectus":10352,"Ġvaleant":10353,"Ġstir":10354,"ĠMunicipii":10355,"Ġvindicare":10356,"Ġpudic":10357,"ĠPe":10358,"Ġveris":10359,"Ġ88":10360,"Ġoctavo":10361,"Ġvesti":10362,"Ġmateriam":10363,"Ġcatholicam":10364,"erosolym":10365,"ĠNationalis":10366,"Ġterritorio":10367,"Ġrationes":10368,"Ġclero":10369,"itudini":10370,"Ġprovinciam":10371,"Ġfontem":10372,"uitate":10373,"ĠTit":10374,"ĠGermania":10375,"Ġpotissimum":10376,"Ġundec":10377,"Ġnono":10378,"ĠFor":10379,"olocaus":10380,"Ġpape":10381,"Ġaliisque":10382,"Ġ1986":10383,"tarum":10384,"ionali":10385,"Ġconcub":10386,"Ġnotis":10387,"Ġalieno":10388,"Beati":10389,"laus":10390,"Ġstudia":10391,"Ġbaptismo":10392,"Ġdissimul":10393,"Ġtemporalibus":10394,"Verbum":10395,"ĠHadr":10396,"ponius":10397,"Ġpredictis":10398,"Ġalienis":10399,"ĠGarumnae":10400,"cn":10401,"Ġpenetr":10402,"ĠAxonae":10403,"Gal":10404,"Ġconfic":10405,"Ġtrec":10406,"Ġuber":10407,"Ġ1978":10408,"Ġdignetur":10409,"Ġferro":10410,"Nomen":10411,"opp":10412,"Ġcommuniter":10413,"Ġquorumdam":10414,"ALIS":10415,"esia":10416,"Ġpraedicti":10417,"Ġdimidium":10418,"Ġfluminis":10419,"Ġtuarum":10420,"Ġplerisque":10421,"ultu":10422,"ĠAlbertus":10423,"ĠLeodiensis":10424,"DP":10425,"iaci":10426,"Ġconvic":10427,"ĠBarth":10428,"Ġdere":10429,"Ġostenderet":10430,"Ġsufficere":10431,"Ġmendacium":10432,"Ġebri":10433,"rob":10434,"Ġquandam":10435,"ĠGrÃ¦c":10436,"Ġinvenimus":10437,"ĠCaroli":10438,"ĠFlandr":10439,"Ġquaeso":10440,"Ġprolix":10441,"Ġdivitiis":10442,"Ġfirmare":10443,"Venit":10444,"Ġcaelum":10445,"ensionem":10446,"Ġconsistit":10447,"Ġorta":10448,"Ġpresbyterum":10449,"Ġcibo":10450,"Beatus":10451,"vere":10452,"Ġpesti":10453,"Ġregionibus":10454,"ĠClar":10455,"ĠHenrico":10456,"Ġviae":10457,"Ġcaetero":10458,"ologiam":10459,"Ġfugam":10460,"Ġaccommod":10461,"ellarum":10462,"ĠMare":10463,"Ġregener":10464,"odes":10465,"Ġdeserv":10466,"Ġtenore":10467,"Municipia":10468,"Ġpromer":10469,"istas":10470,"Sup":10471,"ifer":10472,"narum":10473,"quamur":10474,"bulum":10475,"Ġconversatione":10476,"els":10477,"issimas":10478,"Ġrecit":10479,"Ġcognitionem":10480,"ederland":10481,"Ġcelebrare":10482,"Ġsacrosanc":10483,"Ġfasc":10484,"turam":10485,"Quoc":10486,"á¿Ĩá¾¾":10487,"Ġelectorum":10488,"acensi":10489,"Ġincorp":10490,"Ġdebes":10491,"Ġaetas":10492,"yrum":10493,"Ġvidebantur":10494,"Ġporta":10495,"Ġcreaturam":10496,"ĠEutych":10497,"ĠPR":10498,"ircum":10499,"Ġdomibus":10500,"Ġsecreta":10501,"Ġmentionem":10502,"Ber":10503,"Pecc":10504,"Ġjung":10505,"2004":10506,"Ġalicuius":10507,"Ġheret":10508,"ings":10509,"rahel":10510,"ĠBib":10511,"Ġoperi":10512,"Ġprovinciarum":10513,"Ġsocietatem":10514,"Ġadventus":10515,"Spec":10516,"Ġinterpell":10517,"Ġegregia":10518,"Ġforti":10519,"ivo":10520,"Ġimplic":10521,"fridi":10522,"ÃŁ":10523,"Ġabi":10524,"Add":10525,"Ġeasdem":10526,"Ġsimplex":10527,"ĠArvernia":10528,"Ġflumina":10529,"ĠOeconomia":10530,"liter":10531,"Ġspei":10532,"ĠMartyr":10533,"errim":10534,"onne":10535,"Ġpoc":10536,"ĠHuius":10537,"Ġdetur":10538,"ĠPlat":10539,"ĠBernardi":10540,"ebris":10541,"ĠNap":10542,"Ġsocietate":10543,"Ġreprehend":10544,"Ġloquuntur":10545,"Ġsimulac":10546,"Ġ80":10547,"bet":10548,"Ġvocabulum":10549,"ĠAmerica":10550,"Ġdominis":10551,"Ġreferre":10552,"rap":10553,"ricem":10554,"Ġutrique":10555,"ĠMad":10556,"ĠAtt":10557,"Ã¼r":10558,"Ġoporteat":10559,"Ġhaereticorum":10560,"Ġjucund":10561,"ĠBav":10562,"Ġamicum":10563,"Ġexterius":10564,"Ġvindictam":10565,"Ġvirga":10566,"áº":10567,"Ġulc":10568,"Ġmee":10569,"ensam":10570,"Ġquaesumus":10571,"Ġperfecti":10572,"Ġual":10573,"abul":10574,"ado":10575,"Ġnegare":10576,"ystema":10577,"AA":10578,"Ġspiritalis":10579,"Ġvides":10580,"Ġpaterna":10581,"Ġcogitare":10582,"Ġegressus":10583,"Ġdomi":10584,"Ġ1980":10585,"ÏħÎ½":10586,"egreg":10587,"ĠÏĩ":10588,"Siquidem":10589,"Ġuniversi":10590,"Ġmerces":10591,"Ġmaiest":10592,"Ġprivilegia":10593,"ĠDu":10594,"rax":10595,"Ġvocari":10596,"ÅĤ":10597,"Ġdefendere":10598,"Ġoriginem":10599,"erens":10600,"ĠQuadrag":10601,"Ġhonores":10602,"Ġprocre":10603,"Eo":10604,"quaque":10605,"nod":10606,"Exc":10607,"ĠIulius":10608,"Ġconvertit":10609,"ĠCaliforn":10610,"secund":10611,"Ġstr":10612,"Ġrepos":10613,"University":10614,"ĠTerr":10615,"ĠâĢľ":10616,"Ġconsensum":10617,"amentis":10618,"Ġvicit":10619,"Ġnimia":10620,"Ġvocabulo":10621,"Ġpull":10622,"Ġcreata":10623,"Ġvirgines":10624,"Ġpondere":10625,"ĠGenus":10626,"XIII":10627,"elae":10628,"ray":10629,"ael":10630,"Ġessem":10631,"Ġcooper":10632,"Ġdebetur":10633,"ĠQuam":10634,"Ġnovae":10635,"Ġpedilusor":10636,"Ġsud":10637,"Ġorat":10638,"ymph":10639,"Ġsuscit":10640,"Ġloquens":10641,"Ġinvit":10642,"Ġquinta":10643,"ĠScot":10644,"Ġparadiso":10645,"Di":10646,"itisse":10647,"ĠtuÃ¦":10648,"Ġiuv":10649,"Ġimmerito":10650,"Ã£":10651,"Respondit":10652,"icensi":10653,"ĠAB":10654,"Ġagnov":10655,"Ġcompetit":10656,"Ġtormenta":10657,"ash":10658,"Ġvicem":10659,"ĠWalterus":10660,"Ġvulnera":10661,"Ġrobur":10662,"Pos":10663,"imb":10664,"inaria":10665,"Ġplene":10666,"Ġlegatis":10667,"Ġhospit":10668,"Georg":10669,"Ġcoepiscop":10670,"ange":10671,"ĠWest":10672,"ĠExc":10673,"ĠVi":10674,"Ġprophetis":10675,"ellit":10676,"Ġmaximum":10677,"Ġrecuper":10678,"Ġpeccatoribus":10679,"Ġprofit":10680,"ĠHieronymi":10681,"Ġimpossibile":10682,"Ġmisericors":10683,"aturam":10684,"erae":10685,"Ġ76":10686,"Ġpoenae":10687,"Ġofferre":10688,"Ġvocibus":10689,"Ġporrig":10690,"ĠWilliam":10691,"Nic":10692,"Ġaiunt":10693,"Ġesur":10694,"Ġassensum":10695,"ÏĥÎ¸":10696,"Eadem":10697,"ĠVicipaed":10698,"Ġprovis":10699,"Ġuniversum":10700,"omas":10701,"Ġrata":10702,"ative":10703,"Ġobtemper":10704,"á½·Î±ÏĤ":10705,"iliorum":10706,"Ġdicebatur":10707,"Ġvenerat":10708,"Ġsimilitudine":10709,"Ġpermanere":10710,"ĠKalendas":10711,"retur":10712,"frat":10713,"Ġapr":10714,"Ġepistolis":10715,"Ġdextris":10716,"Ġuxores":10717,"Ġdefl":10718,"Ġsublev":10719,"ĠNovum":10720,"ĠMaximianus":10721,"Ġprest":10722,"Ġ1982":10723,"ĠEdd":10724,"Ġeven":10725,"Ġorthodox":10726,"Ã´":10727,"Ġvicus":10728,"Ġaltum":10729,"Ġinfid":10730,"--":10731,"ĠDal":10732,"Ġadminist":10733,"Ġplenam":10734,"Ġsacerdotem":10735,"Ġabest":10736,"Ġdomina":10737,"det":10738,"ategoriae":10739,"Ġrestituere":10740,"ĠSacram":10741,"Ġdamp":10742,"Ġinimicorum":10743,"Ġvineam":10744,"ĠLin":10745,"Ġsuperior":10746,"Ġprobare":10747,"illos":10748,"Ġacceperit":10749,"Ġnomini":10750,"aldum":10751,"Ġorigin":10752,"dix":10753,"ĠMort":10754,"Ġrogo":10755,"Ġmembrorum":10756,"Ġcanonica":10757,"Ġaperuit":10758,"sig":10759,"Ġdotem":10760,"ĠDun":10761,"annem":10762,"Ġ77":10763,"sol":10764,"Ġcompunc":10765,"Ġpresum":10766,"ublica":10767,"Ġiuram":10768,"Ġmajora":10769,"aa":10770,"ĠRelig":10771,"Sit":10772,"ĠQuin":10773,"ĠGallia":10774,"Ġbar":10775,"Ġreperitur":10776,"vos":10777,"Ġmos":10778,"2001":10779,"ebitis":10780,"Ġconsent":10781,"Ġsecundi":10782,"risque":10783,"Ġopprim":10784,"Ġplebe":10785,"Ġannus":10786,"Ġsecundam":10787,"Ġhumanitatis":10788,"Ġ62":10789,"ĠLatinus":10790,"tat":10791,"Ġdistrib":10792,"ĠItalicus":10793,"Rob":10794,"Constant":10795,"Ġrogavit":10796,"Ġsuspir":10797,"ipsis":10798,"oram":10799,"Ġuiu":10800,"Ġausus":10801,"Ġmatri":10802,"ĠAnglia":10803,"Ġmarito":10804,"Ġsingulas":10805,"Ġbeatitudinis":10806,"Ġconuentus":10807,"Ġincid":10808,"Ġtranseunt":10809,"ĠNorth":10810,"rehendit":10811,"ĠErn":10812,"laud":10813,"Ġsilentium":10814,"Ġnubes":10815,"CTI":10816,"Ġconform":10817,"Ġexemplar":10818,"inius":10819,"Ġpse":10820,"Ġpreb":10821,"Ġobsequio":10822,"ĠIesu":10823,"san":10824,"Ġmaritus":10825,"Ġmentibus":10826,"ĠAtr":10827,"Ġinventa":10828,"Quidquid":10829,"Ġappendiciis":10830,"Tur":10831,"ichi":10832,"Ġuniversalis":10833,"PO":10834,"Ġbo":10835,"ĠLider":10836,"Ġstetit":10837,"ĠPentecost":10838,"istarum":10839,"ĠAcademiae":10840,"aturi":10841,"Ġconferre":10842,"Ġgravis":10843,"Ġmagnitudine":10844,"2002":10845,"Ġques":10846,"ĠFo":10847,"enso":10848,"ĠVu":10849,"Ġoculorum":10850,"Ġcels":10851,"Ġecclesiasticam":10852,"ĠBibliothec":10853,"Ġarrip":10854,"Ġoccidentalis":10855,"Ġannuatim":10856,"Ġmotu":10857,"Ġdiligentia":10858,"Ġcarni":10859,"Ġconversationis":10860,"Ġpositi":10861,"alus":10862,"ĠnostrÃ¦":10863,"Ġtrid":10864,"Ġquindecim":10865,"eci":10866,"set":10867,"istam":10868,"ĠTolet":10869,"Ġducere":10870,"Ġcontend":10871,"Ġsecurus":10872,"Ġpresump":10873,"ĠRegio":10874,"Ġdefuncti":10875,"Pap":10876,"Ġ63":10877,"Ġsigill":10878,"iterunt":10879,"ÏĥÎµ":10880,"ĠTheodorus":10881,"Ġvalere":10882,"Ġepiscopatum":10883,"ÏĦÎµ":10884,"Ġcontrario":10885,"ĠGregorio":10886,"Commun":10887,"itana":10888,"ome":10889,"Ġlegato":10890,"Ġliquid":10891,"ischen":10892,"mut":10893,"inger":10894,"Ġcredendum":10895,"Ġseru":10896,"Ġtestific":10897,"Ġacceper":10898,"Ġherb":10899,"ĠBalduinus":10900,"Ġpe":10901,"ĠEventa":10902,"2003":10903,"Ġsilvis":10904,"ĠPontific":10905,"Ġviscera":10906,"ĠOtto":10907,"vus":10908,"Ñĥ":10909,"onos":10910,"ĠquÄĻ":10911,"ette":10912,"Ġnobili":10913,"Ġscimus":10914,"Ġimpii":10915,"Ġrediit":10916,"Ġremota":10917,"ĠPyrenaeorum":10918,"Ġtertius":10919,"Ġdebitam":10920,"Ġ-.":10921,"Ġcos":10922,"Ġamitt":10923,"Ġrestitui":10924,"Ġvotum":10925,"ĠSir":10926,"ionario":10927,"Ġacqui":10928,"Ġquaestionem":10929,"etu":10930,"ĠLus":10931,"Ġgaudere":10932,"ĠGerardus":10933,"ĠAedificia":10934,"Disc":10935,"ĠPRI":10936,"sumus":10937,"Ġdefici":10938,"ĠHam":10939,"Ġdilexit":10940,"Ġfructibus":10941,"ĠSamuel":10942,"Ġfacultas":10943,"ĠpÅĵnit":10944,"Aliter":10945,"Ġiurisdic":10946,"orio":10947,"Ġinteresse":10948,"Ġquousque":10949,"Ġdivinitatem":10950,"Ġignosc":10951,"itarum":10952,"ĠChristoph":10953,"Ġdiffin":10954,"Ġsitus":10955,"utos":10956,"ectorum":10957,"Ġgregem":10958,"Ġlongius":10959,"Ġomnimodis":10960,"Secundo":10961,"Fort":10962,"ions":10963,"itto":10964,"Ġrej":10965,"ulieres":10966,"Ġ2017":10967,"Ġaccipitur":10968,"Ġrestaur":10969,"Ġmagistratus":10970,"mir":10971,"ontem":10972,"ude":10973,"Ġcalicem":10974,"ÏĪ":10975,"Ġ1833":10976,"itiÃ¦":10977,"iniano":10978,"Ġgenerali":10979,"Ġmirabilia":10980,"Ġgrand":10981,"100":10982,"Ġveritati":10983,"ipsi":10984,"Ġtabernaculum":10985,"Ġpertrans":10986,"cre":10987,"ĠVis":10988,"lica":10989,"Ġce":10990,"tinet":10991,"Ġspiritualiter":10992,"Ġtenebrarum":10993,"ĠIt":10994,"Ġrid":10995,"Ġsanctim":10996,"eretis":10997,"Ġconfessus":10998,"Ġcanticum":10999,"gl":11000,"Åį":11001,"Ġbal":11002,"Ġexar":11003,"ĠInternation":11004,"Lugd":11005,"Nullus":11006,"Ġpeperit":11007,"Ġspoli":11008,"ĠChil":11009,"ĠChurch":11010,"ĠFul":11011,"Ġconsules":11012,"Ġexponit":11013,"Ġdial":11014,"Ġuxori":11015,"Ġattrib":11016,"Ġgrave":11017,"tare":11018,"Ġidest":11019,"Ġexcip":11020,"Ġfame":11021,"ĠIsrahel":11022,"Ġsexaginta":11023,"Ġcondidit":11024,"Ġinterdictum":11025,"illud":11026,"Ġintelligimus":11027,"Ġopinionem":11028,"ĠChristiana":11029,"Ġcarnalis":11030,"Ġpaucos":11031,"Ġobedientia":11032,"Ġ66":11033,"Ġcoelestium":11034,"quas":11035,"Ġfamiliar":11036,"mas":11037,"Ġrefertur":11038,"yph":11039,"Ġexced":11040,"Ġcin":11041,"Ġresusc":11042,"Ġmissam":11043,"Ġultro":11044,"Ġprincipatum":11045,"Ġcogitatione":11046,"Ġjejunium":11047,"Ġparticipes":11048,"ãĥ":11049,"Ġpraedictis":11050,"Ġsponsa":11051,"ĠLangobardia":11052,"cred":11053,"ernam":11054,"ĠPlac":11055,"Bar":11056,"Ġá¼Ķ":11057,"Ġflagell":11058,"Ġtransgress":11059,"ĠÎ±":11060,"Ġvana":11061,"Ġperuen":11062,"Ġprovincias":11063,"Ġpaulatim":11064,"bor":11065,"Ġminorem":11066,"acl":11067,"Ġverae":11068,"ortus":11069,"Ro":11070,"Sum":11071,"dixit":11072,"Ġquatinus":11073,"Ġsingulorum":11074,"Ġprioribus":11075,"endarum":11076,"ĠCarnot":11077,"Alias":11078,"Ġfuga":11079,"Ġsax":11080,"Ġsententias":11081,"ĠBrix":11082,"ĠBenedictus":11083,"ĠCassini":11084,"ĠBod":11085,"ĠAdr":11086,"Interea":11087,"Ġcertamen":11088,"ĠÏĦá½¸":11089,"pons":11090,"Ġinfirmitas":11091,"ĠPsalmista":11092,"ĠDiocletianus":11093,"ovit":11094,"Ġvidimus":11095,"Ġcivibus":11096,"Ġprocons":11097,"Ġserie":11098,"Ġconsurg":11099,"Ġsurrexit":11100,"erata":11101,"Ġdesin":11102,"Ġkm":11103,"Vis":11104,"Ġcith":11105,"ĠÄĻcclesiÄĻ":11106,"Ġrespondet":11107,"Ġcorporaliter":11108,"Ġflamma":11109,"ebimus":11110,"Ġpercipi":11111,"Ġtheat":11112,"Ġiustitia":11113,"2000":11114,"anz":11115,"ÏĦÎ±":11116,"Ġpaene":11117,"ialibus":11118,"idarum":11119,"Ġseptuaginta":11120,"lÃ¨s":11121,"ĠPeri":11122,"Ġredig":11123,"Ġsepultus":11124,"esiae":11125,"Ġtrit":11126,"Ġvineis":11127,"aux":11128,"ĦŁ":11129,"ĠPac":11130,"Ġnominatur":11131,"Ġdigni":11132,"Ġvirginem":11133,"Ġrespicit":11134,"Ġposside":11135,"Ġtransc":11136,"Ġloquor":11137,"Ġdevotionis":11138,"Ġfiduciam":11139,"null":11140,"Ġproinde":11141,"Ġbenedi":11142,"Ġconcordia":11143,"Ġquocumque":11144,"eremur":11145,"Ġmoll":11146,"Ġhil":11147,"Ġaccepto":11148,"Ġtemporalia":11149,"ientia":11150,"ĠJournal":11151,"Î¿Î¼":11152,"Ġpraedicto":11153,"Ġsubjici":11154,"Ġpresbytero":11155,"Ġiudicem":11156,"ORUM":11157,"App":11158,"Ġpossessionibus":11159,"Magister":11160,"Ġpanes":11161,"Ġvin":11162,"Ġputas":11163,"Ġnepos":11164,"aepe":11165,"Ġfacin":11166,"Ġevangeliz":11167,"BR":11168,"ĠCaec":11169,"ĠBulg":11170,"ĠTrident":11171,"Ġcanonicus":11172,"Ġcustodire":11173,"ĠĉĠĉ":11174,"Ġcreaturae":11175,"Da":11176,"Ġinvol":11177,"Ġabstulit":11178,"osam":11179,"Ġredarg":11180,"Ġdeteri":11181,"Ġabsolu":11182,"Ġintegritate":11183,"epto":11184,"Ġannunti":11185,"Ġsepulcro":11186,"vent":11187,"ĠHerc":11188,"Ġnovimus":11189,"loqu":11190,"Ġappareat":11191,"Ġpetra":11192,"Ġfiguram":11193,"FF":11194,"ĠHilarius":11195,"Ġagimus":11196,"Ġinvad":11197,"Ġessentia":11198,"veniente":11199,"ĠMonaster":11200,"2010":11201,"Ġinobedi":11202,"Ġistas":11203,"ĠÎĦ":11204,"Ġsignificatur":11205,"ĠArgent":11206,"pexit":11207,"CHI":11208,"Sen":11209,"Ġlocup":11210,"resb":11211,"Ġmiraculis":11212,"Ġ1985":11213,"Ġdefuncto":11214,"ĠAdel":11215,"Ġmomenti":11216,"Ġferme":11217,"ĠÎļ":11218,"Ġimpiis":11219,"Ġpraesentes":11220,"Ġdefinit":11221,"Ġpostulat":11222,"Cat":11223,"Ġuilla":11224,"ĠSanctorum":11225,"ĠÎ¿á½Ĳ":11226,"uros":11227,"Ġvictim":11228,"Ġgut":11229,"assus":11230,"Ġspirituali":11231,"ĠWar":11232,"ĠMex":11233,"Ġsubjecta":11234,"Ġindivid":11235,"erare":11236,"Ġjustos":11237,"Ġimperatori":11238,"Ġvesper":11239,"iciam":11240,"ova":11241,"ĠColon":11242,"ĠAsia":11243,"atui":11244,"Ġvenientes":11245,"Ġgenerale":11246,"gard":11247,"Quantum":11248,"Ġsimilem":11249,"Ġpietatem":11250,"áº½":11251,"Ol":11252,"ĠCAS":11253,"Ġbeatitudinem":11254,"iro":11255,"ĠScripturas":11256,"Ġnonne":11257,"Ġrepud":11258,"Multa":11259,"Ġconfiteri":11260,"Ġvocati":11261,"yrr":11262,"Ïīá¾¾":11263,"iculo":11264,"Ġleo":11265,"teret":11266,"Ġanter":11267,"Ġtruc":11268,"ĠFrancia":11269,"Ġmulierum":11270,"CTh":11271,"Ġcepit":11272,"Ġoccisus":11273,"Ġsenect":11274,"ĠBritanniae":11275,"Russ":11276,"ulfo":11277,"ĠIncarnationis":11278,"Ãµ":11279,"ĠVirgine":11280,"Ġarchidiaconi":11281,"Ġnoscuntur":11282,"firm":11283,"ĠSalomonis":11284,"Ġá½ĳÏĢ":11285,"Ġunitas":11286,"ĠPt":11287,"ĠCors":11288,"Ġextremum":11289,"Ġdaemones":11290,"Ġcalce":11291,"Ġvultu":11292,"ĠLegis":11293,"Ã¦s":11294,"Ġaccipiunt":11295,"ĠMartino":11296,"Tandem":11297,"Ġcognoscat":11298,"Ġconcessum":11299,"TER":11300,"pit":11301,"Ġextit":11302,"ĠVilla":11303,"Ġ1984":11304,"ebor":11305,"Ġconscientiae":11306,"ĠMuseum":11307,"Ġsuppos":11308,"Ġnobiles":11309,"Ġevas":11310,"Ġnasci":11311,"any":11312,"Ġimpedi":11313,"Ġimpiorum":11314,"tique":11315,"ĠNeap":11316,"ĠRedemptoris":11317,"ĠAurei":11318,"XVIII":11319,"ocum":11320,"Ġspeci":11321,"Ġinnumer":11322,"ĠAmen":11323,"Ġsociis":11324,"ĠScip":11325,"ĠSeverus":11326,"ĠCond":11327,"Ġmortific":11328,"Ġvincula":11329,"Ġpectus":11330,"Ġinha":11331,"ĠCos":11332,"Ġdecreto":11333,"Imp":11334,"Ġsugges":11335,"abas":11336,"Ġintravit":11337,"Ġquibuslibet":11338,"Ġpand":11339,"ectioni":11340,"ĠJerosolym":11341,"Ġconstring":11342,"Ġverius":11343,"Ġreliqui":11344,"ĠMartinus":11345,"Scriptum":11346,"Proc":11347,"Ġduci":11348,"Ġfacientes":11349,"ÏĥÎ¹Î½":11350,"ties":11351,"Ġauditis":11352,"Ġconcordiam":11353,"Ġarchip":11354,"Ġlapis":11355,"ipublicae":11356,"Ġperl":11357,"Ġsubti":11358,"Ġpotui":11359,"Ġiidem":11360,"ĠQuis":11361,"Ġsonat":11362,"Ġpredecess":11363,"ms":11364,"ĠSeb":11365,"Ġsept":11366,"ĠMas":11367,"arrac":11368,"euntes":11369,"erne":11370,"Ġdomui":11371,"Ġclamat":11372,"Ġobedire":11373,"ĠNederland":11374,"ĠFred":11375,"ĠEpiscopi":11376,"Cal":11377,"Ġpraedix":11378,"dicit":11379,"Ġignomin":11380,"Ġefficitur":11381,"Ġservitutis":11382,"ÏĦÎ¹":11383,"Ġevoc":11384,"Adhuc":11385,"Ġsuccessorum":11386,"Ġsuperiori":11387,"Liber":11388,"verunt":11389,"Ġ>":11390,"Ġcibus":11391,"ĠTheoph":11392,"Oxford":11393,"icensis":11394,"edis":11395,"YM":11396,"SS":11397,"omum":11398,"Ġvoluerunt":11399,"bert":11400,"Ġveniret":11401,"Quocirca":11402,"Ġrectum":11403,"plur":11404,"Ġreligio":11405,"ĠLemov":11406,"Ġinsulam":11407,"Ġfeminae":11408,"Ġsubscripsit":11409,"edam":11410,"Ġteneat":11411,"Ġdonatio":11412,"quippe":11413,"Ġliberat":11414,"Ġ75":11415,"Ġejusmodi":11416,"Ġfortes":11417,"Ġcognita":11418,"Ġian":11419,"Ġve":11420,"ectibus":11421,"ebamus":11422,"Ha":11423,"emon":11424,"imper":11425,"CONS":11426,"ĠLucas":11427,"2008":11428,"ĠIsaias":11429,"Ġmix":11430,"Ġullus":11431,"etam":11432,"ĠterrÃ¦":11433,"idiae":11434,"esserit":11435,"Ġactionis":11436,"ĠApostolorum":11437,"ipe":11438,"Ġgeh":11439,"ugh":11440,"Ġversu":11441,"Ġsodalis":11442,"Ġfini":11443,"ĠquÃ¦dam":11444,"Ġutilitate":11445,"Ġmaiorem":11446,"ĠJulii":11447,"Steph":11448,"Ġprovidentia":11449,"Ġsacerdotium":11450,"Ġbasilica":11451,"ĠQuadrages":11452,"Mus":11453,"Ġabomin":11454,"oniorum":11455,"Ġanathema":11456,"ĠNatur":11457,"ĠBrug":11458,"ĠGaius":11459,"olphus":11460,"aeis":11461,"Ġ89":11462,"struc":11463,"Ġcircumc":11464,"Ġquartam":11465,"alon":11466,"Ġpellicula":11467,"Hieronym":11468,"Ġcentur":11469,"Ġanimis":11470,"Ġfurti":11471,"Ġconsequi":11472,"ĠDor":11473,"Ġprofund":11474,"ĠVall":11475,"Ġimperat":11476,"Ġdimisit":11477,"Ġcruci":11478,"Ġdecus":11479,"Ġpoteris":11480,"Ġmulieribus":11481,"2014":11482,"ĠÎ¿":11483,"Ġvideant":11484,"Ġhereditatis":11485,"iendum":11486,"Ð´":11487,"ĠAfricae":11488,"ĠPall":11489,"obrem":11490,"Ġcerti":11491,"Ġcuc":11492,"Ġoblivisc":11493,"Ġmoli":11494,"Ġdominio":11495,"Ġdonationis":11496,"Ġprecip":11497,"Ġcriminis":11498,"Ġexire":11499,"IUS":11500,"Ġtenebrae":11501,"Î¿á½»":11502,"ĠOmn":11503,"ĠEc":11504,"Ġconval":11505,"ĠCari":11506,"ED":11507,"ĠDac":11508,"issimorum":11509,"Joannes":11510,"Ġmoer":11511,"Ġinser":11512,"Ġnatis":11513,"entissimus":11514,"ibiles":11515,"Ġlamp":11516,"Ġplate":11517,"Ġrecessit":11518,"ĠTheodosius":11519,"Ġacceptum":11520,"ientem":11521,"ĠLutetiae":11522,"ĠNa":11523,"Ġfueris":11524,"ĠLegati":11525,"Ġmen":11526,"Ġseqq":11527,"Ġiracund":11528,"ĠBos":11529,"ĠNicolai":11530,"Ġnoverit":11531,"Ġvivens":11532,"Ġpraefectus":11533,"ulem":11534,"ĠUbi":11535,"Ġreprehens":11536,"Ġfuturae":11537,"ĠCorp":11538,"Ġgravius":11539,"Ġfalso":11540,"Ġtradita":11541,"Ġlacrim":11542,"quebantur":11543,"//":11544,"Â§":11545,"Ġcaptus":11546,"ricius":11547,"Ġdimic":11548,"Ġpedum":11549,"Ġauctoris":11550,"Hodie":11551,"dere":11552,"ivum":11553,"Ġinibi":11554,"Ġapost":11555,"Ġanimabus":11556,"Ġordinatus":11557,"Ġaccepisse":11558,"Ġsubditur":11559,"ĠLitterae":11560,"SAN":11561,"Ġferunt":11562,"ĠCath":11563,"Ġsty":11564,"xx":11565,"Ġiniuriam":11566,"har":11567,"ĠSur":11568,"Ġcoactus":11569,"Ġsaev":11570,"ĠHibern":11571,"Ġnegl":11572,"Ġfacienda":11573,"ĠProvinciae":11574,"Ġfaut":11575,"ĠGO":11576,".).":11577,"ÎµÎ»":11578,"Ġsuccessor":11579,"ĠInsulae":11580,"Ġgraec":11581,"Ġsani":11582,"Ġ86":11583,"Ġmagistrat":11584,"usta":11585,"Ġ61":11586,"Ġpraedicare":11587,"Ġliv":11588,"Ġpericulis":11589,"Ġcetero":11590,"TA":11591,"Ġmathemat":11592,"Ġclaust":11593,"ĠMagnus":11594,"ÏĥÎº":11595,"ĠSabaudiae":11596,"Ġdura":11597,"Ġadnot":11598,"Ġstella":11599,"sam":11600,"Ġarrog":11601,"Ġdesignatur":11602,"Ġaudiunt":11603,"ĠAgr":11604,"Ġburg":11605,"Ġabsur":11606,"ĠTrinitate":11607,"Ġredditus":11608,"Ġtristitia":11609,"ectiones":11610,"Ġitineris":11611,"iller":11612,"Ġresip":11613,"Ġsenatu":11614,"Ġnonnulla":11615,"uter":11616,"Ġcomites":11617,"ĠprÃ¦st":11618,"Ġforo":11619,"2016":11620,"ĠRoberti":11621,"Ġaeris":11622,"Ġnis":11623,"urate":11624,"Ġdoloris":11625,"praes":11626,"eritate":11627,"Ġviderit":11628,"Ġstipend":11629,"ĠAngeli":11630,"Domini":11631,"Eph":11632,"eorum":11633,"abilius":11634,"Ġmisericorditer":11635,"Ġsatag":11636,"ĠDonat":11637,"ĠCent":11638,"Ġindu":11639,"Ġreport":11640,"Ġacerb":11641,"Go":11642,"ĠConcil":11643,"ĠAnat":11644,"Ġsemetipso":11645,"ografico":11646,"Ġquocunque":11647,"Ġperfectionem":11648,"sk":11649,"Ġvc":11650,"Ġsupplicium":11651,"Ġreliquias":11652,"Ġfraude":11653,"Iterum":11654,"ĠByz":11655,"Ġpotestates":11656,"Ġcredentium":11657,"morum":11658,"Ġordinatione":11659,"Ġgrammat":11660,"Mont":11661,"Ġvisione":11662,"erson":11663,"Ġplang":11664,"Ġ(??":11665,"Ġcoha":11666,"Ġsanctitate":11667,"Ġpriores":11668,"ĠIuda":11669,"Ġcaeli":11670,"Ġfirmavit":11671,"untibus":11672,"avid":11673,"Ġalieni":11674,"Ġfuere":11675,"Ġprocedere":11676,"Ġpetiit":11677,"ecce":11678,"odos":11679,"ĠMic":11680,"Ġtrepid":11681,"Ġimpud":11682,"Ġnaturali":11683,"ĠVeron":11684,"ĠLaurentii":11685,"ulphus":11686,"terr":11687,"Ġvidete":11688,"Ġ1983":11689,"zionario":11690,"ĠFa":11691,"ney":11692,"ĠLibri":11693,"Philipp":11694,"Ġregimen":11695,"Asc":11696,"Ġholocaus":11697,"Ġiustitiam":11698,"Ġexigere":11699,"hor":11700,"Ġsolvit":11701,"ĠQuoniam":11702,"Ġcujuslibet":11703,"ĠSerm":11704,"Ġinstitutus":11705,"Dioecesis":11706,"Ġaliarum":11707,"Ġsubjungit":11708,"Ġligna":11709,"ĠLiderici":11710,"lie":11711,"Ġrite":11712,"Ġamico":11713,"Ġaudivi":11714,"Ġfurore":11715,"Ġadire":11716,"Ġmissis":11717,"Ġpericula":11718,"ĠFinn":11719,"axat":11720,"bri":11721,"pot":11722,"Ġpauperem":11723,"ÈĻ":11724,"estinus":11725,"Ġductus":11726,"Ġmansum":11727,"Ġmuros":11728,"uan":11729,"Ġcuique":11730,"Ġecclesiasticae":11731,"Ġregiones":11732,"Ġassist":11733,"Ġhortatur":11734,"Ġreclam":11735,"ĠSin":11736,"ĠNomen":11737,"Ġinferno":11738,"idioecesis":11739,"Ġveste":11740,"ĠCivitatibus":11741,"Ġventurus":11742,"Ġnaufrag":11743,"Ġcrast":11744,"uh":11745,"ĠMarch":11746,"Ġgeneratione":11747,"ĠSaxoniae":11748,"MUM":11749,"ogr":11750,"Ġproxima":11751,"Just":11752,"Hispanice":11753,"Ġjudicis":11754,"Ġalloqu":11755,"Ġpatriarcha":11756,"ordia":11757,"upp":11758,"Ġcommunimus":11759,"ĠÎĺ":11760,"ĠLucius":11761,"Ġuestra":11762,"ulisti":11763,"Ġfacerent":11764,"Ġoccasio":11765,"situs":11766,"anon":11767,"ĠPlin":11768,"Ġconsuet":11769,"Ġsancimus":11770,"Ġiuste":11771,"Ġvixit":11772,"Î¶":11773,"Ġinqu":11774,"Ġharum":11775,"Ġintentio":11776,"don":11777,"ecisse":11778,"Ġnavis":11779,"Ġtestimoniis":11780,"ĠMichaelis":11781,"Ġimitari":11782,"Ġscandaliz":11783,"Ambros":11784,"Ġillibata":11785,"Dico":11786,"aea":11787,"ĠEras":11788,"ĠGil":11789,"ANI":11790,"Ġtotidem":11791,"eced":11792,"antas":11793,"Ġdicentis":11794,"Ġeorumdem":11795,"Ġdeform":11796,"ĠPelliculae":11797,"achi":11798,"Ġsalvus":11799,"Ġlucrum":11800,"ĠOrigen":11801,"Ġprovinciis":11802,"Ġincumb":11803,"Ġclementer":11804,"Ġinfund":11805,"Ã©n":11806,"Ġpostrem":11807,"Ġportionem":11808,"Pon":11809,"ĠGeorgii":11810,"ĠAthen":11811,"Pra":11812,"ĠNer":11813,"Ġcredentibus":11814,"Ġdesol":11815,"Ġscribens":11816,"etibus":11817,"ularia":11818,"ĠAeth":11819,"Ġdiscrep":11820,"ĠBiographia":11821,"Ġinfest":11822,"Ġmajores":11823,"Ġlapidibus":11824,"ituper":11825,"Ġmodi":11826,"Ġpetram":11827,"ĠSerg":11828,"Ġsedet":11829,"Ġalac":11830,"itemur":11831,"Ġcing":11832,"Ġ(\"":11833,"Ġjudicat":11834,"Ġnecessitatibus":11835,"ĠIulianus":11836,"ĠCluniacensis":11837,"Ġá¼¡Î¼":11838,"ward":11839,"stein":11840,"timur":11841,"ĠFrancesco":11842,"LO":11843,"ertull":11844,"Ġderelic":11845,"Ġgladius":11846,"Ġope":11847,"Ġ78":11848,"Ġmonasteria":11849,"Ġpontifice":11850,"Ġcrimin":11851,"ĠAmal":11852,"ipotens":11853,"ĠCenom":11854,"mor":11855,"econ":11856,"ĠPedemon":11857,"Ġnoverat":11858,"Ġnumeri":11859,"Ġsingulari":11860,"Dan":11861,"XVII":11862,"annum":11863,"Ġteneatur":11864,"verat":11865,"atiz":11866,"ĠSich":11867,"ĠMedia":11868,"ĠGraecorum":11869,"Ġresistere":11870,"Ġutilis":11871,"Ġministris":11872,"ĠNational":11873,"Ġlub":11874,"Ġconcessione":11875,"ibiliter":11876,"Ġ85":11877,"Ġmandavit":11878,"Ġlegata":11879,"Ġobservare":11880,"ĠEsiae":11881,"Ġinfringere":11882,"Ġsegreg":11883,"Ġopusc":11884,"Ġiul":11885,"Ġindub":11886,"Ġpresenti":11887,"AND":11888,"isteret":11889,"ĠTornacensis":11890,"Ġexitum":11891,"ĠLet":11892,"Ġsalvum":11893,"ĠAugustinum":11894,"Ġstatuimus":11895,"hardus":11896,"Ġquaecumque":11897,"ĠAls":11898,"Ġcursus":11899,"Discip":11900,"ĠPhilippi":11901,"Ġconcupiscentia":11902,"Ġmereamur":11903,"Ð¹":11904,"enna":11905,"Ġdicerent":11906,"Ġopinio":11907,"abrigiae":11908,"113":11909,"corp":11910,"Ġerimus":11911,"Ġnotat":11912,"ĠFoederatis":11913,"ĠNot":11914,"Ġamis":11915,"ĠLatinum":11916,"Ġcognoscit":11917,"2009":11918,"Ġlegitima":11919,"Ġincarnatione":11920,"rica":11921,"Ġfecisset":11922,"Ġbenevol":11923,"ierre":11924,"Ġanathematis":11925,"esceret":11926,"ĠÃ¦dific":11927,"Ġinjuria":11928,"Ġimpetu":11929,"dubsig":11930,"Ġcultu":11931,"Ġpignus":11932,"Ġdebetis":11933,"Ġideoque":11934,"Ġdifferentia":11935,"Hos":11936,"ĠSard":11937,"Ġutinam":11938,"Ġobviam":11939,"ĠEduardus":11940,"omata":11941,"ecutus":11942,"Ġconsiliis":11943,"ĠSem":11944,"Ġpassiones":11945,"ĠDizionario":11946,"Ġdipl":11947,"Ġalum":11948,"iensium":11949,"Ġpraedicatione":11950,"ĠHinc":11951,"Ġrepl":11952,"ĠGabri":11953,"ĠSpecies":11954,"Vox":11955,"Ġaurem":11956,"ARIO":11957,"ĠHelvet":11958,"ĠPros":11959,"Ġintegro":11960,"Ġoptimum":11961,"Ġmensam":11962,"Ġscelus":11963,"anius":11964,"adio":11965,"Ġaudita":11966,"Ġemancip":11967,"Ġplurimi":11968,"Ġassumpsit":11969,"istica":11970,"Ġintelligentiam":11971,"Ġconventu":11972,"ĠTerrae":11973,"Ġaemul":11974,"nÃ¦":11975,"Ġprid":11976,"Ġesuri":11977,"ĠRaim":11978,"Camb":11979,"arat":11980,"ĠPont":11981,"ĠLic":11982,"ernae":11983,"Ġreddat":11984,"Ġresurrectio":11985,"Ġsicc":11986,"Ġredit":11987,"Ġsequentes":11988,"Ġstudios":11989,"udicium":11990,"iniani":11991,"Ġextremo":11992,"exa":11993,"Ġducentesimo":11994,"ĠÎ´á½²":11995,"ttp":11996,"Ġsorte":11997,"Ġexitus":11998,"Ġvivo":11999,"olio":12000,"Ġnotae":12001,"Ġarchit":12002,"iacus":12003,"Ġiniquitates":12004,"ski":12005,"Ġoccidere":12006,"Ġconciliabulum":12007,"ĠAz":12008,"Ġcaeteros":12009,"Alioquin":12010,"ĠEPISTOLA":12011,"urc":12012,"Ġinfelic":12013,"Ġantiquo":12014,"ĠYork":12015,"Ġventurum":12016,"Ġpatienter":12017,"alyp":12018,"app":12019,"rates":12020,"Ġconfite":12021,"Ġcuriam":12022,"Ġevacu":12023,"ectura":12024,"ĠTab":12025,"Ġspecul":12026,"Ġdamna":12027,"Ġcommunia":12028,"Ġviventium":12029,"Ġloquar":12030,"Ġcrucifixus":12031,"Ġexercit":12032,"Ġspolia":12033,"ĠInt":12034,"Ġsollicite":12035,"enon":12036,"Ġeique":12037,"Ġeumque":12038,"Ġtenent":12039,"Ġortum":12040,"ĠAlpium":12041,"Ġdato":12042,"Ġpredicto":12043,"Ġdecani":12044,"Ġtimet":12045,"Ġexigit":12046,"ĠHebraeo":12047,"Ġbibliothec":12048,"Ġdc":12049,"cha":12050,"Ġingenium":12051,"embri":12052,"Ġtorp":12053,"Ġaperta":12054,"Ġascrib":12055,"potest":12056,"iang":12057,"Ġreum":12058,"Ġinveniuntur":12059,"ĠMatisc":12060,"esbyter":12061,"Ġenarr":12062,"Ġpraedictus":12063,"Ġmira":12064,"Tamen":12065,"for":12066,"ĠSus":12067,"Ġterrest":12068,"ĠSirm":12069,"Ġincurs":12070,"Ġmemorie":12071,"Ġpraecepto":12072,"orph":12073,"ĠBeda":12074,"Ġderelinqu":12075,"Ġsatisfactione":12076,"Ġfum":12077,"vac":12078,"Ġsignificare":12079,"ĠGalliae":12080,"Ġmeliorem":12081,"Ġcohort":12082,"Ġservitio":12083,"Ġ99":12084,"ĠRegnum":12085,"oties":12086,"ĠArt":12087,"1997":12088,"Ġpaululum":12089,"ĠAristot":12090,"Ġutramque":12091,"ĠnaturÃ¦":12092,"ĠAgrip":12093,"Ġdimittere":12094,"Ġdisser":12095,"enes":12096,"Ġopes":12097,"Ġspeciali":12098,"ĠWillelmi":12099,"ĠLan":12100,"uitas":12101,"Ġfaciebat":12102,"Ġrequie":12103,"Ġincons":12104,"Ġhaereticos":12105,"Unum":12106,"âĦŁ":12107,"Ġpossibile":12108,"Ġagri":12109,"Ġhumanitatem":12110,"Ġmig":12111,"Ġcopiis":12112,"Ġpastores":12113,"Ġprocurator":12114,"Ass":12115,"ĠSant":12116,"Ġidipsum":12117,"ĠSeptentrionis":12118,"chis":12119,"Ġabbates":12120,"Ġconsequenter":12121,"Ġdesignat":12122,"Ġcultus":12123,"ĠSicilia":12124,"asa":12125,"Ġtotis":12126,"Ġminima":12127,"Ġquaerunt":12128,"Ġscripsi":12129,"Ġelementa":12130,"Ġcertis":12131,"ĠÏĢÏģÎ¿":12132,"ĠNica":12133,"ife":12134,"Ġpraestat":12135,"HD":12136,"Ġnunt":12137,"oldi":12138,"Ġdesertum":12139,"Ġsomno":12140,"ĠNoe":12141,"ĠPorta":12142,"Ġmorbo":12143,"Francogallice":12144,"rate":12145,"Ġparad":12146,"ĠOth":12147,"Ġaspici":12148,",'":12149,"Ġalti":12150,"Ġigni":12151,"Ġconveniunt":12152,"ĠXXXIII":12153,"abill":12154,"Ġcoop":12155,"Ann":12156,"Ġprofectum":12157,"Bal":12158,"licet":12159,"Ġconsortio":12160,"Ġinesse":12161,"ĠAlex":12162,"Ġindicans":12163,"Ġlax":12164,"Ġconstanter":12165,"Ġperit":12166,"athan":12167,"Insuper":12168,"Ġdeclarat":12169,"viv":12170,"icat":12171,"ĠAli":12172,"Ġagat":12173,"120":12174,"ĠImperium":12175,"over":12176,"ĠSuperior":12177,"Ġabundantia":12178,"ausa":12179,"Ġmagnitudinem":12180,"uro":12181,"Ġpatiatur":12182,"scrut":12183,"Ġlatr":12184,"Ġacceperat":12185,"ĠTrinitas":12186,"Henricus":12187,"utia":12188,"ilum":12189,"ĠSag":12190,"Ġperfici":12191,"Ġsequens":12192,"Ġmajoris":12193,"Civ":12194,"Nota":12195,"opulus":12196,"Gaud":12197,"elmum":12198,"ĠNig":12199,"Ġopem":12200,"Ġcarnes":12201,"ĠGualter":12202,"Ġsuperbiae":12203,"ĠRobert":12204,"Ista":12205,"As":12206,"los":12207,"Ġaddic":12208,"Ġexprob":12209,"agesimo":12210,"Ġjugum":12211,"ĠDionysii":12212,"VS":12213,"Ġrug":12214,"Ġelectis":12215,"Ġcx":12216,"ĠBuc":12217,"Ġuniverso":12218,"Ġoblatione":12219,"],":12220,"ĠQua":12221,"Ġprovidere":12222,"ĠMagn":12223,"ĠVenet":12224,"ĠBurgundia":12225,"Ġsuperna":12226,"Ġobservari":12227,"Flor":12228,"Her":12229,"apostol":12230,"Ġhabentem":12231,"Ġmembrum":12232,"Ġeleemosyn":12233,"inemus":12234,"Ġsequatur":12235,"ĠPRO":12236,"erdin":12237,"imm":12238,"ilitatis":12239,"Mand":12240,"Ġangelo":12241,"ittis":12242,"ĠCret":12243,"Ġapostolum":12244,"Ġcogitationibus":12245,"sisse":12246,"Ġinsequ":12247,"Ġalb":12248,"Ġintulit":12249,"Ġmunda":12250,"Ġaccipiens":12251,"Ġaudientes":12252,"Pret":12253,"Ġinteritum":12254,"Ġartem":12255,"ĠÃī":12256,"Ġsponsus":12257,"Ġnotam":12258,"poss":12259,"Ġuniversitatis":12260,"ĠTHEO":12261,"ster":12262,"Princip":12263,"Ġtabulas":12264,"Ġplacitum":12265,"Scripta":12266,"ĠSeptentrionalis":12267,"Mac":12268,"ulisset":12269,"Ġparati":12270,"Ġdonamus":12271,"Ġsolius":12272,"Ġpalatio":12273,"ĠPicardia":12274,"Pom":12275,"oe":12276,"Ġpresbyteris":12277,"Ġsuscipit":12278,"Ġconfitetur":12279,"Ġutuntur":12280,"ENSIS":12281,"comm":12282,"ĠEle":12283,"Ġversic":12284,"Primus":12285,"Ġappellationis":12286,"Ġhumiles":12287,"Uniuers":12288,"quanto":12289,"Ġinscrib":12290,"Ġprofundum":12291,"Ġcastellum":12292,"Ġabsolute":12293,"emum":12294,"Ġcollata":12295,"Ġarbor":12296,"ĠSalvatorem":12297,"Ïİ":12298,"Ġidus":12299,"Ġmediae":12300,"ennio":12301,"Ġfacinus":12302,"Ġfacite":12303,"Ġiun":12304,"ĠEcclesiast":12305,"Ġscientes":12306,"idos":12307,"che":12308,"Ġvulgatis":12309,"Ġextrema":12310,"Ġconsuevit":12311,"Ġconsulatum":12312,"ONE":12313,"Ġconsequens":12314,"Ġcomitissa":12315,"Fanum":12316,"usto":12317,"Ġlitem":12318,"undam":12319,"Ġminores":12320,"Ġrevocare":12321,"Ġtaed":12322,"ronom":12323,"Ġsupplicio":12324,"Ġsubstanti":12325,"ye":12326,"Ġabdic":12327,"del":12328,"uil":12329,"Ġnefas":12330,"ĠRatis":12331,"arumque":12332,"Ġindicium":12333,"Ġinsidiis":12334,"ĠLinguae":12335,"avus":12336,"Ġinflam":12337,"Ġperinde":12338,"Ġjun":12339,"Ġamput":12340,"Ġmiraculum":12341,"ĠPublish":12342,"utio":12343,"Ġamo":12344,"Ġpossed":12345,"Ġsolidum":12346,"Ġ1976":12347,"Ġignorat":12348,"hon":12349,"Ġdiversas":12350,"Ġmansit":12351,"aff":12352,"Ġdatis":12353,"Ġmeritorum":12354,"Ġfing":12355,"ĠRup":12356,"Ġadditur":12357,"stad":12358,"Ġalim":12359,"ĠOpp":12360,"Ġdiabol":12361,"Ġduplex":12362,"Mort":12363,"ĠNovae":12364,"Ġbarbar":12365,"ĠAus":12366,"ĠAUG":12367,"Ġmajori":12368,"Î¼Î±ÏĦ":12369,"Ġaequalis":12370,"Ã±":12371,"Ġistorum":12372,"1998":12373,"Ġvolebat":12374,"Ġsalutaris":12375,"Ġsynagog":12376,"Ġexamine":12377,"Ġ79":12378,"vic":12379,"Ġrud":12380,"ĠPot":12381,"Ġeditionis":12382,"Ġmargine":12383,"Ġdicas":12384,"Ġcontentus":12385,"Ġplenitudinem":12386,"Ġdefensione":12387,"Ġiustic":12388,"antio":12389,"Ġvotis":12390,"aso":12391,"ĠUrbs":12392,"á¾¶":12393,"ks":12394,"Ġporr":12395,"essio":12396,"ĠAquil":12397,"odii":12398,"Ġspel":12399,"Ġstuduit":12400,"Ġfilias":12401,"aberis":12402,"istat":12403,"Ġretrib":12404,"Ġministros":12405,"Ġfauc":12406,"Ġterg":12407,"Ġdelicta":12408,"Ġpermisit":12409,"Ġerg":12410,"Ġingenti":12411,"abitis":12412,"illy":12413,"Ġby":12414,"Ġmensa":12415,"Ġconatus":12416,"Ġcohib":12417,"Ġnumeros":12418,"Ġpactum":12419,"Ġdedimus":12420,"Ġcustos":12421,"van":12422,"isa":12423,"Ġpingu":12424,"Ġdecip":12425,"ĠArelat":12426,"Ġfontes":12427,"Ġconculc":12428,"Ġimpressione":12429,"Iam":12430,"umento":12431,"Ġcun":12432,"Ġpridem":12433,"Ġrati":12434,"Ġsentit":12435,"Theodisce":12436,"Ġoppugn":12437,"edum":12438,"Ġtelev":12439,"Filii":12440,"exerunt":12441,"Ġparatum":12442,"Abb":12443,"Ġbas":12444,"ĠAnna":12445,"Ġoblitus":12446,"terium":12447,"allus":12448,"ietas":12449,"Ġprocessit":12450,"Ġordinationem":12451,"ĠBaptis":12452,"ĠNost":12453,"ĠCarolo":12454,"Ġxxx":12455,"Gra":12456,"cra":12457,"Ġabrog":12458,"Ġposteris":12459,"Ġconsule":12460,"Isti":12461,"ulgo":12462,"Ġadver":12463,"Ġobd":12464,"Ġhonoribus":12465,"Ġsymb":12466,"Ġsubrep":12467,"Ġ74":12468,"Ġclementiam":12469,"Ġmalign":12470,"exerit":12471,"ĠmeÃ¦":12472,"Ġtalium":12473,"Ġservitium":12474,"Ġliberavit":12475,"Ġcircuit":12476,"Ġmajoribus":12477,"acet":12478,"Ġutilitas":12479,"Ġvestibus":12480,"ige":12481,"Ġportum":12482,"Ġfundo":12483,"ĠTestamento":12484,"Ġaliquatenus":12485,"Ġmuneris":12486,"Ġsorores":12487,"Ġausu":12488,"ism":12489,"ĠGra":12490,"Ġipsae":12491,"ĠAsiae":12492,"Ġnuptiis":12493,"ĠNO":12494,"Ġcoelestem":12495,"Ġchem":12496,"aper":12497,"Ġperire":12498,"adj":12499,"Ġtimoris":12500,"Ġargento":12501,"ĠCatholic":12502,"Ġindulgentiam":12503,"Ġperfr":12504,"entione":12505,"ĠAlias":12506,"Ġgenerationem":12507,"Ġinnov":12508,"ĠHelvetiae":12509,"ĠDig":12510,"Ġnolunt":12511,"Ġhaereticis":12512,"Ġviolenter":12513,"MART":12514,"Ġfortitudinem":12515,"Ġcustodit":12516,"ĠOrbis":12517,"ĠHub":12518,"ulier":12519,"Ġdenunti":12520,"Ġrogamus":12521,"Ġavaritia":12522,"Ġregiam":12523,"Ġris":12524,"ĠGreg":12525,"Ġproclam":12526,"Ġhabitant":12527,"Ġpurific":12528,"ĠBau":12529,"Ġaccedit":12530,"ĠÎł":12531,"Ġpersecutionem":12532,"unensi":12533,"Ġsinistram":12534,"Ġna":12535,"Ġsecuri":12536,"Ġlabiis":12537,"Ġbaptismatis":12538,"spir":12539,"ĠPass":12540,"Ġcadav":12541,"Ġqualitate":12542,"Ã²":12543,"Ġdivulg":12544,"Ġfamam":12545,"Ġabsunt":12546,"ĠEccli":12547,"ĠWe":12548,"Ġcuravit":12549,"Caput":12550,"EV":12551,"Ġces":12552,"Ġvoto":12553,"omnibus":12554,"Ġincogn":12555,"Ġmilitis":12556,"ĠScripta":12557,"Ġ1971":12558,"Ġadiuv":12559,"iad":12560,"Ġsaecularis":12561,"Susc":12562,"issemus":12563,"Ġnominatus":12564,"Ġconstitutionem":12565,"Ġbasilicam":12566,"sex":12567,"Ġdunt":12568,"Ġsolito":12569,"Ġnovus":12570,"ĠMaritimae":12571,"ĠSoph":12572,"ĠProfess":12573,"Augustinus":12574,"minis":12575,"Ïģá½·":12576,"ĠInnocentii":12577,"aculorum":12578,"Ġpleni":12579,"ultura":12580,"ĠÏĦá½¸Î½":12581,"ĠDubis":12582,"ĠMaximus":12583,"Isai":12584,"uncto":12585,"Ġacies":12586,"2012":12587,"ĠCarol":12588,"Testes":12589,"Ġlibrarum":12590,"Î¿á¿ĸ":12591,"Ġmonasteriis":12592,"Ġgratul":12593,"ĠArmen":12594,"Ġaccept":12595,"ĠREG":12596,"Ġabol":12597,"Ġamicorum":12598,"Ġproxime":12599,"Ġsufficiat":12600,"Ġzelo":12601,"ĠMes":12602,"rific":12603,"PrÃ¦":12604,"ĠInterret":12605,"osae":12606,"ĠClassis":12607,"Ġbaptismi":12608,"ĠFlorent":12609,"ĠDictionary":12610,"Ġequitum":12611,"Ġservitute":12612,"Ġcarmen":12613,"Cursus":12614,"iebant":12615,"Ġdatam":12616,"itato":12617,"Ġamant":12618,"ĠTestamentum":12619,"anii":12620,"Ġhaer":12621,"Ġpromissionis":12622,"Ġvituper":12623,"Ġdeesse":12624,"Ġscis":12625,"Ġ73":12626,"Ġcomparatione":12627,"Ġ1861":12628,"Ġvico":12629,"Ġcoeperit":12630,"XV":12631,"ĠFulc":12632,"Ġsummus":12633,"Ġpraesidium":12634,"Ġtenentur":12635,"Ġvivendi":12636,"Ġdeport":12637,"Ġtorqu":12638,"Ġpacifice":12639,"ĠHis":12640,"Ġfaciamus":12641,"Ġmalitiam":12642,"Ġsalvos":12643,"Î¿ÏħÏĤ":12644,"Ġrom":12645,"ĠMosc":12646,"Ġmandati":12647,"Ġdimis":12648,"Ġconjung":12649,"ENSI":12650,"Ġliquet":12651,"enne":12652,"ĠCli":12653,"Ġvenientem":12654,"arist":12655,"ĠCore":12656,"Ġagrum":12657,"Ġmariti":12658,"Ġcuiquam":12659,"ves":12660,"verit":12661,"ĠTo":12662,"ĠDemetr":12663,"Nulli":12664,"fug":12665,"Ġcli":12666,"Ġpuero":12667,"Î±Î¸":12668,"urrere":12669,"Ġsinistra":12670,"ĠAL":12671,"Ġbov":12672,"Ġexclam":12673,"Ġerrores":12674,"Ġexhibet":12675,"Har":12676,"ensas":12677,"oniis":12678,"ĠVil":12679,"Ġrecol":12680,"estiis":12681,"ĠFlum":12682,"ĠÎĺÎµ":12683,"Ġnexus":12684,"Ġdiluv":12685,"Ġrectores":12686,"Ġrestituit":12687,"Ġindignum":12688,"Ġsollicitus":12689,"Eapropter":12690,"PER":12691,"Ġstruc":12692,"Ġdivinitas":12693,"Ġprincipi":12694,"Ġnocere":12695,"Ġlacrymas":12696,"ĠSod":12697,"aturae":12698,"Ġactor":12699,"Ġinclud":12700,"Ġpossitis":12701,"Ġ95":12702,"Ġurbi":12703,"Ġdissolv":12704,"Ã³n":12705,"Ġfrumenti":12706,"AUG":12707,"Ġcontendit":12708,"Ġpredicte":12709,"ĠBadeniae":12710,"ivus":12711,"Ġcirculus":12712,"Ġsperare":12713,"Ġcolor":12714,"Ġpromittit":12715,"ĠOlymp":12716,"ĠOrientalis":12717,"Ġquanti":12718,"Ġsignificant":12719,"ĠSuess":12720,"icium":12721,"Ġfecund":12722,"Ġinvic":12723,"Ġoperatus":12724,"Ath":12725,"ĠDer":12726,"Ġrespectu":12727,"iew":12728,"Ġcollocatio":12729,"Ġregiae":12730,"Ġcarnalibus":12731,"Ġnegleg":12732,"Ġloquimur":12733,"Ġconstitutionis":12734,"Ġcupiditate":12735,"Ġflumine":12736,"Ġcopiam":12737,"Ġdiscretiva":12738,"David":12739,"Ġdigest":12740,"ĠJunii":12741,"Pers":12742,"Ġpercut":12743,"Ġarca":12744,"Ġcommemorat":12745,"chi":12746,"Ġpermittit":12747,"Ġconsideratione":12748,"eramus":12749,"ĠSicut":12750,"ĠVerbo":12751,"Ġnutri":12752,"ĠOffic":12753,"Ġveterem":12754,"Ġplantarum":12755,"uero":12756,"Ġperperam":12757,"separ":12758,"Ġviventes":12759,"Ġgregis":12760,"ĠOmnes":12761,"ĠVeritas":12762,"ĠprÃ¦f":12763,"ĠComm":12764,"icesimo":12765,"archy":12766,"Merito":12767,"ĠMedic":12768,"Ġconson":12769,"def":12770,"ĠElias":12771,"Ġcognovimus":12772,"Ġfeodum":12773,"sil":12774,"Ġ1945":12775,"Ġprimitus":12776,"Ġfortitudine":12777,"ATIS":12778,"Fl":12779,"Ga":12780,"veg":12781,"Ġhy":12782,"illes":12783,"Ġaudierunt":12784,"Ġ1974":12785,"Ġassidue":12786,"Ġartibus":12787,"Ġpraefatum":12788,"Ġregnare":12789,"itii":12790,"ÑģÐº":12791,"Vet":12792,"ick":12793,"Ġperdidit":12794,"ĠCicero":12795,"elt":12796,"ĠAE":12797,"Ġdixerim":12798,"Ġpercussit":12799,"Ġpraerog":12800,"pas":12801,"quamvis":12802,"Sine":12803,"Ġherede":12804,"ĠPlan":12805,"ĠPhilippo":12806,"Ġclarific":12807,"Ġdivitiarum":12808,"Ġiratus":12809,"aneum":12810,"Ġfirmitatem":12811,"Ġdiscipulorum":12812,"Ġaurea":12813,"Soc":12814,"Ġpomp":12815,"Ġdabitur":12816,"unl":12817,"ĠPast":12818,"ĠSynagog":12819,"Ġpostremo":12820,"Ġscriptores":12821,"Ġ72":12822,"plor":12823,"Ġsocius":12824,"1999":12825,"Sancti":12826,"Antiph":12827,"Ġnerv":12828,"ĠJac":12829,"Ġcongrua":12830,"Lingua":12831,"entas":12832,"Ġcartam":12833,"habet":12834,"cemodi":12835,"veniat":12836,"trans":12837,"Ġpatrocinio":12838,"ĠHir":12839,"igny":12840,"ĠAugusta":12841,"Mem":12842,"Ġses":12843,"Ġmigr":12844,"Petri":12845,"Ġbab":12846,"Ġaliunde":12847,"Ġgenu":12848,"Recte":12849,"yris":12850,"Ġdiligunt":12851,"Ġportae":12852,"Nesc":12853,"ĠSymm":12854,"itanice":12855,"ĠSecund":12856,"Ġtradere":12857,"stituta":12858,"Ġinuen":12859,"Ġquanquam":12860,"ĠSeg":12861,"Ġdonis":12862,"Ġinvidiam":12863,"ĠCad":12864,"New":12865,"Cas":12866,"Ġrepon":12867,"Cont":12868,"Î·Î½":12869,"2011":12870,"John":12871,"Verba":12872,"Ġcornu":12873,"Ġsauc":12874,"Ġalto":12875,"Ġpascuis":12876,"ĠArm":12877,"ĠMol":12878,"Ġdecur":12879,"Annis":12880,"Ġvivat":12881,"Ġiudicis":12882,"Ġdedisse":12883,"umbr":12884,"Ġproposuit":12885,"Ġingenii":12886,"ĠCount":12887,"grat":12888,"Ġpio":12889,"ĠAndeg":12890,"Ã¼n":12891,"Ġmeliora":12892,"101":12893,"hanc":12894,"ĠFrat":12895,"ĠMatthaeus":12896,"Ġsibimet":12897,"isto":12898,"Ġodit":12899,"ĠAegyptum":12900,"Gloria":12901,"ĠValle":12902,"Ġprofutura":12903,"Ġimportun":12904,"Ġaddunt":12905,"Ġsororem":12906,"Ġlector":12907,"Reli":12908,"ĠCn":12909,"ĠAet":12910,"Ġsolebat":12911,"Ġsacrificia":12912,"Ġvidebitur":12913,"à¥":12914,"Ġmaioris":12915,"Ġhodiernarum":12916,"PI":12917,"ĠAust":12918,"ĠSec":12919,"ĠLoc":12920,"ARD":12921,"Ġtep":12922,"Ġrc":12923,"Ġsciendum":12924,"ommut":12925,"Ġprudentiam":12926,"Ġá½ħ":12927,"ĠLiger":12928,"Ġiussu":12929,"Omne":12930,"Ġimagines":12931,"Ġquotiens":12932,"Habet":12933,"ĠFoederalis":12934,"Ġobsecro":12935,"Ġlitt":12936,"Ġseries":12937,"Met":12938,"uunt":12939,"Ġaliquant":12940,"Ġfugere":12941,"Ġnumquid":12942,"ĠPhilip":12943,"Will":12944,"Ġpassio":12945,"Ġdevot":12946,"Ġtextum":12947,"Ġillarum":12948,"Ġprava":12949,"han":12950,"ontis":12951,"ĠPhys":12952,"odio":12953,"Ġ1946":12954,"Ġlaudare":12955,"Ġmachin":12956,"Ġincipi":12957,"Ġhereditas":12958,"Ġdamnatus":12959,"Ġvesc":12960,"ĠUniversitas":12961,"Ġfraternitati":12962,"LE":12963,"inan":12964,"Ġconstet":12965,"Ġcredatur":12966,"Ġproposita":12967,"Ġnativitatis":12968,"Ġquietem":12969,"Ġexpedi":12970,"Ġnaves":12971,"Ġcancellarius":12972,"Ġdignoscitur":12973,"opus":12974,"Ġ71":12975,"TORI":12976,"ĠBritannia":12977,"uccess":12978,"sine":12979,"Ġresign":12980,"ĠOctav":12981,"cod":12982,"Ġfelix":12983,"ĠBull":12984,"Ġlinguarum":12985,"Ġcuidam":12986,"Ġpositis":12987,"ĠNationalem":12988,"Evangeli":12989,"Lud":12990,"Ġparticeps":12991,"ĠBartholom":12992,"Sec":12993,"quatenus":12994,"obr":12995,"Ġincertum":12996,"ĠJudas":12997,"ĠCoel":12998,"Infra":12999,"ulsi":13000,"Ġstabilis":13001,"Ġsimilitudo":13002,"Ġproprietatem":13003,"Ġdextra":13004,"Ġdiac":13005,"lion":13006,"Ġconfestim":13007,"Cass":13008,"Ġsuburb":13009,"Ġlaicis":13010,"Ġmortalium":13011,"veniens":13012,"Ġagros":13013,"ipiens":13014,"Ġcomme":13015,"spect":13016,"Ġelaboratus":13017,"agen":13018,"Ġexped":13019,"Sex":13020,"ĠTex":13021,"ried":13022,"Ġloquendi":13023,"Ġrelinquere":13024,"ilit":13025,"á½Ĳ":13026,"ĠÏĦá½°":13027,"CCC":13028,"Ġcere":13029,"Ġvall":13030,"ĠJudic":13031,"Quisquis":13032,"www":13033,"ĠGuillelmus":13034,"atarum":13035,"Ġinfirmitatis":13036,"Ġcoti":13037,"Ġcapta":13038,"Ġ87":13039,"Ġcastro":13040,"ESI":13041,"Ġpraetorio":13042,"iatis":13043,"Ġpraedicatur":13044,"Ġmoram":13045,"Ġdeprehend":13046,"ĠStephano":13047,"Ġultimo":13048,"Ġcancellarii":13049,"Ġtram":13050,"Ġath":13051,"Cantabrigiae":13052,"kins":13053,"Ġfisco":13054,"ĠÅĤ":13055,"On":13056,"Ġpom":13057,"Ġhe":13058,"Ġpraesente":13059,"Ġfierent":13060,"Ġcriminibus":13061,"unn":13062,"ĠIter":13063,"ĠAld":13064,"Ġdominice":13065,"bertum":13066,"Ġferrum":13067,"Ġsanitatem":13068,"Ġsumpsit":13069,"Ġrab":13070,"Ġconsulibus":13071,"Ġcharissime":13072,"Ġtribulationibus":13073,"Ġintentionem":13074,"ĠCicer":13075,"Ġopprobrium":13076,"Nulla":13077,"Ġpour":13078,"Ġinsist":13079,"Ġsingularis":13080,"Ġaduersus":13081,"Ġmusc":13082,"Ġui":13083,"ertit":13084,"Ġá¼ĢÎ½":13085,"Ġinquiunt":13086,"acuit":13087,"ectig":13088,"Ġaeterno":13089,"Videte":13090,"lorum":13091,"Ġplor":13092,"Ġcontag":13093,"fruc":13094,"Ġrepetit":13095,"Ġpraedicatores":13096,"iuid":13097,"Ġauxilia":13098,"Paul":13099,"Melius":13100,"atÃ¦":13101,"Ġcorusc":13102,"Ġcorrep":13103,"Ġconfessionis":13104,"CUS":13105,"Ġvelint":13106,"ĠPrud":13107,"Ġdederat":13108,"Ġodorem":13109,"Ġrelictis":13110,"olast":13111,"Ġonera":13112,"Ġduntaxat":13113,"Ġquing":13114,"Ġvisionem":13115,"iscere":13116,"á½³Ïģ":13117,"Ġsecreto":13118,"Virg":13119,"Ġdicet":13120,"Ġeamque":13121,"ĠDecret":13122,"Ġcadit":13123,"Terra":13124,"Ġfoss":13125,"Ġpoet":13126,"pers":13127,"Ġidque":13128,"Ġnotandum":13129,"Ġinimicum":13130,"Ġprotest":13131,"Ġproprii":13132,"Ġlocuplet":13133,"Auc":13134,"aug":13135,"Ġcognitione":13136,"esque":13137,"Ġ1975":13138,"ĠPraemium":13139,"oa":13140,"erub":13141,"Ġexag":13142,"ĠSup":13143,"Ġoculo":13144,"Ġmonachum":13145,"Ġfuturus":13146,"Ġeram":13147,"Ġcomprehens":13148,"ĠOrdo":13149,"Ġsacramenti":13150,"Ġmaiores":13151,"riam":13152,"Ġsuperiore":13153,"Magna":13154,"Cuius":13155,"Namque":13156,"fecit":13157,"ĠCrem":13158,"Ġprophetia":13159,"2015":13160,"Ġfraudem":13161,"Martin":13162,"mes":13163,"ulata":13164,"2013":13165,"Ġadjutorium":13166,"ij":13167,"Ġboc":13168,"Anton":13169,"Ġdaemonum":13170,"ĠJohannis":13171,"Ġago":13172,"ĠCXXX":13173,"140":13174,"Ġpoenis":13175,"ĠsÃ¦culi":13176,"ĠJustinianus":13177,"Ġpep":13178,"oler":13179,"endio":13180,"ĠDavide":13181,"Ġsuscipimus":13182,"agi":13183,"Ġcrat":13184,"ĠDies":13185,"Ġcrit":13186,"ĠPatribus":13187,"Ġspiritualem":13188,"line":13189,"ĠFre":13190,"Ġprohibet":13191,"Ġadmonet":13192,"Ġexordio":13193,"ĠGraecia":13194,"Ġpuella":13195,"Ġradice":13196,"Ġsapere":13197,"Ġhoste":13198,"ĠHieronymo":13199,"Ġsuperiorem":13200,".),":13201,"Ø§":13202,"Ġbonitate":13203,"Ġlabori":13204,"Ġplurimos":13205,"ĠAustralis":13206,"Ġdiutur":13207,"Ð¼":13208,"Ġconversi":13209,"actu":13210,"ĠFortun":13211,"Ġdiis":13212,"Ġactrix":13213,"Ġsenator":13214,"Ġgeografico":13215,"Ġlavac":13216,"Ġidololat":13217,"cuius":13218,"Ġpraevid":13219,"Ġsuspect":13220,"ĠIndice":13221,"Ġdulcis":13222,"ĠTarnis":13223,"aesit":13224,"Ġnoluerit":13225,"Ġostendens":13226,"Ġeligere":13227,"Ġdefensionem":13228,"Ġsempiternum":13229,"Ġfluctus":13230,"Ġtempestate":13231,"Ġeditiones":13232,"Ġerubesc":13233,"ĠFelix":13234,"Ġalienus":13235,"ĠBasil":13236,"ĠGunt":13237,"Ġmiseri":13238,"Ġfebr":13239,"Ġaciem":13240,"Ġmansuet":13241,"omet":13242,"Ġchron":13243,"Ġ84":13244,"Ġapostolo":13245,"Ġlacte":13246,"ĠRab":13247,"eney":13248,"ĠKalend":13249,"iavit":13250,"ĠCategoriae":13251,"peri":13252,"Ġinternation":13253,"Ġextend":13254,"Ġmagnitudo":13255,"Min":13256,"Ġcensus":13257,"Ġcondicio":13258,"Ġpugnam":13259,"Dix":13260,"ecerat":13261,"Ġpotentiae":13262,"rin":13263,"Ġessemus":13264,"Ġcertamine":13265,"Veni":13266,"Prius":13267,"Ġcalumni":13268,"estius":13269,"Ġfol":13270,"epist":13271,"ĠFamilia":13272,"ĠMarci":13273,"ĠBir":13274,"Ġignorantia":13275,"Ġluminis":13276,"Ġparvulis":13277,"Ġcolligitur":13278,"ĠBaptista":13279,"inctus":13280,"Ġuend":13281,"ariensis":13282,"Ġimpetus":13283,"Ġbenedictus":13284,"ĠSociety":13285,"Tres":13286,"urius":13287,"Ġ83":13288,"Horum":13289,"car":13290,"atiae":13291,"Ġcumque":13292,"Ġconstru":13293,"Ġvivis":13294,"uca":13295,"Ġcla":13296,"ĠquÃ¦st":13297,"Ġcampo":13298,"ĠEuropaeae":13299,"Oportet":13300,"Ġcognomin":13301,"Ġgeneratio":13302,"Ġsocietatis":13303,"Cambridge":13304,"endorum":13305,"âĢľ":13306,"ĠEcclesias":13307,"Ġvidendum":13308,"Ġpoliticus":13309,"Ġconsolationem":13310,"Ġoritur":13311,"Ġhistorica":13312,"Ġprodit":13313,"Ġceciderunt":13314,"ĠJanuarii":13315,"nomen":13316,"icius":13317,"ĠHal":13318,"praec":13319,"Ġvestem":13320,"Ġoccur":13321,"Ġexsecr":13322,"Ġullum":13323,"ĠPellicularum":13324,"ope":13325,"ĠWh":13326,"Ġá¼Ħ":13327,"Virtembergiae":13328,"col":13329,"ĠArs":13330,"Ġappellationem":13331,"Ġaeterni":13332,"enius":13333,"Ġadest":13334,"ĠHeli":13335,"Ġpromissum":13336,"Ġprepositi":13337,"eland":13338,"seu":13339,"olland":13340,"ÏħÏĦ":13341,"Ġquartum":13342,"ION":13343,"igi":13344,"ĠGro":13345,"ugo":13346,"Ġmutare":13347,"Ġanimadvert":13348,"Ġmichi":13349,"Ġuniversae":13350,"Rursus":13351,"Ġdespici":13352,"Ġirrig":13353,"Ġpermanet":13354,"Ġgaudet":13355,"Ġmulieri":13356,"ln":13357,"Ġtomo":13358,"ĠFer":13359,"ĠValentinianus":13360,"Ġescam":13361,"Ġlectum":13362,"ĠDist":13363,"Ġregulariter":13364,"Ġtrop":13365,"Comitatus":13366,"Ġsocietas":13367,"simus":13368,"Ġconsort":13369,"Ġminuere":13370,"ĠCav":13371,"Ġpraejudic":13372,"Ġpaucorum":13373,"ĠBaluz":13374,"tern":13375,"Ġcommissum":13376,"Ġprivilegiis":13377,"ĠGalilae":13378,"enburg":13379,"Ġvelis":13380,"Ġmetus":13381,"ĠCivitates":13382,"Bon":13383,"uino":13384,"Ġillico":13385,"Ġpontifices":13386,"Ġeffici":13387,"Ġtemporalis":13388,"Ġgeneri":13389,"Ġneglex":13390,"ĠApocalyp":13391,"ĠÈ©cclesiÈ©":13392,"ĠCisterc":13393,"iciunt":13394,"Ġgentilium":13395,"Ġmotum":13396,"ĠLux":13397,"Ġindiuid":13398,"Ġpraedicationem":13399,"XVI":13400,"med":13401,"Ġutrisque":13402,"Ġvertit":13403,"ellere":13404,"enciam":13405,"Ġcampis":13406,"TANTI":13407,"Russice":13408,"Ġfecerint":13409,"ĠApollin":13410,"illas":13411,"ĠLips":13412,"Ġconditionis":13413,"Ġsatisfactionem":13414,"FA":13415,"hr":13416,"ĠFort":13417,"Ġreme":13418,"Ġlabia":13419,"Ġtabulis":13420,"GUS":13421,"Ã¦m":13422,"Ġprofessionem":13423,"Eum":13424,"lad":13425,"Ġappellari":13426,"Ġnesciunt":13427,"Ġdefunctus":13428,"Ġbaptizati":13429,"ĠRichard":13430,"ĠVirgo":13431,"erni":13432,"Ġcoss":13433,"Ġvoluc":13434,"Ġiniuria":13435,"ĠLibero":13436,"Ġjuvent":13437,"Ġconsanguine":13438,"Bern":13439,"Ecc":13440,"Ġdelictum":13441,"ĠCluniacensi":13442,"Mult":13443,"otan":13444,"Ġbrevis":13445,"Ġimpius":13446,"Ġinvent":13447,"Ġderiv":13448,"ĠPapa":13449,"Ġnititur":13450,"Ġset":13451,"Ġspatia":13452,"Ġeorumque":13453,"Ġduodec":13454,"ĠBol":13455,"Ġinsult":13456,"Ġconstiterit":13457,"ĠVulgata":13458,"Fili":13459,"Ġquiesc":13460,"Ġuinc":13461,"Ġsubnix":13462,"ĠPage":13463,"Ġfurtum":13464,"Ġlaborare":13465,"Saepe":13466,"itta":13467,"Ġpresentis":13468,"iderant":13469,"Ġproficere":13470,"ĠSacerd":13471,"arina":13472,"Ġpatiuntur":13473,"Ġcardina":13474,"Ġvil":13475,"ĠCXX":13476,"ĠID":13477,"ĠMulieres":13478,"Ġposuerunt":13479,"facta":13480,"ativum":13481,"Ġsingulariter":13482,"Ġingens":13483,"emi":13484,"apis":13485,"Ġsuperfic":13486,"Ġou":13487,"Ġageret":13488,"Î±Îº":13489,"ĠIoanne":13490,"Ġkar":13491,"Ġbaptisma":13492,"Ġimbec":13493,"erentes":13494,"essibus":13495,"Ġsupplicia":13496,"Ġvellent":13497,"olution":13498,"ĠBra":13499,"Ġtrinitatis":13500,"Ġsocios":13501,"Ġcelebratur":13502,"Ġinstitutum":13503,"Ġobedientiae":13504,"Ġcorrigere":13505,"Ġoctog":13506,"ĠClassics":13507,"ORI":13508,"Ġhttp":13509,"ĠNav":13510,"ubus":13511,"Ġiusta":13512,"Ġprudens":13513,"Ġuolumus":13514,"Ġaf":13515,"Ġsupernae":13516,"ĠNovo":13517,"ciensis":13518,"Ġplebs":13519,"Me":13520,"Ġdivi":13521,"ĠRein":13522,"ĠVeteris":13523,"ĠSancta":13524,"130":13525,"Ġcarnaliter":13526,"Hec":13527,"Ġdicturus":13528,"Ġillec":13529,"Dies":13530,"Ġinsc":13531,"Ġsepedic":13532,"Ġcalump":13533,"Ġoblata":13534,"Ġconsecutus":13535,"Ġfoedus":13536,"Ġoner":13537,"Ġperpetu":13538,"resbyter":13539,"mam":13540,"Ġquaelibet":13541,"Ġacie":13542,"190":13543,"Ġmaximam":13544,"Ġdeficit":13545,"Ġelectos":13546,"ĠTerra":13547,"ĠCameracensis":13548,"nde":13549,"Ġestote":13550,"udine":13551,"Ġscriptus":13552,"Ġmysterio":13553,"Ġpercipere":13554,"ps":13555,"Ġsedere":13556,"Ġdixisti":13557,"Ġaugmentum":13558,"postea":13559,"Ġsystem":13560,"Ġcommodum":13561,"Ġiustum":13562,"errima":13563,"Ġcontingat":13564,"Ġcontemplatione":13565,"ĠIaponiae":13566,"Ġdioecesis":13567,"Ġconsid":13568,"Ġordinibus":13569,"ĠMarcell":13570,"ĠXXXII":13571,"ĠInterpret":13572,"homo":13573,"Ġaltius":13574,"ilibet":13575,"Quanto":13576,"enz":13577,"Ġreligiosis":13578,"Ġcoc":13579,"Ġdoct":13580,"Ġoperationem":13581,"Ġprotulit":13582,"Ġcredat":13583,"Ġnotus":13584,"Ġostent":13585,"Ġproprias":13586,"Fratres":13587,"Ġconuen":13588,"Ġsustinuit":13589,"Ġvisceribus":13590,"ĠNobel":13591,"Î¿á¿ĸÏĤ":13592,"Ġclara":13593,"Ġpassi":13594,"Romae":13595,"Ġexplan":13596,"Una":13597,"well":13598,"idisti":13599,"Ġ1933":13600,"Ġcontineri":13601,"ami":13602,"Ġeffectu":13603,"XIV":13604,"quisi":13605,"endite":13606,"ĠSancte":13607,"Ġappellatus":13608,"Ġpercuti":13609,"Ġamplex":13610,"Ġabbatibus":13611,"Ġsimplici":13612,"imil":13613,"Ġadeptus":13614,"ĠPala":13615,"Ġ1968":13616,"Ġcaptivitatem":13617,"Ġrector":13618,"Ġliceret":13619,"Ġnativitate":13620,"ĠVas":13621,"ĠNab":13622,"ĠFrank":13623,"Ġfortassis":13624,"cor":13625,"Ġfet":13626,"Ġpeccatoris":13627,"Ġopinione":13628,"vae":13629,"Ġlasc":13630,"Ġfidelem":13631,"uy":13632,"teris":13633,"Ġdicendi":13634,"ĠTitus":13635,"ĠHieron":13636,"Ġnemini":13637,"Ġvictum":13638,"Ġformae":13639,"Ġanimalibus":13640,"ĠVetus":13641,"Ġlicere":13642,"Ġdiuina":13643,"cast":13644,"ĠTrib":13645,"Ġdiscept":13646,"raverit":13647,"Ġcareat":13648,"Ġvidu":13649,"Ġmilitia":13650,"Ġimplor":13651,"Ġagnoscere":13652,"cin":13653,"Ġsanctitatem":13654,"150":13655,"ĠInterretiali":13656,"af":13657,"Ã¶r":13658,"Ġcompetere":13659,"Ġtue":13660,"ĠClaudius":13661,"Ġdioecesi":13662,"ĠPolitici":13663,"pol":13664,"iario":13665,"ĠOccid":13666,"Ġinced":13667,"Ġaudistis":13668,"Ġintrinsecus":13669,"Ġoptima":13670,"ĠTorino":13671,"irem":13672,"ĠSul":13673,"ĠFerdin":13674,"Ġimplevit":13675,"Ġfaciendo":13676,"Ġdestitut":13677,"Ġalleluia":13678,"Quaes":13679,"ĠRoc":13680,"ĠLatinae":13681,"Ġdetrimentum":13682,"Ġamicitia":13683,"Ġ01":13684,"ĠRegis":13685,"Ġtribunal":13686,"ÂŃ":13687,"aram":13688,"estr":13689,"Ġdecano":13690,"Scio":13691,"ĠIurae":13692,"Ġaudiat":13693,"Ġsemina":13694,"Ġpersol":13695,"Ġapprehend":13696,"ĠÃ¦ternum":13697,"ĠLivius":13698,"RIS":13699,"Ġ1969":13700,"ĠVict":13701,"Ġculpae":13702,"oy":13703,"ĠCXL":13704,"Ġuniversam":13705,"Ġdisting":13706,"Ġpedem":13707,"Ġrecordationis":13708,"Ġnom":13709,"Ġundecim":13710,"Ġprudenter":13711,"Ġsufficienter":13712,"Ġcastitatis":13713,"Ġingem":13714,"Dicitur":13715,"led":13716,"Ġequis":13717,"Ġdeper":13718,"Ġsiti":13719,"Ġhostiam":13720,"ĠRepublic":13721,"Oc":13722,"isticae":13723,"Ġproprius":13724,"ĠCornelius":13725,"Ġproferre":13726,"Urbes":13727,"')":13728,"?\"":13729,"AU":13730,"Ġmontium":13731,"elii":13732,"Ġmunific":13733,"Ġnuncupatur":13734,"Deb":13735,"Ġserui":13736,"ĠAlexandro":13737,"Ġturr":13738,"elph":13739,"Ġinfernum":13740,"ological":13741,"ĠBrun":13742,"Ġcarnales":13743,"Ġiubet":13744,"Ġperturbare":13745,"vam":13746,"Ġsententiis":13747,"Discretiva":13748,"Ġnorm":13749,"ebri":13750,"rew":13751,"Ġdominicae":13752,"Ġappellare":13753,"ĠJudaea":13754,"Ġvenerabilem":13755,"GRA":13756,"ĠMark":13757,"Ġconversa":13758,"á½¹Î½":13759,"Ġmedicina":13760,"TIT":13761,"Ġathlet":13762,"Ġ%":13763,"Ġviat":13764,"ĠDol":13765,"Ġliberari":13766,"ĠLegem":13767,"Ġaegrot":13768,"ĠMogunt":13769,"Ġspelunc":13770,"SU":13771,"Ġpraeclar":13772,"Ġcognitio":13773,"Ġpraedicat":13774,"Ġnotarius":13775,"Ġascendere":13776,"Ġdamnationem":13777,"Aur":13778,"Ġaustr":13779,"ĠCL":13780,"Ġimmod":13781,"Ġsoluta":13782,"Ġinconc":13783,"Ġcommisit":13784,"Ġuirtut":13785,"adam":13786,"Ġperdere":13787,"ecclesiam":13788,"Ġexaudi":13789,"Mihi":13790,"Ġ{":13791,"ĠLatinis":13792,"Ġgentiles":13793,"Ġpren":13794,"Ġconp":13795,"conf":13796,"ĠAlsatia":13797,"Ġstrep":13798,"Ġnecessitatis":13799,"ison":13800,"itoria":13801,"Ġfrem":13802,"Ġprosc":13803,"Ġepiscopalis":13804,"utores":13805,"ĠRei":13806,"Ġprincipalis":13807,"ĠCarn":13808,"Aliud":13809,"Ġfenum":13810,"avere":13811,"Ġconfl":13812,"Ġservat":13813,"Ġurbium":13814,"Ġinvenerunt":13815,"Ġconcessimus":13816,"ĠPortus":13817,"Ġmeridie":13818,"pis":13819,"Ġversum":13820,"Ġcrescit":13821,"Ġinferni":13822,"Ġlepros":13823,"ran":13824,"Ġquendam":13825,"aciones":13826,"Ġparere":13827,"Ġactis":13828,"Ġrecipiat":13829,"ĠLudovici":13830,"Ġedicto":13831,"ussa":13832,"igo":13833,"ĠOceani":13834,"Dilig":13835,"apt":13836,"Ġsuperest":13837,"Ġnovis":13838,"Ġcogitatio":13839,"Urbs":13840,"ĠDietae":13841,"ºÏĤ":13842,"Ġnaut":13843,"Ġcoeper":13844,"Ġpontifici":13845,"entie":13846,"Ġlocuti":13847,"Ġovium":13848,"Christum":13849,"Ã¦i":13850,"ĠGubernatores":13851,"Ġredund":13852,"Ġplenitudine":13853,"ĠTel":13854,"ÂłÂł":13855,"Ġdecep":13856,"Ġmortalis":13857,"Prob":13858,"Med":13859,"Ġdebitor":13860,"Î»Îµ":13861,"avia":13862,"Ġsculp":13863,"Ġinventum":13864,"Ġadjecit":13865,"ĠprÃ¦cip":13866,"Ġretract":13867,"Ġdicantur":13868,"Ġrestat":13869,"Ġinopia":13870,"Ġaestu":13871,"Ġeleemosynam":13872,"ĠPraesides":13873,"Ġpura":13874,"ĠSy":13875,"Ġcaed":13876,"Respond":13877,"ĠÎ½":13878,"ĠSebast":13879,"ĠPos":13880,"Ġesi":13881,"Ġconspici":13882,"numquam":13883,"Ġdilectum":13884,"Ġpraedia":13885,"Ġsacramentis":13886,"Ġconsuetudines":13887,"ĠĠĉ":13888,"Ġvestis":13889,"Ġintelligatur":13890,"Ġmaxim":13891,"Ġ2019":13892,"Ġlatet":13893,"ĠCAPUT":13894,"Ġtaur":13895,"Ġcolore":13896,"Ġfuror":13897,"Ġmoenia":13898,"ĠMeridionalis":13899,"Ġparadisi":13900,"Ġadvenit":13901,"Ġullam":13902,"Ġpraepositus":13903,"Ġostendat":13904,"Ġtutor":13905,"DEM":13906,"Ġveniant":13907,"Ġaltitudinem":13908,"ĠAgath":13909,"à¸":13910,"ery":13911,"issionis":13912,"....":13913,"ipsam":13914,"Interim":13915,"eae":13916,"tantum":13917,"Ġdebeo":13918,"Ġcarmina":13919,"ĠIsarae":13920,"Ġlaetitiam":13921,"Ġsponsi":13922,"Ġconsortium":13923,"eschich":13924,"Ġelectio":13925,"elab":13926,"ĠVici":13927,"Ġuestre":13928,"REDO":13929,"erorum":13930,"ish":13931,"ĠChriste":13932,"Ġvultum":13933,"Ġpronunt":13934,"ĠMassachus":13935,"Ġequites":13936,"avero":13937,"Ġdeced":13938,"Ġnominatim":13939,"Ġsimilibus":13940,"Ġloqueretur":13941,"á½±ÏĦ":13942,"Ġancilla":13943,"ĠAene":13944,"Ġsedi":13945,"Ġgess":13946,"OMINI":13947,"Ġpall":13948,"ernus":13949,"Ġpaenit":13950,"Ġmissarum":13951,"ituram":13952,"ĠBrux":13953,"Ġdesiderant":13954,"Mons":13955,"TUS":13956,"kes":13957,"Ġrefrig":13958,"Ġpresumpserit":13959,"Ġtib":13960,"CJ":13961,"ocius":13962,"Ġvigilia":13963,"Ġlectiones":13964,"ĠMyth":13965,"Ġdictorum":13966,"issionem":13967,"demus":13968,"Ġros":13969,"Ġlegatorum":13970,"Ġappellant":13971,"Ġinferior":13972,"ĠBitur":13973,"Ġviriliter":13974,"Ġsuppon":13975,"Ġspern":13976,"Ġspont":13977,"Ġservari":13978,"Ġpraesidio":13979,"Ġvivimus":13980,"Ġmercede":13981,"Ġplaga":13982,"Ġurbibus":13983,"Ġubicumque":13984,"ixa":13985,"ĠGraecus":13986,"Ġcasibus":13987,"Ġoss":13988,"Ġreceperunt":13989,"Ġquerela":13990,"ustum":13991,"Ġmurum":13992,"Ġcontroversia":13993,"Ġcalli":13994,"Ġveteribus":13995,"Ġtraditur":13996,"ĠÃ¦t":13997,"Ġcarcerem":13998,"uens":13999,"ĠLut":14000,"Pot":14001,"onensem":14002,"Ġpromo":14003,"Ġaderant":14004,"Ġperfectam":14005,"Carolus":14006,"Ġcomponat":14007,"Ġhar":14008,"Ġsedens":14009,"Ġsanctitas":14010,"Ġpede":14011,"Ġcardinales":14012,"POS":14013,"eratis":14014,"Ġnoluerunt":14015,"ideoque":14016,"ĠRemigii":14017,"Ġelectum":14018,"Ġpossessionis":14019,"ialia":14020,"Ġfluctu":14021,"ĠVindob":14022,"Ġincommut":14023,"ĠsanctÃ¦":14024,"Ġadversis":14025,"Ġloquatur":14026,"ĠGodefridus":14027,"Ġdecime":14028,"ĠNorveg":14029,"Ġquadr":14030,"Ġcupit":14031,"Ġpreter":14032,"Vides":14033,"radi":14034,"ĠProfessores":14035,"zon":14036,"ialium":14037,"ĠTyr":14038,"Ġignob":14039,"Ġattentius":14040,"ĠXXXI":14041,"Sam":14042,"bach":14043,"Ġcedere":14044,"Ġvendere":14045,"ĠVerc":14046,"Ġlibellum":14047,"Ġportare":14048,"ĠCaesarem":14049,"Ġredemptione":14050,"Ecclesiae":14051,"ernimus":14052,"ferre":14053,"ĠprÃ¦m":14054,"Ġsubjecit":14055,"Omnibus":14056,"Ġhaur":14057,"Ġvisu":14058,"Ġmonacho":14059,"Ġá¼ĲÏĢÎ¹":14060,"Ġdot":14061,"ĠBalduini":14062,"It":14063,"acionis":14064,"ĠProt":14065,"ĠGuid":14066,"Ġpiis":14067,"ermo":14068,"Ġminoris":14069,"Ġdedign":14070,"quoque":14071,"Ġpostulationibus":14072,"ĠJacobi":14073,"Ġrelicto":14074,"ĠDial":14075,"avo":14076,"Ġopul":14077,"Ġcrux":14078,"Ġimperatorum":14079,"Ġcitra":14080,"Ġneb":14081,"Ġspiritualia":14082,"Ġcognoscimus":14083,"Ġlet":14084,"Ġinsurg":14085,"Ġeloquia":14086,"Ġcentes":14087,"Ġdamno":14088,"Ġseniores":14089,"Ġtemerario":14090,"Ġtristis":14091,"Ġmont":14092,"ĠÃ¦st":14093,"Ġantiquitus":14094,"Ġfacultates":14095,"Du":14096,"nesc":14097,"onense":14098,"Ġclaritate":14099,"Ġministrare":14100,"ĠRicardus":14101,"gi":14102,"ĠActa":14103,"ĠChrysost":14104,"TE":14105,"160":14106,"ĠBabylonis":14107,"venti":14108,"ĠLevit":14109,"Ġmaximo":14110,"ĠHierarchy":14111,"Ġdivinitate":14112,"Ġidolorum":14113,"ĠAri":14114,"ĠSanct":14115,"Ġinstantia":14116,"112":14117,"Michae":14118,"uxerat":14119,"Ġcarb":14120,"ĠGermani":14121,"Ġlaici":14122,"Ġdomic":14123,"Ġaccipimus":14124,"Ġsensit":14125,"Ġseruit":14126,"Ġexhibuit":14127,"Ġcorruptib":14128,"Ġjussu":14129,"Ġfirmum":14130,"ĠPlut":14131,"Ġclarus":14132,"Ġfluctibus":14133,"Usque":14134,"Ġvor":14135,"Ġproelio":14136,"Ġrepper":14137,"Ġinstrumenta":14138,"arde":14139,"ĠCON":14140,"Ġlor":14141,"Ġruinam":14142,"enl":14143,"Ġepiscopali":14144,"Ġmoderat":14145,"Ġgubernator":14146,"Ib":14147,"atrix":14148,"Ġlata":14149,"Ġdicemus":14150,"ĠProp":14151,"1854":14152,"Ġteneant":14153,"ĠAntichrist":14154,"arct":14155,"Ġobed":14156,"ologica":14157,"Ġaspir":14158,"Ġnonnisi":14159,"Ġfamiliaris":14160,"Ġdispositione":14161,"ĠRavenn":14162,"uensis":14163,"ultur":14164,"Ġextermin":14165,"Ġcuris":14166,"Adj":14167,"ĠGuido":14168,"Videtur":14169,"Ġduplici":14170,"ABR":14171,"Peri":14172,
[...]
