{"version":"1.0","truncation":null,"padding":null,"added_tokens":[{"id":0,"special":true,"content":"<s>","single_word":false,"lstrip":false,"rstrip":false,"normalized":false},{"id":1,"special":true,"content":"<pad>","single_word":false,"lstrip":false,"rstrip":false,"normalized":false},{"id":2,"special":true,"content":"</s>","single_word":false,"lstrip":false,"rstrip":false,"normalized":false},{"id":3,"special":true,"content":"<unk>","single_word":false,"lstrip":false,"rstrip":false,"normalized":false},{"id":4,"special":true,"content":"<mask>","single_word":false,"lstrip":false,"rstrip":false,"normalized":false}],"normalizer":{"type":"BertNormalizer","clean_text":true,"handle_chinese_chars":true,"strip_accents":null,"lowercase":false},"pre_tokenizer":{"type":"BertPreTokenizer"},"post_processor":null,"decoder":{"type":"BPEDecoder","suffix":"</w>"},"model":{"type":"BPE","dropout":null,"unk_token":null,"continuing_subword_prefix":null,"end_of_word_suffix":"</w>","fuse_unk":false,"vocab":{"<s>":0,"<pad>":1,"</s>":2,"<unk>":3,"<mask>":4,"!":5,"\"":6,"#":7,"$":8,"%":9,"&":10,"'":11,"(":12,")":13,"*":14,"+":15,",":16,"-":17,".":18,"/":19,"0":20,"1":21,"2":22,"3":23,"4":24,"5":25,"6":26,"7":27,"8":28,"9":29,":":30,";":31,"<":32,"=":33,">":34,"?":35,"@":36,"A":37,"B":38,"C":39,"D":40,"E":41,"F":42,"G":43,"H":44,"I":45,"J":46,"K":47,"L":48,"M":49,"N":50,"O":51,"P":52,"Q":53,"R":54,"S":55,"T":56,"U":57,"V":58,"W":59,"X":60,"Y":61,"Z":62,"[":63,"\\":64,"]":65,"^":66,"_":67,"`":68,"a":69,"b":70,"c":71,"d":72,"e":73,"f":74,"g":75,"h":76,"i":77,"j":78,"k":79,"l":80,"m":81,"n":82,"o":83,"p":84,"q":85,"r":86,"s":87,"t":88,"u":89,"v":90,"w":91,"x":92,"y":93,"z":94,"{":95,"|":96,"}":97,"~":98,"¡":99,"£":100,"¥":101,"§":102,"©":103,"ª":104,"«":105,"¬":106,"®":107,"°":108,"±":109,"²":110,"³":111,"´":112,"µ":113,"·":114,"º":115,"»":116,"½":117,"¿":118,"À":119,"Á":120,"Â":121,"Ä":122,"Å":123,"Æ":124,"Ç":125,"È":126,"É":127,"Ê":128,"Ì":129,"Í":130,"Î":131,"Ï":132,"Ñ":133,"Ò":134,"Ó":135,"Ö":136,"×":137,"Ø":138,"Ú":139,"Ü":140,"Þ":141,"ß":142,"à":143,"á":144,"â":145,"ã":146,"ä":147,"å":148,"æ":149,"ç":150,"è":151,"é":152,"ê":153,"ë":154,"ì":155,"í":156,"î":157,"ï":158,"ð":159,"ñ":160,"ò":161,"ó":162,"ô":163,"õ":164,"ö":165,"÷":166,"ø":167,"ù":168,"ú":169,"û":170,"ü":171,"ý":172,"þ":173,"ÿ":174,"Ā":175,"ā":176,"ă":177,"ą":178,"ć":179,"Ĉ":180,"ĉ":181,"Č":182,"č":183,"ď":184,"Đ":185,"đ":186,"ē":187,"ĕ":188,"ė":189,"Ę":190,"ę":191,"ě":192,"ĝ":193,"ğ":194,"Ġ":195,"ġ":196,"Ħ":197,"ĩ":198,"Ī":199,"ī":200,"ĭ":201,"Į":202,"İ":203,"ı":204,"ĵ":205,"Ľ":206,"ľ":207,"Ł":208,"ł":209,"ń":210,"ņ":211,"ň":212,"ŋ":213,"Ō":214,"ō":215,"ŏ":216,"ő":217,"Œ":218,"œ":219,"ř":220,"Ś":221,"ś":222,"Ş":223,"ş":224,"Š":225,"š":226,"Ţ":227,"ţ":228,"ť":229,"ũ":230,"ū":231,"ŭ":232,"ů":233,"ű":234,"ų":235,"Ż":236,"ż":237,"Ž":238,"ž":239,"ſ":240,"Ə":241,"ư":242,"ǎ":243,"ǐ":244,"Ǒ":245,"ǒ":246,"ǔ":247,"Ǧ":248,"ǧ":249,"ǫ":250,"Ș":251,"ș":252,"Ț":253,"ț":254,"Ȩ":255,"ȩ":256,"ə":257,"ɛ":258,"ɜ":259,"ɩ":260,"ɪ":261,"ɾ":262,"ʃ":263,"ʔ":264,"ʰ":265,"ʷ":266,"ʹ":267,"ʻ":268,"ʾ":269,"ʿ":270,"ˁ":271,"ˈ":272,"ː":273,"˙":274,"̀":275,"́":276,"̂":277,"̃":278,"̄":279,"̅":280,"̇":281,"̈":282,"̊":283,"̓":284,"̔":285,"̣":286,"̥":287,"̩":288,"́":289,"ͮ":290,";":291,"΄":292,"Ά":293,"·":294,"Έ":295,"Ί":296,"Ό":297,"ΐ":298,"Α":299,"Β":300,"Γ":301,"Δ":302,"Ε":303,"Ζ":304,"Η":305,"Θ":306,"Ι":307,"Κ":308,"Λ":309,"Μ":310,"Ν":311,"Ξ":312,"Ο":313,"Π":314,"Ρ":315,"Σ":316,"Τ":317,"Υ":318,"Φ":319,"Χ":320,"Ψ":321,"Ω":322,"ά":323,"έ":324,"ή":325,"ί":326,"ΰ":327,"α":328,"β":329,"γ":330,"δ":331,"ε":332,"ζ":333,"η":334,"θ":335,"ι":336,"κ":337,"λ":338,"μ":339,"ν":340,"ξ":341,"ο":342,"π":343,"ρ":344,"ς":345,"σ":346,"τ":347,"υ":348,"φ":349,"χ":350,"ψ":351,"ω":352,"ϊ":353,"ϋ":354,"ό":355,"ύ":356,"ώ":357,"ϕ":358,"ϥ":359,"Ϭ":360,"ϭ":361,"ϰ":362,"ϲ":363,"Ϲ":364,"Ђ":365,"Є":366,"І":367,"Ј":368,"А":369,"Б":370,"В":371,"Г":372,"Д":373,"Е":374,"Ж":375,"З":376,"И":377,"К":378,"Л":379,"М":380,"Н":381,"О":382,"П":383,"Р":384,"С":385,"Т":386,"У":387,"Ф":388,"Х":389,"Ц":390,"Ч":391,"Ш":392,"Э":393,"Ю":394,"Я":395,"а":396,"б":397,"в":398,"г":399,"д":400,"е":401,"ж":402,"з":403,"и":404,"й":405,"к":406,"л":407,"м":408,"н":409,"о":410,"п":411,"р":412,"с":413,"т":414,"у":415,"ф":416,"х":417,"ц":418,"ч":419,"ш":420,"щ":421,"ъ":422,"ы":423,"ь":424,"э":425,"ю":426,"я":427,"ё":428,"і":429,"ї":430,"ј":431,"љ":432,"ћ":433,"ў":434,"ѣ":435,"Ա":436,"Կ":437,"Հ":438,"Մ":439,"Ս":440,"Վ":441,"ա":442,"բ":443,"գ":444,"դ":445,"ե":446,"զ":447,"թ":448,"ի":449,"լ":450,"կ":451,"հ":452,"մ":453,"յ":454,"ն":455,"շ":456,"ո":457,"ս":458,"վ":459,"տ":460,"ր":461,"ւ":462,"ְ":463,"ִ":464,"ֵ":465,"ֶ":466,"ַ":467,"ָ":468,"ֹ":469,"ּ":470,"ׁ":471,"א":472,"ב":473,"ג":474,"ד":475,"ה":476,"ו":477,"ז":478,"ח":479,"ט":480,"י":481,"ך":482,"כ":483,"ל":484,"ם":485,"מ":486,"ן":487,"נ":488,"ס":489,"ע":490,"פ":491,"צ":492,"ק":493,"ר":494,"ש":495,"ת":496,"ء":497,"آ":498,"أ":499,"إ":500,"ئ":501,"ا":502,"ب":503,"ة":504,"ت":505,"ث":506,"ج":507,"ح":508,"خ":509,"د":510,"ر":511,"ز":512,"س":513,"ش":514,"ص":515,"ض":516,"ط":517,"ظ":518,"ع":519,"غ":520,"ف":521,"ق":522,"ك":523,"ل":524,"م":525,"ن":526,"ه":527,"و":528,"ى":529,"ي":530,"َ":531,"ِ":532,"ّ":533,"پ":534,"ک":535,"گ":536,"ہ":537,"ی":538,"ܐ":539,"ܒ":540,"ܕ":541,"ܘ":542,"ܝ":543,"ܠ":544,"ܡ":545,"ܢ":546,"ܪ":547,"ܬ":548,"ं":549,"अ":550,"आ":551,"उ":552,"ओ":553,"औ":554,"क":555,"ख":556,"ग":557,"च":558,"ज":559,"ट":560,"ड":561,"ढ":562,"ण":563,"त":564,"थ":565,"द":566,"ध":567,"न":568,"प":569,"ब":570,"भ":571,"म":572,"य":573,"र":574,"ल":575,"व":576,"श":577,"ष":578,"स":579,"ह":580,"़":581,"ा":582,"ि":583,"ी":584,"ु":585,"ू":586,"े":587,"ो":588,"्":589,"দ":590,"ন":591,"ব":592,"ম":593,"র":594,"ল":595,"া":596,"ি":597,"্":598,"க":599,"ச":600,"ன":601,"ப":602,"ல":603,"ி":604,"்":605,"්":606,"ก":607,"ค":608,"ง":609,"จ":610,"ช":611,"ด":612,"ต":613,"ท":614,"น":615,"บ":616,"ป":617,"พ":618,"ม":619,"ย":620,"ร":621,"ล":622,"ว":623,"ศ":624,"ส":625,"ห":626,"อ":627,"ั":628,"า":629,"ิ":630,"ี":631,"ุ":632,"เ":633,"แ":634,"่":635,"้":636,"์":637,"་":638,"ག":639,"ང":640,"ད":641,"བ":642,"མ":643,"ར":644,"ས":645,"ུ":646,"ོ":647,"ྲ":648,"တ":649,"န":650,"မ":651,"ိ":652,"ု":653,"း":654,"်":655,"ြ":656,"ა":657,"ბ":658,"გ":659,"დ":660,"ე":661,"ვ":662,"ზ":663,"თ":664,"ი":665,"კ":666,"ლ":667,"მ":668,"ნ":669,"ო":670,"რ":671,"ს":672,"ტ":673,"უ":674,"ფ":675,"ქ":676,"შ":677,"ძ":678,"ხ":679,"መ":680,"ር":681,"ስ":682,"ን":683,"ይ":684,"ក":685,"ង":686,"ត":687,"ន":688,"រ":689,"ស":690,"ា":691,"ុ":692,"្":693,"ḍ":694,"ḏ":695,"Ḥ":696,"ḥ":697,"Ḫ":698,"ḫ":699,"ṃ":700,"ṅ":701,"ṇ":702,"ṛ":703,"Ṣ":704,"ṣ":705,"Ṭ":706,"ṭ":707,"Ṯ":708,"ṯ":709,"ẓ":710,"ạ":711,"ả":712,"ẽ":713,"ễ":714,"ệ":715,"ỉ":716,"ồ":717,"ἀ":718,"ἁ":719,"ἂ":720,"ἃ":721,"ἄ":722,"ἅ":723,"Ἀ":724,"Ἁ":725,"Ἄ":726,"Ἅ":727,"ἐ":728,"ἑ":729,"ἒ":730,"ἓ":731,"ἔ":732,"ἕ":733,"Ἐ":734,"Ἑ":735,"Ἔ":736,"Ἕ":737,"ἠ":738,"ἡ":739,"ἢ":740,"ἣ":741,"ἤ":742,"ἥ":743,"ἦ":744,"ἧ":745,"Ἠ":746,"Ἡ":747,"Ἤ":748,"Ἥ":749,"ἰ":750,"ἱ":751,"ἳ":752,"ἴ":753,"ἵ":754,"ἶ":755,"ἷ":756,"Ἰ":757,"Ἱ":758,"Ἴ":759,"Ἵ":760,"ὀ":761,"ὁ":762,"ὂ":763,"ὃ":764,"ὄ":765,"ὅ":766,"Ὀ":767,"Ὁ":768,"Ὄ":769,"Ὅ":770,"ὐ":771,"ὑ":772,"ὒ":773,"ὓ":774,"ὔ":775,"ὕ":776,"ὖ":777,"ὗ":778,"Ὑ":779,"ὠ":780,"ὡ":781,"ὢ":782,"ὤ":783,"ὥ":784,"ὦ":785,"ὧ":786,"Ὠ":787,"Ὡ":788,"Ὥ":789,"ὰ":790,"ά":791,"ὲ":792,"έ":793,"ὴ":794,"ή":795,"ὶ":796,"ί":797,"ὸ":798,"ό":799,"ὺ":800,"ύ":801,"ὼ":802,"ώ":803,"ᾳ":804,"ᾶ":805,"᾽":806,"ι":807,"᾿":808,"ῃ":809,"ῆ":810,"ῇ":811,"ῑ":812,"ΐ":813,"ῖ":814,"ῡ":815,"ῤ":816,"ῥ":817,"ῦ":818,"Ῥ":819,"ῳ":820,"ῶ":821,"ῷ":822,"‐":823,"–":824,"—":825,"―":826,"‘":827,"’":828,"‚":829,"“":830,"”":831,"„":832,"†":833,"•":834,"…":835,"′":836,"″":837,"‹":838,"›":839,"※":840,"₁":841,"€":842,"№":843,"℟":844,"™":845,"℣":846,"Ↄ":847,"←":848,"↑":849,"→":850,"↓":851,"↔":852,"−":853,"√":854,"∞":855,"∨":856,"∪":857,"≠":858,"≤":859,"⌇":860,"〈":861,"〉":862,"⏑":863,"─":864,"│":865,"└":866,"├":867,"┬":868,"■":869,"♦":870,"♭":871,"✠":872,"⟨":873,"⟩":874,"ⲁ":875,"ⲉ":876,"ⲛ":877,"、":878,"。":879,"い":880,"う":881,"か":882,"き":883,"く":884,"し":885,"た":886,"て":887,"と":888,"な":889,"に":890,"の":891,"は":892,"も":893,"り":894,"る":895,"れ":896,"を":897,"ァ":898,"ア":899,"ィ":900,"イ":901,"ウ":902,"エ":903,"オ":904,"カ":905,"ガ":906,"キ":907,"ク":908,"グ":909,"コ":910,"サ":911,"シ":912,"ジ":913,"ス":914,"タ":915,"ダ":916,"チ":917,"ッ":918,"テ":919,"デ":920,"ト":921,"ド":922,"ナ":923,"ニ":924,"ノ":925,"バ":926,"パ":927,"フ":928,"ブ":929,"プ":930,"マ":931,"ミ":932,"ム":933,"メ":934,"ャ":935,"ュ":936,"ョ":937,"ラ":938,"リ":939,"ル":940,"レ":941,"ロ":942,"ン":943,"・":944,"ー":945,"一":946,"三":947,"上":948,"中":949,"之":950,"人":951,"会":952,"南":953,"史":954,"和":955,"国":956,"國":957,"大":958,"天":959,"太":960,"夫":961,"子":962,"学":963,"宮":964,"家":965,"小":966,"山":967,"島":968,"川":969,"平":970,"文":971,"日":972,"明":973,"月":974,"木":975,"本":976,"李":977,"東":978,"正":979,"水":980,"治":981,"王":982,"田":983,"社":984,"神":985,"藤":986,"記":987,"道":988,"郎":989,"都":990,"野":991,"金":992,"高":993,"김":994,"동":995,"영":996,"이":997,"일":998,"정":999,"최":1000,"한":1001,"）":1002,"，":1003,"･":1004,"y</w>":1005,"n</w>":1006,"s</w>":1007,"6</w>":1008,"9</w>":1009,"o</w>":1010,"m</w>":1011,"M</w>":1012,"a</w>":1013,"t</w>":1014,"i</w>":1015,"e</w>":1016,"7</w>":1017,"2</w>":1018,"l</w>":1019,"b</w>":1020,"r</w>":1021,"Ν</w>":1022,"3</w>":1023,"J</w>":1024,"d</w>":1025,"L</w>":1026,"I</w>":1027,"Y</w>":1028,"0</w>":1029,"ς</w>":1030,"P</w>":1031,"h</w>":1032,"ν</w>":1033,"j</w>":1034,"c</w>":1035,"w</w>":1036,"8</w>":1037,"u</w>":1038,"S</w>":1039,"æ</w>":1040,"k</w>":1041,"ȩ</w>":1042,"α</w>":1043,"ῆ</w>":1044,"1</w>":1045,"4</w>":1046,"A</w>":1047,"ę</w>":1048,"O</w>":1049,"5</w>":1050,"g</w>":1051,"C</w>":1052,"ε</w>":1053,"Z</w>":1054,"د</w>":1055,"の</w>":1056,"p</w>":1057,"η</w>":1058,"é</w>":1059,"к</w>":1060,"ũ</w>":1061,"ι</w>":1062,"X</w>":1063,"œ</w>":1064,"E</w>":1065,"x</w>":1066,"N</w>":1067,"º</w>":1068,"ä</w>":1069,"ܐ</w>":1070,"о</w>":1071,"π</w>":1072,"v</w>":1073,"й</w>":1074,"ρ</w>":1075,"R</w>":1076,"я</w>":1077,"z</w>":1078,"á</w>":1079,"T</w>":1080,"Η</w>":1081,"ó</w>":1082,"V</w>":1083,"ा</w>":1084,"£</w>":1085,"ι</w>":1086,"ῦ</w>":1087,"н</w>":1088,"ª</w>":1089,"è</w>":1090,"ū</w>":1091,"H</w>":1092,"υ</w>":1093,"G</w>":1094,"ö</w>":1095,"B</w>":1096,"ā</w>":1097,"D</w>":1098,"°</w>":1099,"F</w>":1100,"ァ</w>":1101,"ी</w>":1102,"ō</w>":1103,"ē</w>":1104,"θ</w>":1105,"ο</w>":1106,"е</w>":1107,"ΰ</w>":1108,"в</w>":1109,"а</w>":1110,"f</w>":1111,"Æ</w>":1112,"ī</w>":1113,"ן</w>":1114,"ー</w>":1115,"q</w>":1116,"č</w>":1117,"ά</w>":1118,"ί</w>":1119,"U</w>":1120,"ク</w>":1121,"ή</w>":1122,"à</w>":1123,"ძ</w>":1124,"र</w>":1125,"W</w>":1126,"ć</w>":1127,"μ</w>":1128,"ῇ</w>":1129,"ᾶ</w>":1130,"ง</w>":1131,"έ</w>":1132,"̀</w>":1133,"ë</w>":1134,"ϥ</w>":1135,"и</w>":1136,"ὶ</w>":1137,"Α</w>":1138,"ß</w>":1139,"ό</w>":1140,"ξ</w>":1141,"´</w>":1142,"ῷ</w>":1143,"ы</w>":1144,"ł</w>":1145,"б</w>":1146,"Ȩ</w>":1147,"š</w>":1148,"î</w>":1149,"ь</w>":1150,"ῖ</w>":1151,"έ</w>":1152,"Φ</w>":1153,"х</w>":1154,"ћ</w>":1155,"Μ</w>":1156,"द</w>":1157,"т</w>":1158,"ل</w>":1159,"́</w>":1160,"太</w>":1161,"ạ</w>":1162,"ᾳ</w>":1163,"²</w>":1164,"ו</w>":1165,"ต</w>":1166,"ر</w>":1167,"ã</w>":1168,"ب</w>":1169,"ẽ</w>":1170,"ί</w>":1171,"ю</w>":1172,"ὰ</w>":1173,"ἠ</w>":1174,"ὴ</w>":1175,"བ</w>":1176,"τ</w>":1177,"ت</w>":1178,"ș</w>":1179,"ῃ</w>":1180,"ð</w>":1181,"â</w>":1182,"п</w>":1183,"ė</w>":1184,"р</w>":1185,"ĵ</w>":1186,"ή</w>":1187,"ル</w>":1188,"̣</w>":1189,"κ</w>":1190,"ม</w>":1191,"ч</w>":1192,"ω</w>":1193,"ὺ</w>":1194,"ი</w>":1195,"Ö</w>":1196,"れ</w>":1197,"λ</w>":1198,"ن</w>":1199,"ô</w>":1200,"í</w>":1201,"K</w>":1202,"ל</w>":1203,"̃</w>":1204,"ث</w>":1205,"ά</w>":1206,"ण</w>":1207,"у</w>":1208,"↔</w>":1209,"å</w>":1210,"ὸ</w>":1211,"È</w>":1212,"ü</w>":1213,"ン</w>":1214,"ศ</w>":1215,"م</w>":1216,"์</w>":1217,"ɜ</w>":1218,"ي</w>":1219,"ò</w>":1220,"Q</w>":1221,"ր</w>":1222,"ǧ</w>":1223,"ר</w>":1224,"ı</w>":1225,"л</w>":1226,"ه</w>":1227,"ῳ</w>":1228,"ṣ</w>":1229,"ç</w>":1230,"ὲ</w>":1231,"ה</w>":1232,"÷</w>":1233,"Σ</w>":1234,"ק</w>":1235,"خ</w>":1236,"ż</w>":1237,"ï</w>":1238,"с</w>":1239,"ܠ</w>":1240,"−</w>":1241,"χ</w>":1242,"ų</w>":1243,"ψ</w>":1244,"י</w>":1245,"ъ</w>":1246,"ш</w>":1247,"ḥ</w>":1248,"ष</w>":1249,"̅</w>":1250,"ं</w>":1251,"ی</w>":1252,"δ</w>":1253,"ύ</w>":1254,"ń</w>":1255,"ス</w>":1256,"ا</w>":1257,"ร</w>":1258,"ư</w>":1259,"ल</w>":1260,"ὼ</w>":1261,"ܝ</w>":1262,"і</w>":1263,"ă</w>":1264,"ό</w>":1265,"ΐ</w>":1266,"ø</w>":1267,"ܡ</w>":1268,"ц</w>":1269,"ù</w>":1270,"ĕ</w>":1271,"ח</w>":1272,"ع</w>":1273,"ῶ</w>":1274,"Τ</w>":1275,"و</w>":1276,"ϲ</w>":1277,"ḫ</w>":1278,"ú</w>":1279,"̩</w>":1280,"़</w>":1281,"г</w>":1282,"½</w>":1283,"บ</w>":1284,"タ</w>":1285,"ě</w>":1286,"õ</w>":1287,"ώ</w>":1288,"ד</w>":1289,"ϋ</w>":1290,"Γ</w>":1291,"ہ</w>":1292,"ョ</w>":1293,"シ</w>":1294,"ف</w>":1295,"Ι</w>":1296,"Ο</w>":1297,"Ω</w>":1298,"ф</w>":1299,"រ</w>":1300,"■</w>":1301,"Χ</w>":1302,"ὓ</w>":1303,"ş</w>":1304,"א</w>":1305,"Λ</w>":1306,"ն</w>":1307,"ő</w>":1308,"ț</w>":1309,"ك</w>":1310,"ド</w>":1311,"ì</w>":1312,"س</w>":1313,"Ц</w>":1314,"ġ</w>":1315,"ウ</w>":1316,"ラ</w>":1317,"м</w>":1318,"ê</w>":1319,"Ί</w>":1320,"マ</w>":1321,"ñ</w>":1322,"ת</w>":1323,"أ</w>":1324,"ý</w>":1325,"ĭ</w>":1326,"³</w>":1327,"↓</w>":1328,"Ə</w>":1329,"း</w>":1330,"Г</w>":1331,"᾽</w>":1332,"ܪ</w>":1333,"ة</w>":1334,"⟨</w>":1335,"Κ</w>":1336,"᾿</w>":1337,"Υ</w>":1338,"ŭ</w>":1339,"リ</w>":1340,"ţ</w>":1341,"ナ</w>":1342,"Т</w>":1343,"ង</w>":1344,"ܢ</w>":1345,"Ϲ</w>":1346,"ů</w>":1347,"ར</w>":1348,"φ</w>":1349,"ム</w>":1350,"ϰ</w>":1351,"─</w>":1352,"ם</w>":1353,"д</w>":1354,"β</w>":1355,"غ</w>":1356,"グ</w>":1357,"ج</w>":1358,"Π</w>":1359,"น</w>":1360,"्</w>":1361,"ס</w>":1362,"်</w>":1363,"С</w>":1364,"®</w>":1365,"σ</w>":1366,"ო</w>":1367,"–</w>":1368,"И</w>":1369,"К</w>":1370,"い</w>":1371,"と</w>":1372,"ز</w>":1373,"з</w>":1374,"ך</w>":1375,"Є</w>":1376,"Š</w>":1377,"û</w>":1378,"も</w>":1379,"ĩ</w>":1380,"ἃ</w>":1381,"ء</w>":1382,"ą</w>":1383,"ე</w>":1384,"ּ</w>":1385,"А</w>":1386,"ː</w>":1387,"Ρ</w>":1388,"ɪ</w>":1389,"ى</w>":1390,"ს</w>":1391,"チ</w>":1392,"þ</w>":1393,"ğ</w>":1394,"न</w>":1395,"ս</w>":1396,"γ</w>":1397,"э</w>":1398,"ظ</w>":1399,"ϊ</w>":1400,"ž</w>":1401,"本</w>":1402,"ி</w>":1403,"կ</w>":1404,"Á</w>":1405,"♭</w>":1406,"ÿ</w>":1407,"ⲉ</w>":1408,"ʾ</w>":1409,"ի</w>":1410,"ন</w>":1411,"ῡ</w>":1412,"ɛ</w>":1413,"Մ</w>":1414,"ア</w>":1415,"ʹ</w>":1416,"オ</w>":1417,"神</w>":1418,"র</w>":1419,"დ</w>":1420,"Ζ</w>":1421,"バ</w>":1422,"て</w>":1423,"đ</w>":1424,"Л</w>":1425,"ィ</w>":1426,"ב</w>":1427,"ǎ</w>":1428,"É</w>":1429,"ḍ</w>":1430,"정</w>":1431,"ѣ</w>":1432,"ў</w>":1433,"ǔ</w>":1434,"ώ</w>":1435,"←</w>":1436,"ř</w>":1437,"ῤ</w>":1438,"ト</w>":1439,"ق</w>":1440,"Ш</w>":1441,"̄</w>":1442,"Ε</w>":1443,"ह</w>":1444,"त</w>":1445,"パ</w>":1446,"ḏ</w>":1447,"デ</w>":1448,"ṯ</w>":1449,"™</w>":1450,"̥</w>":1451,"Ț</w>":1452,"ャ</w>":1453,"ስ</w>":1454,"♦</w>":1455,"ľ</w>":1456,"ז</w>":1457,"ச</w>":1458,"ล</w>":1459,"ɩ</w>":1460,"ត</w>":1461,"ʰ</w>":1462,"ש</w>":1463,"√</w>":1464,"்</w>":1465,"영</w>":1466,"ζ</w>":1467,"ა</w>":1468,"に</w>":1469,"े</w>":1470,"ک</w>":1471,"ύ</w>":1472,"щ</w>":1473,"ἐ</w>":1474,"̂</w>":1475,"ט</w>":1476,"Î</w>":1477,"ἰ</w>":1478,"่</w>":1479,"ג</w>":1480,"ἱ</w>":1481,"ň</w>":1482,"<</w>":1483,"Ś</w>":1484,"∞</w>":1485,"る</w>":1486,"コ</w>":1487,"Ü</w>":1488,"้</w>":1489,"դ</w>":1490,"ď</w>":1491,"Å</w>":1492,"ল</w>":1493,"ἳ</w>":1494,"ἁ</w>":1495,"ܕ</w>":1496,"ἀ</w>":1497,"Р</w>":1498,"М</w>":1499,"ա</w>":1500,"ṭ</w>":1501,"ბ</w>":1502,"ि</w>":1503,"Н</w>":1504,"क</w>":1505,"ブ</w>":1506,"Ó</w>":1507,"ї</w>":1508,"ก</w>":1509,"ʻ</w>":1510,"ṃ</w>":1511,"ュ</w>":1512,"×</w>":1513,"ग</w>":1514,"ས</w>":1515,"̈</w>":1516,"ダ</w>":1517,"↑</w>":1518,"ἡ</w>":1519,"መ</w>":1520,"プ</w>":1521,"う</w>":1522,"カ</w>":1523,"≠</w>":1524,"ြ</w>":1525,"ག</w>":1526,"տ</w>":1527,"თ</w>":1528,"ʷ</w>":1529,"℟</w>":1530,"΄</w>":1531,"キ</w>":1532,"ṅ</w>":1533,"サ</w>":1534,"Â</w>":1535,"Ↄ</w>":1536,"ὖ</w>":1537,"ย</w>":1538,"会</w>":1539,"В</w>":1540,"ŋ</w>":1541,"ش</w>":1542,"य</w>":1543,"ম</w>":1544,"ِ</w>":1545,"ु</w>":1546,"일</w>":1547,"म</w>":1548,"ǐ</w>":1549,"―</w>":1550,"_</w>":1551,"Ī</w>":1552,"ノ</w>":1553,"ّ</w>":1554,"ệ</w>":1555,"І</w>":1556,"ʃ</w>":1557,"ỉ</w>":1558,"ོ</w>":1559,"ἑ</w>":1560,"յ</w>":1561,"უ</w>":1562,"Ὡ</w>":1563,"̇</w>":1564,"±</w>":1565,"দ</w>":1566,"ط</w>":1567,"ន</w>":1568,"ح</w>":1569,"ẓ</w>":1570,"À</w>":1571,"Ę</w>":1572,"ĝ</w>":1573,"Վ</w>":1574,"ܘ</w>":1575,"О</w>":1576,"ἷ</w>":1577,"Ì</w>":1578,"व</w>":1579,"ŏ</w>":1580,"У</w>":1581,"Ø</w>":1582,"。</w>":1583,"き</w>":1584,"水</w>":1585,"ジ</w>":1586,"ี</w>":1587,"ख</w>":1588,"人</w>":1589,"Į</w>":1590,"า</w>":1591,"く</w>":1592,"ว</w>":1593,"ང</w>":1594,"Х</w>":1595,"զ</w>":1596,"́</w>":1597,"ड</w>":1598,"َ</w>":1599,"ʿ</w>":1600,"Ϭ</w>":1601,"→</w>":1602,"이</w>":1603,"Β</w>":1604,"Θ</w>":1605,"ś</w>":1606,"ồ</w>":1607,"ǒ</w>":1608,"ध</w>":1609,"ϕ</w>":1610,"ิ</w>":1611,"を</w>":1612,"ἴ</w>":1613,"რ</w>":1614,"ɾ</w>":1615,"ј</w>":1616,"∨</w>":1617,"Ф</w>":1618,"島</w>":1619,"Œ</w>":1620,"Ž</w>":1621,"ť</w>":1622,"小</w>":1623,"ὧ</w>":1624,"ྲ</w>":1625,"آ</w>":1626,"¥</w>":1627,"්</w>":1628,"Ú</w>":1629,"ὥ</w>":1630,"Ï</w>":1631,"Ψ</w>":1632,"ְ</w>":1633,"ж</w>":1634,"ص</w>":1635,"श</w>":1636,"Б</w>":1637,"た</w>":1638,"金</w>":1639,"ロ</w>":1640,"گ</w>":1641,"া</w>":1642,"}</w>":1643,"@</w>":1644,"ি</w>":1645,"च</w>":1646,"ज</w>":1647,"З</w>":1648,"ׁ</w>":1649,"は</w>":1650,"南</w>":1651,"[</w>":1652,"木</w>":1653,"ə</w>":1654,"Э</w>":1655,"Ό</w>":1656,"ब</w>":1657,"ַ</w>":1658,"§</w>":1659,"ἧ</w>":1660,"∪</w>":1661,"П</w>":1662,"µ</w>":1663,"記</w>":1664,"Ξ</w>":1665,"ĉ</w>":1666,"ʔ</w>":1667,"ὁ</w>":1668,"ű</w>":1669,"✠</w>":1670,"ˁ</w>":1671,"）</w>":1672,"ガ</w>":1673,"پ</w>":1674,"な</w>":1675,"ṇ</w>":1676,"か</w>":1677,"ὃ</w>":1678,"*</w>":1679,",</w>":1680,"フ</w>":1681,"夫</w>":1682,"ὔ</w>":1683,"レ</w>":1684,"之</w>":1685,"Ò</w>":1686,"?</w>":1687,"Ἥ</w>":1688,"└</w>":1689,"ע</w>":1690,"स</w>":1691,"イ</w>":1692,"ὅ</w>":1693,"Ὀ</w>":1694,"ņ</w>":1695,"⟩</w>":1696,"ზ</w>":1697,"Հ</w>":1698,"ნ</w>":1699,"ር</w>":1700,"Я</w>":1701,"ป</w>":1702,"ា</w>":1703,"┬</w>":1704,"ⲛ</w>":1705,"り</w>":1706,"Ђ</w>":1707,"Ἀ</w>":1708,"Ἁ</w>":1709,"ṛ</w>":1710,"”</w>":1711,"’</w>":1712,"ን</w>":1713,"ἥ</w>":1714,"̓</w>":1715,"མ</w>":1716,"ด</w>":1717,"ἵ</w>":1718,"˙</w>":1719,"ὐ</w>":1720,"आ</w>":1721,"ミ</w>":1722,"東</w>":1723,"ད</w>":1724,"ё</w>":1725,"ἒ</w>":1726,"ू</w>":1727,"ट</w>":1728,"ု</w>":1729,"し</w>":1730,"ช</w>":1731,"道</w>":1732,"Ș</w>":1733,"한</w>":1734,"テ</w>":1735,"ይ</w>":1736,"թ</w>":1737,"ָ</w>":1738,"¬</w>":1739,"Δ</w>":1740,"ἶ</w>":1741,"Ş</w>":1742,"ὀ</w>":1743,"ܬ</w>":1744,"ὒ</w>":1745,"ུ</w>":1746,"լ</w>":1747,"!</w>":1748,"ក</w>":1749,"ხ</w>":1750,"平</w>":1751,"ե</w>":1752,"‐</w>":1753,"~</w>":1754,"〉</w>":1755,"ニ</w>":1756,"‘</w>":1757,"Ā</w>":1758,"भ</w>":1759,"צ</w>":1760,"№</w>":1761,"ो</w>":1762,"ओ</w>":1763,"\\</w>":1764,"ლ</w>":1765,"›</w>":1766,"Þ</w>":1767,"Ч</w>":1768,"₁</w>":1769,";</w>":1770,"ἅ</w>":1771,"郎</w>":1772,"კ</w>":1773,"├</w>":1774,"ֹ</w>":1775,"野</w>":1776,"ὢ</w>":1777,"մ</w>":1778,")</w>":1779,"შ</w>":1780,"ὗ</w>":1781,"Д</w>":1782,"ض</w>":1783,"ὦ</w>":1784,"…</w>":1785,"ⲁ</w>":1786,"ἤ</w>":1787,"=</w>":1788,"ὂ</w>":1789,"･</w>":1790,"國</w>":1791,"Ἐ</w>":1792,"»</w>":1793,"家</w>":1794,"อ</w>":1795,"พ</w>":1796,"Έ</w>":1797,"վ</w>":1798,"་</w>":1799,"Ю</w>":1800,"#</w>":1801,"©</w>":1802,"ῑ</w>":1803,";</w>":1804,"प</w>":1805,"Ǒ</w>":1806,"բ</w>":1807,"ส</w>":1808,"都</w>":1809,"औ</w>":1810,"Ñ</w>":1811,"Е</w>":1812,"Ō</w>":1813,"מ</w>":1814,"Ḥ</w>":1815,"„</w>":1816,"շ</w>":1817,"上</w>":1818,":</w>":1819,"—</w>":1820,"ǫ</w>":1821,"थ</w>":1822,"`</w>":1823,"ქ</w>":1824,"和</w>":1825,"€</w>":1826,"ܒ</w>":1827,"三</w>":1828,"国</w>":1829,"〈</w>":1830,"川</w>":1831,"ἄ</w>":1832,"“</w>":1833,"ῥ</w>":1834,"ἢ</w>":1835,"Ġ</w>":1836,"メ</w>":1837,"ἦ</w>":1838,"ΐ</w>":1839,"¡</w>":1840,"ុ</w>":1841,"פ</w>":1842,"Ż</w>":1843,"Č</w>":1844,"、</w>":1845,"נ</w>":1846,"ſ</w>":1847,"ท</w>":1848,"Ê</w>":1849,"宮</w>":1850,"-</w>":1851,"ტ</w>":1852,"ո</w>":1853,"%</w>":1854,"学</w>":1855,"日</w>":1856,"̔</w>":1857,"″</w>":1858,"ன</w>":1859,"·</w>":1860,"$</w>":1861,"Ж</w>":1862,"></w>":1863,"史</w>":1864,"Ä</w>":1865,"Í</w>":1866,"天</w>":1867,"ค</w>":1868,"«</w>":1869,"&</w>":1870,"ფ</w>":1871,"Ħ</w>":1872,"文</w>":1873,"Ј</w>":1874,"ὄ</w>":1875,"მ</w>":1876,"\"</w>":1877,"エ</w>":1878,"ἣ</w>":1879,"中</w>":1880,"社</w>":1881,"إ</w>":1882,"अ</w>":1883,"Ἤ</w>":1884,"山</w>":1885,"ἔ</w>":1886,"ढ</w>":1887,"⌇</w>":1888,"高</w>":1889,"^</w>":1890,"န</w>":1891,"正</w>":1892,"ვ</w>":1893,"/</w>":1894,"一</w>":1895,"│</w>":1896,".</w>":1897,"子</w>":1898,"ئ</w>":1899,"，</w>":1900,"明</w>":1901,"⏑</w>":1902,"月</w>":1903,"Ĉ</w>":1904,"љ</w>":1905,"大</w>":1906,"(</w>":1907,"မ</w>":1908,"כ</w>":1909,"ὠ</w>":1910,"藤</w>":1911,"ὕ</w>":1912,"ἂ</w>":1913,"≤</w>":1914,"′</w>":1915,"ả</w>":1916,"李</w>":1917,"동</w>":1918,"·</w>":1919,"ւ</w>":1920,"Ἠ</w>":1921,"გ</w>":1922,"|</w>":1923,"उ</w>":1924,"Ὅ</w>":1925,"Ç</w>":1926,"{</w>":1927,"'</w>":1928,"℣</w>":1929,"+</w>":1930,"‹</w>":1931,"க</w>":1932,"Ὁ</w>":1933,"Ł</w>":1934,"Ἡ</w>":1935,"•</w>":1936,"田</w>":1937,"¿</w>":1938,"Կ</w>":1939,"‚</w>":1940,"†</w>":1941,"Đ</w>":1942,"ͮ</w>":1943,"ὡ</w>":1944,"ல</w>":1945,"ุ</w>":1946,"・</w>":1947,"※</w>":1948,"治</w>":1949,"]</w>":1950,"王</w>":1951,"er":1952,"um</w>":1953,"ti":1954,"us</w>":1955,"qu":1956,"en":1957,"in":1958,"an":1959,"on":1960,"or":1961,"li":1962,"es":1963,"et</w>":1964,"at":1965,"di":1966,"is</w>":1967,"ar":1968,"it":1969,"am</w>":1970,"un":1971,"em</w>":1972,"pr":1973,"om":1974,"ec":1975,"st":1976,"ae</w>":1977,"in</w>":1978,"it</w>":1979,"tu":1980,"es</w>":1981,"ic":1982,"no":1983,"su":1984,"im":1985,"ul":1986,"re":1987,"ati":1988,"ac":1989,"is":1990,"er</w>":1991,"ia</w>":1992,"est</w>":1993,"po":1994,"ab":1995,"con":1996,"de":1997,"au":1998,"al":1999,"ib":2000,"per":2001,"ol":2002,"at</w>":2003,"am":2004,"ter":2005,"em":2006,"el":2007,"il":2008,"que</w>":2009,"de</w>":2010,"ip":2011,"ali":2012,"tr":2013,"ex":2014,"dic":2015,"as</w>":2016,"ent":2017,"ur":2018,"ae":2019,"si":2020,"ver":2021,"vi":2022,"os</w>":2023,"non</w>":2024,"se</w>":2025,"unt</w>":2026,"ut</w>":2027,"orum</w>":2028,"ur</w>":2029,"oc":2030,"ad</w>":2031,"sc":2032,"eg":2033,"se":2034,"enti":2035,"ap":2036,"tur</w>":2037,"ili":2038,"quo":2039,"ir":2040,"omin":2041,"um":2042,"ibus</w>":2043,"id":2044,"ag":2045,"pro":2046,"si</w>":2047,"us":2048,"ere</w>":2049,"ist":2050,"qui</w>":2051,"ta</w>":2052,"co":2053,"ad":2054,"te</w>":2055,"tum</w>":2056,"cum</w>":2057,"ation":2058,"ill":2059,"quod</w>":2060,"end":2061,"tis</w>":2062,"ep":2063,"per</w>":2064,"De":2065,"gn":2066,"omn":2067,"com":2068,"tem</w>":2069,"tion":2070,"eni":2071,"str":2072,"lic":2073,"sp":2074,"cl":2075,"ant</w>":2076,"bus</w>":2077,"anc":2078,"pl":2079,"ium</w>":2080,"Qu":2081,"et":2082,"ss":2083,"mun":2084,"and":2085,"or</w>":2086,"tus</w>":2087,"quam</w>":2088,"20":2089,"ius</w>":2090,"fic":2091,"ho":2092,"ti</w>":2093,"itat":2094,"eb":2095,"av":2096,"hab":2097,"ob":2098,"me":2099,"id</w>":2100,"gr":2101,"fu":2102,"ann":2103,"od":2104,"ter</w>":2105,"uc":2106,"par":2107,"itur</w>":2108,"inc":2109,"eti":2110,"ens":2111,"fac":2112,"atur</w>":2113,"atis</w>":2114,"quae</w>":2115,"ata</w>":2116,"ens</w>":2117,"are</w>":2118,"io</w>":2119,"tin":2120,"ex</w>":2121,"ess":2122,"ent</w>":2123,"ub":2124,"prae":2125,"tur":2126,"19":2127,"el</w>":2128,"atr":2129,"fec":2130,"sed</w>":2131,"iam</w>":2132,"as":2133,"to</w>":2134,"200":2135,"ell":2136,"arum</w>":2137,"Ch":2138,"Domin":2139,"en</w>":2140,"fr":2141,"sunt</w>":2142,"iae</w>":2143,"por":2144,"ne":2145,"enim</w>":2146,"ser":2147,"jus</w>":2148,"quia</w>":2149,"imus</w>":2150,"II</w>":2151,"ig":2152,"autem</w>":2153,"cles":2154,"cor":2155,"tat":2156,"cu":2157,"pra":2158,"sec":2159,"nostr":2160,"mon":2161,"on</w>":2162,"esse</w>":2163,"mor":2164,"ch":2165,"oria</w>":2166,"reg":2167,"tem":2168,"man":2169,"op":2170,"hoc</w>":2171,"iss":2172,"fer":2173,"atus</w>":2174,"ii</w>":2175,"lis</w>":2176,"pos":2177,"sanc":2178,"ven":2179,"edi":2180,"ips":2181,"Chr":2182,"erit</w>":2183,"vel</w>":2184,"os":2185,"ed":2186,"und":2187,"tor":2188,"ab</w>":2189,"ita</w>":2190,"sol":2191,"lib":2192,"fi":2193,"tan":2194,"inter":2195,"ud</w>":2196,"Cat":2197,"post":2198,"ine</w>":2199,"leg":2200,"pul":2201,"Pr":2202,"ud":2203,"sti":2204,"th":2205,"ju":2206,"Et</w>":2207,"pot":2208,"for":2209,"go</w>":2210,"sub":2211,"min":2212,"ac</w>":2213,"deb":2214,"idem</w>":2215,"lig":2216,"dit</w>":2217,"etiam</w>":2218,"ut":2219,"rec":2220,"In":2221,"scr":2222,"cr":2223,"entes</w>":2224,"egoria</w>":2225,"ci":2226,"vers":2227,"du":2228,"Christ":2229,"pro</w>":2230,"An":2231,"Categoria</w>":2232,"anti":2233,"atum</w>":2234,"etur</w>":2235,"epis":2236,"erat</w>":2237,"tam":2238,"erunt</w>":2239,"pon":2240,"res":2241,"ati</w>":2242,"ari</w>":2243,"vir":2244,"mul":2245,"ing":2246,"des":2247,"cop":2248,"itus</w>":2249,"ion":2250,"sit</w>":2251,"pec":2252,"Dei</w>":2253,"loc":2254,"ea</w>":2255,"spec":2256,"an</w>":2257,"ejus</w>":2258,"alis</w>":2259,"bis</w>":2260,"avit</w>":2261,"commun":2262,"atione</w>":2263,"hi":2264,"og":2265,"terr":2266,"mod":2267,"ne</w>":2268,"tione</w>":2269,"dec":2270,"fili":2271,"quid</w>":2272,"ang":2273,"ni":2274,"sion":2275,"quo</w>":2276,"homin":2277,"mag":2278,"aut</w>":2279,"me</w>":2280,"vol":2281,"anno</w>":2282,"unc</w>":2283,"bon":2284,"nec</w>":2285,"prop":2286,"Se":2287,"qua":2288,"tio</w>":2289,"episcop":2290,"uit</w>":2291,"tam</w>":2292,"acc":2293,"ves":2294,"sic":2295,"tes</w>":2296,"aec</w>":2297,"nos</w>":2298,"car":2299,"vit":2300,"ca":2301,"sal":2302,"ten":2303,"atio</w>":2304,"anim":2305,"ensis</w>":2306,"cel":2307,"ov":2308,"mus</w>":2309,"eo</w>":2310,"antur</w>":2311,"tra</w>":2312,"itate</w>":2313,"din":2314,"Ec":2315,"ull":2316,"ni</w>":2317,"cre":2318,"eccles":2319,"eum</w>":2320,"hu":2321,"ibi</w>":2322,"Mar":2323,"entia</w>":2324,"int</w>":2325,"voc":2326,"int":2327,"mis":2328,"vero</w>":2329,"ore</w>":2330,"praes":2331,"iis</w>":2332,"to":2333,"eret</w>":2334,"qua</w>":2335,"In</w>":2336,"sa":2337,"poss":2338,"aph":2339,"br":2340,"iti":2341,"III</w>":2342,"ationem</w>":2343,"sac":2344,"ici</w>":2345,"audi":2346,"jus":2347,"tamen</w>":2348,"prim":2349,"amus</w>":2350,"die</w>":2351,"itas</w>":2352,"orem</w>":2353,"ma":2354,"apud</w>":2355,"vin":2356,"ores</w>":2357,"199":2358,"scrip":2359,"bi</w>":2360,"sicut</w>":2361,"tae</w>":2362,"Fr":2363,"Al":2364,"agin":2365,"tionem</w>":2366,"oris</w>":2367,"mer":2368,"serv":2369,"Eccles":2370,"ogr":2371,"iu":2372,"itum</w>":2373,"ign":2374,"Th":2375,"ern":2376,"turae</w>":2377,"gen":2378,"dum</w>":2379,"ast":2380,"adi":2381,"isse</w>":2382,"atque</w>":2383,"fl":2384,"Con":2385,"atur":2386,"Ar":2387,"nobis</w>":2388,"dem</w>":2389,"oper":2390,"mi":2391,"untur</w>":2392,"hi</w>":2393,"di</w>":2394,"cap":2395,"pecc":2396,"ei</w>":2397,"itatem</w>":2398,"praefec":2399,"Deus</w>":2400,"exus</w>":2401,"tu</w>":2402,"pu":2403,"ante</w>":2404,"col":2405,"re</w>":2406,"ergo</w>":2407,"ograph":2408,"XX":2409,"Au":2410,"ando</w>":2411,"eri</w>":2412,"Com":2413,"cur":2414,"disc":2415,"lec":2416,"etr":2417,"entibus</w>":2418,"secund":2419,"duc":2420,"inqu":2421,"tic":2422,"dis</w>":2423,"18":2424,"fir":2425,"nomin":2426,"aver":2427,"sim":2428,"dix":2429,"tes":2430,"mal":2431,"isi</w>":2432,"tempor":2433,"Rom":2434,"erum</w>":2435,"sem":2436,"Nexus</w>":2437,"De</w>":2438,"gl":2439,"null":2440,"ente</w>":2441,"vid":2442,"itatis</w>":2443,"aus":2444,"usque</w>":2445,"anus</w>":2446,"super":2447,"praefecturae</w>":2448,"sum":2449,"hum":2450,"eat</w>":2451,"vide":2452,"endum</w>":2453,"tim":2454,"ationis</w>":2455,"tas</w>":2456,"eli":2457,"ie</w>":2458,"entis</w>":2459,"Sed</w>":2460,"mo":2461,"ev":2462,"super</w>":2463,"sign":2464,"ass":2465,"entiam</w>":2466,"fide":2467,"quis</w>":2468,"eris</w>":2469,"mit":2470,"domin":2471,"quibus</w>":2472,"ffic":2473,"tali":2474,"auc":2475,"ipse</w>":2476,"quem</w>":2477,"vic":2478,"conc":2479,"celata</w>":2480,"tran":2481,"quidem</w>":2482,"stitu":2483,"patr":2484,"Si</w>":2485,"Jo":2486,"spect":2487,"nisi</w>":2488,"dam</w>":2489,"ri":2490,"post</w>":2491,"ebat</w>":2492,"tate</w>":2493,"grati":2494,"eorum</w>":2495,"ani</w>":2496,"sequ":2497,"od</w>":2498,"ssim":2499,"unc":2500,"umque</w>":2501,"entur</w>":2502,"fuit</w>":2503,"firm":2504,"ph":2505,"inter</w>":2506,"ve</w>":2507,"ulo</w>":2508,"sibi</w>":2509,"uli":2510,"plur":2511,"esc":2512,"entum</w>":2513,"incip":2514,"cog":2515,"fin":2516,"ula</w>":2517,"irc":2518,"sic</w>":2519,"veni":2520,"spir":2521,"lo":2522,"mem":2523,"omnibus</w>":2524,"Deo</w>":2525,"oli":2526,"tatem</w>":2527,"fratr":2528,"omnes</w>":2529,"ali</w>":2530,"enti</w>":2531,"ic</w>":2532,"edic":2533,"don":2534,"do</w>":2535,"sum</w>":2536,"iter</w>":2537,"asc":2538,"aeter":2539,"exter":2540,"ri</w>":2541,"faci":2542,"entem</w>":2543,"apost":2544,"al</w>":2545,"lius</w>":2546,"eos</w>":2547,"ben":2548,"Dominus</w>":2549,"omnia</w>":2550,"praec":2551,"caus":2552,"haec</w>":2553,"nec":2554,"pres":2555,"no</w>":2556,"Gr":2557,"vestr":2558,"illa</w>":2559,"can":2560,"judic":2561,"dign":2562,"ille</w>":2563,"tius</w>":2564,"fes":2565,"titu":2566,"ater</w>":2567,"tionis</w>":2568,"Di":2569,"pri":2570,"ans</w>":2571,"his</w>":2572,"ire</w>":2573,"ro</w>":2574,"eric":2575,"Sanc":2576,"regn":2577,"verb":2578,"emus</w>":2579,"doc":2580,"ubi</w>":2581,"imper":2582,"sine</w>":2583,"tia</w>":2584,"pi":2585,"pus</w>":2586,"eis</w>":2587,"tibus</w>":2588,"mar":2589,"Domini</w>":2590,"Ma":2591,"Non</w>":2592,"ebr":2593,"liber":2594,"yr":2595,"ato</w>":2596,"icip":2597,"ina</w>":2598,"quoque</w>":2599,"cer":2600,"na</w>":2601,"uli</w>":2602,"be":2603,"secundum</w>":2604,"circ":2605,"quan":2606,"tab":2607,"ll":2608,"aud":2609,"eograph":2610,"ate</w>":2611,"No":2612,"sul":2613,"suis</w>":2614,"ide":2615,"hon":2616,"popul":2617,"corpor":2618,"Commun":2619,"aque</w>":2620,"obis</w>":2621,"vis":2622,"ost":2623,"ilis</w>":2624,"ori":2625,"dicit</w>":2626,"tibi</w>":2627,"alia</w>":2628,"dom":2629,"nov":2630,"IN":2631,"mihi</w>":2632,"Ver":2633,"propter</w>":2634,"sur":2635,"sua</w>":2636,"modo</w>":2637,"ana</w>":2638,"Franc":2639,"10</w>":2640,"inde</w>":2641,"Christi</w>":2642,"abb":2643,"Petr":2644,"itis</w>":2645,"ulum</w>":2646,"ano</w>":2647,"torum</w>":2648,"uni":2649,"eam</w>":2650,"plic":2651,"uti":2652,"contra</w>":2653,"divin":2654,"Am":2655,"vos</w>":2656,"pe":2657,"Patr":2658,"son":2659,"dus</w>":2660,"Haec</w>":2661,"oribus</w>":2662,"xim":2663,"uer":2664,"2000</w>":2665,"ini</w>":2666,"ipi":2667,"pell":2668,"sius</w>":2669,"endo</w>":2670,"oniam</w>":2671,"her":2672,"jam</w>":2673,"val":2674,"up":2675,"Communia</w>":2676,"issim":2677,"tor</w>":2678,"sci":2679,"ensi</w>":2680,"dia</w>":2681,"potest</w>":2682,"ari":2683,"hic</w>":2684,"princip":2685,"eius</w>":2686,"ma</w>":2687,"isc":2688,"sub</w>":2689,"Vic":2690,"ione</w>":2691,"commune</w>":2692,"Quod</w>":2693,"non":2694,"ito</w>":2695,"lit":2696,"dicitur</w>":2697,"gu":2698,"vobis</w>":2699,"Sp":2700,"SE":2701,"utr":2702,"vul":2703,"quasi</w>":2704,"hil</w>":2705,"Un":2706,"ulis</w>":2707,"ait</w>":2708,"prob":2709,"ux":2710,"num":2711,"hib":2712,"quos</w>":2713,"ini":2714,"igitur</w>":2715,"arch":2716,"quando</w>":2717,"erant</w>":2718,"illi</w>":2719,"cul":2720,"externi</w>":2721,"licet</w>":2722,"aur":2723,"Itali":2724,"12</w>":2725,"ica</w>":2726,"ator</w>":2727,"red":2728,"suo</w>":2729,"tific":2730,"10":2731,"saec":2732,"coel":2733,"icus</w>":2734,"af":2735,"vinc":2736,"isti":2737,"Deum</w>":2738,"habent</w>":2739,"cc":2740,"prom":2741,"hom":2742,"qui":2743,"2001</w>":2744,"ordin":2745,"neg":2746,"dem":2747,"ublic":2748,"consi":2749,"ss</w>":2750,"alter":2751,"enter</w>":2752,"endi</w>":2753,"alem</w>":2754,"ellig":2755,"sive</w>":2756,"avi":2757,"aliter</w>":2758,"han":2759,"neque</w>":2760,"Br":2761,"do":2762,"istr":2763,"Fili":2764,"im</w>":2765,"pen":2766,"all":2767,"fam":2768,"inis</w>":2769,"ber":2770,"aes":2771,"ant":2772,"natur":2773,"uum</w>":2774,"exc":2775,"tatis</w>":2776,"Tr":2777,"auctor":2778,"eh":2779,"pe</w>":2780,"Qui</w>":2781,"ego</w>":2782,"11</w>":2783,"eter":2784,"Car":2785,"aec":2786,"ite</w>":2787,"err":2788,"dis":2789,"Nam</w>":2790,"medi":2791,"Pa":2792,"nunc</w>":2793,"anum</w>":2794,"virtu":2795,"mortu":2796,"num</w>":2797,"sacr":2798,"nam</w>":2799,"isset</w>":2800,"viv":2801,"icae</w>":2802,"etc</w>":2803,"of</w>":2804,"praedic":2805,"enta</w>":2806,"intellig":2807,"eod":2808,"IV</w>":2809,"trib":2810,"ce</w>":2811,"ef":2812,"esset</w>":2813,"Spir":2814,"urb":2815,"vo":2816,"sui</w>":2817,"api":2818,"nosc":2819,"put":2820,"præ":2821,"Ne":2822,"ipsum</w>":2823,"entium</w>":2824,"ar</w>":2825,"cet</w>":2826,"ius":2827,"antes</w>":2828,"17":2829,"proc":2830,"mo</w>":2831,"Cl":2832,"aer":2833,"ific":2834,"Domino</w>":2835,"suum</w>":2836,"lab":2837,"nihil</w>":2838,"tium</w>":2839,"sancti</w>":2840,"ach":2841,"tar":2842,"nis</w>":2843,"quid":2844,"der":2845,"sep":2846,"ale</w>":2847,"itu</w>":2848,"atu":2849,"nomine</w>":2850,"contr":2851,"hor":2852,"Ho":2853,"crip":2854,"16</w>":2855,"imp":2856,"sione</w>":2857,"cui</w>":2858,"ah":2859,"suam</w>":2860,"ipsa</w>":2861,"fuerit</w>":2862,"tui</w>":2863,"tos</w>":2864,"episcopus</w>":2865,"enda</w>":2866,"andum</w>":2867,"ile</w>":2868,"litter":2869,"ales</w>":2870,"icum</w>":2871,"public":2872,"tempore</w>":2873,"pac":2874,"semper</w>":2875,"14</w>":2876,"ilicet</w>":2877,"noc":2878,"illis</w>":2879,"potes":2880,"quoniam</w>":2881,"omni</w>":2882,"istor":2883,"aster":2884,"15":2885,"itati</w>":2886,"arii</w>":2887,"inquit</w>":2888,"INSE":2889,"INSEE</w>":2890,"amp":2891,"sens":2892,"Io":2893,"contin":2894,"IS":2895,"tua</w>":2896,"olus</w>":2897,"civ":2898,"pertin":2899,"habet</w>":2900,"ym":2901,"miss":2902,"stanti":2903,"Ph":2904,"ino</w>":2905,"ori</w>":2906,"vel":2907,"illud</w>":2908,"onis</w>":2909,"scilicet</w>":2910,"entiae</w>":2911,"loqu":2912,"sus</w>":2913,"Lati":2914,"ulus</w>":2915,"13</w>":2916,"constitu":2917,"Jes":2918,"mir":2919,"mili":2920,"venit</w>":2921,"itud":2922,"geograph":2923,"urg":2924,"nostri</w>":2925,"ane</w>":2926,"idi":2927,"omen</w>":2928,"odi":2929,"susc":2930,"ationes</w>":2931,"Er":2932,"propr":2933,"mand":2934,"ug":2935,"15</w>":2936,"futur":2937,"ong":2938,"terra</w>":2939,"ui</w>":2940,"ul</w>":2941,"isque</w>":2942,"hanc</w>":2943,"epit</w>":2944,"aris</w>":2945,"vis</w>":2946,"VI</w>":2947,"dixit</w>":2948,"12":2949,"16":2950,"udi":2951,"trans":2952,"char":2953,"For":2954,"2002</w>":2955,"redi":2956,"loco</w>":2957,"Ex":2958,"titi":2959,"unum</w>":2960,"Su":2961,"aret</w>":2962,"una</w>":2963,"sti</w>":2964,"tantum</w>":2965,"poen":2966,"tuum</w>":2967,"luc":2968,"homo</w>":2969,"ili</w>":2970,"hac</w>":2971,"appell":2972,"isti</w>":2973,"Ger":2974,"Jud":2975,"res</w>":2976,"ct</w>":2977,"person":2978,"angu":2979,"Ecclesiae</w>":2980,"arb":2981,"incol":2982,"14":2983,"causa</w>":2984,"nostra</w>":2985,"salu":2986,"ebant</w>":2987,"Mon":2988,"conf":2989,"port":2990,"edia</w>":2991,"ing</w>":2992,"aliis</w>":2993,"odo</w>":2994,"ider":2995,"sent":2996,"xit</w>":2997,"ingu":2998,"pa":2999,"Col":3000,"volun":3001,"municip":3002,"sionem</w>":3003,"Cum</w>":3004,"CA":3005,"stipul":3006,"offic":3007,"rep":3008,"13":3009,"Re":3010,"aposto":3011,"dilig":3012,"17</w>":3013,"cujus</w>":3014,"iur":3015,"advers":3016,"illum</w>":3017,"nun":3018,"poli":3019,"magis</w>":3020,"erc":3021,"plura</w>":3022,"Pagin":3023,"Mat":3024,"Vi":3025,"tunc</w>":3026,"ero</w>":3027,"rog":3028,"arg":3029,"monaster":3030,"quam":3031,"Christus</w>":3032,"aria</w>":3033,"potes</w>":3034,"dub":3035,"jur":3036,"dam":3037,"respon":3038,"ipsius</w>":3039,"necess":3040,"ento</w>":3041,"amb":3042,"ides</w>":3043,"fug":3044,"iudic":3045,"ique</w>":3046,"erint</w>":3047,"quæ</w>":3048,"form":3049,"20</w>":3050,"abs":3051,"solum</w>":3052,"ot":3053,"iliter</w>":3054,"enus</w>":3055,"la":3056,"rig":3057,"sio</w>":3058,"Ang":3059,"and</w>":3060,"proph":3061,"ipso</w>":3062,"19</w>":3063,"Unde</w>":3064,"fecit</w>":3065,"sacer":3066,"huc</w>":3067,"Is":3068,"gratia</w>":3069,"18</w>":3070,"Reg":3071,"memor":3072,"imo</w>":3073,"1999</w>":3074,"VIII</w>":3075,"omnium</w>":3076,"norum</w>":3077,"Cor":3078,"natus</w>":3079,"one</w>":3080,"erent</w>":3081,"sing":3082,"illo</w>":3083,"quas</w>":3084,"annis</w>":3085,"lib</w>":3086,"mea</w>":3087,"lium</w>":3088,"vi</w>":3089,"va</w>":3090,"jec":3091,"Quid</w>":3092,"bona</w>":3093,"nomen</w>":3094,"scrib":3095,"tores</w>":3096,"suae</w>":3097,"le":3098,"ideo</w>":3099,"tiones</w>":3100,"succ":3101,"dol":3102,"oth":3103,"lat":3104,"eretur</w>":3105,"nus</w>":3106,"tissim":3107,"of":3108,"cat":3109,"pagin":3110,"spectant</w>":3111,"prec":3112,"ora</w>":3113,"inus</w>":3114,"nex":3115,"Apost":3116,"istol":3117,"angeli":3118,"ilia</w>":3119,"haer":3120,"ster":3121,"VII</w>":3122,"Sal":3123,"Christo</w>":3124,"sapi":3125,"Hoc</w>":3126,"le</w>":3127,"unde</w>":3128,"modum</w>":3129,"iti</w>":3130,"arium</w>":3131,"li</w>":3132,"annes</w>":3133,"Ecclesia</w>":3134,"olog":3135,"Mor":3136,"seu</w>":3137,"endit</w>":3138,"just":3139,"histor":3140,"pere</w>":3141,"empl":3142,"univers":3143,"averunt</w>":3144,"ericor":3145,"dilec":3146,"illi":3147,"spectat</w>":3148,"abat</w>":3149,"omodo</w>":3150,"elec":3151,"ias</w>":3152,"hujus</w>":3153,"ense</w>":3154,"plac":3155,"cap</w>":3156,"gener":3157,"ipsi</w>":3158,"Ev":3159,"Sancti</w>":3160,"def":3161,"Vicim":3162,"Sti":3163,"ario</w>":3164,"Vicimedia</w>":3165,"apostolic":3166,"lu":3167,"198":3168,"peti":3169,"cal":3170,"ich":3171,"Sa":3172,"apti":3173,"Scrip":3174,"Roman":3175,"cup":3176,"Ad":3177,"lac":3178,"Loc":3179,"sup":3180,"sen":3181,"oph":3182,"sor":3183,"aliquid</w>":3184,"sumus</w>":3185,"fica</w>":3186,"ationibus</w>":3187,"pan":3188,"discip":3189,"inem</w>":3190,"habere</w>":3191,"tit</w>":3192,"credi":3193,"iv":3194,"reli":3195,"ico</w>":3196,"Mo":3197,"adem</w>":3198,"incolarum</w>":3199,"potu":3200,"pli":3201,"Paginae</w>":3202,"th</w>":3203,"peri":3204,"misericor":3205,"sint</w>":3206,"Nov":3207,"ice</w>":3208,"atorum</w>":3209,"fund":3210,"cred":3211,"Graec":3212,"eant</w>":3213,"the</w>":3214,"maxim":3215,"poter":3216,"signific":3217,"ista</w>":3218,"ici":3219,"Fl":3220,"atores</w>":3221,"amque</w>":3222,"arius</w>":3223,"rex</w>":3224,"Situs</w>":3225,"tig":3226,"St":3227,"fuisse</w>":3228,"Ur":3229,"oci":3230,"egr":3231,"arr":3232,"ung":3233,"pra</w>":3234,"long":3235,"stipula</w>":3236,"lit</w>":3237,"xta</w>":3238,"laud":3239,"provinc":3240,"The</w>":3241,"lin":3242,"soli":3243,"atibus</w>":3244,"dictum</w>":3245,"sal</w>":3246,"Ego</w>":3247,"Le":3248,"parte</w>":3249,"ier":3250,"consu":3251,"24</w>":3252,"etu":3253,"sectione</w>":3254,"internorum</w>":3255,"Ampli":3256,"pulae</w>":3257,"elic":3258,"filius</w>":3259,"nexuum</w>":3260,"Im":3261,"carn":3262,"desider":3263,"Stipulae</w>":3264,"Amplifica</w>":3265,"andi</w>":3266,"interni</w>":3267,"ministr":3268,"pap":3269,"bell":3270,"comm":3271,"posu":3272,"alium</w>":3273,"iles</w>":3274,"Dominum</w>":3275,"uti</w>":3276,"21</w>":3277,"quorum</w>":3278,"rem":3279,"occ":3280,"etis</w>":3281,"acon":3282,"Christum</w>":3283,"pati":3284,"Domine</w>":3285,"Ad</w>":3286,"sangu":3287,"indic":3288,"illius</w>":3289,"fieri</w>":3290,"dine</w>":3291,"adhuc</w>":3292,"posi":3293,"reti":3294,"vere</w>":3295,"speci":3296,"terram</w>":3297,"Ro":3298,"canon":3299,"sacerdo":3300,"matr":3301,"ecclesia</w>":3302,"tere</w>":3303,"libr":3304,"nem":3305,"ob</w>":3306,"pat":3307,"asse</w>":3308,"vita</w>":3309,"homines</w>":3310,"Per":3311,"oli</w>":3312,"Par":3313,"eper":3314,"dies</w>":3315,"infer":3316,"dicens</w>":3317,"quin":3318,"sy":3319,"intr":3320,"atam</w>":3321,"Psal</w>":3322,"Christi":3323,"30</w>":3324,"videtur</w>":3325,"ik":3326,"Sic</w>":3327,"ena</w>":3328,"fratres</w>":3329,"cust":3330,"hominum</w>":3331,"AN":3332,"maj":3333,"exempl":3334,"facta</w>":3335,"alibus</w>":3336,"habit":3337,"Or":3338,"da</w>":3339,"avi</w>":3340,"locum</w>":3341,"Mun":3342,"disp":3343,"supra</w>":3344,"exerc":3345,"lingu":3346,"oque</w>":3347,"eadem</w>":3348,"ejus":3349,"idata</w>":3350,"itr":3351,"Pag":3352,"ebatur</w>":3353,"muli":3354,"fidem</w>":3355,"pas":3356,"cruc":3357,"sa</w>":3358,"ue</w>":3359,"relig":3360,"Ap":3361,"condi":3362,"edit</w>":3363,"timon":3364,"diss":3365,"facere</w>":3366,"abit</w>":3367,"epistol":3368,"era</w>":3369,"spirit":3370,"fruc":3371,"verba</w>":3372,"Mag":3373,"filii</w>":3374,"ed</w>":3375,"Ill":3376,"rever":3377,"presb":3378,"197":3379,"tyr":3380,"itaque</w>":3381,"Loci</w>":3382,"corpus</w>":3383,"25</w>":3384,"22</w>":3385,"23</w>":3386,"estis</w>":3387,"sae":3388,"requ":3389,"rerum</w>":3390,"mi</w>":3391,"Co":3392,"tare</w>":3393,"Om":3394,"ionis</w>":3395,"sper":3396,"deo</w>":3397,"Ut</w>":3398,"Ep":3399,"alii</w>":3400,"turb":3401,"perpe":3402,"atae</w>":3403,"IX</w>":3404,"tum":3405,"perfec":3406,"dex</w>":3407,"pugn":3408,"Ali":3409,"pau":3410,"vig":3411,"tuam</w>":3412,"eas</w>":3413,"cogn":3414,"les</w>":3415,"ty</w>":3416,"eta</w>":3417,"US</w>":3418,"consul":3419,"tol":3420,"preh":3421,"ecclesi":3422,"icis</w>":3423,"inum</w>":3424,"tul":3425,"tuo</w>":3426,"ionem</w>":3427,"caeter":3428,"pal":3429,"rei</w>":3430,"ulg":3431,"illam</w>":3432,"cunc":3433,"nob":3434,"Sep</w>":3435,"2003</w>":3436,"pet":3437,"ith</w>":3438,"vitae</w>":3439,"mol":3440,"bris</w>":3441,"uel</w>":3442,"aliud</w>":3443,"anda</w>":3444,"inc</w>":3445,"Gu":3446,"templ":3447,"nostris</w>":3448,"nae</w>":3449,"fidei</w>":3450,"sump":3451,"temp":3452,"tat</w>":3453,"26</w>":3454,"omnis</w>":3455,"trac":3456,"uerit</w>":3457,"essit</w>":3458,"eodem</w>":3459,"chr":3460,"Municip":3461,"Her":3462,"ec</w>":3463,"unus</w>":3464,"Quia</w>":3465,"ton":3466,"29</w>":3467,"factum</w>":3468,"senti":3469,"curr":3470,"modi</w>":3471,"Cr":3472,"confirm":3473,"28</w>":3474,"atim</w>":3475,"ael</w>":3476,"dinem</w>":3477,"nostro</w>":3478,"nim":3479,"bapti":3480,"glori":3481,"asi":3482,"possit</w>":3483,"cogit":3484,"possi":3485,"yp":3486,"forte</w>":3487,"Gal":3488,"Ab":3489,"Uni":3490,"minus</w>":3491,"Sic":3492,"ON":3493,"den":3494,"Hier":3495,"quomodo</w>":3496,"videlicet</w>":3497,"Judae":3498,"Spiritus</w>":3499,"vitam</w>":3500,"cas":3501,"archi":3502,"mei</w>":3503,"etic":3504,"greg":3505,"XXX":3506,"holic":3507,"tent":3508,"ifes":3509,"Evangeli":3510,"Ex</w>":3511,"Val":3512,"dif":3513,"onem</w>":3514,"Matth</w>":3515,"nostrum</w>":3516,"sed":3517,"quantum</w>":3518,"habitati</w>":3519,"episcopi</w>":3520,"tradi":3521,"tura</w>":3522,"sionis</w>":3523,"endam</w>":3524,"27</w>":3525,"sermon":3526,"Pater</w>":3527,"Ben":3528,"nol":3529,"concili":3530,"rebus</w>":3531,"ster</w>":3532,"RI":3533,"communium</w>":3534,"corr":3535,"sin":3536,"appar":3537,"erab":3538,"with</w>":3539,"testimon":3540,"ulos</w>":3541,"anae</w>":3542,"Bo":3543,"reper":3544,"tinus</w>":3545,"Sep":3546,"atu</w>":3547,"aper":3548,"tempus</w>":3549,"historici</w>":3550,"mula</w>":3551,"circum":3552,"angel":3553,"hunc</w>":3554,"Vir":3555,"meum</w>":3556,"cognosc":3557,"quem":3558,"regione</w>":3559,"stin":3560,"secu":3561,"hominem</w>":3562,"bene</w>":3563,"mortuus</w>":3564,"ima</w>":3565,"ilem</w>":3566,"unti":3567,"amur</w>":3568,"endi":3569,"inim":3570,"ger":3571,"Lib":3572,"Notae</w>":3573,"geographici</w>":3574,"anu":3575,"antibus</w>":3576,"lio</w>":3577,"venire</w>":3578,"communis</w>":3579,"refer":3580,"aedi":3581,"uno</w>":3582,"astic":3583,"posse</w>":3584,"2004</w>":3585,"anis</w>":3586,"German":3587,"Isr":3588,"Wik":3589,"opus</w>":3590,"prius</w>":3591,"inv":3592,"ax":3593,"st</w>":3594,"fici":3595,"nulla</w>":3596,"fide</w>":3597,"unque</w>":3598,"Ac":3599,"mut":3600,"At":3601,"averit</w>":3602,"quaes":3603,"quip":3604,"Petri</w>":3605,"mss</w>":3606,"divers":3607,"dig":3608,"mortem</w>":3609,"regis</w>":3610,"Geograph":3611,"rem</w>":3612,"institu":3613,"Pages</w>":3614,"humili":3615,"Wikidata</w>":3616,"manifes":3617,"ality</w>":3618,"episcopo</w>":3619,"benedic":3620,"quad":3621,"fig":3622,"intell":3623,"using</w>":3624,"ensem</w>":3625,"mundi</w>":3626,"pontific":3627,"scriptum</w>":3628,"vit</w>":3629,"Formula</w>":3630,"inae</w>":3631,"lia</w>":3632,"grav":3633,"Davi":3634,"Sign":3635,"Nati</w>":3636,"tatur</w>":3637,"bene":3638,"viti":3639,"manus</w>":3640,"eor":3641,"accep":3642,"sis</w>":3643,"code</w>":3644,"tanquam</w>":3645,"vir</w>":3646,"minist":3647,"Aug":3648,"virg":3649,"ecclesiam</w>":3650,"Prov":3651,"priv":3652,"hominis</w>":3653,"municipality</w>":3654,"justiti":3655,"primum</w>":3656,"atos</w>":3657,"Vide</w>":3658,"Hu":3659,"impl":3660,"enses</w>":3661,"His":3662,"quat":3663,"lae":3664,"juxta</w>":3665,"00</w>":3666,"libro</w>":3667,"duo</w>":3668,"debet</w>":3669,"tuae</w>":3670,"Ca":3671,"Italiae</w>":3672,"Luc":3673,"Pl":3674,"corporis</w>":3675,"usc":3676,"pedi":3677,"verum</w>":3678,"Joan</w>":3679,"Aug</w>":3680,"dedit</w>":3681,"la</w>":3682,"Provinc":3683,"anni</w>":3684,"Univers":3685,"atem</w>":3686,"oed":3687,"ath":3688,"bonum</w>":3689,"quae":3690,"postea</w>":3691,"clam":3692,"TI":3693,"primo</w>":3694,"perc":3695,"bi":3696,"quidam</w>":3697,"Alex":3698,"san":3699,"1998</w>":3700,"dere</w>":3701,"circa</w>":3702,"Oct</w>":3703,"ump":3704,"glor":3705,"At</w>":3706,"quis":3707,"anima</w>":3708,"diab":3709,"ibli":3710,"noster</w>":3711,"quippe</w>":3712,"stat</w>":3713,"fur":3714,"UM</w>":3715,"piet":3716,"presby":3717,"spic":3718,"BN</w>":3719,"factus</w>":3720,"2005</w>":3721,"ISBN</w>":3722,"tini</w>":3723,"dicere</w>":3724,"essus</w>":3725,"Lu":3726,"celebr":3727,"Mss</w>":3728,"plen":3729,"endere</w>":3730,"fal":3731,"infirm":3732,"osa</w>":3733,"ced":3734,"atoris</w>":3735,"31</w>":3736,"verbis</w>":3737,"oni":3738,"sch":3739,"inam</w>":3740,"ind":3741,"ibus":3742,"potius</w>":3743,"tribu":3744,"gratiam</w>":3745,"poenit":3746,"undi":3747,"suos</w>":3748,"pret":3749,"manu</w>":3750,"Pro":3751,"auctoritate</w>":3752,"cen":3753,"ua</w>":3754,"studi":3755,"monstr":3756,"ecclesiae</w>":3757,"multa</w>":3758,"ior</w>":3759,"hominibus</w>":3760,"Augu":3761,"del":3762,"so":3763,"Augus":3764,"rel":3765,"civit":3766,"quaer":3767,"uerunt</w>":3768,"posses":3769,"tec":3770,"Hic</w>":3771,"opera</w>":3772,"istis</w>":3773,"arc":3774,"196":3775,"Urb":3776,"Dec":3777,"atic":3778,"titia</w>":3779,"simul</w>":3780,"observ":3781,"ecclesie</w>":3782,"itatum</w>":3783,"inf":3784,"obus</w>":3785,"facit</w>":3786,"Ven":3787,"praecip":3788,"ura</w>":3789,"summ":3790,"psal":3791,"aem":3792,"enn":3793,"Nec</w>":3794,"ardus</w>":3795,"salutem</w>":3796,"ges":3797,"David</w>":3798,"EN":3799,"Alexand":3800,"infr":3801,"regnum</w>":3802,"omnino</w>":3803,"inven":3804,"abant</w>":3805,"atis":3806,"resur":3807,"sancto</w>":3808,"termin":3809,"Indic":3810,"annum</w>":3811,"cuius</w>":3812,"Ber":3813,"ipsis</w>":3814,"vestra</w>":3815,"az":3816,"oec":3817,"restitu":3818,"Filius</w>":3819,"antem</w>":3820,"spon":3821,"diem</w>":3822,"praecep":3823,"fideli":3824,"lum":3825,"quar":3826,"Leg":3827,"pauper":3828,"Por":3829,"tac":3830,"Petrus</w>":3831,"sil":3832,"Ip":3833,"tres</w>":3834,"meam</w>":3835,"sanctus</w>":3836,"Can":3837,"nostrae</w>":3838,"iniqu":3839,"alien":3840,"Dic":3841,"statu":3842,"miser":3843,"famili":3844,"caput</w>":3845,"my":3846,"apostol":3847,"tionibus</w>":3848,"libet</w>":3849,"Nor":3850,"pars</w>":3851,"damn":3852,"ejusdem</w>":3853,"meus</w>":3854,"Hen":3855,"ren":3856,"peric":3857,"tulit</w>":3858,"Be":3859,"ess</w>":3860,"ris</w>":3861,"corpore</w>":3862,"hæ":3863,"Imper":3864,"conver":3865,"Ita</w>":3866,"uen":3867,"sta</w>":3868,"ater":3869,"illos</w>":3870,"exhib":3871,"ustr":3872,"diu</w>":3873,"aretur</w>":3874,"Oc":3875,"ignor":3876,"50</w>":3877,"40</w>":3878,"tiam</w>":3879,"Signum</w>":3880,"Ser":3881,"videb":3882,"ella</w>":3883,"uo</w>":3884,"iterum</w>":3885,"partem</w>":3886,"oport":3887,"entius</w>":3888,"tex":3889,"diam</w>":3890,"Paulus</w>":3891,"Anti":3892,"heredi":3893,"solu":3894,"meo</w>":3895,"sanctorum</w>":3896,"soci":3897,"corde</w>":3898,"via</w>":3899,"AR":3900,"Po":3901,"affec":3902,"ferre</w>":3903,"mitt":3904,"Theod":3905,"Greg":3906,"bre":3907,"praeter":3908,"aequ":3909,"prophet":3910,"custodi":3911,"verbum</w>":3912,"crim":3913,"iac":3914,"frag":3915,"totum</w>":3916,"spiritus</w>":3917,"possunt</w>":3918,"perman":3919,"Man":3920,"Ib":3921,"orn":3922,"jac":3923,"scripta</w>":3924,"iri</w>":3925,"predic":3926,"Per</w>":3927,"tabula</w>":3928,"EP":3929,"lap":3930,"accipi":3931,"Sc":3932,"ro":3933,"des</w>":3934,"το":3935,"ebit</w>":3936,"coram</w>":3937,"arbitr":3938,"vent":3939,"Apostolus</w>":3940,"omni":3941,"eps</w>":3942,"substanti":3943,"ebus</w>":3944,"edes</w>":3945,"proxim":3946,"more</w>":3947,"lege</w>":3948,"adversus</w>":3949,"Sim":3950,"capit":3951,"sium</w>":3952,"Quae</w>":3953,"tii</w>":3954,"Provincia</w>":3955,"so</w>":3956,"idum</w>":3957,"och":3958,"omnem</w>":3959,"doctr":3960,"pauc":3961,"33</w>":3962,"veter":3963,"Israel</w>":3964,"Bibli":3965,"success":3966,"urr":3967,"multis</w>":3968,"geographiam</w>":3969,"iste</w>":3970,"Geographicae</w>":3971,"promis":3972,"utique</w>":3973,"saeculo</w>":3974,"ileg":3975,"ej":3976,"rum</w>":3977,"il</w>":3978,"desc":3979,"cleric":3980,"sque</w>":3981,"occid":3982,"fuerat</w>":3983,"Jesu</w>":3984,"Cor</w>":3985,"abitur</w>":3986,"misit</w>":3987,"Francicum</w>":3988,"olo</w>":3989,"Verb":3990,"Henr":3991,"ms</w>":3992,"flu":3993,"communic":3994,"monach":3995,"Ecce</w>":3996,"elis</w>":3997,"Mortui</w>":3998,"dos</w>":3999,"hil":4000,"sollic":4001,"Anno</w>":4002,"ix</w>":4003,"alio</w>":4004,"nego":4005,"ies</w>":4006,"plus</w>":4007,"jug":4008,"devo":4009,"Caes":4010,"itates</w>":4011,"deinde</w>":4012,"filium</w>":4013,"salv":4014,"dicta</w>":4015,"quic":4016,"maxime</w>":4017,"etus</w>":4018,"titur</w>":4019,"LI":4020,"Amer":4021,"andem</w>":4022,"men":4023,"pic":4024,"emp":4025,"Res":4026,"ecclesiastic":4027,"Nic":4028,"obedi":4029,"oni</w>":4030,"ariis</w>":4031,"ilium</w>":4032,"ania</w>":4033,"Omn":4034,"castr":4035,"praem":4036,"postul":4037,"PU":4038,"nostram</w>":4039,"ER":4040,"preti":4041,"Mar</w>":4042,"yl":4043,"Tur":4044,"trah":4045,"posuit</w>":4046,"dicat</w>":4047,"ceter":4048,"TO":4049,"pater</w>":4050,"sit":4051,"annos</w>":4052,"fort":4053,"Rom</w>":4054,"Cal":4055,"sacram":4056,"magna</w>":4057,"convers":4058,"The":4059,"tati</w>":4060,"Dig</w>":4061,"pur":4062,"Bal":4063,"legem</w>":4064,"imum</w>":4065,"35</w>":4066,"frater</w>":4067,"Saint</w>":4068,"ulorum</w>":4069,"sanctum</w>":4070,"atuor</w>":4071,"carnis</w>":4072,"Phili":4073,"eph":4074,"arn":4075,"32</w>":4076,"ilos":4077,"domini</w>":4078,"opp":4079,"assi":4080,"sex":4081,"huius</w>":4082,"interpret":4083,"ru":4084,"Cap":4085,"atorem</w>":4086,"cor</w>":4087,"abilis</w>":4088,"arm":4089,"natura</w>":4090,"CC":4091,"profec":4092,"fit</w>":4093,"benefic":4094,"ographia</w>":4095,"prima</w>":4096,"sanctae</w>":4097,"abo</w>":4098,"dex":4099,"ratione</w>":4100,"unam</w>":4101,"infra</w>":4102,"ios":4103,"animam</w>":4104,"toris</w>":4105,"nitas</w>":4106,"Ioannes</w>":4107,"men</w>":4108,"tuis</w>":4109,"Inter":4110,"terrae</w>":4111,"Jesus</w>":4112,"codic":4113,"addi":4114,"tim</w>":4115,"κα":4116,"dico</w>":4117,"martyr":4118,"EPIS":4119,"resurrec":4120,"pagina</w>":4121,"Iuli":4122,"prud":4123,"Ag":4124,"meli":4125,"spiritu":4126,"diacon":4127,"adul":4128,"mu":4129,"dor":4130,"arent</w>":4131,"aux":4132,"quatenus</w>":4133,"Pos":4134,"nul":4135,"Anglic":4136,"locu":4137,"peccatum</w>":4138,"sepul":4139,"numer":4140,"aginta</w>":4141,"reddi":4142,"vell":4143,"umb":4144,"usus</w>":4145,"Gregor":4146,"viri</w>":4147,"deser":4148,"aliqua</w>":4149,"aedific":4150,"Si":4151,"itur":4152,"clar":4153,"194":4154,"CAPU":4155,"Marc":4156,"diebus</w>":4157,"Jer":4158,"alios</w>":4159,"integr":4160,"34</w>":4161,"CAPUT</w>":4162,"compar":4163,"scrips":4164,"positum</w>":4165,"human":4166,"ime</w>":4167,"medio</w>":4168,"mentis</w>":4169,"bonis</w>":4170,"eatur</w>":4171,"superi":4172,"En":4173,"inveni":4174,"beati</w>":4175,"supplic":4176,"finem</w>":4177,"quod":4178,"tend":4179,"XII</w>":4180,"suffic":4181,"nemo</w>":4182,"domus</w>":4183,"gloria</w>":4184,"regni</w>":4185,"adic":4186,"ebantur</w>":4187,"nullus</w>":4188,"Ibid</w>":4189,"pecun":4190,"eu":4191,"posita</w>":4192,"diu":4193,"abatur</w>":4194,"est":4195,"demp":4196,"quatuor</w>":4197,"cens":4198,"effic":4199,"inceps</w>":4200,"servi":4201,"Cam":4202,"omne</w>":4203,"enique</w>":4204,"recte</w>":4205,"Jac":4206,"syno":4207,"lo</w>":4208,"catholic":4209,"satis</w>":4210,"causam</w>":4211,"secr":4212,"quoti":4213,"quæ":4214,"emur</w>":4215,"issent</w>":4216,"ipsam</w>":4217,"ulae</w>":4218,"2006</w>":4219,"instr":4220,"umus</w>":4221,"gaudi":4222,"Brit":4223,"itam</w>":4224,"cess":4225,"ular":4226,"estr":4227,"temporis</w>":4228,"Ecclesiam</w>":4229,"fuerunt</w>":4230,"divina</w>":4231,"Mer":4232,"dux":4233,"gloriam</w>":4234,"Sch":4235,"quibus":4236,"filio</w>":4237,"mur":4238,"prohib":4239,"195":4240,"Indicem</w>":4241,"mali":4242,"quisque</w>":4243,"siones</w>":4244,"Eb":4245,"tiv":4246,"distr":4247,"fuerint</w>":4248,"vestrae</w>":4249,"hosti":4250,"ou":4251,"dium</w>":4252,"Hispan":4253,"membr":4254,"Patris</w>":4255,"fon":4256,"legitur</w>":4257,"admodum</w>":4258,"regem</w>":4259,"itatus</w>":4260,"suorum</w>":4261,"yn":4262,"lar":4263,"dr":4264,"tenebr":4265,"episcopum</w>":4266,"Bar":4267,"populi</w>":4268,"esis</w>":4269,"Vers</w>":4270,"namque</w>":4271,"Dec</w>":4272,"Sec":4273,"eres</w>":4274,"compl":4275,"iec":4276,"36</w>":4277,"decre":4278,"Aeg":4279,"Ul":4280,"sequitur</w>":4281,"fratribus</w>":4282,"eus</w>":4283,"oeder":4284,"culp":4285,"retin":4286,"fere</w>":4287,"dici</w>":4288,"congreg":4289,"lev":4290,"loci</w>":4291,"onum</w>":4292,"istoria</w>":4293,"quamvis</w>":4294,"genus</w>":4295,"pol":4296,"37</w>":4297,"Item</w>":4298,"Nov</w>":4299,"26":4300,"domum</w>":4301,"eb</w>":4302,"populo</w>":4303,"andam</w>":4304,"vac":4305,"provincia</w>":4306,"multitu":4307,"item</w>":4308,"38</w>":4309,"torem</w>":4310,"sig":4311,"potuit</w>":4312,"fab":4313,"Moy":4314,"dul":4315,"diae</w>":4316,"equ":4317,"urbem</w>":4318,"cupi":4319,"esti":4320,"sustin":4321,"consuetu":4322,"viam</w>":4323,"39</w>":4324,"ord":4325,"mala</w>":4326,"27":4327,"avimus</w>":4328,"othec":4329,"97":4330,"ui":4331,"acci":4332,"XL":4333,"tota</w>":4334,"emin":4335,"peccata</w>":4336,"icam</w>":4337,"congr":4338,"pp</w>":4339,"oqu":4340,"aliquando</w>":4341,"viol":4342,"Franciae</w>":4343,"dur":4344,"indu":4345,"25":4346,"filios</w>":4347,"tioni</w>":4348,"offer":4349,"elmus</w>":4350,"orb":4351,"illorum</w>":4352,"ust":4353,"legis</w>":4354,"jung":4355,"ona</w>":4356,"abbas</w>":4357,"sententiam</w>":4358,"prof":4359,"esimo</w>":4360,"posset</w>":4361,"pleb":4362,"filiis</w>":4363,"Geor":4364,"Salv":4365,"tel":4366,"Italiane</w>":4367,"obtin":4368,"surg":4369,"rob":4370,"ET</w>":4371,"oportet</w>":4372,"Luc</w>":4373,"Id</w>":4374,"uisse</w>":4375,"sententia</w>":4376,"Rob":4377,"simili":4378,"embris</w>":4379,"24":4380,"Abr":4381,"litteras</w>":4382,"decim":4383,"sensu</w>":4384,"iorum</w>":4385,"mortis</w>":4386,"Isa":4387,"pler":4388,"Aster":4389,"onia</w>":4390,"commend":4391,"endis</w>":4392,"taque</w>":4393,"judicium</w>":4394,"antia</w>":4395,"quidquid</w>":4396,"presbyter":4397,"Bi":4398,"ai</w>":4399,"nover":4400,"multi":4401,"omnipot":4402,"partic":4403,"Edi":4404,"nunquam</w>":4405,"stan":4406,"politan":4407,"iure</w>":4408,"29":4409,"past":4410,"dubit":4411,"AL":4412,"un</w>":4413,"Pon":4414,"erem</w>":4415,"endas</w>":4416,"morte</w>":4417,"sever":4418,"hinc</w>":4419,"venerab":4420,"meis</w>":4421,"labor":4422,"interreti":4423,"domino</w>":4424,"dominus</w>":4425,"coeles":4426,"confit":4427,"Ergo</w>":4428,"magist":4429,"superb":4430,"frequ":4431,"confes":4432,"exig":4433,"partes</w>":4434,"28":4435,"amm":4436,"olim</w>":4437,"Sicut</w>":4438,"quadr":4439,"saepe</w>":4440,"Post</w>":4441,"mundo</w>":4442,"Index</w>":4443,"que":4444,"mum</w>":4445,"nulli</w>":4446,"Filium</w>":4447,"suas</w>":4448,"ulam</w>":4449,"ra</w>":4450,"adju":4451,"quinque</w>":4452,"XI</w>":4453,"suf":4454,"debat</w>":4455,"derunt</w>":4456,"oides</w>":4457,"ani":4458,"sancta</w>":4459,"Qua":4460,"antium</w>":4461,"lati":4462,"larg":4463,"quaedam</w>":4464,"asti</w>":4465,"ago</w>":4466,"ai":4467,"Tunc</w>":4468,"necesse</w>":4469,"nondum</w>":4470,"velut</w>":4471,"vult</w>":4472,"Latinitas</w>":4473,"det</w>":4474,"Georg":4475,"populus</w>":4476,"delec":4477,"felic":4478,"inn":4479,"entio</w>":4480,"insul":4481,"amplius</w>":4482,"consider":4483,"Benedic":4484,"gladi":4485,"amic":4486,"Al</w>":4487,"tribus</w>":4488,"consilio</w>":4489,"baptis":4490,"Pal":4491,"Municipia</w>":4492,"papa</w>":4493,"ones</w>":4494,"testam":4495,"pasc":4496,"erg":4497,"Quis</w>":4498,"mox</w>":4499,"litteris</w>":4500,"lau":4501,"fides</w>":4502,"separ":4503,"eri":4504,"Patre</w>":4505,"ipit</w>":4506,"antis</w>":4507,"opin":4508,"Gen":4509,"Hieron":4510,"accus":4511,"ubern":4512,"essent</w>":4513,"medic":4514,"ilosoph":4515,"servus</w>":4516,"loquitur</w>":4517,"son</w>":4518,"pos</w>":4519,"30":4520,"eius":4521,"alius</w>":4522,"epist</w>":4523,"solv":4524,"cau":4525,"rur":4526,"persona</w>":4527,"comes</w>":4528,"onae</w>":4529,"animae</w>":4530,"anuarii</w>":4531,"patris</w>":4532,"Sam":4533,"beati":4534,"pre":4535,"nasc":4536,"delic":4537,"huic</w>":4538,"nomina</w>":4539,"potestatem</w>":4540,"tari</w>":4541,"cordis</w>":4542,"Go":4543,"ration":4544,"har":4545,"testimonium</w>":4546,"monac":4547,"usalem</w>":4548,"differ":4549,"tore</w>":4550,"ostendit</w>":4551,"oniae</w>":4552,"190":4553,"Constanti":4554,"hodie</w>":4555,"rific":4556,"effec":4557,"ido</w>":4558,"potestate</w>":4559,"fix":4560,"ech":4561,"absque</w>":4562,"38":4563,"merito</w>":4564,"paginam</w>":4565,"ext":4566,"disse</w>":4567,"gentes</w>":4568,"talis</w>":4569,"au</w>":4570,"etsi</w>":4571,"Asteroides</w>":4572,"nullo</w>":4573,"co</w>":4574,"vium</w>":4575,"transi":4576,"nesc":4577,"vindic":4578,"ade":4579,"tatus</w>":4580,"erentur</w>":4581,"epistola</w>":4582,"Rus":4583,"Tes":4584,"aug":4585,"duobus</w>":4586,"edere</w>":4587,"lingua</w>":4588,"indign":4589,"Psal":4590,"uol":4591,"intra</w>":4592,"trad":4593,"tantur</w>":4594,"ca</w>":4595,"habeat</w>":4596,"administr":4597,"quanto</w>":4598,"vera</w>":4599,"Prae":4600,"magn":4601,"Mich":4602,"malum</w>":4603,"plures</w>":4604,"mens":4605,"intellec":4606,"mai":4607,"subjec":4608,"Fac":4609,"ric":4610,"jub":4611,"statim</w>":4612,"Foeder":4613,"mac":4614,"Ian</w>":4615,"donec</w>":4616,"saeculi</w>":4617,"XIII</w>":4618,"Hebr":4619,"perdi":4620,"accepit</w>":4621,"sse</w>":4622,"2012</w>":4623,"Li":4624,"Ni":4625,"simplic":4626,"Alb":4627,"CO":4628,"dat</w>":4629,"videre</w>":4630,"carnem</w>":4631,"virtute</w>":4632,"anorum</w>":4633,"Anton":4634,"Non":4635,"ates</w>":4636,"interretialis</w>":4637,"oss":4638,"itia</w>":4639,"vide</w>":4640,"uis</w>":4641,"imur</w>":4642,"suscep":4643,"narr":4644,"primus</w>":4645,"Cu":4646,"te":4647,"septem</w>":4648,"SI":4649,"39":4650,"ak":4651,"Abrah":4652,"RE":4653,"ationum</w>":4654,"demonstr":4655,"rege</w>":4656,"collec":4657,"incl":4658,"alias</w>":4659,"DI":4660,"ola</w>":4661,"supra":4662,"ard":4663,"sidi":4664,"45</w>":4665,"aci</w>":4666,"tanto</w>":4667,"Arch":4668,"uter":4669,"populum</w>":4670,"stell":4671,"nostrorum</w>":4672,"Lud":4673,"animo</w>":4674,"ity</w>":4675,"terea</w>":4676,"monasterium</w>":4677,"tri":4678,"om</w>":4679,"rap":4680,"Post":4681,"dare</w>":4682,"sedis</w>":4683,"Cali":4684,"Ter":4685,"unius</w>":4686,"olum</w>":4687,"nes":4688,"upti":4689,"scripsit</w>":4690,"2007</w>":4691,"Idem</w>":4692,"Hil":4693,"ambul":4694,"cardin":4695,"reliqu":4696,"AD</w>":4697,"ci</w>":4698,"iones</w>":4699,"concess":4700,"elli":4701,"peccatorum</w>":4702,"itudo</w>":4703,"Philip":4704,"lam":4705,"Steph":4706,"aliquis</w>":4707,"vicem</w>":4708,"grad":4709,"Feb</w>":4710,"legiti":4711,"lan":4712,"gem":4713,"eidem</w>":4714,"43</w>":4715,"cont":4716,"sancti":4717,"mend":4718,"41</w>":4719,"Ru":4720,"hau":4721,"Mac":4722,"Eur":4723,"male</w>":4724,"Patrem</w>":4725,"andus</w>":4726,"quer":4727,"flag":4728,"atas</w>":4729,"itt":4730,"carne</w>":4731,"orig":4732,"divis":4733,"occul":4734,"ete</w>":4735,"Verbum</w>":4736,"Rober":4737,"tanta</w>":4738,"itae</w>":4739,"Cre":4740,"conveni":4741,"baptiz":4742,"endus</w>":4743,"secur":4744,"sola</w>":4745,"utili":4746,"off":4747,"entissim":4748,"CAP</w>":4749,"dinis</w>":4750,"judicio</w>":4751,"eni</w>":4752,"eiusdem</w>":4753,"Bern":4754,"opere</w>":4755,"eleg":4756,"excep":4757,"44</w>":4758,"ardi</w>":4759,"iret</w>":4760,"manum</w>":4761,"situm</w>":4762,"coelo</w>":4763,"myster":4764,"habuit</w>":4765,"stu":4766,"ida</w>":4767,"Afr":4768,"eth":4769,"umin":4770,"longe</w>":4771,"quali":4772,"XX</w>":4773,"jej":4774,"Britann":4775,"Bibliographia</w>":4776,"poll":4777,"42</w>":4778,"tates</w>":4779,"AT":4780,"ilius</w>":4781,"locus</w>":4782,"ingr":4783,"discreti":4784,"melius</w>":4785,"seru":4786,"æter":4787,"io":4788,"spiritu</w>":4789,"Min":4790,"sanctis</w>":4791,"totius</w>":4792,"praef":4793,"40":4794,"nihil":4795,"operibus</w>":4796,"iarum</w>":4797,"ante":4798,"voce</w>":4799,"tro":4800,"tribul":4801,"scel":4802,"36":4803,"su</w>":4804,"decem</w>":4805,"monasterio</w>":4806,"urbs</w>":4807,"dimus</w>":4808,"jusmodi</w>":4809,"iit</w>":4810,"vocem</w>":4811,"fiat</w>":4812,"isdem</w>":4813,"occa":4814,"Rem":4815,"domo</w>":4816,"Press</w>":4817,"sacrific":4818,"XV</w>":4819,"manibus</w>":4820,"constr":4821,"pacem</w>":4822,"He":4823,"pisc":4824,"admon":4825,"Lig":4826,"tali</w>":4827,"ostend":4828,"Virg":4829,"August":4830,"tuus</w>":4831,"abiliter</w>":4832,"lex</w>":4833,"emend":4834,"deat</w>":4835,"mundum</w>":4836,"tino</w>":4837,"justitiam</w>":4838,"similitu":4839,"propri":4840,"quibusdam</w>":4841,"ibidem</w>":4842,"ellic":4843,"turus</w>":4844,"abund":4845,"48</w>":4846,"idi</w>":4847,"Prop":4848,"Joannes</w>":4849,"itudine</w>":4850,"Mul":4851,"Mal":4852,"aliquo</w>":4853,"Ioh":4854,"Oct":4855,"creatur":4856,"idus</w>":4857,"37":4858,"cruci":4859,"stul":4860,"issime</w>":4861,"Trin":4862,"consci":4863,"cur</w>":4864,"arios</w>":4865,"bertus</w>":4866,"nunti":4867,"ipsos</w>":4868,"duos</w>":4869,"toribus</w>":4870,"Aegyp":4871,"bonorum</w>":4872,"nub":4873,"ationi</w>":4874,"etas</w>":4875,"Spiritu</w>":4876,"multi</w>":4877,"Res</w>":4878,"comp":4879,"elig":4880,"Quoniam</w>":4881,"crib":4882,"lim":4883,"Apr</w>":4884,"54</w>":4885,"itudinem</w>":4886,"fidelium</w>":4887,"poterit</w>":4888,"utrum</w>":4889,"eam":4890,"Cy":4891,"Aqu":4892,"obl":4893,"haeretic":4894,"cum":4895,"voluit</w>":4896,"Civ":4897,"propria</w>":4898,"Superi":4899,"figur":4900,"emos":4901,"agnosc":4902,"mense</w>":4903,"ocr":4904,"cru":4905,"Sar":4906,"solus</w>":4907,"nic":4908,"quot</w>":4909,"Hel":4910,"ulas</w>":4911,"ret</w>":4912,"Num":4913,"47</w>":4914,"49</w>":4915,"ulla</w>":4916,"libri</w>":4917,"apostolica</w>":4918,"boni</w>":4919,"Scriptur":4920,"unt":4921,"uir":4922,"revoc":4923,"ator":4924,"Lon":4925,"Est</w>":4926,"salut":4927,"hosp":4928,"praeter</w>":4929,"prav":4930,"enis</w>":4931,"veritatis</w>":4932,"189":4933,"privileg":4934,"vulg":4935,"Nos</w>":4936,"2009</w>":4937,"numero</w>":4938,"nullum</w>":4939,"eribus</w>":4940,"monasterii</w>":4941,"Cur":4942,"55</w>":4943,"Rec":4944,"issimi</w>":4945,"exist":4946,"junc":4947,"praeb":4948,"toto</w>":4949,"Ianuarii</w>":4950,"exor":4951,"locis</w>":4952,"nu":4953,"Mariae</w>":4954,"temporibus</w>":4955,"aei</w>":4956,"civitatis</w>":4957,"ariae</w>":4958,"aqua</w>":4959,"46</w>":4960,"asser":4961,"umdem</w>":4962,"issa</w>":4963,"justitia</w>":4964,"atern":4965,"lign":4966,"odec":4967,"flum":4968,"cod</w>":4969,"mori":4970,"cael":4971,"oculis</w>":4972,"satis":4973,"LA</w>":4974,"itio</w>":4975,"distin":4976,"minime</w>":4977,"quiesc":4978,"emque</w>":4979,"Cas":4980,"regno</w>":4981,"consecr":4982,"tatum</w>":4983,"Ath":4984,"interrog":4985,"consol":4986,"aeque</w>":4987,"Medi":4988,"similiter</w>":4989,"conspec":4990,"dicunt</w>":4991,"nominis</w>":4992,"quemadmodum</w>":4993,"consequ":4994,"ador":4995,"ativ":4996,"caro</w>":4997,"pag</w>":4998,"postquam</w>":4999,"Sac":5000,"oct":5001,"certe</w>":5002,"ecce</w>":5003,"honor":5004,"cib":5005,"agere</w>":5006,"misericordia</w>":5007,"Maria</w>":5008,"onom":5009,"extra</w>":5010,"ponit</w>":5011,"press":5012,"Hinc</w>":5013,"ensium</w>":5014,"dei</w>":5015,"diximus</w>":5016,"Joh":5017,"multo</w>":5018,"beni":5019,"imagin":5020,"aff":5021,"averat</w>":5022,"data</w>":5023,"illustr":5024,"Ra":5025,"hones":5026,"bo":5027,"positus</w>":5028,"serit</w>":5029,"urbe</w>":5030,"mente</w>":5031,"Princip":5032,"atia</w>":5033,"imon":5034,"design":5035,"umentum</w>":5036,"imit":5037,"Ms</w>":5038,"verbo</w>":5039,"phus</w>":5040,"perpetuum</w>":5041,"jejun":5042,"iensis</w>":5043,"pertinet</w>":5044,"versus</w>":5045,"hæc</w>":5046,"ordine</w>":5047,"bro":5048,"Ori":5049,"Apr":5050,"Ubi</w>":5051,"voluntate</w>":5052,"fine</w>":5053,"cupisc":5054,"51</w>":5055,"cad":5056,"Secund":5057,"sist":5058,"So":5059,"ratio</w>":5060,"lacr":5061,"osque</w>":5062,"oculos</w>":5063,"2008</w>":5064,"astr":5065,"abunt</w>":5066,"use":5067,"magistr":5068,"subdi":5069,"met":5070,"AS":5071,"parv":5072,"recep":5073,"VI":5074,"ssimus</w>":5075,"veritatem</w>":5076,"pariter</w>":5077,"siae</w>":5078,"atore</w>":5079,"pass":5080,"Han":5081,"exis":5082,"Austr":5083,"not":5084,"nit":5085,"apostolorum</w>":5086,"ation</w>":5087,"dicimus</w>":5088,"secundo</w>":5089,"Americ":5090,"significat</w>":5091,"Sy":5092,"exp":5093,"hujusmodi</w>":5094,"uero</w>":5095,"urbis</w>":5096,"anti</w>":5097,"eamus</w>":5098,"sensus</w>":5099,"53</w>":5100,"Neque</w>":5101,"bib":5102,"procur":5103,"80":5104,"uere</w>":5105,"excus":5106,"vestris</w>":5107,"enum</w>":5108,"mater":5109,"homine</w>":5110,"quare</w>":5111,"voluntatem</w>":5112,"dissim":5113,"Cer":5114,"Tu</w>":5115,"amore</w>":5116,"abor":5117,"60</w>":5118,"Hab":5119,"persecu":5120,"Municipium</w>":5121,"50":5122,"evit</w>":5123,"honore</w>":5124,"itium</w>":5125,"aeus</w>":5126,"he":5127,"virtus</w>":5128,"subscrip":5129,"sermo</w>":5130,"Epis":5131,"aqu":5132,"itione</w>":5133,"alterius</w>":5134,"adhib":5135,"defin":5136,"eae</w>":5137,"Nunc</w>":5138,"lum</w>":5139,"ultra</w>":5140,"alter</w>":5141,"meae</w>":5142,"Itaque</w>":5143,"officium</w>":5144,"incarn":5145,"singulis</w>":5146,"faciat</w>":5147,"exit</w>":5148,"merc":5149,"Lit":5150,"ay</w>":5151,"mare</w>":5152,"hem":5153,"irum</w>":5154,"ses":5155,"icorum</w>":5156,"Petro</w>":5157,"Incol":5158,"tra":5159,"Quo</w>":5160,"contu":5161,"earum</w>":5162,"Historia</w>":5163,"destin":5164,"ard</w>":5165,"rationem</w>":5166,"tandem</w>":5167,"Thom":5168,"dibus</w>":5169,"XIV</w>":5170,"temper":5171,"Pasc":5172,"Lo":5173,"XVIII</w>":5174,"otheca</w>":5175,"188":5176,"Romae</w>":5177,"clem":5178,"relinqu":5179,"multum</w>":5180,"gubern":5181,"enc":5182,"Ipse</w>":5183,"Fran":5184,"host":5185,"episcopis</w>":5186,"consilium</w>":5187,"actiones</w>":5188,"sim</w>":5189,"iscum</w>":5190,"pron":5191,"concupisc":5192,"fidelibus</w>":5193,"fratrum</w>":5194,"missa</w>":5195,"cali":5196,"vestram</w>":5197,"tiae</w>":5198,"mirac":5199,"etatem</w>":5200,"Anglice</w>":5201,"usum</w>":5202,"etip":5203,"peccato</w>":5204,"facul":5205,"uni</w>":5206,"abili":5207,"minister":5208,"obli":5209,"DE":5210,"publica</w>":5211,"excommunic":5212,"Eli":5213,"Maxim":5214,"virum</w>":5215,"compreh":5216,"honorem</w>":5217,"Pap":5218,"esque</w>":5219,"erudi":5220,"possumus</w>":5221,"mortali":5222,"fid":5223,"mov":5224,"fre":5225,"Verum</w>":5226,"reman":5227,"soc":5228,"misericordiam</w>":5229,"And":5230,"fugi":5231,"Ol":5232,"existim":5233,"veh":5234,"vidit</w>":5235,"47":5236,"52</w>":5237,"dicuntur</w>":5238,"futurum</w>":5239,"circo</w>":5240,"benign":5241,"Romani</w>":5242,"dux</w>":5243,"To":5244,"plurim":5245,"forma</w>":5246,"teg":5247,"git</w>":5248,"occup":5249,"sequi</w>":5250,"anos</w>":5251,"naturam</w>":5252,"expl":5253,"valde</w>":5254,"quir":5255,"div":5256,"aus</w>":5257,"prem":5258,"defunc":5259,"iæ</w>":5260,"Henricus</w>":5261,"civitatem</w>":5262,"58</w>":5263,"duas</w>":5264,"eperunt</w>":5265,"Sab":5266,"animi</w>":5267,"vestrum</w>":5268,"simul":5269,"recipi":5270,"mater</w>":5271,"vestig":5272,"1997</w>":5273,"Incolae</w>":5274,"La</w>":5275,"EPISTO":5276,"nocte</w>":5277,"Spiritum</w>":5278,"Deinde</w>":5279,"apostolicae</w>":5280,"superius</w>":5281,"posito</w>":5282,"toll":5283,"Ne</w>":5284,"ultim":5285,"diffic":5286,"eun":5287,"facile</w>":5288,"XVI</w>":5289,"dil":5290,"faciem</w>":5291,"ay":5292,"RA":5293,"mann":5294,"collig":5295,"Cod</w>":5296,"constat</w>":5297,"Filii</w>":5298,"jure</w>":5299,"cunctis</w>":5300,"coelum</w>":5301,"quon":5302,"sex</w>":5303,"Des":5304,"sen</w>":5305,"etum</w>":5306,"novit</w>":5307,"καὶ</w>":5308,"cis</w>":5309,"asset</w>":5310,"ipsorum</w>":5311,"visib":5312,"56</w>":5313,"Nem":5314,"illic</w>":5315,"vendi":5316,"assump":5317,"secre":5318,"Vol":5319,"occurr":5320,"Sub":5321,"uoc":5322,"erius</w>":5323,"partibus</w>":5324,"2011</w>":5325,"duodec":5326,"Eph":5327,"University</w>":5328,"pedes</w>":5329,"fuisset</w>":5330,"imperator</w>":5331,"sæ":5332,"evangeli":5333,"multiplic":5334,"coepit</w>":5335,"faciunt</w>":5336,"eo":5337,"peccatis</w>":5338,"philosoph":5339,"pacis</w>":5340,"ha</w>":5341,"derit</w>":5342,"amen</w>":5343,"186":5344,"oppidum</w>":5345,"gar":5346,"diviti":5347,"fav":5348,"usur":5349,"ele":5350,"vener":5351,"innoc":5352,"hy":5353,"austr":5354,"peccati</w>":5355,"signum</w>":5356,"antiqu":5357,"rexit</w>":5358,"vari":5359,"alterum</w>":5360,"diceret</w>":5361,"civitate</w>":5362,"altare</w>":5363,"sur</w>":5364,"fructus</w>":5365,"insign":5366,"Urbes</w>":5367,"tarum</w>":5368,"corrig":5369,"El":5370,"bellum</w>":5371,"species</w>":5372,"auit</w>":5373,"entus</w>":5374,"Quam</w>":5375,"naturae</w>":5376,"Pic":5377,"Pyr":5378,"nia</w>":5379,"gentium</w>":5380,"Europ":5381,"atoribus</w>":5382,"uerint</w>":5383,"Terr":5384,"ines</w>":5385,"187":5386,"57</w>":5387,"contemp":5388,"Pauli</w>":5389,"athem":5390,"vici</w>":5391,"tans</w>":5392,"His</w>":5393,"mundus</w>":5394,"asti":5395,"abus</w>":5396,"idon":5397,"tentr":5398,"exsul":5399,"Jesum</w>":5400,"Quare</w>":5401,"concor":5402,"orum":5403,"pius</w>":5404,"2010</w>":5405,"invicem</w>":5406,"Quomodo</w>":5407,"mund":5408,"Institu":5409,"virtutem</w>":5410,"debeat</w>":5411,"nav":5412,"peregr":5413,"decess":5414,"ara</w>":5415,"49":5416,"viro</w>":5417,"Ideo</w>":5418,"daem":5419,"ordinem</w>":5420,"antequam</w>":5421,"2016</w>":5422,"Sen":5423,"Will":5424,"optim":5425,"CH":5426,"intu":5427,"generis</w>":5428,"solem":5429,"pianus</w>":5430,"dixi</w>":5431,"ton</w>":5432,"Dem":5433,"penitus</w>":5434,"bet</w>":5435,"aeternum</w>":5436,"osum</w>":5437,"Catholic":5438,"dicti</w>":5439,"Ludov":5440,"utri":5441,"Romana</w>":5442,"entiis</w>":5443,"spiritum</w>":5444,"ericus</w>":5445,"relic":5446,"ivit</w>":5447,"injur":5448,"debemus</w>":5449,"revel":5450,"jic":5451,"Occ":5452,"officio</w>":5453,"bur":5454,"57":5455,"propheta</w>":5456,"Vat</w>":5457,"modis</w>":5458,"abbati</w>":5459,"ellum</w>":5460,"lii</w>":5461,"tot</w>":5462,"icos</w>":5463,"tionum</w>":5464,"umbr":5465,"corrup":5466,"genti":5467,"conserv":5468,"59</w>":5469,"ignis</w>":5470,"caeteris</w>":5471,"dio</w>":5472,"ira</w>":5473,"destr":5474,"erv":5475,"Soci":5476,"adeo</w>":5477,"sensum</w>":5478,"capite</w>":5479,"atarum</w>":5480,"patrem</w>":5481,"ventus</w>":5482,"volu":5483,"medium</w>":5484,"sanguine</w>":5485,"beatus</w>":5486,"exemplum</w>":5487,"atium</w>":5488,"Romanae</w>":5489,"incer":5490,"CON":5491,"gaud":5492,"Pol":5493,"gitur</w>":5494,"ponere</w>":5495,"mis</w>":5496,"amentum</w>":5497,"arem</w>":5498,"Italia</w>":5499,"pror":5500,"inti</w>":5501,"vuln":5502,"ellus</w>":5503,"Bon":5504,"oecesis</w>":5505,"condic":5506,"issima</w>":5507,"rup":5508,"vox</w>":5509,"accip":5510,"aestim":5511,"politic":5512,"Hierony":5513,"ge</w>":5514,"mors</w>":5515,"Evangelio</w>":5516,"liceat</w>":5517,"der</w>":5518,"Camp":5519,"reb":5520,"ax</w>":5521,"liber</w>":5522,"virtutum</w>":5523,"ST":5524,"genere</w>":5525,"papae</w>":5526,"uxorem</w>":5527,"ers</w>":5528,"Et":5529,"vex":5530,"EPISTOLA</w>":5531,"60":5532,"stis</w>":5533,"retur</w>":5534,"Proph":5535,"aliam</w>":5536,"mittere</w>":5537,"pietatis</w>":5538,"Lug":5539,"Pin":5540,"confer":5541,"Flor":5542,"ase</w>":5543,"Juli":5544,"rex":5545,"membra</w>":5546,"erna</w>":5547,"gratiae</w>":5548,"fem":5549,"48":5550,"dictus</w>":5551,"requir":5552,"acensis</w>":5553,"Iac":5554,"coron":5555,"iuxta</w>":5556,"vocab":5557,"prae</w>":5558,"cresc":5559,"Nicol":5560,"moder":5561,"Sci":5562,"redemp":5563,"eti</w>":5564,"aliorum</w>":5565,"Don":5566,"Mai</w>":5567,"quodam</w>":5568,"debere</w>":5569,"caec":5570,"nupti":5571,"adver":5572,"Jerusalem</w>":5573,"tatione</w>":5574,"osc":5575,"entorum</w>":5576,"principes</w>":5577,"declar":5578,"habebat</w>":5579,"An</w>":5580,"abbatis</w>":5581,"quaquam</w>":5582,"discre":5583,"mulier</w>":5584,"milli":5585,"sionibus</w>":5586,"Ambro":5587,"quondam</w>":5588,"Du":5589,"salutis</w>":5590,"videntur</w>":5591,"Histor":5592,"Cluni":5593,"Char":5594,"dexter":5595,"Ulpianus</w>":5596,"acta</w>":5597,"liae</w>":5598,"Vel</w>":5599,"elabor":5600,"actus</w>":5601,"ello</w>":5602,"explic":5603,"praesum":5604,"sapientia</w>":5605,"veritas</w>":5606,"duxit</w>":5607,"suscipi":5608,"Gregorius</w>":5609,"cec":5610,"villa</w>":5611,"altera</w>":5612,"poterat</w>":5613,"nific":5614,"CI":5615,"CT":5616,"menti":5617,"59":5618,"cuncta</w>":5619,"justific":5620,"osus</w>":5621,"tempora</w>":5622,"tamquam</w>":5623,"Andre":5624,"MA":5625,"ologia</w>":5626,"Datum</w>":5627,"tales</w>":5628,"ell</w>":5629,"vix</w>":5630,"ventum</w>":5631,"nesci":5632,"deduc":5633,"Alp":5634,"veritate</w>":5635,"Reg</w>":5636,"alibi</w>":5637,"uxor</w>":5638,"ellis</w>":5639,"Gl":5640,"Sol":5641,"facti</w>":5642,"dd</w>":5643,"the":5644,"ebru":5645,"ellae</w>":5646,"ancip":5647,"debent</w>":5648,"obsc":5649,"paulo</w>":5650,"magnum</w>":5651,"suffici":5652,"siquidem</w>":5653,"jici":5654,"cir":5655,"conjug":5656,"apostoli</w>":5657,"justitiae</w>":5658,"oblig":5659,"metro":5660,"humana</w>":5661,"tiis</w>":5662,"expedi":5663,"Novi</w>":5664,"Septem":5665,"Homin":5666,"ose</w>":5667,"vocatur</w>":5668,"Pro</w>":5669,"gentibus</w>":5670,"nequ":5671,"XVII</w>":5672,"impedi":5673,"exsti":5674,"Pom":5675,"aldus</w>":5676,"cœ":5677,"aco</w>":5678,"pace</w>":5679,"nox":5680,"RO":5681,"tale</w>":5682,"58":5683,"Octob":5684,"semel</w>":5685,"Constantino":5686,"tertio</w>":5687,"entalis</w>":5688,"terris</w>":5689,"As":5690,"Califor":5691,"abile</w>":5692,"46":5693,"secum</w>":5694,"ites</w>":5695,"Ebor":5696,"vestri</w>":5697,"antea</w>":5698,"consenti":5699,"Carolus</w>":5700,"ares</w>":5701,"age</w>":5702,"erus</w>":5703,"contempl":5704,"ibid</w>":5705,"poli</w>":5706,"van":5707,"ever":5708,"ccles":5709,"irr":5710,"lus":5711,"perven":5712,"fideles</w>":5713,"Angel":5714,"operis</w>":5715,"ene</w>":5716,"abantur</w>":5717,"persever":5718,"turum</w>":5719,"exper":5720,"publicus</w>":5721,"titiam</w>":5722,"Ob":5723,"auri</w>":5724,"eno</w>":5725,"bono</w>":5726,"itque</w>":5727,"itionem</w>":5728,"fecerit</w>":5729,"tom</w>":5730,"etiae</w>":5731,"Actum</w>":5732,"Dom":5733,"ordinis</w>":5734,"petr":5735,"vol</w>":5736,"inst":5737,"malis</w>":5738,"umenta</w>":5739,"idam</w>":5740,"lata</w>":5741,"const":5742,"tro</w>":5743,"prope</w>":5744,"formam</w>":5745,"servi</w>":5746,"aufer":5747,"locatio</w>":5748,"esi</w>":5749,"qualiter</w>":5750,"aquam</w>":5751,"posc":5752,"illumin":5753,"aure":5754,"neglig":5755,"volup":5756,"mensur":5757,"iusmodi</w>":5758,"ary</w>":5759,"religios":5760,"argu":5761,"summa</w>":5762,"Mis":5763,"vitu":5764,"ses</w>":5765,"praepar":5766,"itin":5767,"manduc":5768,"Maii</w>":5769,"vigil":5770,"Testam":5771,"Il":5772,"scribit</w>":5773,"iuris</w>":5774,"redd":5775,"divinae</w>":5776,"sii</w>":5777,"illic":5778,"semetip":5779,"Ab</w>":5780,"fo":5781,"inquam</w>":5782,"camp":5783,"ins":5784,"pera</w>":5785,"egreg":5786,"Constan":5787,"nimirum</w>":5788,"turam</w>":5789,"Ju":5790,"isto</w>":5791,"acum</w>":5792,"indig":5793,"cili":5794,"elli</w>":5795,"eumdem</w>":5796,"cura</w>":5797,"concl":5798,"regi</w>":5799,"Rh":5800,"Mos":5801,"Denique</w>":5802,"Eg":5803,"iter":5804,"στ":5805,"νο":5806,"fructum</w>":5807,"usa</w>":5808,"ianus</w>":5809,"archidi":5810,"juste</w>":5811,"unii</w>":5812,"iust":5813,"iarch":5814,"purg":5815,"induc":5816,"mali</w>":5817,"resp":5818,"etae</w>":5819,"asque</w>":5820,"Jus":5821,"olis</w>":5822,"videatur</w>":5823,"Dis":5824,"etate</w>":5825,"etiam":5826,"ingeni":5827,"nolog":5828,"tantes</w>":5829,"auxili":5830,"contem":5831,"fun":5832,"ialis</w>":5833,"mittit</w>":5834,"veli":5835,"ominus</w>":5836,"fortitu":5837,"andis</w>":5838,"disciplin":5839,"totam</w>":5840,"exal":5841,"ocin":5842,"futura</w>":5843,"notum</w>":5844,"fratrem</w>":5845,"malo</w>":5846,"facto</w>":5847,"Amen</w>":5848,"Har":5849,"conspectu</w>":5850,"Fon":5851,"tinum</w>":5852,"accipere</w>":5853,"quin</w>":5854,"lacrym":5855,"timus</w>":5856,"Romanorum</w>":5857,"sanctific":5858,"Aprilis</w>":5859,"aculum</w>":5860,"Nation":5861,"domn":5862,"possint</w>":5863,"actum</w>":5864,"Hanc</w>":5865,"LXX":5866,"libris</w>":5867,"uic":5868,"hodi":5869,"abili</w>":5870,"Augusti</w>":5871,"detur</w>":5872,"intus</w>":5873,"ei":5874,"cumque</w>":5875,"patre</w>":5876,"aeterna</w>":5877,"endos</w>":5878,"usquam</w>":5879,"fratern":5880,"conven":5881,"abstin":5882,"seni":5883,"thes":5884,"obsequ":5885,"Febru":5886,"vidu":5887,"issimo</w>":5888,"endae</w>":5889,"concilio</w>":5890,"profic":5891,"possib":5892,"angelic":5893,"Cui</w>":5894,"uniu":5895,"regio</w>":5896,"prol":5897,"condem":5898,"indulg":5899,"libus</w>":5900,"huiusmodi</w>":5901,"Augustinus</w>":5902,"gratias</w>":5903,"secunda</w>":5904,"abis</w>":5905,"vam</w>":5906,"tenus</w>":5907,"Alexander</w>":5908,"habetur</w>":5909,"Joann":5910,"67":5911,"Ille</w>":5912,"talem</w>":5913,"virtutis</w>":5914,"Londin":5915,"ensum</w>":5916,"episcoporum</w>":5917,"futuris</w>":5918,"particip":5919,"Pyren":5920,"commo":5921,"descend":5922,"Filio</w>":5923,"dicto</w>":5924,"vocat</w>":5925,"templum</w>":5926,"respondit</w>":5927,"Lingu":5928,"presbyter</w>":5929,"Francisc":5930,"filia</w>":5931,"frig":5932,"nequaquam</w>":5933,"itatibus</w>":5934,"petit</w>":5935,"lav":5936,"tissimi</w>":5937,"Ot":5938,"cell":5939,"initio</w>":5940,"Tex":5941,"cam":5942,"ditur</w>":5943,"conced":5944,"duodecim</w>":5945,"Hom":5946,"susp":5947,"ke</w>":5948,"volumus</w>":5949,"denique</w>":5950,"fecerunt</w>":5951,"Porro</w>":5952,"Stu":5953,"quinqu":5954,"Jacob</w>":5955,"entali</w>":5956,"andr":5957,"dubio</w>":5958,"Fre":5959,"var":5960,"Gen</w>":5961,"Inter</w>":5962,"eantur</w>":5963,"Matr":5964,"feri":5965,"corpora</w>":5966,"Job</w>":5967,"fuerant</w>":5968,"xx":5969,"uimus</w>":5970,"exemplo</w>":5971,"sset</w>":5972,"fat":5973,"ssa</w>":5974,"Quan":5975,"remis":5976,"tabern":5977,"Evangelium</w>":5978,"ciu":5979,"provid":5980,"voluerit</w>":5981,"pend":5982,"inas</w>":5983,"amini</w>":5984,"filiorum</w>":5985,"Bel":5986,"commemor":5987,"suppl":5988,"profer":5989,"ey</w>":5990,"habemus</w>":5991,"usquisque</w>":5992,"propinqu":5993,"matris</w>":5994,"Abraham</w>":5995,"sane</w>":5996,"sermone</w>":5997,"fron":5998,"lem</w>":5999,"itatu</w>":6000,"Laur":6001,"Episcop":6002,"loca</w>":6003,"tertia</w>":6004,"hos</w>":6005,"berti</w>":6006,"spl":6007,"Op":6008,"Martini</w>":6009,"habens</w>":6010,"Ci":6011,"positi</w>":6012,"ponitur</w>":6013,"deinceps</w>":6014,"archidiacon":6015,"anter</w>":6016,"robor":6017,"posit":6018,"Cen":6019,"Tar":6020,"ascend":6021,"erimus</w>":6022,"Epistol":6023,"ove</w>":6024,"Salom":6025,"inta</w>":6026,"eto</w>":6027,"vestro</w>":6028,"procul</w>":6029,"timore</w>":6030,"lumen</w>":6031,"My":6032,"arentur</w>":6033,"Sil":6034,"Omnes</w>":6035,"mus":6036,"Sanctae</w>":6037,"essum</w>":6038,"communi</w>":6039,"ta":6040,"vivi":6041,"cis":6042,"cujus":6043,"ariam</w>":6044,"gust":6045,"ampl":6046,"AE</w>":6047,"OR":6048,"dispens":6049,"cern":6050,"centum</w>":6051,"LE":6052,"Adam</w>":6053,"ubique</w>":6054,"magno</w>":6055,"nat":6056,"Tim":6057,"fex</w>":6058,"scand":6059,"1996</w>":6060,"Joannis</w>":6061,"ariorum</w>":6062,"atori</w>":6063,"contradic":6064,"90</w>":6065,"vo</w>":6066,"65</w>":6067,"dictis</w>":6068,"vius</w>":6069,"Hon":6070,"cin":6071,"QU":6072,"entii</w>":6073,"intelligi</w>":6074,"studio</w>":6075,"Homines</w>":6076,"veniat</w>":6077,"Phar":6078,"maledic":6079,"Martii</w>":6080,"repreh":6081,"sedem</w>":6082,"admir":6083,"tavit</w>":6084,"aurum</w>":6085,"Insul":6086,"AU":6087,"sancte</w>":6088,"nobili":6089,"issimum</w>":6090,"Ox":6091,"Pinac":6092,"fall":6093,"anam</w>":6094,"und</w>":6095,"tori</w>":6096,"quand":6097,"sanguinem</w>":6098,"mec":6099,"contig":6100,"Superioris</w>":6101,"invi":6102,"prod":6103,"Civitatum</w>":6104,"suav":6105,"SS</w>":6106,"spem</w>":6107,"homini</w>":6108,"praesump":6109,"beatitu":6110,"reges</w>":6111,"epistolam</w>":6112,"poena</w>":6113,"crucis</w>":6114,"quadam</w>":6115,"asilic":6116,"Vita</w>":6117,"locutus</w>":6118,"distric":6119,"Vul":6120,"Sax":6121,"Igitur</w>":6122,"vetu":6123,"dirig":6124,"multos</w>":6125,"Quam":6126,"sos</w>":6127,"temer":6128,"talia</w>":6129,"nimis</w>":6130,"Sequ":6131,"datur</w>":6132,"hora</w>":6133,"inibus</w>":6134,"haud</w>":6135,"πο":6136,"sacerdos</w>":6137,"sug":6138,"Tech":6139,"civitas</w>":6140,"adulter":6141,"stuli":6142,"suffrag":6143,"finiti":6144,"Pinacotheca</w>":6145,"habeant</w>":6146,"inqui":6147,"Cast":6148,"horum</w>":6149,"Jam</w>":6150,"dignum</w>":6151,"remo":6152,"Fer":6153,"fidelis</w>":6154,"menta</w>":6155,"ordo</w>":6156,"percus":6157,"mae</w>":6158,"cus</w>":6159,"Acc":6160,"Respon":6161,"poenitentiam</w>":6162,"religionis</w>":6163,"missum</w>":6164,"enius</w>":6165,"acced":6166,"abilem</w>":6167,"vivere</w>":6168,"comitis</w>":6169,"Patri</w>":6170,"pag":6171,"sk":6172,"XIX</w>":6173,"Cumque</w>":6174,"diligenter</w>":6175,"Vide":6176,"mens</w>":6177,"itibus</w>":6178,"Hor":6179,"proprium</w>":6180,"lud":6181,"consensu</w>":6182,"absolu":6183,"eloqu":6184,"loqui</w>":6185,"Scriptura</w>":6186,"urn":6187,"iudicium</w>":6188,"trig":6189,"Met":6190,"princeps</w>":6191,"festin":6192,"tica</w>":6193,"rursus</w>":6194,"archiepiscopus</w>":6195,"Sancto</w>":6196,"idcirco</w>":6197,"ρο":6198,"charitatis</w>":6199,"solis</w>":6200,"justus</w>":6201,"quos":6202,"christi":6203,"nullam</w>":6204,"tant</w>":6205,"Tol":6206,"audire</w>":6207,"dono</w>":6208,"vulgo</w>":6209,"dominum</w>":6210,"septim":6211,"ram":6212,"cives</w>":6213,"eperit</w>":6214,"discretiva</w>":6215,"haeredi":6216,"vivit</w>":6217,"minu":6218,"sae</w>":6219,"recon":6220,"cav":6221,"ism":6222,"erici</w>":6223,"media</w>":6224,"ximus</w>":6225,"stud":6226,"utrumque</w>":6227,"tendit</w>":6228,"abuntur</w>":6229,"fortasse</w>":6230,"ty":6231,"episco":6232,"Alexandr":6233,"cardinalis</w>":6234,"ba</w>":6235,"fratris</w>":6236,"Ac</w>":6237,"70":6238,"bonus</w>":6239,"insidi":6240,"majes":6241,"auctor</w>":6242,"numquam</w>":6243,"corda</w>":6244,"vesti":6245,"eisdem</w>":6246,"Gall":6247,"burg":6248,"veri</w>":6249,"antiam</w>":6250,"Auc":6251,"Foederatarum</w>":6252,"Mel":6253,"magnific":6254,"tatibus</w>":6255,"disti</w>":6256,"hered":6257,"Dat":6258,"Lam":6259,"teret</w>":6260,"municipium</w>":6261,"pit":6262,"spe</w>":6263,"pluribus</w>":6264,"ντ":6265,"aegr":6266,"80</w>":6267,"Bab":6268,"anathem":6269,"dicentes</w>":6270,"tissime</w>":6271,"viginti</w>":6272,"subscripsi</w>":6273,"doctrina</w>":6274,"debant</w>":6275,"eque</w>":6276,"arunt</w>":6277,"sublim":6278,"solet</w>":6279,"Gar":6280,"heres</w>":6281,"dicam</w>":6282,"ww":6283,"Comitatus</w>":6284,"cub":6285,"praesenti</w>":6286,"morem</w>":6287,"Hug":6288,"laudi":6289,"Decembris</w>":6290,"animum</w>":6291,"osol":6292,"ede</w>":6293,"Le</w>":6294,"agit</w>":6295,"spici":6296,"fus</w>":6297,"iz":6298,"bal":6299,"exam":6300,"convenit</w>":6301,"imperium</w>":6302,"assis</w>":6303,"agit":6304,"Marti":6305,"vivi</w>":6306,"cep":6307,"intro":6308,"61</w>":6309,"propterea</w>":6310,"uc</w>":6311,"nau":6312,"1995</w>":6313,"iub":6314,"Apud</w>":6315,"illas</w>":6316,"uestr":6317,"hec</w>":6318,"ecess":6319,"ensus</w>":6320,"exspect":6321,"requi":6322,"aliquam</w>":6323,"ampli":6324,"quum</w>":6325,"scire</w>":6326,"saltem</w>":6327,"adduc":6328,"pecuniam</w>":6329,"onensis</w>":6330,"suspic":6331,"condemn":6332,"Bod":6333,"contemn":6334,"Vati":6335,"vec":6336,"utriusque</w>":6337,"datum</w>":6338,"oti":6339,"positis</w>":6340,"erga</w>":6341,"les":6342,"eamdem</w>":6343,"CC</w>":6344,"gau":6345,"serunt</w>":6346,"colleg":6347,"deprec":6348,"igen":6349,"immun":6350,"www</w>":6351,"novi</w>":6352,"imperii</w>":6353,"Technolog":6354,"incor":6355,"tifex</w>":6356,"prior</w>":6357,"salute</w>":6358,"avar":6359,"prout</w>":6360,"dixerunt</w>":6361,"auxilium</w>":6362,"ulari</w>":6363,"quicquid</w>":6364,"possid":6365,"petere</w>":6366,"dius</w>":6367,"Quem</w>":6368,"meritis</w>":6369,"Philipp":6370,"pax</w>":6371,"consumm":6372,"du</w>":6373,"verus</w>":6374,"Bapti":6375,"arma</w>":6376,"virtutes</w>":6377,"ach</w>":6378,"necessaria</w>":6379,"flor":6380,"latr":6381,"apostolicam</w>":6382,"invit":6383,"ularis</w>":6384,"Fractiones</w>":6385,"NO":6386,"primis</w>":6387,"missus</w>":6388,"fer</w>":6389,"voluntas</w>":6390,"vehem":6391,"ῶν</w>":6392,"declin":6393,"70</w>":6394,"enditur</w>":6395,"Sanctus</w>":6396,"resurg":6397,"pectus</w>":6398,"coelestis</w>":6399,"ment":6400,"ionibus</w>":6401,"Ligeris</w>":6402,"Praes":6403,"unusquisque</w>":6404,"pene</w>":6405,"sese</w>":6406,"coen":6407,"nova</w>":6408,"cæ":6409,"cupidi":6410,"tion</w>":6411,"reci":6412,"tria</w>":6413,"Wil":6414,"eritis</w>":6415,"fiunt</w>":6416,"deli":6417,"imperatoris</w>":6418,"iug":6419,"exprim":6420,"issimus</w>":6421,"debit":6422,"substantia</w>":6423,"Octobris</w>":6424,"onus</w>":6425,"63</w>":6426,"udum</w>":6427,"quotidie</w>":6428,"nostros</w>":6429,"apostolus</w>":6430,"II":6431,"sepulcr":6432,"sacerdotes</w>":6433,"abase</w>":6434,"gere</w>":6435,"ensibus</w>":6436,"man</w>":6437,"dicis</w>":6438,"polis</w>":6439,"aliae</w>":6440,"servorum</w>":6441,"novum</w>":6442,"regum</w>":6443,"videri</w>":6444,"isi":6445,"curam</w>":6446,"tæ</w>":6447,"62</w>":6448,"justum</w>":6449,"dum":6450,"Theodor":6451,"IN</w>":6452,"annorum</w>":6453,"trium":6454,"66</w>":6455,"orumque</w>":6456,"Ques":6457,"Pagina</w>":6458,"mill":6459,"successoribus</w>":6460,"obscur":6461,"inguli</w>":6462,"docet</w>":6463,"agr":6464,"turis</w>":6465,"quanta</w>":6466,"Tran":6467,"profecto</w>":6468,"major</w>":6469,"tal":6470,"discipulis</w>":6471,"conu":6472,"memin":6473,"ok":6474,"Institutum</w>":6475,"col</w>":6476,"iii</w>":6477,"sacra</w>":6478,"del</w>":6479,"vt</w>":6480,"tantum":6481,"defer":6482,"vestim":6483,"Castr":6484,"fulg":6485,"idae</w>":6486,"mendac":6487,"charitas</w>":6488,"impetr":6489,"patriarch":6490,"Database</w>":6491,"propriis</w>":6492,"saecula</w>":6493,"ide</w>":6494,"entiæ</w>":6495,"pign":6496,"tun":6497,"tissimum</w>":6498,"67</w>":6499,"personam</w>":6500,"exercitus</w>":6501,"Fab":6502,"spes</w>":6503,"libertatem</w>":6504,"Null":6505,"Germaniae</w>":6506,"turp":6507,"signa</w>":6508,"Rho":6509,"castell":6510,"potestas</w>":6511,"aeorum</w>":6512,"Guli":6513,"monachi</w>":6514,"poti":6515,"dicatur</w>":6516,"matrimon":6517,"Meridi":6518,"gloriae</w>":6519,"Judaeorum</w>":6520,"ων</w>":6521,"istam</w>":6522,"istit</w>":6523,"Tor":6524,"64</w>":6525,"saeculum</w>":6526,"aen":6527,"ús</w>":6528,"Quibus</w>":6529,"viris</w>":6530,"Georgius</w>":6531,"asper":6532,"Novembris</w>":6533,"hac":6534,"pref":6535,"Tan":6536,"terrarum</w>":6537,"testes</w>":6538,"Judaei</w>":6539,"ov</w>":6540,"Circ":6541,"mentem</w>":6542,"actione</w>":6543,"excl":6544,"minister</w>":6545,"tom":6546,"numerus</w>":6547,"excell":6548,"bello</w>":6549,"justi</w>":6550,"calum":6551,"90":6552,"captiv":6553,"transe":6554,"scientia</w>":6555,"elle</w>":6556,"leges</w>":6557,"Tax":6558,"memoria</w>":6559,"ill</w>":6560,"69</w>":6561,"atenus</w>":6562,"itor":6563,"Dam":6564,"ade</w>":6565,"credimus</w>":6566,"pulchr":6567,"Editi</w>":6568,"imi</w>":6569,"opor":6570,"88</w>":6571,"Vo":6572,"ας</w>":6573,"alteri</w>":6574,"commut":6575,"serp":6576,"episcopos</w>":6577,"aeo</w>":6578,"vas":6579,"audi</w>":6580,"aeternam</w>":6581,"universa</w>":6582,"assign":6583,"iniur":6584,"dimi":6585,"Innoc":6586,"prodi":6587,"postmodum</w>":6588,"hed":6589,"tuorum</w>":6590,"peret</w>":6591,"igne</w>":6592,"68</w>":6593,"eund":6594,"coeli</w>":6595,"Antioch":6596,"tatio</w>":6597,"Bur":6598,"uerat</w>":6599,"iudicio</w>":6600,"ensa</w>":6601,"testatur</w>":6602,"has</w>":6603,"octav":6604,"soli</w>":6605,"secus</w>":6606,"lite</w>":6607,"cae":6608,"1993</w>":6609,"caetera</w>":6610,"με":6611,"dissol":6612,"CJ</w>":6613,"Ga":6614,"credere</w>":6615,"charitate</w>":6616,"prorsus</w>":6617,"Principalis</w>":6618,"repl":6619,"protec":6620,"itiam</w>":6621,"Paul":6622,"berg":6623,"Universitatis</w>":6624,"scriptis</w>":6625,"ilibus</w>":6626,"defen":6627,"facie</w>":6628,"defici":6629,"Pe":6630,"servitu":6631,"lis":6632,"cass":6633,"prosper":6634,"Kal":6635,"ertim</w>":6636,"Francorum</w>":6637,"animarum</w>":6638,"scriptor</w>":6639,"Hieronymus</w>":6640,"den</w>":6641,"veniens</w>":6642,"reperti</w>":6643,"consor":6644,"dispon":6645,"externus</w>":6646,"Iud":6647,"dimit":6648,"appen":6649,"αι</w>":6650,"ventu</w>":6651,"simus</w>":6652,"Lut":6653,"aquae</w>":6654,"Wal":6655,"Cinguli</w>":6656,"dicebat</w>":6657,"Gre":6658,"meorum</w>":6659,"Romam</w>":6660,"mecum</w>":6661,"NAS":6662,"Iulii</w>":6663,"mortuis</w>":6664,"magister</w>":6665,"com</w>":6666,"Matth":6667,"Septentr":6668,"habes</w>":6669,"actio</w>":6670,"videt</w>":6671,"disput":6672,"tric":6673,"lux":6674,"promit":6675,"ebunt</w>":6676,"angeli</w>":6677,"mina</w>":6678,"Die</w>":6679,"mach":6680,"legatus</w>":6681,"Februarii</w>":6682,"oves</w>":6683,"memoriae</w>":6684,"approb":6685,"Rog":6686,"profes":6687,"JP":6688,"praesentia</w>":6689,"Sig":6690,"Propter</w>":6691,"Long":6692,"mentum</w>":6693,"basilic":6694,"litterarum</w>":6695,"ardo</w>":6696,"con</w>":6697,"iat</w>":6698,"persequ":6699,"confu":6700,"culpa</w>":6701,"ful":6702,"altero</w>":6703,"Sunt</w>":6704,"intenti":6705,"primi</w>":6706,"zel":6707,"praecipue</w>":6708,"fi</w>":6709,"lus</w>":6710,"familia</w>":6711,"commod":6712,"memoriam</w>":6713,"egit</w>":6714,"meos</w>":6715,"ages":6716,"nota</w>":6717,"monte</w>":6718,"nullis</w>":6719,"NASA</w>":6720,"DE</w>":6721,"Michael</w>":6722,"principio</w>":6723,"aciter</w>":6724,"Kal</w>":6725,"demque</w>":6726,"Californi":6727,"aliquem</w>":6728,"scripti</w>":6729,"mic":6730,"haberet</w>":6731,"sermonem</w>":6732,"cy":6733,"ow":6734,"patern":6735,"DO":6736,"lasp":6737,"sedes</w>":6738,"tuos</w>":6739,"pr</w>":6740,"cere</w>":6741,"vers</w>":6742,"donum</w>":6743,"Smal":6744,"inser":6745,"Dani":6746,"Orig":6747,"osi</w>":6748,"juven":6749,"concilium</w>":6750,"Paulo</w>":6751,"probr":6752,"uniuer":6753,"oratione</w>":6754,"indictione</w>":6755,"abbati":6756,"precibus</w>":6757,"inu":6758,"85</w>":6759,"Mem":6760,"Galli":6761,"Russic":6762,"sam</w>":6763,"Dion":6764,"exstin":6765,"TH":6766,"dicata</w>":6767,"tina</w>":6768,"Theo":6769,"monachis</w>":6770,"fieret</w>":6771,"maris</w>":6772,"ain</w>":6773,"ts</w>":6774,"seph</w>":6775,"Thomas</w>":6776,"itania</w>":6777,"defec":6778,"Arg":6779,"lucem</w>":6780,"τῆ":6781,"Collocatio</w>":6782,"frustr":6783,"diabolus</w>":6784,"decern":6785,"Iul</w>":6786,"utraque</w>":6787,"terit</w>":6788,"sue</w>":6789,"perturb":6790,"praesent":6791,"dormi":6792,"disset</w>":6793,"Pel":6794,"cit":6795,"metropolitan":6796,"Technologiae</w>":6797,"bor":6798,"venerit</w>":6799,"pertinere</w>":6800,"suscepit</w>":6801,"Septembris</w>":6802,"barb":6803,"sita</w>":6804,"Eboraci</w>":6805,"ubr":6806,"dii</w>":6807,"custo":6808,"1994</w>":6809,"milites</w>":6810,"similitudinem</w>":6811,"Sem":6812,"illae</w>":6813,"invenit</w>":6814,"abbatem</w>":6815,"conss</w>":6816,"Small</w>":6817,"placuit</w>":6818,"mane</w>":6819,"verunt</w>":6820,"proced":6821,"Saec":6822,"necessitate</w>":6823,"nostras</w>":6824,"unquam</w>":6825,"praeced":6826,"dev":6827,"secutus</w>":6828,"Lic":6829,"talibus</w>":6830,"mancip":6831,"etenim</w>":6832,"perpetuo</w>":6833,"deg":6834,"inferi":6835,"finium</w>":6836,"turi</w>":6837,"itudinis</w>":6838,"itiae</w>":6839,"velle</w>":6840,"elix</w>":6841,"Cujus</w>":6842,"vitas</w>":6843,"rad":6844,"Body</w>":6845,"evid":6846,"JPL</w>":6847,"uxit</w>":6848,"circiter</w>":6849,"excel":6850,"quaec":6851,"Burg":6852,"Alum":6853,"amenta</w>":6854,"75</w>":6855,"erub":6856,"casu</w>":6857,"ignem</w>":6858,"une</w>":6859,"vim</w>":6860,"persu":6861,"dari</w>":6862,"bonae</w>":6863,"publicae</w>":6864,"solo</w>":6865,"Iose":6866,"Act</w>":6867,"par</w>":6868,"causis</w>":6869,"nuncup":6870,"plan":6871,"constanti":6872,"necnon</w>":6873,"plerumque</w>":6874,"Imperator</w>":6875,"servum</w>":6876,"praesens</w>":6877,"95</w>":6878,"ot</w>":6879,"spoli":6880,"oduc":6881,"Syr":6882,"Petrum</w>":6883,"Californiense</w>":6884,"elaboraverunt</w>":6885,"Chal":6886,"sid":6887,"diversis</w>":6888,"mos</w>":6889,"Insign":6890,"sitús</w>":6891,"auro</w>":6892,"Rex</w>":6893,"octo</w>":6894,"Quasi</w>":6895,"Apo":6896,"triumph":6897,"Kar":6898,"educ":6899,"XXI</w>":6900,"ancell":6901,"coni":6902,"Alii</w>":6903,"IS</w>":6904,"animus</w>":6905,"tanti</w>":6906,"compet":6907,"disper":6908,"Em":6909,"ecclesiis</w>":6910,"99</w>":6911,"solidos</w>":6912,"ularum</w>":6913,"Vallis</w>":6914,"forti":6915,"oratio</w>":6916,"nostre</w>":6917,"morum</w>":6918,"diaconus</w>":6919,"Agr":6920,"acia</w>":6921,"plex</w>":6922,"moles":6923,"viter</w>":6924,"blasp":6925,"Praeter":6926,"decim</w>":6927,"osius</w>":6928,"tuli":6929,"LXXX":6930,"gaudium</w>":6931,"comitatu</w>":6932,"faceret</w>":6933,"uisset</w>":6934,"veniam</w>":6935,"infl":6936,"etatis</w>":6937,"omnipotens</w>":6938,"venti":6939,"atura</w>":6940,"judicii</w>":6941,"distinc":6942,"sol</w>":6943,"foed":6944,"Laud":6945,"Loth":6946,"graph":6947,"fore</w>":6948,"aturus</w>":6949,"produc":6950,"annunti":6951,"insuper</w>":6952,"Quapropter</w>":6953,"Nihil</w>":6954,"millia</w>":6955,"Ez":6956,"concep":6957,"Spec":6958,"annus</w>":6959,"udi</w>":6960,"titulo</w>":6961,"finis</w>":6962,"praecepta</w>":6963,"altar":6964,"malign":6965,"occi":6966,"specie</w>":6967,"fratri</w>":6968,"indi":6969,"vinum</w>":6970,"principum</w>":6971,"atissim":6972,"presentibus</w>":6973,"XXII</w>":6974,"sanguinis</w>":6975,"repertae</w>":6976,"pronunti":6977,"matrem</w>":6978,"resist":6979,"iani</w>":6980,"Omnia</w>":6981,"aeis</w>":6982,"2014</w>":6983,"interim</w>":6984,"mari</w>":6985,"eff":6986,"amento</w>":6987,"Bre":6988,"Dor":6989,"Londinii</w>":6990,"habentes</w>":6991,"possessionem</w>":6992,"Bor":6993,"actionem</w>":6994,"peregrin":6995,"quarum</w>":6996,"prael":6997,"Hugo</w>":6998,"Lang":6999,"toria</w>":7000,"ins</w>":7001,"Ibi</w>":7002,"viros</w>":7003,"principis</w>":7004,"siue</w>":7005,"miles</w>":7006,"puer":7007,"radi":7008,"ila</w>":7009,"uide":7010,"describ":7011,"parum</w>":7012,"proprio</w>":7013,"uus</w>":7014,"aa</w>":7015,"ff":7016,"interi":7017,"Ha":7018,"tet</w>":7019,"legi</w>":7020,"idere</w>":7021,"istud</w>":7022,"potens</w>":7023,"benedictionem</w>":7024,"apostolis</w>":7025,"Nemo</w>":7026,"fati":7027,"Taxa</w>":7028,"dubium</w>":7029,"operum</w>":7030,"nation":7031,"TU":7032,"tumul":7033,"isus</w>":7034,"motus</w>":7035,"Flandr":7036,"Str":7037,"Basi":7038,"ch</w>":7039,"coll":7040,"intelleg":7041,"etia</w>":7042,"Ach":7043,"Lac":7044,"volunt</w>":7045,"remo</w>":7046,"perduc":7047,"terius</w>":7048,"circu":7049,"Gir":7050,"aliquot</w>":7051,"aut":7052,"pup":7053,"castra</w>":7054,"entias</w>":7055,"fornic":7056,"modic":7057,"osis</w>":7058,"eperat</w>":7059,"demus</w>":7060,"tante</w>":7061,"patres</w>":7062,"verbi</w>":7063,"usu</w>":7064,"11":7065,"virtutibus</w>":7066,"record":7067,"toti":7068,"averint</w>":7069,"sapientiae</w>":7070,"quosdam</w>":7071,"similis</w>":7072,"Romanus</w>":7073,"verborum</w>":7074,"dicendum</w>":7075,"dae</w>":7076,"1990</w>":7077,"numerum</w>":7078,"libere</w>":7079,"22":7080,"Ed":7081,"glorific":7082,"eatis</w>":7083,"mandatum</w>":7084,"ler</w>":7085,"permit":7086,"coep":7087,"visit":7088,"provinciae</w>":7089,"Sym":7090,"positione</w>":7091,"provoc":7092,"Consi":7093,"metu":7094,"Latine</w>":7095,"vitatis</w>":7096,"Leo</w>":7097,"moribus</w>":7098,"assum":7099,"lux</w>":7100,"83</w>":7101,"militum</w>":7102,"totus</w>":7103,"MI":7104,"ting":7105,"exer":7106,"fiduc":7107,"ascendit</w>":7108,"navi":7109,"viribus</w>":7110,"ebam</w>":7111,"Moyses</w>":7112,"ces":7113,"τοῦ</w>":7114,"81</w>":7115,"futuro</w>":7116,"possessiones</w>":7117,"appellantur</w>":7118,"diaboli</w>":7119,"Vicidata</w>":7120,"aliquod</w>":7121,"electus</w>":7122,"colloc":7123,"plena</w>":7124,"placet</w>":7125,"Opera</w>":7126,"elem":7127,"anensis</w>":7128,"Maur":7129,"angelus</w>":7130,"possent</w>":7131,"Babyl":7132,"divino</w>":7133,"Atque</w>":7134,"Dr":7135,"foris</w>":7136,"meas</w>":7137,"positionem</w>":7138,"torio</w>":7139,"acu":7140,"1992</w>":7141,"promiss":7142,"Audi":7143,"nata</w>":7144,"Pet":7145,"vitia</w>":7146,"Salvatoris</w>":7147,"Ves":7148,"radic":7149,"respond":7150,"Robertus</w>":7151,"prædic":7152,"inop":7153,"affirm":7154,"91</w>":7155,"uri":7156,"mori</w>":7157,"aribus</w>":7158,"perhib":7159,"adjuv":7160,"AB":7161,"pud":7162,"urae</w>":7163,"calc":7164,"mom":7165,"Caeter":7166,"tinam</w>":7167,"Rod":7168,"Inde</w>":7169,"Sh":7170,"animas</w>":7171,"specialiter</w>":7172,"desper":7173,"horr":7174,"ipp":7175,"publice</w>":7176,"PO":7177,"89</w>":7178,"atius</w>":7179,"Hum":7180,"sinistr":7181,"adim":7182,"qualis</w>":7183,"ioni</w>":7184,"eremus</w>":7185,"paradi":7186,"blasphem":7187,"plane</w>":7188,"allic":7189,"annu":7190,"inno":7191,"litatis</w>":7192,"praefer":7193,"rede":7194,"extrem":7195,"firma</w>":7196,"87":7197,"Hæ":7198,"jam":7199,"elev":7200,"agitur</w>":7201,"Vin":7202,"victor":7203,"occasione</w>":7204,"dixerit</w>":7205,"Lab":7206,"cons":7207,"ped":7208,"exaudi":7209,"sacramentum</w>":7210,"ical</w>":7211,"valet</w>":7212,"repeti":7213,"onibus</w>":7214,"legibus</w>":7215,"dona</w>":7216,"sinu":7217,"praesertim</w>":7218,"Dioecesis</w>":7219,"elemos":7220,"Rhod":7221,"corum</w>":7222,"descendit</w>":7223,"stem":7224,"imperio</w>":7225,"mandata</w>":7226,"98</w>":7227,"humanae</w>":7228,"epist":7229,"elmi</w>":7230,"Iohannes</w>":7231,"domni</w>":7232,"andos</w>":7233,"onius</w>":7234,"templo</w>":7235,"panem</w>":7236,"auctoritatem</w>":7237,"inr":7238,"ir</w>":7239,"84</w>":7240,"sempit":7241,"Iunii</w>":7242,"isch":7243,"triginta</w>":7244,"appellatur</w>":7245,"deest</w>":7246,"hactenus</w>":7247,"Hol":7248,"inclin":7249,"eleemos":7250,"Dum</w>":7251,"jun":7252,"Franciscus</w>":7253,"plag":7254,"resurrectionem</w>":7255,"istum</w>":7256,"causas</w>":7257,"amar":7258,"torium</w>":7259,"cito</w>":7260,"patet</w>":7261,"Stephanus</w>":7262,"Theodisc":7263,"tamus</w>":7264,"praeses</w>":7265,"96</w>":7266,"latere</w>":7267,"commis":7268,"ys":7269,"pecunia</w>":7270,"finitima</w>":7271,"migr":7272,"sequuntur</w>":7273,"angus":7274,"ques":7275,"invoc":7276,"puto</w>":7277,"abiles</w>":7278,"aniae</w>":7279,"duximus</w>":7280,"codd</w>":7281,"87</w>":7282,"eth</w>":7283,"imaginem</w>":7284,"Pu":7285,"vus</w>":7286,"MAR":7287,"lectio</w>":7288,"auctoritas</w>":7289,"1991</w>":7290,"00":7291,"86</w>":7292,"fr</w>":7293,"gressus</w>":7294,"valeat</w>":7295,"mob":7296,"xi":7297,"tuas</w>":7298,"episse</w>":7299,"Baldu":7300,"Id":7301,"itorum</w>":7302,"agog":7303,"munus</w>":7304,"idit</w>":7305,"Regione</w>":7306,"iram</w>":7307,"Quando</w>":7308,"teri":7309,"Men":7310,"legimus</w>":7311,"stulit</w>":7312,"mansu":7313,"Graece</w>":7314,"quadraginta</w>":7315,"canti":7316,"tre</w>":7317,"interpretatur</w>":7318,"cst</w>":7319,"93</w>":7320,"factionis</w>":7321,"πα":7322,"oso</w>":7323,"Carth":7324,"enim":7325,"retribu":7326,"97</w>":7327,"Joseph</w>":7328,"tulerunt</w>":7329,"Asc":7330,"potentia</w>":7331,"umentis</w>":7332,"pertinent</w>":7333,"Judaeis</w>":7334,"mam</w>":7335,"senatus</w>":7336,"Rich":7337,"fluc":7338,"concilii</w>":7339,"charitatem</w>":7340,"laudem</w>":7341,"virgin":7342,"Pasch":7343,"aculo</w>":7344,"auctore</w>":7345,"Later":7346,"pedibus</w>":7347,"Praeterea</w>":7348,"venerunt</w>":7349,"tici</w>":7350,"tumque</w>":7351,"Pellic":7352,"labore</w>":7353,"Alumni</w>":7354,"repar":7355,"testimonio</w>":7356,"eram</w>":7357,"proper":7358,"Angl":7359,"orationem</w>":7360,"Ass":7361,"Diony":7362,"andae</w>":7363,"gravi":7364,"lic</w>":7365,"Ist":7366,"tris</w>":7367,"peccatores</w>":7368,"conces":7369,"bo</w>":7370,"SP":7371,"aliena</w>":7372,"Duc":7373,"unda</w>":7374,"passionis</w>":7375,"adol":7376,"ysic":7377,"praesentis</w>":7378,"compell":7379,"diei</w>":7380,"Biograph":7381,"Rep":7382,"82</w>":7383,"heb":7384,"nef":7385,"initium</w>":7386,"recog":7387,"Litter":7388,"voluntatis</w>":7389,"sat":7390,"Pan":7391,"visum</w>":7392,"abbate</w>":7393,"amis":7394,"Mediol":7395,"potestatis</w>":7396,"desid":7397,"belli</w>":7398,"92</w>":7399,"imine</w>":7400,"stare</w>":7401,"ρι":7402,"biograph":7403,"exhor":7404,"recta</w>":7405,"nil</w>":7406,"Apoll":7407,"aeternae</w>":7408,"94</w>":7409,"180":7410,"Erat</w>":7411,"venerabilis</w>":7412,"erim</w>":7413,"pari":7414,"Caesar</w>":7415,"prou":7416,"inth":7417,"ou</w>":7418,"Guill":7419,"tetur</w>":7420,"doctrinam</w>":7421,"Edit</w>":7422,"Cap</w>":7423,"capi":7424,"Heb":7425,"omi</w>":7426,"veluti</w>":7427,"odi</w>":7428,"undus</w>":7429,"ela</w>":7430,"Gulielmus</w>":7431,"Doc":7432,"paucis</w>":7433,"ford</w>":7434,"magnus</w>":7435,"panis</w>":7436,"immin":7437,"multorum</w>":7438,"armis</w>":7439,"vob":7440,"ogen":7441,"librum</w>":7442,"consist":7443,"Scriptores</w>":7444,"fideliter</w>":7445,"descrip":7446,"Gau":7447,"Sequan":7448,"ist</w>":7449,"71</w>":7450,"Ba":7451,"escit</w>":7452,"Cruc":7453,"att":7454,"Romano</w>":7455,"tecum</w>":7456,"ville</w>":7457,"nud":7458,"pote</w>":7459,"repu":7460,"Insigne</w>":7461,"uber":7462,"sura</w>":7463,"aetate</w>":7464,"propon":7465,"Imperatores</w>":7466,"sede</w>":7467,"Iosephus</w>":7468,"atica</w>":7469,"tantummodo</w>":7470,"tenet</w>":7471,"duplic":7472,"Gallic":7473,"legatum</w>":7474,"Euse":7475,"Ful":7476,"consili":7477,"mensis</w>":7478,"derat</w>":7479,"tib":7480,"integrum</w>":7481,"diabolo</w>":7482,"verit</w>":7483,"aures</w>":7484,"frequenter</w>":7485,"elu":7486,"redi</w>":7487,"contra":7488,"viae</w>":7489,"entiarum</w>":7490,"Omnis</w>":7491,"Meli":7492,"tho":7493,"trum</w>":7494,"profund":7495,"Cic":7496,"xi</w>":7497,"patri</w>":7498,"intelligere</w>":7499,"familiae</w>":7500,"pris":7501,"munere</w>":7502,"incurr":7503,"sacris</w>":7504,"Eu":7505,"plurimum</w>":7506,"monachorum</w>":7507,"laus</w>":7508,"peritus</w>":7509,"adop":7510,"clau":7511,"manu":7512,"detr":7513,"Qua</w>":7514,"77</w>":7515,"quisquam</w>":7516,"Claudi":7517,"UN":7518,"perit</w>":7519,"passus</w>":7520,"demum</w>":7521,"archiepiscopo</w>":7522,"inspec":7523,"aci":7524,"ticum</w>":7525,"orbis</w>":7526,"condita</w>":7527,"sacrificium</w>":7528,"fecisse</w>":7529,"Sion</w>":7530,"pacific":7531,"imb":7532,"ferv":7533,"Ly":7534,"Phil":7535,"speciem</w>":7536,"tenebris</w>":7537,"excit":7538,"suscit":7539,"intelligitur</w>":7540,"aetatis</w>":7541,"nihilominus</w>":7542,"coelorum</w>":7543,"proprie</w>":7544,"Vinc":7545,"common":7546,"esto</w>":7547,"ibusque</w>":7548,"Ric":7549,"desin":7550,"transl":7551,"Marcus</w>":7552,"lem":7553,"consul</w>":7554,"conscientia</w>":7555,"poenam</w>":7556,"ech</w>":7557,"operatur</w>":7558,"intim":7559,"sanctam</w>":7560,"insinu":7561,"trin":7562,"ochi":7563,"lla</w>":7564,"sapientiam</w>":7565,"capitulo</w>":7566,"diligit</w>":7567,"ambig":7568,"saepius</w>":7569,"maxima</w>":7570,"sust":7571,"reprob":7572,"TE":7573,"tata</w>":7574,"torqu":7575,"itius</w>":7576,"sib":7577,"umento</w>":7578,"incur":7579,"scientiam</w>":7580,"solemn":7581,"Cel":7582,"propositum</w>":7583,"pom":7584,"facio</w>":7585,"Redemp":7586,"divinis</w>":7587,"integ":7588,"Valenti":7589,"vice</w>":7590,"ra":7591,"pontifex</w>":7592,"hostes</w>":7593,"casti":7594,"ecclesiastica</w>":7595,"tradidit</w>":7596,"rh":7597,"quarto</w>":7598,"Normann":7599,"fru":7600,"constituit</w>":7601,"ecclesiarum</w>":7602,"2013</w>":7603,"consc":7604,"add":7605,"substitu":7606,"Frid":7607,"nutr":7608,"libera</w>":7609,"Tem":7610,"promp":7611,"Cur</w>":7612,"invisib":7613,"Bri":7614,"distrib":7615,"Hy":7616,"collect</w>":7617,"rent</w>":7618,"ον</w>":7619,"eu</w>":7620,"langu":7621,"discipl":7622,"diversa</w>":7623,"reduc":7624,"La":7625,"imis</w>":7626,"Te":7627,"sap":7628,"ει":7629,"Vill":7630,"inquir":7631,"Nes":7632,"Aut</w>":7633,"exercitu</w>":7634,"Fam":7635,"scripto</w>":7636,"malorum</w>":7637,"defend":7638,"Tum</w>":7639,"pia</w>":7640,"aro</w>":7641,"120":7642,"ibilis</w>":7643,"genera</w>":7644,"Geographia</w>":7645,"inarum</w>":7646,"Eug":7647,"transfer":7648,"crucifix":7649,"Sum":7650,"Hunc</w>":7651,"absol":7652,"itos</w>":7653,"putat</w>":7654,"erem":7655,"eor</w>":7656,"presentes</w>":7657,"susci":7658,"invenitur</w>":7659,"978</w>":7660,"ala</w>":7661,"misericordiae</w>":7662,"Mil":7663,"ingredi":7664,"Me":7665,"Iap":7666,"secuti</w>":7667,"manifestum</w>":7668,"fatig":7669,"Clem":7670,"72</w>":7671,"luce</w>":7672,"nolu":7673,"76</w>":7674,"solent</w>":7675,"Hi</w>":7676,"Lec":7677,"Beati</w>":7678,"Iacobus</w>":7679,"angelorum</w>":7680,"odio</w>":7681,"sigilli</w>":7682,"Eccl":7683,"filiam</w>":7684,"coelis</w>":7685,"org":7686,"Goth":7687,"uam</w>":7688,"cancell":7689,"fecimus</w>":7690,"puls":7691,"dixerat</w>":7692,"unic":7693,"videretur</w>":7694,"not</w>":7695,"splend":7696,"humani</w>":7697,"gesta</w>":7698,"amor</w>":7699,"dignitate</w>":7700,"putant</w>":7701,"MO</w>":7702,"uos</w>":7703,"semin":7704,"eandem</w>":7705,"cathed":7706,"peculi":7707,"Trinitatis</w>":7708,"angelis</w>":7709,"formid":7710,"73</w>":7711,"XXIII</w>":7712,"Evangelii</w>":7713,"Patrum</w>":7714,"tax":7715,"affectu</w>":7716,"fines</w>":7717,"pretium</w>":7718,"magni</w>":7719,"aul</w>":7720,"mores</w>":7721,"apparuit</w>":7722,"Lege</w>":7723,"Secundum</w>":7724,"uch":7725,"terre</w>":7726,"aperte</w>":7727,"Grati":7728,"debitum</w>":7729,"Apostoli</w>":7730,"civitatum</w>":7731,"ios</w>":7732,"irent</w>":7733,"Ann":7734,"videbatur</w>":7735,"Ies":7736,"dierum</w>":7737,"summo</w>":7738,"Marie</w>":7739,"Sat":7740,"vimus</w>":7741,"suarum</w>":7742,"ebri":7743,"mine</w>":7744,"interfec":7745,"beneficium</w>":7746,"habeo</w>":7747,"insula</w>":7748,"Philippus</w>":7749,"manet</w>":7750,"coenob":7751,"Sequitur</w>":7752,"acula</w>":7753,"Pop":7754,"Mense</w>":7755,"subito</w>":7756,"Vid":7757,"exinde</w>":7758,"Mir":7759,"correc":7760,"periculum</w>":7761,"mur</w>":7762,"volo</w>":7763,"Super</w>":7764,"tior</w>":7765,"apparet</w>":7766,"multitudo</w>":7767,"Cassi":7768,"berg</w>":7769,"itatur</w>":7770,"pervenit</w>":7771,"erog":7772,"EO":7773,"faciant</w>":7774,"esse":7775,"ian":7776,"tempes":7777,"plant":7778,"tili":7779,"paul":7780,"EPISCO":7781,"defens":7782,"codice</w>":7783,"ossa</w>":7784,"essu</w>":7785,"tenere</w>":7786,"temere</w>":7787,"icom":7788,"munera</w>":7789,"velit</w>":7790,"agi</w>":7791,"discipuli</w>":7792,"all</w>":7793,"pertinentiis</w>":7794,"thr":7795,"temporum</w>":7796,"ecc":7797,"Ludovicus</w>":7798,"incipit</w>":7799,"Agn":7800,"opport":7801,"hereditatem</w>":7802,"quoc":7803,"necessarium</w>":7804,"conjunc":7805,"Illud</w>":7806,"CD":7807,"iber":7808,"SAN":7809,"olic":7810,"sedi":7811,"vidi</w>":7812,"expon":7813,"adventum</w>":7814,"debeant</w>":7815,"aeum</w>":7816,"Wor":7817,"monachus</w>":7818,"deus</w>":7819,"All":7820,"digna</w>":7821,"TIO</w>":7822,"macul":7823,"Antonius</w>":7824,"oculi</w>":7825,"scribitur</w>":7826,"ullo</w>":7827,"78</w>":7828,"imen</w>":7829,"divit":7830,"deant</w>":7831,"alog":7832,"missis</w>":7833,"diis</w>":7834,"74</w>":7835,"montem</w>":7836,"sati":7837,"poster":7838,"lin</w>":7839,"teste</w>":7840,"ge":7841,"LXX</w>":7842,"ardia</w>":7843,"ος</w>":7844,"Quin":7845,"conting":7846,"issimis</w>":7847,"omit":7848,"versi</w>":7849,"circumcis":7850,"IIII</w>":7851,"ve":7852,"Saeculo</w>":7853,"quanti":7854,"certum</w>":7855,"ele</w>":7856,"praedecess":7857,"uxore</w>":7858,"etiamsi</w>":7859,"duabus</w>":7860,"stat":7861,"rip":7862,"ret":7863,"fugit</w>":7864,"alleg":7865,"Disc":7866,"inimici</w>":7867,"ner</w>":7868,"Mass":7869,"amorem</w>":7870,"Tab":7871,"partim</w>":7872,"genuit</w>":7873,"refert</w>":7874,"cunque</w>":7875,"ès</w>":7876,"formul":7877,"heredes</w>":7878,"ilibet</w>":7879,"linguae</w>":7880,"Vos</w>":7881,"ebitur</w>":7882,"personae</w>":7883,"copul":7884,"membris</w>":7885,"Matronae</w>":7886,"vivific":7887,"minor</w>":7888,"ol</w>":7889,"Isa</w>":7890,"subiec":7891,"operam</w>":7892,"incarnationis</w>":7893,"Mu":7894,"ARI":7895,"schol":7896,"GU":7897,"unae</w>":7898,"testamentum</w>":7899,"Public":7900,"piam</w>":7901,"trium</w>":7902,"for</w>":7903,"istius</w>":7904,"infin":7905,"1981</w>":7906,"Dur":7907,"Cyr":7908,"pollic":7909,"accid":7910,"nonnulli</w>":7911,"frustra</w>":7912,"textu</w>":7913,"gladio</w>":7914,"scu":7915,"legit</w>":7916,"dignitatem</w>":7917,"avis</w>":7918,"urt</w>":7919,"Ir":7920,"ister</w>":7921,"ave</w>":7922,"Nonne</w>":7923,"etam</w>":7924,"Martyr":7925,"Exod</w>":7926,"sacerdotum</w>":7927,"orsum</w>":7928,"praesidi":7929,"consuetudinem</w>":7930,"possibile</w>":7931,"universis</w>":7932,"astis</w>":7933,"SER":7934,"discretivam</w>":7935,"Vall":7936,"Mont":7937,"synodo</w>":7938,"Hæc</w>":7939,"arte</w>":7940,"adversum</w>":7941,"uobis</w>":7942,"impi":7943,"Camer":7944,"iens</w>":7945,"corp":7946,"Capit":7947,"preces</w>":7948,"enae</w>":7949,"decimam</w>":7950,"missi</w>":7951,"pellic":7952,"abilia</w>":7953,"factam</w>":7954,"Clar":7955,"vester</w>":7956,"increp":7957,"liberum</w>":7958,"utroque</w>":7959,"nescio</w>":7960,"Romanum</w>":7961,"XXV</w>":7962,"Hujus</w>":7963,"edific":7964,"decimo</w>":7965,"interdum</w>":7966,"XC":7967,"Augustini</w>":7968,"comiti":7969,"reddere</w>":7970,"vali":7971,"nullatenus</w>":7972,"tranqu":7973,"claus":7974,"certam":7975,"ES":7976,"dog":7977,"Huius</w>":7978,"vellet</w>":7979,"decima</w>":7980,"immol":7981,"apo":7982,"permaneat</w>":7983,"veniet</w>":7984,"omnim":7985,"Judæ":7986,"servo</w>":7987,"79</w>":7988,"EL":7989,"virorum</w>":7990,"regnante</w>":7991,"Bell":7992,"affer":7993,"antiqua</w>":7994,"capti":7995,"oll":7996,"scribere</w>":7997,"113":7998,"Ecclesiæ</w>":7999,"positio</w>":8000,"Liber":8001,"func":8002,"concedi":8003,"cent":8004,"New</w>":8005,"unitatem</w>":8006,"personis</w>":8007,"econ":8008,"libros</w>":8009,"fratre</w>":8010,"gradus</w>":8011,"Corne":8012,"singulos</w>":8013,"enna</w>":8014,"Aca":8015,"acr":8016,"nas</w>":8017,"Honor":8018,"ensu</w>":8019,"meruit</w>":8020,"veniunt</w>":8021,"dulc":8022,"libenter</w>":8023,"lax":8024,"Mur":8025,"prophetam</w>":8026,"popu":8027,"Pho":8028,"Rufin":8029,"vum</w>":8030,"credit</w>":8031,"cruce</w>":8032,"ecclesias</w>":8033,"σι":8034,"sæc":8035,"reconcili":8036,"advoc":8037,"testamento</w>":8038,"Vulg":8039,"ith":8040,"rub":8041,"hodiern":8042,"Rot":8043,"deos</w>":8044,"sitan</w>":8045,"firmit":8046,"fridus</w>":8047,"continuo</w>":8048,"succes":8049,"percipi":8050,"nobiscum</w>":8051,"magnam</w>":8052,"decet</w>":8053,"resurrectionis</w>":8054,"capell":8055,"praeceptum</w>":8056,"puni":8057,"abscon":8058,"Graeco</w>":8059,"attend":8060,"ρα":8061,"principibus</w>":8062,"ology</w>":8063,"vitiis</w>":8064,"praeterea</w>":8065,"iano</w>":8066,"aea</w>":8067,"oro</w>":8068,"confess":8069,"Francog":8070,"hostium</w>":8071,"Nicolaus</w>":8072,"orare</w>":8073,"Chron":8074,"lectionem</w>":8075,"pauperes</w>":8076,"Helv":8077,"Lutetiae</w>":8078,"dulced":8079,"dioec":8080,"quær":8081,"Pot":8082,"reus</w>":8083,"iniquitatem</w>":8084,"natum</w>":8085,"acensi</w>":8086,"adr":8087,"situs</w>":8088,"ministri</w>":8089,"Stephani</w>":8090,"praecepit</w>":8091,"tt":8092,"studium</w>":8093,"Lugd":8094,"partis</w>":8095,"Carant":8096,"Paris":8097,"vii</w>":8098,"jecit</w>":8099,"tuor</w>":8100,"fac</w>":8101,"actis</w>":8102,"alb":8103,"gens</w>":8104,"EPISCOP":8105,"mille</w>":8106,"montes</w>":8107,"veni</w>":8108,"pati</w>":8109,"mortui</w>":8110,"periculo</w>":8111,"humiliter</w>":8112,"arias</w>":8113,"XXX</w>":8114,"tationem</w>":8115,"Fanum</w>":8116,"Est":8117,"SU":8118,"Ren":8119,"aldi</w>":8120,"Mi":8121,"Nat":8122,"illuc</w>":8123,"undique</w>":8124,"mysterium</w>":8125,"satisfac":8126,"ence</w>":8127,"ativa</w>":8128,"officialis</w>":8129,"uxoris</w>":8130,"Christiani</w>":8131,"pontificatus</w>":8132,"dabit</w>":8133,"terrena</w>":8134,"puer</w>":8135,"inimicos</w>":8136,"Joannem</w>":8137,"pub":8138,"terras</w>":8139,"Angliae</w>":8140,"Corb</w>":8141,"Ed</w>":8142,"XL</w>":8143,"pago</w>":8144,"novimus</w>":8145,"femin":8146,"aquis</w>":8147,"ennium</w>":8148,"vire</w>":8149,"Sir":8150,"hym":8151,"2015</w>":8152,"municipio</w>":8153,"nullius</w>":8154,"Vatic</w>":8155,"impon":8156,"XXIV</w>":8157,"introduc":8158,"HD</w>":8159,"adiu":8160,"δι":8161,"anne</w>":8162,"videns</w>":8163,"Textus</w>":8164,"Abb":8165,"Hierosol":8166,"cassini</w>":8167,"exempla</w>":8168,"Sco":8169,"Inferi":8170,"Romanis</w>":8171,"Proc":8172,"utero</w>":8173,"Mons</w>":8174,"eos":8175,"ingen":8176,"ulc":8177,"erig":8178,"emini</w>":8179,"cordibus</w>":8180,"facies</w>":8181,"ministerium</w>":8182,"Plac":8183,"Tre":8184,"suscip":8185,"instruc":8186,"ehess</w>":8187,"besti":8188,"virgo</w>":8189,"ister":8190,"humilis</w>":8191,"fideicom":8192,"fisc":8193,"toler":8194,"sponte</w>":8195,"ada</w>":8196,"pari</w>":8197,"Roma</w>":8198,"dignatus</w>":8199,"Maced":8200,"org</w>":8201,"sequenti</w>":8202,"deliber":8203,"perpetr":8204,"Euseb":8205,"substantiam</w>":8206,"istori":8207,"profit":8208,"averis</w>":8209,"oquin</w>":8210,"Bat":8211,"effici":8212,"orationis</w>":8213,"debita</w>":8214,"orbem</w>":8215,"liter":8216,"pervenire</w>":8217,"profici":8218,"editis</w>":8219,"semen</w>":8220,"odem</w>":8221,"sustent":8222,"1989</w>":8223,"ficere</w>":8224,"editio</w>":8225,"addit</w>":8226,"qu</w>":8227,"itata</w>":8228,"len":8229,"sanctos</w>":8230,"patitur</w>":8231,"Er</w>":8232,"vix":8233,"navig":8234,"industr":8235,"exercit":8236,"undia</w>":8237,"scul":8238,"gres":8239,"Occid":8240,"quarta</w>":8241,"ep</w>":8242,"ect":8243,"ez":8244,"amit":8245,"altitu":8246,"vae</w>":8247,"dicente</w>":8248,"τῆς</w>":8249,"pens":8250,"idis</w>":8251,"Ardu":8252,"Flavi":8253,"assidu":8254,"sedit</w>":8255,"plu":8256,"crimen</w>":8257,"passionem</w>":8258,"History</w>":8259,"simpliciter</w>":8260,"pietate</w>":8261,"scientiae</w>":8262,"Poli":8263,"art</w>":8264,"tristi":8265,"libras</w>":8266,"berto</w>":8267,"epistolae</w>":8268,"access":8269,"mirum</w>":8270,"tissima</w>":8271,"molend":8272,"sh":8273,"libertate</w>":8274,"Iu":8275,"adolesc":8276,"somn":8277,"poterant</w>":8278,"reserv":8279,"trix</w>":8280,"pervers":8281,"possum</w>":8282,"personas</w>":8283,"arus</w>":8284,"creatura</w>":8285,"Conf":8286,"rursum</w>":8287,"fama</w>":8288,"patriam</w>":8289,"ionum</w>":8290,"Is</w>":8291,"time</w>":8292,"exemp":8293,"obst":8294,"matre</w>":8295,"quaeque</w>":8296,"Veter":8297,"humanum</w>":8298,"consum":8299,"reced":8300,"dignus</w>":8301,"gredi":8302,"civitates</w>":8303,"ducis</w>":8304,"improb":8305,"Leodi":8306,"justis</w>":8307,"Dicit</w>":8308,"luxur":8309,"feci</w>":8310,"πε":8311,"negoti":8312,"passione</w>":8313,"divinitatis</w>":8314,"charissimi</w>":8315,"prophetae</w>":8316,"yth":8317,"Mus":8318,"statu</w>":8319,"afflic":8320,"depreh":8321,"Isai</w>":8322,"Miss":8323,"nuper</w>":8324,"veram</w>":8325,"gaudio</w>":8326,"blan":8327,"lapi":8328,"Catholica</w>":8329,"onensi</w>":8330,"historia</w>":8331,"evangelic":8332,"stae</w>":8333,"serat</w>":8334,"Nun":8335,"Pis":8336,"orat</w>":8337,"posterum</w>":8338,"CL":8339,"errore</w>":8340,"ὸν</w>":8341,"honor</w>":8342,"saeculorum</w>":8343,"continetur</w>":8344,"faciet</w>":8345,"reliqua</w>":8346,"dudum</w>":8347,"tre":8348,"dir":8349,"primam</w>":8350,"creatus</w>":8351,"Auctores</w>":8352,"tertium</w>":8353,"Ri":8354,"tantam</w>":8355,"ceteris</w>":8356,"tiva</w>":8357,"protinus</w>":8358,"cro":8359,"varic":8360,"sciens</w>":8361,"licum</w>":8362,"titiae</w>":8363,"aetern":8364,"milia</w>":8365,"Lingua</w>":8366,"capitis</w>":8367,"pœ":8368,"corn":8369,"matur":8370,"formulam</w>":8371,"autem":8372,"renunti":8373,"promisit</w>":8374,"Voc":8375,"elmo</w>":8376,"Urbis</w>":8377,"Hebra":8378,"inan":8379,"John</w>":8380,"Muse":8381,"compon":8382,"Oec":8383,"salus</w>":8384,"xa</w>":8385,"quolibet</w>":8386,"factis</w>":8387,"biographiam</w>":8388,"Sapi":8389,"tis":8390,"proeli":8391,"libid":8392,"litur</w>":8393,"sanguis</w>":8394,"parc":8395,"desiderio</w>":8396,"vad":8397,"columb":8398,"Biographicae</w>":8399,"Langob":8400,"confid":8401,"Pub":8402,"exercitum</w>":8403,"Quesn":8404,"animadver":8405,"Pat":8406,"Pre":8407,"fiant</w>":8408,"Sent":8409,"Pac":8410,"adimpl":8411,"statum</w>":8412,"ὴν</w>":8413,"ein</w>":8414,"osae</w>":8415,"quodam":8416,"fecisti</w>":8417,"contro":8418,"faciam</w>":8419,"Hieronym":8420,"AV":8421,"Mod":8422,"bonos</w>":8423,"olorum</w>":8424,"pietas</w>":8425,"agn":8426,"ejusque</w>":8427,"Francogallic":8428,"ingressus</w>":8429,"inensis</w>":8430,"umtamen</w>":8431,"mandamus</w>":8432,"necessitas</w>":8433,"arbitrio</w>":8434,"Cypri":8435,"codices</w>":8436,"dedi":8437,"officii</w>":8438,"ang</w>":8439,"Illi</w>":8440,"lumine</w>":8441,"Forte</w>":8442,"psalmo</w>":8443,"tabat</w>":8444,"misericordi":8445,"fraud":8446,"Super":8447,"sempitern":8448,"tantis</w>":8449,"multitudine</w>":8450,"Similiter</w>":8451,"rus":8452,"vocant</w>":8453,"Arab":8454,"tarius</w>":8455,"rea</w>":8456,"seq</w>":8457,"vires</w>":8458,"cio</w>":8459,"obiit</w>":8460,"undec":8461,"forsitan</w>":8462,"vio</w>":8463,"viscer":8464,"principium</w>":8465,"ual":8466,"variis</w>":8467,"italis</w>":8468,"Aem":8469,"comment":8470,"confirmamus</w>":8471,"Colb</w>":8472,"114":8473,"datus</w>":8474,"tribuit</w>":8475,"Leonis</w>":8476,"publicam</w>":8477,"Cass":8478,"dedic":8479,"superbia</w>":8480,"Fo":8481,"juc":8482,"potentiam</w>":8483,"ener":8484,"multas</w>":8485,"nempe</w>":8486,"orationibus</w>":8487,"percu":8488,"omnipotentis</w>":8489,"Praefec":8490,"μα":8491,"possess":8492,"ych":8493,"crucem</w>":8494,"XXVI</w>":8495,"vas</w>":8496,"legati</w>":8497,"videmus</w>":8498,"Eth":8499,"Isaac</w>":8500,"ann</w>":8501,"construc":8502,"Salvator</w>":8503,"Prov</w>":8504,"Ari":8505,"Mox</w>":8506,"exsi":8507,"umnae</w>":8508,"nobilis</w>":8509,"martyrum</w>":8510,"duce</w>":8511,"certa</w>":8512,"idem":8513,"principem</w>":8514,"resid":8515,"causae</w>":8516,"pun":8517,"comitatus</w>":8518,"etu</w>":8519,"SI</w>":8520,"pess":8521,"habebant</w>":8522,"asius</w>":8523,"clerici</w>":8524,"orus</w>":8525,"immor":8526,"01</w>":8527,"ectus</w>":8528,"amoris</w>":8529,"Data</w>":8530,"Med":8531,"LI</w>":8532,"alicui</w>":8533,"requiesc":8534,"bonam</w>":8535,"jungit</w>":8536,"praen":8537,"SA":8538,"oss</w>":8539,"kal":8540,"determin":8541,"editi</w>":8542,"quas":8543,"ley</w>":8544,"Pict":8545,"usurp":8546,"liqu":8547,"recipere</w>":8548,"Americanus</w>":8549,"100</w>":8550,"turba</w>":8551,"hol":8552,"unitate</w>":8553,"respic":8554,"sepeli":8555,"Ambrosius</w>":8556,"Sequanae</w>":8557,"Var":8558,"acione</w>":8559,"Dominicae</w>":8560,"frau":8561,"Oce":8562,"perfecta</w>":8563,"Quidam</w>":8564,"vias</w>":8565,"exteri":8566,"Ecclesi":8567,"tandum</w>":8568,"præs":8569,"eld</w>":8570,"Nomen</w>":8571,"visus</w>":8572,"dolore</w>":8573,"ER</w>":8574,"aj":8575,"nor":8576,"grat":8577,"inorum</w>":8578,"ung</w>":8579,"Opus</w>":8580,"latus</w>":8581,"Bed":8582,"Praec":8583,"cclesi":8584,"Vig":8585,"tato</w>":8586,"1988</w>":8587,"Infr":8588,"Academ":8589,"aduer":8590,"suæ</w>":8591,"patriae</w>":8592,"Int":8593,"humilitatis</w>":8594,"conspic":8595,"multitudinem</w>":8596,"mann</w>":8597,"domes":8598,"clericorum</w>":8599,"inspir":8600,"meridi":8601,"Benedicti</w>":8602,"eru":8603,"dignitatis</w>":8604,"exspec":8605,"porro</w>":8606,"direc":8607,"desiderium</w>":8608,"expugn":8609,"familias</w>":8610,"ungu":8611,"posteri":8612,"dexteram</w>":8613,"commit":8614,"Numquid</w>":8615,"Gi":8616,"seduc":8617,"ingere</w>":8618,"θε":8619,"undi</w>":8620,"flumen</w>":8621,"Andreas</w>":8622,"Arnul":8623,"clericis</w>":8624,"servos</w>":8625,"examin":8626,"fals":8627,"sermonis</w>":8628,"express":8629,"entissime</w>":8630,"San":8631,"ventur</w>":8632,"vobiscum</w>":8633,"merita</w>":8634,"ades</w>":8635,"Imperii</w>":8636,"disciplina</w>":8637,"officia</w>":8638,"Quar":8639,"quinto</w>":8640,"beneficia</w>":8641,"istri</w>":8642,"penetr":8643,"Felic":8644,"aw":8645,"Gab":8646,"quattuor</w>":8647,"pauca</w>":8648,"Alpibus</w>":8649,"sob":8650,"cetera</w>":8651,"patria</w>":8652,"confec":8653,"imperatore</w>":8654,"pauperum</w>":8655,"Latina</w>":8656,"beatissim":8657,"Caeterum</w>":8658,"Tim</w>":8659,"istae</w>":8660,"intellectum</w>":8661,"acer":8662,"abimus</w>":8663,"probatur</w>":8664,"muner":8665,"ais</w>":8666,"Torn":8667,"hoc":8668,"absc":8669,"conduc":8670,"adep":8671,"aui</w>":8672,"hostis</w>":8673,"ascen":8674,"Castrum</w>":8675,"Ax":8676,"tissimo</w>":8677,"quodammodo</w>":8678,"enam</w>":8679,"difficul":8680,"sacramenta</w>":8681,"Brun":8682,"fau":8683,"comed":8684,"Taur":8685,"fov":8686,"discern":8687,"ho</w>":8688,"retinere</w>":8689,"Maj":8690,"cip":8691,"Constantinus</w>":8692,"alum</w>":8693,"beneficio</w>":8694,"yg":8695,"bus":8696,"etem</w>":8697,"osam</w>":8698,"eng":8699,"meritum</w>":8700,"apostolos</w>":8701,"za</w>":8702,"recus":8703,"FI":8704,"aquas</w>":8705,"dixisse</w>":8706,"Americae</w>":8707,"deput":8708,"Ge":8709,"Alias</w>":8710,"bibli":8711,"sententiae</w>":8712,"reperi":8713,"incho":8714,"filiae</w>":8715,"laqu":8716,"manum":8717,"dines</w>":8718,"Muli":8719,"patrum</w>":8720,"quinquaginta</w>":8721,"parentes</w>":8722,"mortua</w>":8723,"humilitate</w>":8724,"auxilio</w>":8725,"detin":8726,"San</w>":8727,"Nam":8728,"Nisi</w>":8729,"linguam</w>":8730,"cm</w>":8731,"singula</w>":8732,"ture</w>":8733,"calam":8734,"tribun":8735,"archiepiscopi</w>":8736,"pulch":8737,"onium</w>":8738,"comper":8739,"Philosoph":8740,"Dioc":8741,"breviter</w>":8742,"ther":8743,"superioris</w>":8744,"enit":8745,"praecipi":8746,"ér":8747,"urus</w>":8748,"parentibus</w>":8749,"feod":8750,"Ans":8751,"Atl":8752,"docuit</w>":8753,"concessa</w>":8754,"populis</w>":8755,"recit":8756,"contulit</w>":8757,"largi":8758,"Praem":8759,"duae</w>":8760,"arae</w>":8761,"asp":8762,"scab":8763,"contumeli":8764,"territor":8765,"remus</w>":8766,"cast":8767,"enarr":8768,"Scripturarum</w>":8769,"ok</w>":8770,"alteram</w>":8771,"palam</w>":8772,"faciens</w>":8773,"dubia</w>":8774,"audivit</w>":8775,"summum</w>":8776,"dilectionem</w>":8777,"Barb":8778,"immo</w>":8779,"regna</w>":8780,"112":8781,"figura</w>":8782,"Lau":8783,"constituta</w>":8784,"Moysi</w>":8785,"discr":8786,"appellatione</w>":8787,"ht</w>":8788,"Num</w>":8789,"Dixit</w>":8790,"Pharis":8791,"mix":8792,"umer":8793,"Vis":8794,"codex</w>":8795,"plenius</w>":8796,"immut":8797,"ule</w>":8798,"Mariti":8799,"oniensis</w>":8800,"dist":8801,"promo":8802,"presbyteri</w>":8803,"facilius</w>":8804,"obi</w>":8805,"ast</w>":8806,"merced":8807,"materia</w>":8808,"mora</w>":8809,"beato</w>":8810,"absit</w>":8811,"clop":8812,"imam</w>":8813,"parentum</w>":8814,"deneg":8815,"Daniel</w>":8816,"aliqui</w>":8817,"aturum</w>":8818,"undum</w>":8819,"andas</w>":8820,"ulariter</w>":8821,"ues":8822,"habebit</w>":8823,"quisquis</w>":8824,"donis</w>":8825,"licentia</w>":8826,"tela</w>":8827,"ET":8828,"nom":8829,"appreh":8830,"Gregorii</w>":8831,"humilitatem</w>":8832,"eleemosy":8833,"artific":8834,"Mosellae</w>":8835,"utus</w>":8836,"vitæ</w>":8837,"quidquam</w>":8838,"sanguin":8839,"quandoque</w>":8840,"cæter":8841,"quor</w>":8842,"Lov</w>":8843,"Constantinopolitan":8844,"Propheta</w>":8845,"calumni":8846,"pore</w>":8847,"nominibus</w>":8848,"orific":8849,"devotione</w>":8850,"pa</w>":8851,"hostibus</w>":8852,"dolo</w>":8853,"voces</w>":8854,"deum</w>":8855,"liberi</w>":8856,"imae</w>":8857,"dives</w>":8858,"Sed":8859,"renov":8860,"aces</w>":8861,"castig":8862,"taliter</w>":8863,"icumque</w>":8864,"additis</w>":8865,"Campania</w>":8866,"Cantu":8867,"bri</w>":8868,"victus</w>":8869,"eder":8870,"venisse</w>":8871,"edictum</w>":8872,"iliae</w>":8873,"XXVIII</w>":8874,"orientali</w>":8875,"das</w>":8876,"errorem</w>":8877,"sufficit</w>":8878,"remove</w>":8879,"Quid":8880,"Etiam</w>":8881,"pontificis</w>":8882,"Huic</w>":8883,"liberos</w>":8884,"Willelmus</w>":8885,"assensu</w>":8886,"AM":8887,"aux</w>":8888,"sacrileg":8889,"Epistola</w>":8890,"Ide":8891,"Eng":8892,"Lugd</w>":8893,"dextera</w>":8894,"PP</w>":8895,"iculum</w>":8896,"feria</w>":8897,"Ing":8898,"passim</w>":8899,"praestare</w>":8900,"resc":8901,"praesentibus</w>":8902,"Pompe":8903,"Naz":8904,"disser":8905,"reliquit</w>":8906,"pretio</w>":8907,"probat</w>":8908,"potuerunt</w>":8909,"tenetur</w>":8910,"Aureli":8911,"auribus</w>":8912,"Sane</w>":8913,"negotio</w>":8914,"Sex":8915,"Graeci</w>":8916,"patientia</w>":8917,"affectus</w>":8918,"læ":8919,"EM</w>":8920,"consti":8921,"tuit</w>":8922,"nati":8923,"Augustus</w>":8924,"lon":8925,"nuptias</w>":8926,"Primum</w>":8927,"antecess":8928,"doctrinae</w>":8929,"cil</w>":8930,"odium</w>":8931,"egredi":8932,"cui":8933,"intellectus</w>":8934,"quandiu</w>":8935,"divini</w>":8936,"Na":8937,"τῶν</w>":8938,"tator</w>":8939,"honoris</w>":8940,"Isi":8941,"itan":8942,"Etenim</w>":8943,"αὐ":8944,"veteres</w>":8945,"Pres":8946,"quamquam</w>":8947,"curia</w>":8948,"admit":8949,"Noli":8950,"quorum":8951,"infirmitate</w>":8952,"nati</w>":8953,"Heinr":8954,"genit":8955,"effectus</w>":8956,"quaecunque</w>":8957,"tuaginta</w>":8958,"militibus</w>":8959,"crips":8960,"menses</w>":8961,"plerique</w>":8962,"divid":8963,"nolite</w>":8964,"pauperibus</w>":8965,"Abrahae</w>":8966,"iv</w>":8967,"ka</w>":8968,"antiquis</w>":8969,"Ephes</w>":8970,"Democr":8971,"alis":8972,"testis</w>":8973,"vitiorum</w>":8974,"misso</w>":8975,"fortis</w>":8976,"constitutus</w>":8977,"dilectionis</w>":8978,"solitu":8979,"praesentiam</w>":8980,"maior</w>":8981,"Monaster":8982,"decep":8983,"flamm":8984,"quamdiu</w>":8985,"mulieres</w>":8986,"supersti":8987,"lucis</w>":8988,"ου</w>":8989,"Ner":8990,"thesaur":8991,"vino</w>":8992,"itinere</w>":8993,"terum</w>":8994,"fonte</w>":8995,"Oeconom":8996,"cathedr":8997,"Rain":8998,"distis</w>":8999,"regia</w>":9000,"illus</w>":9001,"ficit</w>":9002,"aring":9003,"legitime</w>":9004,"proximum</w>":9005,"mulierem</w>":9006,"von</w>":9007,"siti":9008,"justa</w>":9009,"Iun</w>":9010,"Pi":9011,"innum":9012,"heredibus</w>":9013,"eamur</w>":9014,"laude</w>":9015,"auctorem</w>":9016,"canonice</w>":9017,"Meridiano</w>":9018,"vetus</w>":9019,"similia</w>":9020,"Arver":9021,"textus</w>":9022,"vocavit</w>":9023,"oth</w>":9024,"Nob":9025,"futuri</w>":9026,"SAL":9027,"divitias</w>":9028,"Oli":9029,"imentum</w>":9030,"Latin</w>":9031,"ierunt</w>":9032,"ns</w>":9033,"τα":9034,"duorum</w>":9035,"desunt</w>":9036,"Juda</w>":9037,"incendi":9038,"incipi":9039,"march":9040,"Leon":9041,"papam</w>":9042,"tenebras</w>":9043,"heredem</w>":9044,"uisti</w>":9045,"ogn":9046,"undis</w>":9047,"haeres":9048,"inscrip":9049,"eciam</w>":9050,"acquir":9051,"1972</w>":9052,"effectum</w>":9053,"civi":9054,"imperatorem</w>":9055,"fecerat</w>":9056,"argent":9057,"septimo</w>":9058,"habeb":9059,"liberis</w>":9060,"elegit</w>":9061,"nes</w>":9062,"promitt":9063,"tantae</w>":9064,"concessit</w>":9065,"regionem</w>":9066,"CO</w>":9067,"issem</w>":9068,"Pascha</w>":9069,"Latini</w>":9070,"nihilo</w>":9071,"tentur</w>":9072,"fructu":9073,"CDU</w>":9074,"stabili":9075,"facimus</w>":9076,"alienum</w>":9077,"bella</w>":9078,"nos":9079,"secundus</w>":9080,"millesimo</w>":9081,"cognoscere</w>":9082,"fo</w>":9083,"cooper":9084,"issis</w>":9085,"litterae</w>":9086,"cos</w>":9087,"plebis</w>":9088,"ee</w>":9089,"extran":9090,"sod":9091,"habuerit</w>":9092,"legendum</w>":9093,"corrump":9094,"dederunt</w>":9095,"struc":9096,"redim":9097,"cl</w>":9098,"uta</w>":9099,"militar":9100,"solum":9101,"neminem</w>":9102,"alterus</w>":9103,"Fal":9104,"servis</w>":9105,"utpote</w>":9106,"crimin":9107,"ki</w>":9108,"amine</w>":9109,"municipii</w>":9110,"Scripta</w>":9111,"falsa</w>":9112,"Clari</w>":9113,"immortali":9114,"Christianus</w>":9115,"licentiam</w>":9116,"integra</w>":9117,"ulterius</w>":9118,"tias</w>":9119,"set":9120,"ipsas</w>":9121,"venerabili</w>":9122,"seipsum</w>":9123,"Bene</w>":9124,"acquis":9125,"escere</w>":9126,"foli":9127,"congru":9128,"ostenditur</w>":9129,"promulg":9130,"impugn":9131,"ilio</w>":9132,"candi":9133,"UR":9134,"timor</w>":9135,"homic":9136,"festum</w>":9137,"ves</w>":9138,"dilectione</w>":9139,"tantibus</w>":9140,"repugn":9141,"parvul":9142,"memor</w>":9143,"dolor</w>":9144,"resurrectione</w>":9145,"vota</w>":9146,"personarum</w>":9147,"inuti":9148,"identi":9149,"sacri</w>":9150,"αν</w>":9151,"mini</w>":9152,"ticus</w>":9153,"Laterani</w>":9154,"time":9155,"quaerit</w>":9156,"yss":9157,"oma</w>":9158,"νε":9159,"praescrip":9160,"urum</w>":9161,"scit</w>":9162,"distingu":9163,"clav":9164,"moris</w>":9165,"audit</w>":9166,"ii":9167,"nativ":9168,"sapiens</w>":9169,"ao</w>":9170,"AM</w>":9171,"atinus</w>":9172,"amo":9173,"tende</w>":9174,"aron</w>":9175,"obedientiam</w>":9176,"corporum</w>":9177,"uper":9178,"Vere</w>":9179,"fili</w>":9180,"vicum</w>":9181,"Pelag":9182,"fe</w>":9183,"occurrit</w>":9184,"aperi":9185,"perfi":9186,"icas</w>":9187,"dictam</w>":9188,"elo":9189,"Gem":9190,"discor":9191,"oks</w>":9192,"mas</w>":9193,"vast":9194,"timorem</w>":9195,"animal</w>":9196,"ulare</w>":9197,"rationis</w>":9198,"Bad":9199,"Duo</w>":9200,"Ost":9201,"reverentia</w>":9202,"Lex":9203,"communione</w>":9204,"escat</w>":9205,"attin":9206,"sionum</w>":9207,"proximo</w>":9208,"trem":9209,"35":9210,"Anast":9211,"contrarium</w>":9212,"Aquil":9213,"Græ":9214,"nem</w>":9215,"pauci</w>":9216,"Nolite</w>":9217,"eunt</w>":9218,"censu</w>":9219,"peram</w>":9220,"utilitatem</w>":9221,"Quorum</w>":9222,"DO</w>":9223,"agro</w>":9224,"dice</w>":9225,"donationem</w>":9226,"Rur":9227,"subsequ":9228,"patrocin":9229,"dixisset</w>":9230,"dogm":9231,"contraria</w>":9232,"pav":9233,"similes</w>":9234,"quicumque</w>":9235,"esta</w>":9236,"ANO</w>":9237,"sia</w>":9238,"sacerdotibus</w>":9239,"orbe</w>":9240,"itionis</w>":9241,"accipit</w>":9242,"po</w>":9243,"Constitu":9244,"conturb":9245,"suad":9246,"affectum</w>":9247,"croix</w>":9248,"magnis</w>":9249,"volum":9250,"finibus</w>":9251,"aspec":9252,"ars</w>":9253,"inhabit":9254,"reum</w>":9255,"Spirit":9256,"Afric":9257,"parr":9258,"simile</w>":9259,"ende</w>":9260,"firmiter</w>":9261,"manere</w>":9262,"jussit</w>":9263,"negotium</w>":9264,"baptism":9265,"vehementer</w>":9266,"confund":9267,"Bu":9268,"iudices</w>":9269,"Lotharing":9270,"umenti</w>":9271,"celeb":9272,"Benedictus</w>":9273,"SERMO</w>":9274,"Montis</w>":9275,"insipi":9276,"invenire</w>":9277,"martyris</w>":9278,"semetipsum</w>":9279,"Dominica</w>":9280,"suscipere</w>":9281,"priusquam</w>":9282,"Lex</w>":9283,"gratis</w>":9284,"accepta</w>":9285,"simili</w>":9286,"Mol":9287,"2017</w>":9288,"bert</w>":9289,"115":9290,"1960</w>":9291,"capitulum</w>":9292,"transire</w>":9293,"myth":9294,"reform":9295,"Arist":9296,"retro</w>":9297,"certo</w>":9298,"antiae</w>":9299,"Testamenti</w>":9300,"ino":9301,"iu</w>":9302,"suus</w>":9303,"ama</w>":9304,"dedi</w>":9305,"uo":9306,"jusc":9307,"hiis</w>":9308,"amma</w>":9309,"eli</w>":9310,"Rav":9311,"Ign":9312,"titit</w>":9313,"respici":9314,"Satur":9315,"obnox":9316,"intellex":9317,"ean</w>":9318,"mortuum</w>":9319,"baptismum</w>":9320,"pern":9321,"leti":9322,"imago</w>":9323,"habetis</w>":9324,"iura</w>":9325,"mes</w>":9326,"tissimus</w>":9327,"Divin":9328,"odis</w>":9329,"regibus</w>":9330,"crimine</w>":9331,"noscitur</w>":9332,"Nova</w>":9333,"prudentia</w>":9334,"antiqui</w>":9335,"laudibus</w>":9336,"creditur</w>":9337,"essa</w>":9338,"video</w>":9339,"afflig":9340,"Romanos</w>":9341,"Fridericus</w>":9342,"Cul":9343,"Incarn":9344,"cursum</w>":9345,"ono</w>":9346,"culpam</w>":9347,"remedium</w>":9348,"Andr":9349,"cogitationes</w>":9350,"diaconi</w>":9351,"mercedem</w>":9352,"uique</w>":9353,"castrum</w>":9354,"contenti":9355,"cae</w>":9356,"SPD</w>":9357,"decur":9358,"88":9359,"Cro":9360,"heim</w>":9361,"custodia</w>":9362,"Valentini":9363,"ideoque</w>":9364,"Edu":9365,"seg":9366,"divinam</w>":9367,"etit</w>":9368,"Crucis</w>":9369,"poenitentiae</w>":9370,"1977</w>":9371,"catholica</w>":9372,"lug":9373,"sanctitatis</w>":9374,"august":9375,"percep":9376,"Postquam</w>":9377,"inimicis</w>":9378,"plurima</w>":9379,"Christianorum</w>":9380,"quoddam</w>":9381,"XXVII</w>":9382,"Cambr":9383,"ker</w>":9384,"Sul":9385,"saecular":9386,"Mc":9387,"cem</w>":9388,"Bernardus</w>":9389,"consuetudine</w>":9390,"Victor":9391,"VER":9392,"juris</w>":9393,"ly</w>":9394,"vag":9395,"vitium</w>":9396,"23":9397,"tenuit</w>":9398,"honorific":9399,"Cantab":9400,"sitis</w>":9401,"ilosop":9402,"Scripturis</w>":9403,"infam":9404,"deorum</w>":9405,"dederit</w>":9406,"Prima</w>":9407,"meti":9408,"adipisc":9409,"Gode":9410,"Vit":9411,"vestigia</w>":9412,"metu</w>":9413,"Lem":9414,"requiem</w>":9415,"pie</w>":9416,"Sententia</w>":9417,"los</w>":9418,"Hispaniae</w>":9419,"τη":9420,"cognover":9421,"enia</w>":9422,"sexto</w>":9423,"κο":9424,"erio</w>":9425,"habitu</w>":9426,"volens</w>":9427,"lusor</w>":9428,"pauper</w>":9429,"faciendum</w>":9430,"longa</w>":9431,"disciplinam</w>":9432,"canonici</w>":9433,"ère</w>":9434,"abol":9435,"Propterea</w>":9436,"Rhodano</w>":9437,"Mari":9438,"Tib":9439,"aquarum</w>":9440,"posuerunt</w>":9441,"allo":9442,"consilii</w>":9443,"Illa</w>":9444,"agesimo</w>":9445,"angelos</w>":9446,"quales</w>":9447,"propriam</w>":9448,"electi</w>":9449,"Ea</w>":9450,"judicia</w>":9451,"Quamvis</w>":9452,"habitum</w>":9453,"diff":9454,"Tusc":9455,"sicuti</w>":9456,"gentis</w>":9457,"laudes</w>":9458,"vasa</w>":9459,"debuit</w>":9460,"fung":9461,"scio</w>":9462,"MIN":9463,"LO":9464,"Nunquid</w>":9465,"perfectum</w>":9466,"possidet</w>":9467,"proposito</w>":9468,"salva</w>":9469,"vert":9470,"discipulos</w>":9471,"administratio</w>":9472,"eber":9473,"editione</w>":9474,"1986</w>":9475,"monachos</w>":9476,"siam</w>":9477,"regionis</w>":9478,"moli":9479,"Theodo":9480,"σε":9481,"trip":9482,"irasc":9483,"syn":9484,"unensis</w>":9485,"ENT":9486,"1987</w>":9487,"mento</w>":9488,"Urbs</w>":9489,"ha":9490,"clericus</w>":9491,"origin":9492,"Had":9493,"laudis</w>":9494,"uidelicet</w>":9495,"000</w>":9496,"hiem":9497,"colum":9498,"AP":9499,"pudic":9500,"imperi":9501,"endat</w>":9502,"surum</w>":9503,"eosdem</w>":9504,"Proinde</w>":9505,"ld</w>":9506,"Del":9507,"fertur</w>":9508,"denarios</w>":9509,"cibum</w>":9510,"iuven":9511,"deleg":9512,"mortuorum</w>":9513,"denunti":9514,"he</w>":9515,"trec":9516,"pecca":9517,"magistri</w>":9518,"Sin":9519,"Primo</w>":9520,"missam</w>":9521,"umbra</w>":9522,"manifeste</w>":9523,"occidit</w>":9524,"seud":9525,"mandatis</w>":9526,"Libr":9527,"ambo</w>":9528,"Ency":9529,"ως</w>":9530,"solvere</w>":9531,"Vas":9532,"coniunc":9533,"iuris":9534,"confessione</w>":9535,"noli</w>":9536,"rogatus</w>":9537,"Africa</w>":9538,"divi":9539,"Gis":9540,"oriae</w>":9541,"demon":9542,"ea":9543,"Dan</w>":9544,"esia</w>":9545,"uae</w>":9546,"qualibet</w>":9547,"cohor":9548,"eluia</w>":9549,"poenitentia</w>":9550,"adventu</w>":9551,"ten</w>":9552,"perspic":9553,"Dil":9554,"Graeca</w>":9555,"audeat</w>":9556,"eundem</w>":9557,"temus</w>":9558,"gaudia</w>":9559,"visa</w>":9560,"Gel":9561,"ἐπ":9562,"effu":9563,"majorem</w>":9564,"ionalis</w>":9565,"quoties</w>":9566,"claustr":9567,"sustinere</w>":9568,"56":9569,"constitutum</w>":9570,"Beth":9571,"λε":9572,"refec":9573,"servare</w>":9574,"nimium</w>":9575,"Lan":9576,"reliquis</w>":9577,"Certe</w>":9578,"locorum</w>":9579,"prophetarum</w>":9580,"alicujus</w>":9581,"undo</w>":9582,"ovis</w>":9583,"ebo</w>":9584,"eunte</w>":9585,"Ferr":9586,"Hac</w>":9587,"Ait</w>":9588,"quamdam</w>":9589,"investig":9590,"malos</w>":9591,"van</w>":9592,"nup":9593,"terunt</w>":9594,"Gaius</w>":9595,"domno</w>":9596,"Di</w>":9597,"eria</w>":9598,"subjac":9599,"Marci":9600,"praemium</w>":9601,"gyp":9602,"concedimus</w>":9603,"gramm":9604,"suc":9605,"να":9606,"Dub":9607,"deber":9608,"profectus</w>":9609,"villam</w>":9610,"Red":9611,"Verbi</w>":9612,"Psalm":9613,"junxit</w>":9614,"tario</w>":9615,"quicunque</w>":9616,"utitur</w>":9617,"anas</w>":9618,"remuner":9619,"Notum</w>":9620,"mortuo</w>":9621,"sab":9622,"possidere</w>":9623,"Radul":9624,"laes":9625,"Iohannis</w>":9626,"contrist":9627,"noluit</w>":9628,"possimus</w>":9629,"cam</w>":9630,"ons</w>":9631,"mortuos</w>":9632,"Berg":9633,"dite</w>":9634,"vitio</w>":9635,"ew":9636,"animos</w>":9637,"pontificum</w>":9638,"Judaeos</w>":9639,"Carthagin":9640,"oleum</w>":9641,"Quos</w>":9642,"Nostr":9643,"gran":9644,"asii</w>":9645,"injuriam</w>":9646,"asit</w>":9647,"malitia</w>":9648,"fert</w>":9649,"testimonia</w>":9650,"sin</w>":9651,"atii</w>":9652,"seren":9653,"Sacer":9654,"Species</w>":9655,"odes</w>":9656,"interest</w>":9657,"actibus</w>":9658,"contend":9659,"uolun":9660,"increm":9661,"Normannia</w>":9662,"spatium</w>":9663,"Rub":9664,"Paris</w>":9665,"veloc":9666,"Willi":9667,"hae</w>":9668,"liberam</w>":9669,"Tro":9670,"canonicis</w>":9671,"Vulg</w>":9672,"succed":9673,"agric":9674,"humanis</w>":9675,"umquam</w>":9676,"Contra</w>":9677,"ise</w>":9678,"juv":9679,"proteg":9680,"anna</w>":9681,"celer":9682,"argentum</w>":9683,"sagit":9684,"uig":9685,"sacramento</w>":9686,"humano</w>":9687,"ostendere</w>":9688,"domnus</w>":9689,"remedio</w>":9690,"entos</w>":9691,"debit</w>":9692,"Virginis</w>":9693,"rom":9694,"lacrymis</w>":9695,"inos</w>":9696,"mansuetu":9697,"tera</w>":9698,"politicarum</w>":9699,"acch":9700,"septentr":9701,"Quadr":9702,"crudeli":9703,"Insula</w>":9704,"istas</w>":9705,"praevaric":9706,"credo</w>":9707,"concurr":9708,"obi":9709,"comput":9710,"aliquibus</w>":9711,"parti":9712,"rescrip":9713,"Eventa</w>":9714,"castris</w>":9715,"Cister":9716,"atrix</w>":9717,"habuisse</w>":9718,"regulam</w>":9719,"redire</w>":9720,"LIB":9721,"Anglorum</w>":9722,"immens":9723,"Ante</w>":9724,"Gubern":9725,"ONI":9726,"dific":9727,"nonne</w>":9728,"volv":9729,"emat":9730,"ibique</w>":9731,"Medic":9732,"ber</w>":9733,"agunt</w>":9734,"Urbe</w>":9735,"cuius":9736,"Araris</w>":9737,"rias</w>":9738,"quaeritur</w>":9739,"uterque</w>":9740,"decimas</w>":9741,"frang":9742,"pietatem</w>":9743,"Aaron</w>":9744,"ys</w>":9745,"1979</w>":9746,"mysti":9747,"novo</w>":9748,"Nota</w>":9749,"dilectis</w>":9750,"iosa</w>":9751,"conditione</w>":9752,"reput":9753,"desp":9754,"ologus</w>":9755,"ier</w>":9756,"officiis</w>":9757,"comitem</w>":9758,"quotidi":9759,"bar":9760,"essores</w>":9761,"templi</w>":9762,"ance</w>":9763,"continet</w>":9764,"110":9765,"land</w>":9766,"Apostolum</w>":9767,"iem</w>":9768,"amici</w>":9769,"foras</w>":9770,"modus</w>":9771,"diligere</w>":9772,"tationis</w>":9773,"ellit</w>":9774,"modicum</w>":9775,"tulerit</w>":9776,"beatum</w>":9777,"taur":9778,"positam</w>":9779,"laborem</w>":9780,"liam</w>":9781,"status</w>":9782,"religione</w>":9783,"peccator</w>":9784,"etes</w>":9785,"regnat</w>":9786,"Alia</w>":9787,"condicione</w>":9788,"misc":9789,"Simon</w>":9790,"credidit</w>":9791,"domine</w>":9792,"indul":9793,"quemdam</w>":9794,"desiderat</w>":9795,"male":9796,"famul":9797,"Lip":9798,"auferre</w>":9799,"Patres</w>":9800,"psalmi</w>":9801,"burg</w>":9802,"fabric":9803,"33":9804,"Templ":9805,"repell":9806,"comite</w>":9807,"quaerere</w>":9808,"serm</w>":9809,"miracula</w>":9810,"Are":9811,"medietatem</w>":9812,"Terra</w>":9813,"terg":9814,"ellam</w>":9815,"videamus</w>":9816,"luna</w>":9817,"dic</w>":9818,"Licet</w>":9819,"entior</w>":9820,"quilibet</w>":9821,"pueri</w>":9822,"1973</w>":9823,"inspecturis</w>":9824,"Hebr</w>":9825,"inimicus</w>":9826,"Fratr":9827,"potuerit</w>":9828,"notitiam</w>":9829,"abscondi":9830,"diutius</w>":9831,"haes":9832,"fiet</w>":9833,"summam</w>":9834,"unci":9835,"marg":9836,"surus</w>":9837,"credunt</w>":9838,"Primus</w>":9839,"Atlanti":9840,"intelligit</w>":9841,"rum":9842,"experi":9843,"pernici":9844,"haberi</w>":9845,"Boni":9846,"abulum</w>":9847,"urbes</w>":9848,"cn":9849,"animalia</w>":9850,"stum</w>":9851,"diffin":9852,"opprobr":9853,"Archi":9854,"leguntur</w>":9855,"populos</w>":9856,"festo</w>":9857,"occis":9858,"virginis</w>":9859,"cia</w>":9860,"ὸς</w>":9861,"recepit</w>":9862,"arbitrium</w>":9863,"praesentem</w>":9864,"Verumtamen</w>":9865,"HI":9866,"scru":9867,"instanti":9868,"conclu":9869,"aeos</w>":9870,"corrob":9871,"convenire</w>":9872,"Magister</w>":9873,"elemosinam</w>":9874,"45":9875,"patribus</w>":9876,"indicat</w>":9877,"ennae</w>":9878,"parva</w>":9879,"viderunt</w>":9880,"iuss":9881,"ministrorum</w>":9882,"aquil":9883,"destru":9884,"vinea</w>":9885,"Hierusalem</w>":9886,"ATI":9887,"repente</w>":9888,"polog":9889,"ullus</w>":9890,"tique</w>":9891,"isit</w>":9892,"jura</w>":9893,"facias</w>":9894,"graviter</w>":9895,"iniquitate</w>":9896,"iniquitatis</w>":9897,"pecuni":9898,"alo":9899,"regina</w>":9900,"physic":9901,"117":9902,"Regio</w>":9903,"Sus":9904,"Dies</w>":9905,"falsum</w>":9906,"1982</w>":9907,"Les</w>":9908,"tusque</w>":9909,"latitu":9910,"Henrici</w>":9911,"uel":9912,"118":9913,"imini</w>":9914,"edis</w>":9915,"testibus</w>":9916,"didic":9917,"respondere</w>":9918,"timere</w>":9919,"ere":9920,"sermones</w>":9921,"exhibere</w>":9922,"gess":9923,"uiu":9924,"iniquitas</w>":9925,"Bl":9926,"issimam</w>":9927,"tute</w>":9928,"Scripturae</w>":9929,"ueni":9930,"communem</w>":9931,"Tri":9932,"uz":9933,"placere</w>":9934,"ace</w>":9935,"pastor</w>":9936,"Mes":9937,"implere</w>":9938,"ministerio</w>":9939,"Anim":9940,"reddidit</w>":9941,"119":9942,"ope</w>":9943,"creder":9944,"exci":9945,"mensuram</w>":9946,"san</w>":9947,"onica</w>":9948,"addidit</w>":9949,"1980</w>":9950,"eras</w>":9951,"tertiam</w>":9952,"versa</w>":9953,"Homo</w>":9954,"abam</w>":9955,"Relig":9956,"veret</w>":9957,"disced":9958,"Pelliculae</w>":9959,"Pent":9960,"clari":9961,"Fuit</w>":9962,"videantur</w>":9963,"quar</w>":9964,"orta</w>":9965,"ducem</w>":9966,"ssima</w>":9967,"Liber</w>":9968,"semine</w>":9969,"Agos":9970,"habita</w>":9971,"Condi":9972,"servire</w>":9973,"titulus</w>":9974,"insan":9975,"Colleg":9976,"credentes</w>":9977,"laetitia</w>":9978,"SIS</w>":9979,"ères</w>":9980,"audis</w>":9981,"pertinentibus</w>":9982,"ff</w>":9983,"verec":9984,"ίας</w>":9985,"sigillo</w>":9986,"Berol":9987,"xv</w>":9988,"litig":9989,"Hung":9990,"Postea</w>":9991,"Syn":9992,"taret</w>":9993,"Eburae</w>":9994,"Coel":9995,"suram</w>":9996,"occidentali</w>":9997,"tenu":9998,"necdum</w>":9999,"Paulum</w>":10000,"bone</w>":10001,"Aur":10002,"Esa":10003,"Præ":10004,"uper</w>":10005,"oner":10006,"judex</w>":10007,"spiritualis</w>":10008,"auctoritatis</w>":10009,"fugere</w>":10010,"fui</w>":10011,"incolum":10012,"onii</w>":10013,"vestras</w>":10014,"dilecti</w>":10015,"XXXIII</w>":10016,"accepimus</w>":10017,"gladium</w>":10018,"copia</w>":10019,"lex":10020,"consump":10021,"ostium</w>":10022,"Ant</w>":10023,"corporibus</w>":10024,"sequentibus</w>":10025,"erico</w>":10026,"Land":10027,"blandi":10028,"ducit</w>":10029,"sym":10030,"mulieris</w>":10031,"Caesaris</w>":10032,"fronte</w>":10033,"lix":10034,"grau":10035,"veniret</w>":10036,"prodest</w>":10037,"Nomin":10038,"tisque</w>":10039,"beata</w>":10040,"hes":10041,"poeta</w>":10042,"Beatus</w>":10043,"depon":10044,"militiae</w>":10045,"majestatis</w>":10046,"matrimonium</w>":10047,"intentione</w>":10048,"thodo":10049,"Nec":10050,"janu":10051,"essis</w>":10052,"Aedific":10053,"from</w>":10054,"veniente</w>":10055,"plebem</w>":10056,"edoc":10057,"Marc</w>":10058,"Apostolo</w>":10059,"Hist</w>":10060,"sincer":10061,"ich</w>":10062,"nascitur</w>":10063,"116":10064,"gradu</w>":10065,"Athan":10066,"vulner":10067,"PI":10068,"veraciter</w>":10069,"animalium</w>":10070,"Arnol":10071,"Zach":10072,"dicamus</w>":10073,"tentus</w>":10074,"crebr":10075,"trans</w>":10076,"hypo":10077,"arumque</w>":10078,"ipe</w>":10079,"gratiarum</w>":10080,"confirmat</w>":10081,"continu":10082,"archiepiscopum</w>":10083,"femina</w>":10084,"novem</w>":10085,"Diocleti":10086,"exac":10087,"eticus</w>":10088,"Bas":10089,"statuta</w>":10090,"agens</w>":10091,"vocatus</w>":10092,"minis</w>":10093,"clericos</w>":10094,"perpetua</w>":10095,"lectione</w>":10096,"1978</w>":10097,"gessit</w>":10098,"erium</w>":10099,"Plan":10100,"decanus</w>":10101,"Gloria</w>":10102,"dicentem</w>":10103,"correp":10104,"plenum</w>":10105,"superbiam</w>":10106,"accipiat</w>":10107,"Pedi":10108,"alitas</w>":10109,"gradi":10110,"hospit":10111,"ment</w>":10112,"τὴν</w>":10113,"exar":10114,"auctores</w>":10115,"codicibus</w>":10116,"obsidi":10117,"aticae</w>":10118,"tus":10119,"veris</w>":10120,"habitat":10121,"caeteri</w>":10122,"sacerdotis</w>":10123,"digne</w>":10124,"videat</w>":10125,"Class":10126,"cursu</w>":10127,"Lucius</w>":10128,"yz":10129,"erroris</w>":10130,"Nomi</w>":10131,"Agostini</w>":10132,"paratus</w>":10133,"proximi</w>":10134,"noctis</w>":10135,"va":10136,"ecclesiasticis</w>":10137,"ult</w>":10138,"ismus</w>":10139,"vini</w>":10140,"escu</w>":10141,"Sor":10142,"Sur":10143,"comprob":10144,"appet":10145,"summi</w>":10146,"eniae</w>":10147,"quale</w>":10148,"confessionem</w>":10149,"dans</w>":10150,"ifer":10151,"dal":10152,"fen":10153,"teneri</w>":10154,"litteram</w>":10155,"fons</w>":10156,"Os":10157,"icunque</w>":10158,"vexillum</w>":10159,"exstitit</w>":10160,"praedictum</w>":10161,"partium</w>":10162,"generalis</w>":10163,"diabolum</w>":10164,"Hugonis</w>":10165,"arbitror</w>":10166,"privilegio</w>":10167,"Cog":10168,"frug":10169,"capere</w>":10170,"Epip":10171,"ham</w>":10172,"unicuique</w>":10173,"nox</w>":10174,"sorum</w>":10175,"rogo</w>":10176,"praedicta</w>":10177,"littera</w>":10178,"sanct":10179,"dissip":10180,"synodum</w>":10181,"feliciter</w>":10182,"recipit</w>":10183,"anensi</w>":10184,"sacro</w>":10185,"Multi</w>":10186,"plor":10187,"ochia</w>":10188,"essem</w>":10189,"fundum</w>":10190,"trep":10191,"ariensis</w>":10192,"adversa</w>":10193,"sole</w>":10194,"linguis</w>":10195,"1985</w>":10196,"Jord":10197,"obitum</w>":10198,"libertatis</w>":10199,"habitat</w>":10200,"by</w>":10201,"77":10202,"successores</w>":10203,"amicos</w>":10204,"Noli</w>":10205,"Ephes":10206,"teretur</w>":10207,"Quod":10208,"brevi</w>":10209,"Stat":10210,"antisti":10211,"sacrae</w>":10212,"iuste</w>":10213,"rapi":10214,"imbr":10215,"excommunicationis</w>":10216,"brach":10217,"vetust":10218,"Canti":10219,"senex</w>":10220,"facultatem</w>":10221,"inquis":10222,"na":10223,"dicte</w>":10224,"orium</w>":10225,"firman":10226,"victoria</w>":10227,"Cisterci":10228,"Aegypti</w>":10229,"τι":10230,"ez</w>":10231,"erec":10232,"89":10233,"vident</w>":10234,"λο":10235,"American</w>":10236,"esuri":10237,"constan":10238,"sisse</w>":10239,"1984</w>":10240,"coelestia</w>":10241,"be</w>":10242,"Augusto</w>":10243,"Fi":10244,"Manich":10245,"hostem</w>":10246,"Quæ</w>":10247,"casus</w>":10248,"Salomon</w>":10249,"episcopatu</w>":10250,"urnal</w>":10251,"publico</w>":10252,"occasionem</w>":10253,"CONSS</w>":10254,"ES</w>":10255,"suspec":10256,"venisset</w>":10257,"successit</w>":10258,"Rheni</w>":10259,"legere</w>":10260,"Acta</w>":10261,"Nich":10262,"appeti":10263,"humanam</w>":10264,"Moysen</w>":10265,"retic":10266,"card</w>":10267,"catholicae</w>":10268,"dabo</w>":10269,"let":10270,"decor":10271,"proficisc":10272,"Fir":10273,"Idus</w>":10274,"quique</w>":10275,"dilectio</w>":10276,"exim":10277,"parochi":10278,"etica</w>":10279,"ger</w>":10280,"reversus</w>":10281,"pulsus</w>":10282,"solummodo</w>":10283,"inveniri</w>":10284,"Ros":10285,"cepit</w>":10286,"stant</w>":10287,"iturus</w>":10288,"Laz":10289,"Chil":10290,"præcep":10291,"gestis</w>":10292,"pratis</w>":10293,"ferunt</w>":10294,"iisdem</w>":10295,"potuisset</w>":10296,"desiderati</w>":10297,"ardum</w>":10298,"amicus</w>":10299,"averant</w>":10300,"SY":10301,"Bol":10302,"intend":10303,"civium</w>":10304,"laboris</w>":10305,"prioris</w>":10306,"oculus</w>":10307,"ure</w>":10308,"necessitatem</w>":10309,"Plat":10310,"cit</w>":10311,"eas":10312,"ecom":10313,"Ipsa</w>":10314,"nepo":10315,"subli":10316,"mentes</w>":10317,"Germanicus</w>":10318,"pericul":10319,"Edd</w>":10320,"moritur</w>":10321,"tamur</w>":10322,"ordines</w>":10323,"censu":10324,"dissimul":10325,"Ideoque</w>":10326,"legunt</w>":10327,"aelis</w>":10328,"solam</w>":10329,"Corinth":10330,"oppido</w>":10331,"unanim":10332,"max":10333,"predicta</w>":10334,"jubet</w>":10335,"inia</w>":10336,"oportere</w>":10337,"aciam</w>":10338,"coniug":10339,"iana</w>":10340,"class":10341,"coeperunt</w>":10342,"accur":10343,"Audi</w>":10344,"icarum</w>":10345,"praemia</w>":10346,"Adal":10347,"presbit":10348,"quȩ</w>":10349,"echi":10350,"defl":10351,"nonnullis</w>":10352,"rationabiliter</w>":10353,"ibit</w>":10354,"aeae</w>":10355,"tenebat</w>":10356,"typ":10357,"ument":10358,"mons</w>":10359,"vet</w>":10360,"praedestin":10361,"Columb":10362,"Lib</w>":10363,"GO":10364,"sero</w>":10365,"mysteria</w>":10366,"cli":10367,"lustr":10368,"nigr":10369,"regnavit</w>":10370,"perfici":10371,"coronam</w>":10372,"principe</w>":10373,"appellat</w>":10374,"repet":10375,"Hispania</w>":10376,"Ham":10377,"Ram":10378,"inone</w>":10379,"persolv":10380,"patientiam</w>":10381,"fontem</w>":10382,"coelesti</w>":10383,"reliqui":10384,"subtrah":10385,"ratum</w>":10386,"psall":10387,"Gali":10388,"agine</w>":10389,"muneribus</w>":10390,"custodiam</w>":10391,"kal</w>":10392,"exstat</w>":10393,"nou":10394,"coelos</w>":10395,"XXXII</w>":10396,"cripsit</w>":10397,"pes</w>":10398,"priori</w>":10399,"usu":10400,"anime</w>":10401,"primogen":10402,"substantiae</w>":10403,"LIS</w>":10404,"nosse</w>":10405,"amicis</w>":10406,"PRI":10407,"Sanctum</w>":10408,"Books</w>":10409,"terminum</w>":10410,"Justin":10411,"Timoth":10412,"Martin</w>":10413,"debito</w>":10414,"tituli</w>":10415,"sabb":10416,"perg":10417,"Trib":10418,"μο":10419,"capita</w>":10420,"capituli</w>":10421,"divinitus</w>":10422,"puta</w>":10423,"consuetudo</w>":10424,"unitas</w>":10425,"constituti</w>":10426,"psalmus</w>":10427,"sider":10428,"sexta</w>":10429,"ese</w>":10430,"ations</w>":10431,"Natur":10432,"allig":10433,"videntes</w>":10434,"ingenio</w>":10435,"Consul":10436,"pecuniae</w>":10437,"accessit</w>":10438,"hel":10439,"ces</w>":10440,"justorum</w>":10441,"Pam":10442,"pacto</w>":10443,"λη":10444,"festiv":10445,"vultus</w>":10446,"Veni":10447,"marty":10448,"crediderunt</w>":10449,"manuum</w>":10450,"quib":10451,"unigen":10452,"Am</w>":10453,"Eust":10454,"Ecclesiarum</w>":10455,"immacul":10456,"provinci":10457,"dicebant</w>":10458,"syll":10459,"praecipimus</w>":10460,"geni":10461,"domos</w>":10462,"horam</w>":10463,"55":10464,"Pil":10465,"stern":10466,"remissionem</w>":10467,"dilat":10468,"venientes</w>":10469,"Iulianus</w>":10470,"Ministri</w>":10471,"subdit</w>":10472,"impen":10473,"justo</w>":10474,"fredus</w>":10475,"disciplinae</w>":10476,"Heli":10477,"numquid</w>":10478,"olae</w>":10479,"Unus</w>":10480,"culis</w>":10481,"Lus":10482,"oleo</w>":10483,"dioeces":10484,"infes":10485,"idge</w>":10486,"edidit</w>":10487,"76":10488,"Oxford</w>":10489,"ἐν</w>":10490,"duces</w>":10491,"MUS</w>":10492,"iderunt</w>":10493,"ion</w>":10494,"court</w>":10495,"gal":10496,"polim</w>":10497,"deserto</w>":10498,"clementia</w>":10499,"sisti</w>":10500,"asum</w>":10501,"vinculis</w>":10502,"dilu":10503,"icem</w>":10504,"adhaer":10505,"venerat</w>":10506,"calli":10507,"alta</w>":10508,"expec":10509,"appropinqu":10510,"encia</w>":10511,"Encyclop":10512,"onio</w>":10513,"facis</w>":10514,"debeamus</w>":10515,"despectus</w>":10516,"fortiter</w>":10517,"zo</w>":10518,"Eodem</w>":10519,"Oeconomia</w>":10520,"LU":10521,"explor":10522,"narum</w>":10523,"unum":10524,"familiar":10525,"detrah":10526,"creavit</w>":10527,"aduoc":10528,"ssime</w>":10529,"judicare</w>":10530,"labor</w>":10531,"Ægyp":10532,"quac":10533,"ek</w>":10534,"ze</w>":10535,"Rusc":10536,"onam</w>":10537,"quicquam</w>":10538,"Monte</w>":10539,"fragili":10540,"destitu":10541,"vigili":10542,"Orient":10543,"Journal</w>":10544,"1983</w>":10545,"tice</w>":10546,"presens</w>":10547,"Lou":10548,"detis</w>":10549,"cognovit</w>":10550,"revera</w>":10551,"qualem</w>":10552,"ian</w>":10553,"toque</w>":10554,"damnum</w>":10555,"electionem</w>":10556,"spex":10557,"uerant</w>":10558,"veteri</w>":10559,"negotiis</w>":10560,"Mili":10561,"alitate</w>":10562,"sermonibus</w>":10563,"scribi</w>":10564,"uis":10565,"lapides</w>":10566,"National</w>":10567,"instituta</w>":10568,"Remig":10569,"vend":10570,"haberent</w>":10571,"Eadem</w>":10572,"istos</w>":10573,"nescit</w>":10574,"soror</w>":10575,"Ipsi</w>":10576,"fluvium</w>":10577,"Pul":10578,"divinum</w>":10579,"notis</w>":10580,"τὰ</w>":10581,"ebas</w>":10582,"Amb":10583,"veteris</w>":10584,"dilecto</w>":10585,"terminos</w>":10586,"CTh</w>":10587,"distribu":10588,"exsequ":10589,"Joanne</w>":10590,"ematograph":10591,"dedisti</w>":10592,"dolorem</w>":10593,"Italiam</w>":10594,"Regnum</w>":10595,"delinqu":10596,"ovi":10597,"μέ":10598,"melior</w>":10599,"ilo</w>":10600,"vertit</w>":10601,"praesentium</w>":10602,"Mand":10603,"libertas</w>":10604,"corpori</w>":10605,"Juda":10606,"iderici</w>":10607,"silentio</w>":10608,"contigerit</w>":10609,"ques</w>":10610,"AA</w>":10611,"estia</w>":10612,"Catholicae</w>":10613,"ein":10614,"artic":10615,"praesumat</w>":10616,"Caec":10617,"rata</w>":10618,"fructu</w>":10619,"EX":10620,"vet":10621,"episcopatus</w>":10622,"cho":10623,"noctur":10624,"promissa</w>":10625,"singuli</w>":10626,"Verba</w>":10627,"Bib":10628,"beatae</w>":10629,"Judic":10630,"actu</w>":10631,"dilectissimi</w>":10632,"AAV":10633,"inform":10634,"denuo</w>":10635,"amare</w>":10636,"futuram</w>":10637,"noll":10638,"Virtem":10639,"AAVV</w>":10640,"irac":10641,"UL":10642,"avus</w>":10643,"erubesc":10644,"are":10645,"ANN":10646,"daret</w>":10647,"amat</w>":10648,"utych":10649,"ux</w>":10650,"vill":10651,"adere</w>":10652,"Socr":10653,"sag":10654,"πρ":10655,"radus</w>":10656,"cursus</w>":10657,"signis</w>":10658,"revert":10659,"applic":10660,"cecidit</w>":10661,"agendum</w>":10662,"legatos</w>":10663,"civitatibus</w>":10664,"incul":10665,"caelo</w>":10666,"Bau":10667,"pondus</w>":10668,"australi</w>":10669,"Scrib":10670,"salub":10671,"Roth":10672,"Pictavi":10673,"rema</w>":10674,"Museum</w>":10675,"usibus</w>":10676,"ticae</w>":10677,"longum</w>":10678,"pontificem</w>":10679,"perent</w>":10680,"obseru":10681,"Alexandri</w>":10682,"instru":10683,"Rud":10684,"dimis":10685,"iudex</w>":10686,"consens":10687,"voluerint</w>":10688,"Iste</w>":10689,"quit</w>":10690,"aldo</w>":10691,"34":10692,"Ps</w>":10693,"Pall":10694,"Praefecturae</w>":10695,"wor":10696,"Augustino</w>":10697,"Belg":10698,"murmur":10699,"sistere</w>":10700,"Genus</w>":10701,"principatus</w>":10702,"utile</w>":10703,"tque</w>":10704,"laboribus</w>":10705,"uniuersis</w>":10706,"Novum</w>":10707,"plurimis</w>":10708,"tinae</w>":10709,"ingen</w>":10710,"politicum</w>":10711,"sorti":10712,"festi":10713,"presbiter</w>":10714,"ologiae</w>":10715,"versum</w>":10716,"fas</w>":10717,"religionem</w>":10718,"vili":10719,"adesse</w>":10720,"lignum</w>":10721,"Victor</w>":10722,"ja</w>":10723,"haeretici</w>":10724,"Sive</w>":10725,"BUS</w>":10726,"yph":10727,"ducere</w>":10728,"manifesta</w>":10729,"obsequium</w>":10730,"icon</w>":10731,"peccare</w>":10732,"Dac":10733,"commor":10734,"brev":10735,"Mit":10736,"permis":10737,"precep":10738,"communionem</w>":10739,"usis</w>":10740,"turos</w>":10741,"trax":10742,"magistro</w>":10743,"Bir":10744,"pura</w>":10745,"permaneant</w>":10746,"tang":10747,"contigit</w>":10748,"Catal":10749,"penes</w>":10750,"requis":10751,"Graeciae</w>":10752,"qq</w>":10753,"habitare</w>":10754,"evangelista</w>":10755,"consilia</w>":10756,"potestis</w>":10757,"quaque</w>":10758,"perpetuam</w>":10759,"scriptus</w>":10760,"Ioannis</w>":10761,"vern":10762,"philosophus</w>":10763,"possessione</w>":10764,"inventus</w>":10765,"paginae</w>":10766,"Graecis</w>":10767,"subtili":10768,"intelligendum</w>":10769,"fortuna</w>":10770,"Carantoni</w>":10771,"Nar":10772,"amo</w>":10773,"stipen":10774,"lapidem</w>":10775,"ligno</w>":10776,"Suc":10777,"System":10778,"oeconom":10779,"vocis</w>":10780,"Otto</w>":10781,"destruc":10782,"odus</w>":10783,"alla</w>":10784,"cognatae</w>":10785,"circuitu</w>":10786,"enes</w>":10787,"colloqu":10788,"punc":10789,"longo</w>":10790,"noctem</w>":10791,"hereditate</w>":10792,"ianum</w>":10793,"responsum</w>":10794,"medicus</w>":10795,"niam</w>":10796,"orationes</w>":10797,"ibunt</w>":10798,"AD":10799,"senec":10800,"icius</w>":10801,"tarii</w>":10802,"publicis</w>":10803,"aliquos</w>":10804,"ont</w>":10805,"habuerunt</w>":10806,"dioc":10807,"mundi":10808,"cuit</w>":10809,"pressione</w>":10810,"potuisse</w>":10811,"Sae":10812,"vocantur</w>":10813,"Flandrie</w>":10814,"cc</w>":10815,"prodesse</w>":10816,"enas</w>":10817,"animæ</w>":10818,"sollicitudine</w>":10819,"salutare</w>":10820,"scumque</w>":10821,"Jerem":10822,"praesti":10823,"pingu":10824,"Anth":10825,"procedit</w>":10826,"naturalis</w>":10827,"mandato</w>":10828,"atorium</w>":10829,"Tyr":10830,"dorum</w>":10831,"promer":10832,"Cantabrig":10833,"τε":10834,"martyres</w>":10835,"judices</w>":10836,"electione</w>":10837,"evi</w>":10838,"historiam</w>":10839,"Nichol":10840,"prophetas</w>":10841,"Aquitania</w>":10842,"Myrias</w>":10843,"beneficiis</w>":10844,"origine</w>":10845,"decernimus</w>":10846,"inviol":10847,"Pyrenaeis</w>":10848,"Epiphan":10849,"07</w>":10850,"SANCT":10851,"conson":10852,"dicant</w>":10853,"sapientes</w>":10854,"Diction":10855,"Pontific":10856,"insulae</w>":10857,"Occitania</w>":10858,"Vicip":10859,"cognita</w>":10860,"Aegypto</w>":10861,"vestros</w>":10862,"mes":10863,"convic":10864,"Magnus</w>":10865,"bl":10866,"Albertus</w>":10867,"ausus</w>":10868,"λα":10869,"obtulit</w>":10870,"naturaliter</w>":10871,"provinciam</w>":10872,"scandalum</w>":10873,"reddit</w>":10874,"contrah":10875,"poenas</w>":10876,"Buc":10877,"difficile</w>":10878,"τος</w>":10879,"86":10880,"Te</w>":10881,"gradum</w>":10882,"Hadri":10883,"onice</w>":10884,"adiec":10885,"praedicationis</w>":10886,"BER":10887,"Walterus</w>":10888,"instituit</w>":10889,"valere</w>":10890,"optime</w>":10891,"Christianis</w>":10892,"gratul":10893,"ipi</w>":10894,"jicit</w>":10895,"dilex":10896,"Dol":10897,"Lep":10898,"scrut":10899,"Codex</w>":10900,"oblivis":10901,"caes":10902,"sciat</w>":10903,"quasdam</w>":10904,"vultis</w>":10905,"gign":10906,"majus</w>":10907,"Sovi":10908,"Mog":10909,"Germ</w>":10910,"generaliter</w>":10911,"priu":10912,"fuissent</w>":10913,"Ecclesiis</w>":10914,"foret</w>":10915,"privilegium</w>":10916,"incorrup":10917,"kalendas</w>":10918,"edd</w>":10919,"ID</w>":10920,"proinde</w>":10921,"iensi</w>":10922,"conversus</w>":10923,"lup":10924,"abiit</w>":10925,"laudat</w>":10926,"vitatibus</w>":10927,"uptib":10928,"stella</w>":10929,"della</w>":10930,"habentur</w>":10931,"deberet</w>":10932,"multae</w>":10933,"Jam":10934,"auimus</w>":10935,"asserit</w>":10936,"hebdom":10937,"tin</w>":10938,"secro</w>":10939,"erabilis</w>":10940,"Norm</w>":10941,"satur":10942,"uri</w>":10943,"paginas</w>":10944,"prepositus</w>":10945,"Familia</w>":10946,"essor</w>":10947,"oe</w>":10948,"ota</w>":10949,"pel":10950,"Germania</w>":10951,"decretum</w>":10952,"aun":10953,"ularem</w>":10954,"tranquilli":10955,"Chalced":10956,"altaris</w>":10957,"montis</w>":10958,"negat</w>":10959,"contingit</w>":10960,"censum</w>":10961,"exstingu":10962,"λι":10963,"limus</w>":10964,"donavit</w>":10965,"dilectus</w>":10966,"ῶι</w>":10967,"inquin":10968,"consules</w>":10969,"posui</w>":10970,"thol":10971,"ag</w>":10972,"tora</w>":10973,"clamat</w>":10974,"Just":10975,"orientalis</w>":10976,"Christianae</w>":10977,"regula</w>":10978,"injuste</w>":10979,"pred":10980,"Ant":10981,"fundi":10982,"desideriis</w>":10983,"obtinere</w>":10984,"Dan":10985,"osi":10986,"habeatur</w>":10987,"studiis</w>":10988,"ado</w>":10989,"import":10990,"acl":10991,"XXXI</w>":10992,"decreta</w>":10993,"itias</w>":10994,"Lae":10995,"On":10996,"sensibus</w>":10997,"veniant</w>":10998,"untque</w>":10999,"ultimum</w>":11000,"vestrorum</w>":11001,"secuta</w>":11002,"Arduenna</w>":11003,"sexus</w>":11004,"affic":11005,"esiae</w>":11006,"gente</w>":11007,"ipublic":11008,"cense":11009,"conventus</w>":11010,"Romaniae</w>":11011,"Hib":11012,"praedi":11013,"animis</w>":11014,"Capsae</w>":11015,"fridi</w>":11016,"fortitudo</w>":11017,"Felix</w>":11018,"artis</w>":11019,"ultima</w>":11020,"prostr":11021,"populorum</w>":11022,"essi</w>":11023,"salubr":11024,"Library</w>":11025,"dant</w>":11026,"excepto</w>":11027,"ices</w>":11028,"tri</w>":11029,"pane</w>":11030,"respec":11031,"discipulus</w>":11032,"Christian":11033,"exemplis</w>":11034,"05</w>":11035,"narrat</w>":11036,"Ruscinone</w>":11037,"110</w>":11038,"aly":11039,"legum</w>":11040,"Iulius</w>":11041,"amentis</w>":11042,"sugges":11043,"isso</w>":11044,"accidit</w>":11045,"crude":11046,"Unionis</w>":11047,"ERI":11048,"Universitas</w>":11049,"labores</w>":11050,"geo":11051,"conuen":11052,"acis</w>":11053,"vocari</w>":11054,"poni</w>":11055,"Inferioris</w>":11056,"convinc":11057,"altari</w>":11058,"fideiuss":11059,"iussit</w>":11060,"Wol":11061,"veg":11062,"irae</w>":11063,"Cav":11064,"MAN":11065,"Comment":11066,"glorios":11067,"acco</w>":11068,"rationibus</w>":11069,"praeclar":11070,"Gerardus</w>":11071,"mon</w>":11072,"Antichr":11073,"offen":11074,"exceptis</w>":11075,"Trans":11076,"ren</w>":11077,"Venit</w>":11078,"terrenis</w>":11079,"illib":11080,"inferre</w>":11081,"Theodorus</w>":11082,"latum</w>":11083,"Plur":11084,"poterunt</w>":11085,"marum</w>":11086,"erii</w>":11087,"fici</w>":11088,"Freti</w>":11089,"ecost":11090,"03</w>":11091,"lato</w>":11092,"voluntati</w>":11093,"angelum</w>":11094,"vicit</w>":11095,"gentem</w>":11096,"tico</w>":11097,"endimus</w>":11098,"Hierosolym":11099,"Do":11100,"uid":11101,"carcere</w>":11102,"scriptura</w>":11103,"Dun":11104,"Ten":11105,"his":11106,"signo</w>":11107,"tabitur</w>":11108,"Utr":11109,"jugiter</w>":11110,"portas</w>":11111,"objec":11112,"assent</w>":11113,"Christianos</w>":11114,"mentio</w>":11115,"Tul":11116,"dicendo</w>":11117,"carcer":11118,"portam</w>":11119,"Dix":11120,"sursum</w>":11121,"permitt":11122,"volentes</w>":11123,"loquebatur</w>":11124,"Hau":11125,"Cli":11126,"Suec":11127,"coelestibus</w>":11128,"aliz":11129,"canones</w>":11130,"audivimus</w>":11131,"appendic":11132,"τὸν</w>":11133,"vestimenta</w>":11134,"victoriam</w>":11135,"bu":11136,"malus</w>":11137,"visione</w>":11138,"Eutych":11139,"quiete</w>":11140,"undiae</w>":11141,"200</w>":11142,"obsi":11143,"continentur</w>":11144,"Prud":11145,"vinculo</w>":11146,"promissionis</w>":11147,"plat":11148,"consanguin":11149,"magistrum</w>":11150,"atensis</w>":11151,"Aet":11152,"antiquae</w>":11153,"doctor</w>":11154,"1976</w>":11155,"DA":11156,"Villa</w>":11157,"Mam":11158,"ver</w>":11159,"entesimo</w>":11160,"debatur</w>":11161,"propriae</w>":11162,"νη":11163,"propin":11164,"presentem</w>":11165,"valeant</w>":11166,"mensibus</w>":11167,"ain":11168,"acceperunt</w>":11169,"fasti":11170,"gravi</w>":11171,"quaestio</w>":11172,"ylum</w>":11173,"decus</w>":11174,"presbyterum</w>":11175,"Archidi":11176,"conscientiam</w>":11177,"secut":11178,"spatio</w>":11179,"derel":11180,"loquens</w>":11181,"ortus</w>":11182,"tions</w>":11183,"priorem</w>":11184,"reverentiam</w>":11185,"Balduinus</w>":11186,"omag":11187,"claud":11188,"pare</w>":11189,"meminit</w>":11190,"THEO":11191,"firmare</w>":11192,"iaco</w>":11193,"immob":11194,"vicus</w>":11195,"perpetu":11196,"plenitudo</w>":11197,"ah</w>":11198,"geopoliticum</w>":11199,"CXL":11200,"regener":11201,"nonnull":11202,"insidias</w>":11203,"ics</w>":11204,"Gra":11205,"illustris</w>":11206,"We":11207,"stren":11208,"schism":11209,"Caput</w>":11210,"accedere</w>":11211,"superioribus</w>":11212,"urs</w>":11213,"flec":11214,"Episcopi</w>":11215,"statuit</w>":11216,"ῖς</w>":11217,"testium</w>":11218,"commendat</w>":11219,"Sabaudi":11220,"Saul</w>":11221,"rac":11222,"Sancta</w>":11223,"Libri</w>":11224,"itat</w>":11225,"vides</w>":11226,"by":11227,"assu":11228,"invidia</w>":11229,"depu":11230,"esch":11231,"recognosc":11232,"eum":11233,"aphi":11234,"censa</w>":11235,"taxat</w>":11236,"priore</w>":11237,"Martinus</w>":11238,"protectione</w>":11239,"edita</w>":11240,"argumentum</w>":11241,"Gor":11242,"vixit</w>":11243,"resurrexit</w>":11244,"prodig":11245,"sinu</w>":11246,"frequent":11247,"Exempl":11248,"habitus</w>":11249,"error</w>":11250,"end</w>":11251,"idest</w>":11252,"judicem</w>":11253,"Internation":11254,"concus":11255,"Litterae</w>":11256,"factae</w>":11257,"septi":11258,"justos</w>":11259,"Vox</w>":11260,"desideria</w>":11261,"honorum</w>":11262,"repraesent":11263,"Cant</w>":11264,"tract":11265,"matu":11266,"Cos":11267,"corrobor":11268,"statutum</w>":11269,"Mare</w>":11270,"esco</w>":11271,"sacratissim":11272,"tribulatione</w>":11273,"Apoc</w>":11274,"44":11275,"cultum</w>":11276,"tyrann":11277,"implic":11278,"tertius</w>":11279,"nusquam</w>":11280,"Chrys":11281,"canonicorum</w>":11282,"jungitur</w>":11283,"HO":11284,"odor":11285,"positionis</w>":11286,"Psalmus</w>":11287,"positae</w>":11288,"dominium</w>":11289,"relax":11290,"maneat</w>":11291,"til":11292,"add</w>":11293,"Romanam</w>":11294,"exstinc":11295,"publicum</w>":11296,"possis</w>":11297,"confessio</w>":11298,"World</w>":11299,"Eo</w>":11300,"Sub</w>":11301,"ularium</w>":11302,"beatorum</w>":11303,"120</w>":11304,"inhib":11305,"verat</w>":11306,"praeceptis</w>":11307,"testamenti</w>":11308,"Ta":11309,"Lin":11310,"sumque</w>":11311,"uris</w>":11312,"1974</w>":11313,"voll</w>":11314,"Dal":11315,"plenus</w>":11316,"surrexit</w>":11317,"Eccli</w>":11318,"confr":11319,"Bernardi</w>":11320,"Discip":11321,"docere</w>":11322,"negotia</w>":11323,"Provinciae</w>":11324,"RI</w>":11325,"arie</w>":11326,"canonum</w>":11327,"mensura</w>":11328,"spern":11329,"divites</w>":11330,"calig":11331,"ative</w>":11332,"cs</w>":11333,"primae</w>":11334,"Hieronymi</w>":11335,"Wh":11336,"rot":11337,"puerum</w>":11338,"praetor</w>":11339,"psum</w>":11340,"aculis</w>":11341,"synodus</w>":11342,"sepulcrum</w>":11343,"Lotharingia</w>":11344,"nostrarum</w>":11345,"lumin":11346,"odo":11347,"Tit":11348,"ya</w>":11349,"humilitas</w>":11350,"America</w>":11351,"Idcirco</w>":11352,"Francogallice</w>":11353,"vidimus</w>":11354,"ner":11355,"diceretur</w>":11356,"aetatem</w>":11357,"presentia</w>":11358,"sentire</w>":11359,"Sabb":11360,"ologi</w>":11361,"benedictione</w>":11362,"pectore</w>":11363,"cogitare</w>":11364,"audiens</w>":11365,"negare</w>":11366,"crimina</w>":11367,"Cicero</w>":11368,"fideli</w>":11369,"Caesar":11370,"montibus</w>":11371,"Fur":11372,"συ":11373,"1971</w>":11374,"quemquam</w>":11375,"titulum</w>":11376,"perfecte</w>":11377,"aliisque</w>":11378,"possessio</w>":11379,"decimis</w>":11380,"Hip":11381,"interius</w>":11382,"magnae</w>":11383,"doctores</w>":11384,"vivunt</w>":11385,"nut":11386,"tantem</w>":11387,"citius</w>":11388,"dignetur</w>":11389,"Pedemon":11390,"fing":11391,"101</w>":11392,"Langobardia</w>":11393,"quemque</w>":11394,"compunc":11395,"prosequ":11396,"futurorum</w>":11397,"pate":11398,"flux":11399,"german":11400,"August</w>":11401,"Biographia</w>":11402,"spiritualibus</w>":11403,"novam</w>":11404,"idque</w>":11405,"fuga</w>":11406,"Ordo</w>":11407,"tarium</w>":11408,"necessario</w>":11409,"cognomin":11410,"existere</w>":11411,"Ezech</w>":11412,"Prof":11413,"Sin</w>":11414,"archidiaconus</w>":11415,"Francia</w>":11416,"anth":11417,"Respondit</w>":11418,"aeli":11419,"videret</w>":11420,"Sanctorum</w>":11421,"occulta</w>":11422,"metropolitana</w>":11423,"nichil</w>":11424,"Caroli</w>":11425,"contradictione</w>":11426,"04</w>":11427,"detes":11428,"episcopatum</w>":11429,"categoria</w>":11430,"Olym":11431,"stir":11432,"fundamentum</w>":11433,"desuper</w>":11434,"ote</w>":11435,"redem":11436,"ductus</w>":11437,"Adhuc</w>":11438,"mariti":11439,"torr":11440,"Ast":11441,"audita</w>":11442,"judicat</w>":11443,"inferius</w>":11444,"UG":11445,"verius</w>":11446,"scripsi</w>":11447,"matrimonio</w>":11448,"dicitis</w>":11449,"ogle</w>":11450,"intrare</w>":11451,"nobiles</w>":11452,"02</w>":11453,"remit":11454,"ocau":11455,"muni":11456,"Lucas</w>":11457,"Adel":11458,"abjec":11459,"Adri":11460,"trop":11461,"quaeso</w>":11462,"quoad</w>":11463,"grave</w>":11464,"sych":11465,"synodi</w>":11466,"Nullus</w>":11467,"06</w>":11468,"ole</w>":11469,"2018</w>":11470,"obtinuit</w>":11471,"dumtaxat</w>":11472,"patrimon":11473,"adipisci</w>":11474,"fugam</w>":11475,"Quis":11476,"Quaer":11477,"presbytero</w>":11478,"Scip":11479,"intuitu</w>":11480,"relicta</w>":11481,"truc":11482,"perfectus</w>":11483,"octavo</w>":11484,"transit</w>":11485,"ahel</w>":11486,"sinc":11487,"aetas</w>":11488,"Par</w>":11489,"Margar":11490,"petitionem</w>":11491,"Aliter</w>":11492,"vindicare</w>":11493,"Henrico</w>":11494,"Ezechi":11495,"auri":11496,"PSAL":11497,"rogavit</w>":11498,"Angeli</w>":11499,"gerit</w>":11500,"pus":11501,"ema</w>":11502,"bore":11503,"imperfec":11504,"invenimus</w>":11505,"etates</w>":11506,"eticum</w>":11507,"transc":11508,"Peri":11509,"abest</w>":11510,"duli":11511,"iosi</w>":11512,"interpell":11513,"adis</w>":11514,"Russiae</w>":11515,"enos</w>":11516,"dices</w>":11517,"obvi":11518,"infirmitatem</w>":11519,"IU":11520,"Arm":11521,"69":11522,"Demetr":11523,"Aedificia</w>":11524,"munimine</w>":11525,"anno":11526,"exercere</w>":11527,"expr":11528,"ath</w>":11529,"concub":11530,"Az":11531,"cibus</w>":11532,"κε":11533,"08":11534,"cognoscitur</w>":11535,"icul":11536,"Pier":11537,"faciatis</w>":11538,"evidenter</w>":11539,"Deut</w>":11540,"obedientia</w>":11541,"atom":11542,"beate</w>":11543,"icula</w>":11544,"ferro</w>":11545,"predicti</w>":11546,"instar</w>":11547,"Es":11548,"idol":11549,"historiae</w>":11550,"muliere</w>":11551,"deris</w>":11552,"Ty":11553,"contes":11554,"solem</w>":11555,"Omni":11556,"illarum</w>":11557,"operari</w>":11558,"duci</w>":11559,"ssimum</w>":11560,"potissimum</w>":11561,"constitutis</w>":11562,"argenti</w>":11563,"quando":11564,"Gil":11565,"Offic":11566,"ée</w>":11567,"corona</w>":11568,"tabit</w>":11569,"alienis</w>":11570,"Secundo</w>":11571,"lor":11572,"Nea":11573,"haereditatem</w>":11574,"enorum</w>":11575,"inef":11576,"stric":11577,"plerisque</w>":11578,"ami</w>":11579,"benedi":11580,"Plin":11581,"aremus</w>":11582,"alieno</w>":11583,"benigne</w>":11584,"amicum</w>":11585,"veterum</w>":11586,"Francicus</w>":11587,"studia</w>":11588,"alec":11589,"amplec":11590,"petra</w>":11591,"loquuntur</w>":11592,"petiit</w>":11593,"pœnit":11594,"tir":11595,"Cab":11596,"SO":11597,"sali":11598,"ipitur</w>":11599,"benevol":11600,"attribu":11601,"Pri":11602,"recuper":11603,"infelic":11604,"fluminis</w>":11605,"dignitas</w>":11606,"resol":11607,"cujusdam</w>":11608,"solvit</w>":11609,"tana</w>":11610,"irca</w>":11611,"videbantur</w>":11612,"Jer</w>":11613,"utrique</w>":11614,"atui</w>":11615,"preb":11616,"debitam</w>":11617,"Sancte</w>":11618,"tutel":11619,"diligentius</w>":11620,"Multa</w>":11621,"terrib":11622,"Hilarius</w>":11623,"sacrum</w>":11624,"servitutem</w>":11625,"net</w>":11626,"dimitt":11627,"referre</w>":11628,"Dum":11629,"isa</w>":11630,"Quidquid</w>":11631,"dini</w>":11632,"vocati</w>":11633,"Mariam</w>":11634,"dotem</w>":11635,"cing":11636,"pesti":11637,"sufficere</w>":11638,"ostenderet</w>":11639,"Seb":11640,"ρε":11641,"auerit</w>":11642,"sacro":11643,"part</w>":11644,"intes":11645,"meretr":11646,"materiam</w>":11647,"vor":11648,"commissa</w>":11649,"transac":11650,"stes</w>":11651,"procre":11652,"latam</w>":11653,"virga</w>":11654,"ENTI":11655,"Insulae</w>":11656,"Quoc":11657,"refug":11658,"tt</w>":11659,"clero</w>":11660,"debes</w>":11661,"Gallia</w>":11662,"cinematograph":11663,"GRA":11664,"sar":11665,"nono</w>":11666,"librorum</w>":11667,"Prob":11668,"Legati</w>":11669,"leo</w>":11670,"teti":11671,"Conc":11672,"devor":11673,"54":11674,"Got":11675,"RO</w>":11676,"alioquin</w>":11677,"obsecr":11678,"videant</w>":11679,"issimae</w>":11680,"legatis</w>":11681,"mendacium</w>":11682,"eca</w>":11683,"epistolas</w>":11684,"juni":11685,"Mex":11686,"Thess":11687,"flagell":11688,"sollicitudinem</w>":11689,"dimidium</w>":11690,"baptismo</w>":11691,"Kalendas</w>":11692,"Bulg":11693,"imput":11694,"icio</w>":11695,"domi</w>":11696,"electorum</w>":11697,"quinta</w>":11698,"territorio</w>":11699,"rationes</w>":11700,"compen":11701,"quaesumus</w>":11702,"tradit</w>":11703,"Municipii</w>":11704,"vocabulum</w>":11705,"scimus</w>":11706,"Confit":11707,"aiunt</w>":11708,"este</w>":11709,"quorumdam</w>":11710,"adventus</w>":11711,"prophetis</w>":11712,"ablu":11713,"Aud":11714,"pondere</w>":11715,"cas</w>":11716,"fuere</w>":11717,"dominis</w>":11718,"ANT":11719,"conversatione</w>":11720,"flumina</w>":11721,"Imag":11722,"apr":11723,"Fred":11724,"quandam</w>":11725,"tuarum</w>":11726,"inimic":11727,"industria</w>":11728,"Leodiensis</w>":11729,"contum":11730,"idium</w>":11731,"cibo</w>":11732,"itiis</w>":11733,"praedicti</w>":11734,"egressus</w>":11735,"eux</w>":11736,"probare</w>":11737,"1975</w>":11738,"ludi":11739,"occidentalis</w>":11740,"Neder":11741,"secreta</w>":11742,"TA</w>":11743,"misericors</w>":11744,"consistit</w>":11745,"coac":11746,"ponius</w>":11747,"postulat</w>":11748,"sab</w>":11749,"catholicam</w>":11750,"δὲ</w>":11751,"infir":11752,"tenore</w>":11753,"universi</w>":11754,"creaturam</w>":11755,"bach</w>":11756,"Tridenti":11757,"cognitionem</w>":11758,"confor":11759,"spei</w>":11760,"celebrare</w>":11761,"enci":11762,"impossibile</w>":11763,"obtemper":11764,"maximum</w>":11765,"porrig":11766,"regit</w>":11767,"pape</w>":11768,"Magna</w>":11769,"09</w>":11770,"simplex</w>":11771,"pugna</w>":11772,"predictis</w>":11773,"Garumnae</w>":11774,"igno":11775,"Quaes":11776,"Axonae</w>":11777,"aere</w>":11778,"regionibus</w>":11779,"trid":11780,"pellicula</w>":11781,"Epist</w>":11782,"fiducia</w>":11783,"don</w>":11784,"tando</w>":11785,"dele":11786,"aemul":11787,"insol":11788,"communiter</w>":11789,"temporalibus</w>":11790,"Cod":11791,"acus</w>":11792,"Siquidem</w>":11793,"porta</w>":11794,"Put":11795,"tinc":11796,"opes</w>":11797,"mentionem</w>":11798,"ilus</w>":11799,"herb":11800,"spiritalis</w>":11801,"displic":11802,"avia</w>":11803,"Arb":11804,"creata</w>":11805,"defendere</w>":11806,"altum</w>":11807,"cat</w>":11808,"divitiis</w>":11809,"vulnera</w>":11810,"gaudere</w>":11811,"ald</w>":11812,"specul":11813,"bum</w>":11814,"ephan":11815,"egregia</w>":11816,"emit</w>":11817,"avere</w>":11818,"paradiso</w>":11819,"FF":11820,"urch</w>":11821,"ssent</w>":11822,"acceper":11823,"demonstrat</w>":11824,"DP</w>":11825,"vana</w>":11826,"posuimus</w>":11827,"accommod":11828,"consensum</w>":11829,"domibus</w>":11830,"postremo</w>":11831,"Bibliothec":11832,"ineffab":11833,"quousque</w>":11834,"contrario</w>":11835,"abor</w>":11836,"societate</w>":11837,"fa":11838,"ueritis</w>":11839,"vindictam</w>":11840,"iose</w>":11841,"opprim":11842,"Finn":11843,"go":11844,"uers":11845,"Ele":11846,"alicuius</w>":11847,"virgines</w>":11848,"oporteat</w>":11849,"castellum</w>":11850,"thodox":11851,"ditate</w>":11852,"convertit</w>":11853,"portet</w>":11854,"subsi":11855,"caelum</w>":11856,"miti":11857,"dicebatur</w>":11858,"stati":11859,"tormenta</w>":11860,"Rudol":11861,"07":11862,"haereticorum</w>":11863,"merces</w>":11864,"Nationalis</w>":11865,"comiti</w>":11866,"propiti":11867,"130</w>":11868,"vocabulo</w>":11869,"attes":11870,"itare</w>":11871,"missae</w>":11872,"Arvernia</w>":11873,"Vid</w>":11874,"enumer":11875,"rectum</w>":11876,"ophy":11877,"Maximianus</w>":11878,"Innocentius</w>":11879,"permanere</w>":11880,"immerito</w>":11881,"caetero</w>":11882,"secundam</w>":11883,"offerre</w>":11884,"usi</w>":11885,"rug":11886,"sublev":11887,"societatem</w>":11888,"Nicolai</w>":11889,"Linguae</w>":11890,"ortum</w>":11891,"hon</w>":11892,"68":11893,"inventa</w>":11894,"maies":11895,"debetur</w>":11896,"videte</w>":11897,"poenae</w>":11898,"VS</w>":11899,"superfl":11900,"commin":11901,"sacerdotem</w>":11902,"mee</w>":11903,"similem</w>":11904,"facientes</w>":11905,"privilegia</w>":11906,"ram</w>":11907,"Gun":11908,"universum</w>":11909,"Iterum</w>":11910,"agimus</w>":11911,"Hispanice</w>":11912,"ig</w>":11913,"pio</w>":11914,"evacu":11915,"Latinus</w>":11916,"paterna</w>":11917,"honores</w>":11918,"ierit</w>":11919,"entina</w>":11920,"peccatoribus</w>":11921,"Cenom":11922,"auerunt</w>":11923,"philosop":11924,"centur":11925,"Gregorio</w>":11926,"similitudine</w>":11927,"cun":11928,"Isaias</w>":11929,"aspic":11930,"diutur":11931,"histr":11932,"exemplar</w>":11933,"XI":11934,"fasc":11935,"acceperit</w>":11936,"nomini</w>":11937,"plene</w>":11938,"Ceter":11939,"omo</w>":11940,"tuæ</w>":11941,"excu":11942,"Hodie</w>":11943,"Decem":11944,"CI</w>":11945,"Ius":11946,"stetit</w>":11947,"Interea</w>":11948,"Let":11949,"ear":11950,"toc":11951,"furti</w>":11952,"Gon":11953,"sioni</w>":11954,"nimia</w>":11955,"nepos</w>":11956,"originem</w>":11957,"Vatican":11958,"extoll":11959,"provinciarum</w>":11960,"1945</w>":11961,"secundi</w>":11962,"ingenti</w>":11963,"intravit</w>":11964,"securus</w>":11965,"easdem</w>":11966,"IL":11967,"insti":11968,"vocibus</w>":11969,"domina</w>":11970,"Maximus</w>":11971,"pedilusor</w>":11972,"pin":11973,"urrit</w>":11974,"emer":11975,"monet</w>":11976,"1909</w>":11977,"eumque</w>":11978,"we":11979,"pridem</w>":11980,"acionem</w>":11981,"novae</w>":11982,"nep":11983,"Primi</w>":11984,"respondet</w>":11985,"Gener":11986,"ogra":11987,"reperitur</w>":11988,"dextris</w>":11989,"γε":11990,"1833</w>":11991,"osten":11992,"magnitudine</w>":11993,"moer":11994,"ου":11995,"conjec":11996,"incid":11997,"Serg":11998,"PRO":11999,"niae</w>":12000,"Sit</w>":12001,"ison</w>":12002,"Prim":12003,"vineam</w>":12004,"majora</w>":12005,"aperuit</w>":12006,"Academiae</w>":12007,"Nestor":12008,"τὸ</w>":12009,"assensum</w>":12010,"hortatur</w>":12011,"Desider":12012,"supple</w>":12013,"kar":12014,"ignosc":12015,"consuever":12016,"Fu":12017,"incorpor":12018,"damp":12019,"humanitatis</w>":12020,"Potest</w>":12021,"Veritas</w>":12022,"resusc":12023,"tissimis</w>":12024,"universalis</w>":12025,"Media</w>":12026,"obr":12027,"tamque</w>":12028,"111</w>":12029,"oa</w>":12030,"series</w>":12031,"legato</w>":12032,"impii</w>":12033,"Anglia</w>":12034,"actionis</w>":12035,"Theodosius</w>":12036,"restituere</w>":12037,"Vel":12038,"talium</w>":12039,"epistolis</w>":12040,"lianus</w>":12041,"consurg":12042,"plenam</w>":12043,"plum</w>":12044,"sonat</w>":12045,"iturum</w>":12046,"Christiana</w>":12047,"asium</w>":12048,"ilitate</w>":12049,"escunt</w>":12050,"conval":12051,"silentium</w>":12052,"ęcclesi":12053,"fico</w>":12054,"uth</w>":12055,"gravis</w>":12056,"τε</w>":12057,"inimicorum</w>":12058,"robur</w>":12059,"08</w>":12060,"unio</w>":12061,"confi":12062,"ires</w>":12063,"Magni</w>":12064,"suprem":12065,"Chris":12066,"War":12067,"tisse</w>":12068,"terent</w>":12069,"Aure":12070,"set</w>":12071,"ultro</w>":12072,"osos</w>":12073,"convoc":12074,"uxores</w>":12075,"inianus</w>":12076,"Severus</w>":12077,"δε":12078,"thal":12079,"ticis</w>":12080,"nubes</w>":12081,"Eduardus</w>":12082,"viis</w>":12083,"Fort":12084,"matri</w>":12085,"testific":12086,"suspir":12087,"conferre</w>":12088,"colon":12089,"pastor":12090,"beatitudinis</w>":12091,"Italicus</w>":12092,"obsequio</w>":12093,"Der</w>":12094,"histori":12095,"105</w>":12096,"noscuntur</w>":12097,"Reli":12098,"aticum</w>":12099,"maritus</w>":12100,"marito</w>":12101,"acio</w>":12102,"egoriae</w>":12103,"Anna</w>":12104,"scriptam</w>":12105,"Pecc":12106,"exterius</w>":12107,"Cun":12108,"Tu":12109,"paucos</w>":12110,"defuncti</w>":12111,"Seg":12112,"intelligimus</w>":12113,"Michaelis</w>":12114,"Pentecost":12115,"Vu":12116,"Scriptum</w>":12117,"canonica</w>":12118,"noverit</w>":12119,"ette</w>":12120,"quindecim</w>":12121,"ecclesiasticam</w>":12122,"dens</w>":12123,"ois</w>":12124,"Tres</w>":12125,"votum</w>":12126,"Psalmista</w>":12127,"presum":12128,"timur</w>":12129,"EDI":12130,"ullam</w>":12131,"facin":12132,"Jerosol":12133,"quodque</w>":12134,"viscera</w>":12135,"divinitatem</w>":12136,"Praesides</w>":12137,"Iesu</w>":12138,"dato</w>":12139,"pseud":12140,"1969</w>":12141,"mannus</w>":12142,"pres</w>":12143,"aliquan":12144,"agat</w>":12145,"paene</w>":12146,"oculorum</w>":12147,"motu</w>":12148,"iunc":12149,"atæ</w>":12150,"sequens</w>":12151,"INI":12152,"conversationis</w>":12153,"conuentus</w>":12154,"Jon":12155,"magistratus</w>":12156,"Diocletianus</w>":12157,"Pau":12158,"buc":12159,"accipitur</w>":12160,"auditis</w>":12161,"Apostolorum</w>":12162,"Theodisce</w>":12163,"cipere</w>":12164,"sax":12165,"140</w>":12166,"Cau":12167,"Beda</w>":12168,"Ptol":12169,"quanquam</w>":12170,"Legis</w>":12171,"INO</w>":12172,"quaestionem</w>":12173,"insulam</w>":12174,"veritati</w>":12175,"rediit</w>":12176,"facultas</w>":12177,"dilexit</w>":12178,"quibusc":12179,"inensi</w>":12180,"digni</w>":12181,"mirabilia</w>":12182,"lacer":12183,"recenti":12184,"arcan":12185,"umen</w>":12186,"membrorum</w>":12187,"uiol":12188,"iculo</w>":12189,"serint</w>":12190,"debunt</w>":12191,"effer":12192,"perire</w>":12193,"interesse</w>":12194,"appendiciis</w>":12195,"05":12196,"diligentia</w>":12197,"Hisp</w>":12198,"evit":12199,"Collec":12200,"canticum</w>":12201,"Amal":12202,"portionem</w>":12203,"Pros":12204,"loquor</w>":12205,"refertur</w>":12206,"1946</w>":12207,"ordinata</w>":12208,"quatinus</w>":12209,"abilibus</w>":12210,"teris</w>":12211,"Julii</w>":12212,"quocumque</w>":12213,"tiores</w>":12214,"sto</w>":12215,"surrex":12216,"participes</w>":12217,"annuatim</w>":12218,"rc":12219,"προ":12220,"esto":12221,"Poly":12222,"anathema</w>":12223,"Mess":12224,"vite</w>":12225,"εἰ":12226,"verae</w>":12227,"theatr":12228,"utinam</w>":12229,"150</w>":12230,"opinionem</w>":12231,"Laurentii</w>":12232,"mentibus</w>":12233,"arit</w>":12234,"exponit</w>":12235,"incre":12236,"process":12237,"singulas</w>":12238,"Google</w>":12239,"rump":12240,"XXIX</w>":12241,"presump":12242,"sexaginta</w>":12243,"jejunium</w>":12244,"64":12245,"abstulit</w>":12246,"intellectu</w>":12247,"credendum</w>":12248,"tabernaculum</w>":12249,"remota</w>":12250,"exerci":12251,"nostræ</w>":12252,"Susc":12253,"fructibus</w>":12254,"JU":12255,"uilla</w>":12256,"longius</w>":12257,"condidit</w>":12258,"spiritualiter</w>":12259,"Kr":12260,"ædific":12261,"evangeliz":12262,"Sup":12263,"iales</w>":12264,"Th</w>":12265,"Tir":12266,"Sardin":12267,"competit</w>":12268,"ullum</w>":12269,"septuaginta</w>":12270,"cogitatione</w>":12271,"Quadrages":12272,"cuc":12273,"endunt</w>":12274,"Cambridge</w>":12275,"sud":12276,"2019</w>":12277,"omnimodis</w>":12278,"ις</w>":12279,"Af":12280,"ensque</w>":12281,"ophor":12282,"Sine</w>":12283,"sibus</w>":12284,"confessus</w>":12285,"Samuel</w>":12286,"prisc":12287,"tabatur</w>":12288,"litis</w>":12289,"ebor</w>":12290,"flamma</w>":12291,"principatum</w>":12292,"Asia</w>":12293,"iurisdic":12294,"Pec":12295,"atoria</w>":12296,"Pyrenaeorum</w>":12297,"ih":12298,"ficitur</w>":12299,"ting</w>":12300,"prioribus</w>":12301,"usque":12302,"ilitas</w>":12303,"Gabri":12304,"Aut":12305,"Smit":12306,"certamen</w>":12307,"gregem</w>":12308,"calicem</w>":12309,"civibus</w>":12310,"sententias</w>":12311,"infirmitas</w>":12312,"ssam</w>":12313,"minorem</w>":12314,"restitui</w>":12315,"duxerit</w>":12316,"restaur":12317,"Val</w>":12318,"uul":12319,"alum":12320,"Raim":12321,"gravius</w>":12322,"Cum":12323,"tram":12324,"scribens</w>":12325,"Hes":12326,"serie</w>":12327,"orient":12328,"silvis</w>":12329,"sunt":12330,"putas</w>":12331,"ön":12332,"tulum</w>":12333,"datis</w>":12334,"opolis</w>":12335,"peperit</w>":12336,"uxori</w>":12337,"sumpsit</w>":12338,"Fide":12339,"itec":12340,"GN":12341,"bos</w>":12342,"cr</w>":12343,"geh":12344,"interdictum</w>":12345,"viderit</w>":12346,"carnalis</w>":12347,"extend":12348,"fame</w>":12349,"ficiorum</w>":12350,"Astr":12351,"tenebrarum</w>":12352,"absolv":12353,"Sicili":12354,"alitatem</w>":12355,"sanctimon":12356,"saep":12357,"plurimi</w>":12358,"Fontes</w>":12359,"praesentes</w>":12360,"custodire</w>":12361,"coelestium</w>":12362,"felix</w>":12363,"Baptis":12364,"accepto</w>":12365,"respicit</w>":12366,"nominatur</w>":12367,"tabant</w>":12368,"Da</w>":12369,"omitt":12370,"praedictis</w>":12371,"Corsic":12372,"eau</w>":12373,"singulorum</w>":12374,"temporalis</w>":12375,"fundo</w>":12376,"appareat</w>":12377,"Oth":12378,"Hibern":12379,"paulatim</w>":12380,"sepultus</w>":12381,"RU":12382,"idas</w>":12383,"ferme</w>":12384,"Porta</w>":12385,"locupl":12386,"Dico</w>":12387,"gut":12388,"March":12389,"auris</w>":12390,"dimic":12391,"enne</w>":12392,"virginem</w>":12393,"Scripturas</w>":12394,"ek":12395,"exu":12396,"edo</w>":12397,"Hann":12398,"temporalia</w>":12399,"devotionis</w>":12400,"subjecta</w>":12401,"exclud":12402,"Petr</w>":12403,"Berolini</w>":12404,"sequentes</w>":12405,"system":12406,"confiteri</w>":12407,"antiqui":12408,"canonicus</w>":12409,"sig</w>":12410,"fini":12411,"eique</w>":12412,"admitt":12413,"mathem":12414,"Imperium</w>":12415,"insigne</w>":12416,"machin":12417,"Incarnationis</w>":12418,"recess":12419,"corporaliter</w>":12420,"selec":12421,"occisus</w>":12422,"foc":12423,"acquiesc":12424,"XXXVIII</w>":12425,"uenit</w>":12426,"assist":12427,"Salomonis</w>":12428,"scunque</w>":12429,"morti</w>":12430,"masc":12431,"victim":12432,"Surg":12433,"iudicem</w>":12434,"imento</w>":12435,"significatur</w>":12436,"103</w>":12437,"Sap</w>":12438,"abomin":12439,"Martino</w>":12440,"Latinum</w>":12441,"accipiunt</w>":12442,"Quesn</w>":12443,"Cassini</w>":12444,"hem</w>":12445,"tent</w>":12446,"superior</w>":12447,"antec":12448,"provincias</w>":12449,"nasci</w>":12450,"vineis</w>":12451,"concordia</w>":12452,"Mai":12453,"Redemptoris</w>":12454,"ebris</w>":12455,"vincula</w>":12456,"arti":12457,"sollem":12458,"God":12459,"por</w>":12460,"ssimo</w>":12461,"Aristot":12462,"ęcclesię</w>":12463,"ages</w>":12464,"lapis</w>":12465,"creaturae</w>":12466,"seqq</w>":12467,"diges":12468,"natis</w>":12469,"issum</w>":12470,"figuram</w>":12471,"defuncto</w>":12472,"sepulcro</w>":12473,"Oper":12474,"Vind":12475,"integritate</w>":12476,"uin</w>":12477,"ymit":12478,"acem</w>":12479,"venturum</w>":12480,"expedit</w>":12481,"varia</w>":12482,"mortific":12483,"praedicto</w>":12484,"utam</w>":12485,"cras":12486,"panes</w>":12487,"promissum</w>":12488,"holocau":12489,"Merc":12490,"Rab":12491,"ordinatus</w>":12492,"iustitia</w>":12493,"ignomin":12494,"absur":12495,"lamp":12496,"lès</w>":12497,"Domus</w>":12498,"rite</w>":12499,"phon":12500,"conscientiae</w>":12501,"textum</w>":12502,"notat</w>":12503,"phr":12504,"fiduciam</w>":12505,"Beni":12506,"plang":12507,"mont</w>":12508,"Vir</w>":12509,"possessionibus</w>":12510,"ȩccles":12511,"inten":12512,"oram</w>":12513,"Byz":12514,"beatitudinem</w>":12515,"Tandem</w>":12516,"chem":12517,"ova</w>":12518,"XXXV</w>":12519,"Aus":12520,"acie</w>":12521,"ilitatem</w>":12522,"præter":12523,"Pers":12524,"Bad</w>":12525,"Concil</w>":12526,"consule</w>":12527,"viii</w>":12528,"spar":12529,"ingens</w>":12530,"cels":12531,"praefectus</w>":12532,"Britanniae</w>":12533,"99":12534,"oh":12535,"uria</w>":12536,"fectus</w>":12537,"taria</w>":12538,"Lemov":12539,"1854</w>":12540,"firmavit</w>":12541,"1968</w>":12542,"Matthaeus</w>":12543,"TER":12544,"elem</w>":12545,"archidiaconi</w>":12546,"extremum</w>":12547,"ip</w>":12548,"wer":12549,"detrac":12550,"nutri":12551,"Nederlan":12552,"Ther":12553,"impiis</w>":12554,"superiori</w>":12555,"impiorum</w>":12556,"66":12557,"ejec":12558,"sion</w>":12559,"commodum</w>":12560,"Apostolic":12561,"generale</w>":12562,"Hun":12563,"asio</w>":12564,"Cassiod</w>":12565,"mulierum</w>":12566,"potui</w>":12567,"vorum</w>":12568,"ρί":12569,"miraculis</w>":12570,"CCC":12571,"decreto</w>":12572,"Quantum</w>":12573,"MART</w>":12574,"Virtemberg":12575,"dica</w>":12576,"etin":12577,"ejusmodi</w>":12578,"Cad":12579,"Do</w>":12580,"facite</w>":12581,"amina</w>":12582,"quartam</w>":12583,"achi":12584,"audiunt</w>":12585,"sarc":12586,"daemones</w>":12587,"Turon</w>":12588,"momenti</w>":12589,"concessum</w>":12590,"Quocirca</w>":12591,"reliqui</w>":12592,"aticus</w>":12593,"Edw":12594,"seque</w>":12595,"voluerunt</w>":12596,"generali</w>":12597,"spirituali</w>":12598,"citr":12599,"ulfus</w>":12600,"exul":12601,"Eras":12602,"expul":12603,"quædam</w>":12604,"Phara":12605,"Vetus</w>":12606,"iidem</w>":12607,"endens</w>":12608,"Terrae</w>":12609,"Past":12610,"antum</w>":12611,"fueris</w>":12612,"dissen":12613,"Iam</w>":12614,"St</w>":12615,"UA</w>":12616,"odit</w>":12617,"monastic":12618,"Parisi":12619,"subjici":12620,"obedire</w>":12621,"innotes":12622,"Eugeni":12623,"σα":12624,"cognoscat</w>":12625,"audivi</w>":12626,"visio</w>":12627,"senatu</w>":12628,"efficitur</w>":12629,"concordiam</w>":12630,"teneat</w>":12631,"Dili":12632,"sequatur</w>":12633,"Israhel</w>":12634,"imet</w>":12635,"triti":12636,"endarum</w>":12637,"quibuslibet</w>":12638,"scientes</w>":12639,"domui</w>":12640,"exced":12641,"Augustinum</w>":12642,"subditur</w>":12643,"can</w>":12644,"scop":12645,"igni</w>":12646,"foro</w>":12647,"respu":12648,"agri</w>":12649,"versu</w>":12650,"accepisse</w>":12651,"aturi</w>":12652,"Euc":12653,"ium":12654,"pig":12655,"consequi</w>":12656,"Aurei</w>":12657,"Les":12658,"Yor":12659,"poc":12660,"vivo</w>":12661,"Guillelmus</w>":12662,"Vil":12663,"adven":12664,"utilitate</w>":12665,"toties</w>":12666,"ensam</w>":12667,"Corbe":12668,"aequalis</w>":12669,"individu":12670,"Claudius</w>":12671,"Civitates</w>":12672,"Sod":12673,"utuntur</w>":12674,"vivens</w>":12675,"ulares</w>":12676,"noverat</w>":12677,"Georgii</w>":12678,"Virgine</w>":12679,"Bonifac":12680,"predecess":12681,"Categoriae</w>":12682,"donatio</w>":12683,"simulac":12684,"appon":12685,"fortes</w>":12686,"angelo</w>":12687,"Mill":12688,"exire</w>":12689,"excipi":12690,"feminae</w>":12691,"Africae</w>":12692,"basilica</w>":12693,"300</w>":12694,"tr</w>":12695,"subscripsit</w>":12696,"athan</w>":12697,"William</w>":12698,"modi":12699,"dimisit</w>":12700,"ebis</w>":12701,"alitatis</w>":12702,"Leo":12703,"utiliter</w>":12704,"praecipit</w>":12705,"PAT":12706,"entissimus</w>":12707,"cuique</w>":12708,"isses</w>":12709,"utilis</w>":12710,"tholom":12711,"arum":12712,"descen":12713,"venientem</w>":12714,"dereli":12715,"maiorem</w>":12716,"providentia</w>":12717,"Meridion":12718,"servitutis</w>":12719,"convivi":12720,"Corpor":12721,"genitr":12722,"tenebrae</w>":12723,"Dionysii</w>":12724,"zion":12725,"falso</w>":12726,"harum</w>":12727,"convert":12728,"dextr":12729,"ipublicae</w>":12730,"Fratres</w>":12731,"Chan":12732,"MP":12733,"insecus</w>":12734,"itarum</w>":12735,"adi</w>":12736,"sacerdotium</w>":12737,"Roberti</w>":12738,"Quoti":12739,"Reges</w>":12740,"successorum</w>":12741,"graec":12742,"nonnulla</w>":12743,"poteris</w>":12744,"Bibliotheca</w>":12745,"Palati":12746,"JO":12747,"adem":12748,"dura</w>":12749,"Trinitate</w>":12750,"aca</w>":12751,"composit":12752,"Cursus</w>":12753,"sociis</w>":12754,"vetusti":12755,"bab":12756,"mel":12757,"aculi</w>":12758,"acies</w>":12759,"fera</w>":12760,"recessit</w>":12761,"Mulieres</w>":12762,"imperatori</w>":12763,"Papa</w>":12764,"nam":12765,"Indi":12766,"ordinatione</w>":12767,"alieni</w>":12768,"quaecumque</w>":12769,"facienda</w>":12770,"sponsa</w>":12771,"Constantinopoli</w>":12772,"sedet</w>":12773,"Virgo</w>":12774,"naufrag":12775,"σιν</w>":12776,"Oratio</w>":12777,"Il</w>":12778,"Pas":12779,"iner":12780,"antius</w>":12781,"mulieribus</w>":12782,"Via</w>":12783,"ges</w>":12784,"amico</w>":12785,"captus</w>":12786,"Societas</w>":12787,"ωι</w>":12788,"Unum</w>":12789,"Sicilia</w>":12790,"successor</w>":12791,"iniuriam</w>":12792,"sch</w>":12793,"salvus</w>":12794,"σθ":12795,"itali":12796,"futurae</w>":12797,"praedicare</w>":12798,"fecisset</w>":12799,"ony":12800,"ausu</w>":12801,"criminis</w>":12802,"fraude</w>":12803,"115</w>":12804,"deamus</w>":12805,"etibus</w>":12806,"priores</w>":12807,"salvum</w>":12808,"designatur</w>":12809,"barbar":12810,"utum</w>":12811,"periculis</w>":12812,"Isidor":12813,"AUG</w>":12814,"sodalis</w>":12815,"coerc":12816,"arca</w>":12817,"trepid":12818,"sicque</w>":12819,"desol":12820,"dominio</w>":12821,"religio</w>":12822,"inquiet":12823,"feld</w>":12824,"tatores</w>":12825,"lectum</w>":12826,"pril</w>":12827,"arrog":12828,"dicas</w>":12829,"facerent</w>":12830,"vultu</w>":12831,"ligna</w>":12832,"proxima</w>":12833,"quot":12834,"Catho":12835,"subsist":12836,"subjungit</w>":12837,"redit</w>":12838,"tradita</w>":12839,"hereditatis</w>":12840,"Verbo</w>":12841,"mensa</w>":12842,"discus":12843,"Carol":12844,"misericorditer</w>":12845,"uestra</w>":12846,"Bellum</w>":12847,"umina</w>":12848,"adjec":12849,"donationis</w>":12850,"supplicium</w>":12851,"pedum</w>":12852,"dominic":12853,"semetipso</w>":12854,"MUM</w>":12855,"aeris</w>":12856,"itineris</w>":12857,"persolu":12858,"animabus</w>":12859,"damus</w>":12860,"inte</w>":12861,"106</w>":12862,"Marcellus</w>":12863,"hal":12864,"tine</w>":12865,"ange</w>":12866,"pho</w>":12867,"Philippi</w>":12868,"ava</w>":12869,"sentit</w>":12870,"ecclesiasticae</w>":12871,"Pomponius</w>":12872,"MI</w>":12873,"rid":12874,"legata</w>":12875,"terræ</w>":12876,"promittit</w>":12877,"reliquias</w>":12878,"XXXVI</w>":12879,"pericula</w>":12880,"fum":12881,"redditus</w>":12882,"strep":12883,"Prom":12884,"memori":12885,"tristitia</w>":12886,"ferri</w>":12887,"despic":12888,"auctoris</w>":12889,"Fin":12890,"idie</w>":12891,"esti</w>":12892,"committ":12893,"Prisc":12894,"dicentis</w>":12895,"Ista</w>":12896,"inibi</w>":12897,"potestates</w>":12898,"aspici":12899,"ugn":12900,"che</w>":12901,"taretur</w>":12902,"ler":12903,"numeri</w>":12904,"tempt":12905,"RIS</w>":12906,"occasio</w>":12907,"scandaliz":12908,"stadi":12909,"coactus</w>":12910,"iusta</w>":12911,"patriarcha</w>":12912,"resip":12913,"arguit</w>":12914,"Omne</w>":12915,"trahit</w>":12916,"venturus</w>":12917,"Noe</w>":12918,"oedi":12919,"decer":12920,"vices</w>":12921,"acceptum</w>":12922,"tep":12923,"navis</w>":12924,"quocunque</w>":12925,"paratum</w>":12926,"Pler":12927,"cessit</w>":12928,"intentio</w>":12929,"phil":12930,"procedere</w>":12931,"Sabaudiae</w>":12932,"Bos":12933,"cre</w>":12934,"insec":12935,"dicus</w>":12936,"mansum</w>":12937,"ce":12938,"egerit</w>":12939,"sanctitate</w>":12940,"Zen":12941,"rebell":12942,"nequi":12943,"adire</w>":12944,"1861</w>":12945,"Tac":12946,"sec</w>":12947,"Judas</w>":12948,"assumpsit</w>":12949,"Curr":12950,"ST</w>":12951,"refrig":12952,"isma</w>":12953,"remov":12954,"pauperem</w>":12955,"abstr":12956,"opem</w>":12957,"optimum</w>":12958,"tutis</w>":12959,"Agripp":12960,"zionario</w>":12961,"furore</w>":12962,"Jean</w>":12963,"pactum</w>":12964,"perfectionem</w>":12965,"imitari</w>":12966,"sordi":12967,"traxit</w>":12968,"munda</w>":12969,"lag</w>":12970,"doloris</w>":12971,"repudi":12972,"evis":12973,"mandavit</w>":12974,"generatione</w>":12975,"credentium</w>":12976,"muros</w>":12977,"Paul</w>":12978,"veste</w>":12979,"Trinitas</w>":12980,"atten":12981,"dejec":12982,"iunt</w>":12983,"inferno</w>":12984,"scelus</w>":12985,"institutus</w>":12986,"Francesco</w>":12987,"Israeli":12988,"exigere</w>":12989,"Dign":12990,"Nulla</w>":12991,"segreg":12992,"urg</w>":12993,"epistis</w>":12994,"Sing":12995,"redib":12996,"Graecorum</w>":12997,"Scho":12998,"acerb":12999,"till":13000,"incumb":13001,"regimen</w>":13002,"loquar</w>":13003,"mensam</w>":13004,"entes":13005,"obrem</w>":13006,"naturali</w>":13007,"1964</w>":13008,"opinio</w>":13009,"Glo":13010,"ibilem</w>":13011,"09":13012,"oppon":13013,"voluc":13014,"Hir":13015,"intulit</w>":13016,"sancimus</w>":13017,"reclam":13018,"utramque</w>":13019,"additur</w>":13020,"Mas":13021,"metur</w>":13022,"mans</w>":13023,"judicis</w>":13024,"gladius</w>":13025,"Gand":13026,"idarum</w>":13027,"dicerent</w>":13028,"consequens</w>":13029,"jicere</w>":13030,"SC":13031,"tollit</w>":13032,"undiam</w>":13033,"faciebat</w>":13034,"102</w>":13035,"iustitiam</w>":13036,"derelic":13037,"credentibus</w>":13038,"supplicio</w>":13039,"testimoniis</w>":13040,"Civitatibus</w>":13041,"comites</w>":13042,"commov":13043,"stup":13044,"Venite</w>":13045,"cetero</w>":13046,"Testamentum</w>":13047,"ko</w>":13048,"existi":13049,"Alcu":13050,"lucrum</w>":13051,"observare</w>":13052,"constanter</w>":13053,"ris":13054,"legat":13055,"Novem":13056,"bibliothec":13057,"Caus":13058,"regiones</w>":13059,"majores</w>":13060,"qualitate</w>":13061,"ministris</w>":13062,"Galliae</w>":13063,"pasch":13064,"Saxoniae</w>":13065,"32":13066,"Fec":13067,"Liderici</w>":13068,"ety</w>":13069,"antiquo</w>":13070,"statuimus</w>":13071,"reme":13072,"Elias</w>":13073,"cujuslibet</w>":13074,"consulatum</w>":13075,"eticae</w>":13076,"Episcopus</w>":13077,"Tamen</w>":13078,"rab":13079,"cal</w>":13080,"Galilae":13081,"saluti</w>":13082,"aperta</w>":13083,"virgine</w>":13084,"timet</w>":13085,"provinciis</w>":13086,"icensi</w>":13087,"Cluniacensis</w>":13088,"uendi":13089,"Sacram":13090,"Vulgata</w>":13091,"It</w>":13092,"spati":13093,"assus</w>":13094,"acul":13095,"fundi</w>":13096,"istorum</w>":13097,"turas</w>":13098,"mira</w>":13099,"prudens</w>":13100,"satia</w>":13101,"Prot":13102,"edicto</w>":13103,"spel":13104,"subti":13105,"occidere</w>":13106,"illico</w>":13107,"pontifice</w>":13108,"ski</w>":13109,"aurem</w>":13110,"cithar":13111,"Gol":13112,"chor":13113,"splendi":13114,"eamque</w>":13115,"singulari</w>":13116,"petram</w>":13117,"resistere</w>":13118,"rati":13119,"communimus</w>":13120,"significare</w>":13121,"consiliis</w>":13122,"pi</w>":13123,"lucern":13124,"inesse</w>":13125,"terres":13126,"Lor":13127,"zi</w>":13128,"1970</w>":13129,"resurrectio</w>":13130,"presbyteris</w>":13131,"Infra</w>":13132,"wn</w>":13133,"Ti":13134,"Egyp":13135,"integro</w>":13136,"ws</w>":13137,"Thes":13138,"praedicatione</w>":13139,"derelinqu":13140,"Bet":13141,"Sav":13142,"Titus</w>":13143,"tationibus</w>":13144,"portare</w>":13145,"caeli</w>":13146,"Aen":13147,"quę</w>":13148,"monasteria</w>":13149,"diuid":13150,"Bartholom":13151,"clementer</w>":13152,"dorm":13153,"incarnatione</w>":13154,"crescit</w>":13155,"Archidioecesis</w>":13156,"consequenter</w>":13157,"intelligentiam</w>":13158,"næ</w>":13159,"pis</w>":13160,"debetis</w>":13161,"differentia</w>":13162,"exitum</w>":13163,"Church</w>":13164,"impetu</w>":13165,"emancip":13166,"interval":13167,"caeteros</w>":13168,"Superior</w>":13169,"Insuper</w>":13170,"exitus</w>":13171,"copiis</w>":13172,"necessitatibus</w>":13173,"Isti</w>":13174,"teneatur</w>":13175,"curiam</w>":13176,"conser":13177,"viventium</w>":13178,"concupiscentia</w>":13179,"pignus</w>":13180,"lapidibus</w>":13181,"acium</w>":13182,"inveniuntur</w>":13183,"Septentrionalis</w>":13184,"107</w>":13185,"cedere</w>":13186,"gi</w>":13187,"Annis</w>":13188,"donamus</w>":13189,"Dizionario</w>":13190,"65":13191,"hardus</w>":13192,"ox":13193,"decani</w>":13194,"passiones</w>":13195,"Alioquin</w>":13196,"117</w>":13197,"heli":13198,"mereamur</w>":13199,"vico</w>":13200,"sorte</w>":13201,"perf":13202,"cle</w>":13203,"humanitatem</w>":13204,"abundantia</w>":13205,"concessione</w>":13206,"Lap":13207,"legitima</w>":13208,"Legem</w>":13209,"Tornacensis</w>":13210,"ografico</w>":13211,"stimul":13212,"reddat</w>":13213,"Theodericus</w>":13214,"obedientiae</w>":13215,"exigit</w>":13216,"mittitur</w>":13217,"78":13218,"notae</w>":13219,"patiatur</w>":13220,"extremo</w>":13221,"prudentiam</w>":13222,"Cir":13223,"104</w>":13224,"patienter</w>":13225,"ipuit</w>":13226,"eorumdem</w>":13227,"obviam</w>":13228,"fecerint</w>":13229,"sedere</w>":13230,"infringere</w>":13231,
[...]
