{"version":"1.0","truncation":null,"padding":null,"added_tokens":[{"id":0,"special":true,"content":"<s>","single_word":false,"lstrip":false,"rstrip":false,"normalized":false},{"id":1,"special":true,"content":"<pad>","single_word":false,"lstrip":false,"rstrip":false,"normalized":false},{"id":2,"special":true,"content":"</s>","single_word":false,"lstrip":false,"rstrip":false,"normalized":false},{"id":3,"special":true,"content":"<unk>","single_word":false,"lstrip":false,"rstrip":false,"normalized":false},{"id":4,"special":true,"content":"<mask>","single_word":false,"lstrip":false,"rstrip":false,"normalized":false}],"normalizer":{"type":"NFKC"},"pre_tokenizer":{"type":"Metaspace","replacement":"▁","add_prefix_space":true},"post_processor":null,"decoder":{"type":"Metaspace","replacement":"▁","add_prefix_space":true},"model":{"type":"BPE","dropout":null,"unk_token":null,"continuing_subword_prefix":null,"end_of_word_suffix":null,"fuse_unk":false,"vocab":{"<s>":0,"<pad>":1,"</s>":2,"<unk>":3,"<mask>":4,"\u0000":5,"\t":6,"\n":7,"\r":8,"!":9,"\"":10,"#":11,"$":12,"%":13,"&":14,"'":15,"(":16,")":17,"*":18,"+":19,",":20,"-":21,".":22,"/":23,"0":24,"1":25,"2":26,"3":27,"4":28,"5":29,"6":30,"7":31,"8":32,"9":33,":":34,";":35,"<":36,"=":37,">":38,"?":39,"@":40,"A":41,"B":42,"C":43,"D":44,"E":45,"F":46,"G":47,"H":48,"I":49,"J":50,"K":51,"L":52,"M":53,"N":54,"O":55,"P":56,"Q":57,"R":58,"S":59,"T":60,"U":61,"V":62,"W":63,"X":64,"Y":65,"Z":66,"[":67,"\\":68,"]":69,"^":70,"_":71,"`":72,"a":73,"b":74,"c":75,"d":76,"e":77,"f":78,"g":79,"h":80,"i":81,"j":82,"k":83,"l":84,"m":85,"n":86,"o":87,"p":88,"q":89,"r":90,"s":91,"t":92,"u":93,"v":94,"w":95,"x":96,"y":97,"z":98,"{":99,"|":100,"}":101,"~":102,"":103,"":104,"":105,"¡":106,"£":107,"¥":108,"§":109,"©":110,"«":111,"¬":112,"­":113,"®":114,"°":115,"±":116,"·":117,"»":118,"¿":119,"À":120,"Á":121,"Â":122,"Ä":123,"Å":124,"Æ":125,"Ç":126,"È":127,"É":128,"Ê":129,"Ì":130,"Í":131,"Î":132,"Ï":133,"Ñ":134,"Ò":135,"Ó":136,"Ö":137,"×":138,"Ø":139,"Ú":140,"Ü":141,"Þ":142,"ß":143,"à":144,"á":145,"â":146,"ã":147,"ä":148,"å":149,"æ":150,"ç":151,"è":152,"é":153,"ê":154,"ë":155,"ì":156,"í":157,"î":158,"ï":159,"ð":160,"ñ":161,"ò":162,"ó":163,"ô":164,"õ":165,"ö":166,"÷":167,"ø":168,"ù":169,"ú":170,"û":171,"ü":172,"ý":173,"þ":174,"ÿ":175,"Ā":176,"ā":177,"ă":178,"ą":179,"ć":180,"Ĉ":181,"ĉ":182,"Č":183,"č":184,"ď":185,"Đ":186,"đ":187,"ē":188,"ĕ":189,"ė":190,"Ę":191,"ę":192,"ě":193,"ĝ":194,"ğ":195,"Ġ":196,"ġ":197,"Ħ":198,"ĩ":199,"Ī":200,"ī":201,"ĭ":202,"Į":203,"İ":204,"ı":205,"ĵ":206,"Ľ":207,"ľ":208,"Ł":209,"ł":210,"ń":211,"ņ":212,"ň":213,"ŋ":214,"Ō":215,"ō":216,"ŏ":217,"ő":218,"Œ":219,"œ":220,"ř":221,"Ś":222,"ś":223,"Ş":224,"ş":225,"Š":226,"š":227,"Ţ":228,"ţ":229,"ť":230,"ũ":231,"ū":232,"ŭ":233,"ů":234,"ű":235,"ų":236,"Ż":237,"ż":238,"Ž":239,"ž":240,"Ə":241,"ư":242,"ǎ":243,"ǐ":244,"Ǒ":245,"ǒ":246,"ǔ":247,"Ǧ":248,"ǧ":249,"ǫ":250,"Ș":251,"ș":252,"Ț":253,"ț":254,"Ȩ":255,"ȩ":256,"ɔ":257,"ə":258,"ɛ":259,"ɜ":260,"ɩ":261,"ɪ":262,"ɾ":263,"ʃ":264,"ʔ":265,"ʹ":266,"ʻ":267,"ʾ":268,"ʿ":269,"ˁ":270,"ˈ":271,"ː":272,"́":273,"̃":274,"̄":275,"̅":276,"̇":277,"̈":278,"̊":279,"̓":280,"̥":281,"̩":282,"̯":283,"ͮ":284,"Ά":285,"Έ":286,"Ί":287,"Ό":288,"ΐ":289,"Α":290,"Β":291,"Γ":292,"Δ":293,"Ε":294,"Ζ":295,"Η":296,"Θ":297,"Ι":298,"Κ":299,"Λ":300,"Μ":301,"Ν":302,"Ξ":303,"Ο":304,"Π":305,"Ρ":306,"Σ":307,"Τ":308,"Υ":309,"Φ":310,"Χ":311,"Ψ":312,"Ω":313,"ά":314,"έ":315,"ή":316,"ί":317,"ΰ":318,"α":319,"β":320,"γ":321,"δ":322,"ε":323,"ζ":324,"η":325,"θ":326,"ι":327,"κ":328,"λ":329,"μ":330,"ν":331,"ξ":332,"ο":333,"π":334,"ρ":335,"ς":336,"σ":337,"τ":338,"υ":339,"φ":340,"χ":341,"ψ":342,"ω":343,"ϊ":344,"ϋ":345,"ό":346,"ύ":347,"ώ":348,"ϥ":349,"Ϭ":350,"ϭ":351,"Ђ":352,"Є":353,"І":354,"Ј":355,"А":356,"Б":357,"В":358,"Г":359,"Д":360,"Е":361,"Ж":362,"З":363,"И":364,"К":365,"Л":366,"М":367,"Н":368,"О":369,"П":370,"Р":371,"С":372,"Т":373,"У":374,"Ф":375,"Х":376,"Ц":377,"Ч":378,"Ш":379,"Э":380,"Ю":381,"Я":382,"а":383,"б":384,"в":385,"г":386,"д":387,"е":388,"ж":389,"з":390,"и":391,"й":392,"к":393,"л":394,"м":395,"н":396,"о":397,"п":398,"р":399,"с":400,"т":401,"у":402,"ф":403,"х":404,"ц":405,"ч":406,"ш":407,"щ":408,"ъ":409,"ы":410,"ь":411,"э":412,"ю":413,"я":414,"ё":415,"і":416,"ї":417,"ј":418,"љ":419,"ћ":420,"ў":421,"ѣ":422,"ә":423,"Ա":424,"Կ":425,"Հ":426,"Մ":427,"Ս":428,"Վ":429,"ա":430,"բ":431,"գ":432,"դ":433,"ե":434,"զ":435,"թ":436,"ի":437,"լ":438,"կ":439,"հ":440,"մ":441,"յ":442,"ն":443,"շ":444,"ո":445,"ս":446,"վ":447,"տ":448,"ր":449,"ւ":450,"ְ":451,"ִ":452,"ֵ":453,"ֶ":454,"ַ":455,"ָ":456,"ֹ":457,"ּ":458,"ׁ":459,"א":460,"ב":461,"ג":462,"ד":463,"ה":464,"ו":465,"ז":466,"ח":467,"ט":468,"י":469,"ך":470,"כ":471,"ל":472,"ם":473,"מ":474,"ן":475,"נ":476,"ס":477,"ע":478,"פ":479,"צ":480,"ק":481,"ר":482,"ש":483,"ת":484,"ء":485,"آ":486,"أ":487,"إ":488,"ئ":489,"ا":490,"ب":491,"ة":492,"ت":493,"ث":494,"ج":495,"ح":496,"خ":497,"د":498,"ذ":499,"ر":500,"ز":501,"س":502,"ش":503,"ص":504,"ض":505,"ط":506,"ظ":507,"ع":508,"غ":509,"ف":510,"ق":511,"ك":512,"ل":513,"م":514,"ن":515,"ه":516,"و":517,"ى":518,"ي":519,"َ":520,"ِ":521,"ّ":522,"پ":523,"ک":524,"گ":525,"ہ":526,"ی":527,"ܐ":528,"ܒ":529,"ܕ":530,"ܘ":531,"ܝ":532,"ܠ":533,"ܡ":534,"ܢ":535,"ܪ":536,"ܬ":537,"ं":538,"अ":539,"आ":540,"उ":541,"ओ":542,"औ":543,"क":544,"ख":545,"ग":546,"च":547,"छ":548,"ज":549,"झ":550,"ट":551,"ड":552,"ढ":553,"ण":554,"त":555,"थ":556,"द":557,"ध":558,"न":559,"प":560,"ब":561,"भ":562,"म":563,"य":564,"र":565,"ल":566,"व":567,"श":568,"ष":569,"स":570,"ह":571,"़":572,"ा":573,"ि":574,"ी":575,"ु":576,"ू":577,"े":578,"ै":579,"ो":580,"्":581,"দ":582,"ন":583,"ব":584,"ম":585,"র":586,"ল":587,"া":588,"ি":589,"্":590,"க":591,"ச":592,"ன":593,"ப":594,"ம":595,"ல":596,"ி":597,"்":598,"්":599,"ก":600,"ค":601,"ง":602,"จ":603,"ช":604,"ด":605,"ต":606,"ท":607,"น":608,"บ":609,"ป":610,"พ":611,"ม":612,"ย":613,"ร":614,"ล":615,"ว":616,"ศ":617,"ส":618,"ห":619,"อ":620,"ั":621,"า":622,"ิ":623,"ี":624,"ุ":625,"เ":626,"แ":627,"่":628,"้":629,"์":630,"་":631,"ག":632,"ང":633,"ད":634,"བ":635,"མ":636,"ར":637,"ས":638,"ུ":639,"ོ":640,"ྲ":641,"က":642,"တ":643,"န":644,"မ":645,"ိ":646,"ု":647,"း":648,"်":649,"ြ":650,"ა":651,"ბ":652,"გ":653,"დ":654,"ე":655,"ვ":656,"ზ":657,"თ":658,"ი":659,"კ":660,"ლ":661,"მ":662,"ნ":663,"ო":664,"რ":665,"ს":666,"ტ":667,"უ":668,"ფ":669,"ქ":670,"ღ":671,"შ":672,"ძ":673,"ხ":674,"ჯ":675,"ለ":676,"መ":677,"ር":678,"ስ":679,"ን":680,"ይ":681,"ក":682,"ង":683,"ត":684,"ន":685,"រ":686,"ស":687,"ា":688,"ុ":689,"្":690,"ḍ":691,"ḏ":692,"Ḥ":693,"ḥ":694,"Ḫ":695,"ḫ":696,"ṃ":697,"ṅ":698,"ṇ":699,"ṛ":700,"Ṣ":701,"ṣ":702,"Ṭ":703,"ṭ":704,"Ṯ":705,"ṯ":706,"ẓ":707,"ạ":708,"ả":709,"ẽ":710,"ễ":711,"ệ":712,"ỉ":713,"ồ":714,"ἀ":715,"ἁ":716,"ἂ":717,"ἃ":718,"ἄ":719,"ἅ":720,"ἆ":721,"Ἀ":722,"Ἁ":723,"Ἄ":724,"Ἅ":725,"ἐ":726,"ἑ":727,"ἒ":728,"ἓ":729,"ἔ":730,"ἕ":731,"Ἐ":732,"Ἑ":733,"Ἔ":734,"Ἕ":735,"ἠ":736,"ἡ":737,"ἢ":738,"ἣ":739,"ἤ":740,"ἥ":741,"ἦ":742,"ἧ":743,"Ἠ":744,"Ἡ":745,"Ἤ":746,"Ἥ":747,"ἰ":748,"ἱ":749,"ἳ":750,"ἴ":751,"ἵ":752,"ἶ":753,"ἷ":754,"Ἰ":755,"Ἱ":756,"Ἴ":757,"Ἵ":758,"ὀ":759,"ὁ":760,"ὂ":761,"ὃ":762,"ὄ":763,"ὅ":764,"Ὀ":765,"Ὁ":766,"Ὄ":767,"Ὅ":768,"ὐ":769,"ὑ":770,"ὒ":771,"ὓ":772,"ὔ":773,"ὕ":774,"ὖ":775,"ὗ":776,"Ὑ":777,"ὠ":778,"ὡ":779,"ὢ":780,"ὤ":781,"ὥ":782,"ὦ":783,"ὧ":784,"Ὠ":785,"Ὡ":786,"Ὥ":787,"ὰ":788,"ὲ":789,"ὴ":790,"ὶ":791,"ὸ":792,"ὺ":793,"ὼ":794,"ᾱ":795,"ᾳ":796,"ᾶ":797,"ῃ":798,"ῆ":799,"ῇ":800,"ῑ":801,"ῖ":802,"ῡ":803,"ῤ":804,"ῥ":805,"ῦ":806,"Ῥ":807,"ῳ":808,"ῶ":809,"ῷ":810,"​":811,"‎":812,"‏":813,"‐":814,"–":815,"—":816,"―":817,"‘":818,"’":819,"‚":820,"“":821,"”":822,"„":823,"†":824,"•":825,"‬":826,"‭":827,"′":828,"‹":829,"›":830,"※":831,"⁄":832,"€":833,"℟":834,"℣":835,"Ↄ":836,"←":837,"↑":838,"→":839,"↓":840,"↔":841,"−":842,"√":843,"∞":844,"∨":845,"∪":846,"≠":847,"≤":848,"⌇":849,"⏑":850,"─":851,"│":852,"└":853,"├":854,"┬":855,"▁":856,"■":857,"♦":858,"♭":859,"✠":860,"⟨":861,"⟩":862,"ⲁ":863,"ⲉ":864,"ⲛ":865,"、":866,"。":867,"〈":868,"〉":869,"い":870,"う":871,"え":872,"か":873,"が":874,"き":875,"く":876,"し":877,"た":878,"て":879,"で":880,"と":881,"な":882,"に":883,"の":884,"は":885,"も":886,"り":887,"る":888,"れ":889,"を":890,"ァ":891,"ア":892,"ィ":893,"イ":894,"ウ":895,"エ":896,"オ":897,"カ":898,"ガ":899,"キ":900,"ク":901,"グ":902,"コ":903,"ゴ":904,"サ":905,"ザ":906,"シ":907,"ジ":908,"ス":909,"タ":910,"ダ":911,"チ":912,"ッ":913,"テ":914,"デ":915,"ト":916,"ド":917,"ナ":918,"ニ":919,"ノ":920,"バ":921,"パ":922,"フ":923,"ブ":924,"プ":925,"マ":926,"ミ":927,"ム":928,"メ":929,"ャ":930,"ュ":931,"ョ":932,"ラ":933,"リ":934,"ル":935,"レ":936,"ロ":937,"ン":938,"・":939,"ー":940,"一":941,"三":942,"上":943,"中":944,"之":945,"二":946,"京":947,"人":948,"会":949,"南":950,"原":951,"史":952,"和":953,"国":954,"國":955,"大":956,"天":957,"太":958,"夫":959,"子":960,"学":961,"宮":962,"家":963,"小":964,"山":965,"島":966,"川":967,"平":968,"文":969,"新":970,"日":971,"明":972,"月":973,"木":974,"本":975,"李":976,"東":977,"正":978,"水":979,"治":980,"王":981,"田":982,"社":983,"神":984,"藤":985,"記":986,"道":987,"郎":988,"都":989,"野":990,"金":991,"高":992,"김":993,"대":994,"동":995,"영":996,"이":997,"일":998,"정":999,"최":1000,"하":1001,"한":1002,"":1003,"﻿":1004,"er":1005,"▁e":1006,"\r\n":1007,"in":1008,"is":1009,"um":1010,"us":1011,"it":1012,"at":1013,"▁s":1014,"▁a":1015,"qu":1016,"▁p":1017,"on":1018,"en":1019,"▁c":1020,".\r\n":1021,"or":1022,"es":1023,"ia":1024,"▁d":1025,"ic":1026,"em":1027,"an":1028,"▁qu":1029,"▁in":1030,"▁n":1031,"▁et":1032,"ur":1033,"▁m":1034,"am":1035,"ar":1036,"un":1037,"▁v":1038,"ae":1039,"st":1040,"ti":1041,"li":1042,"om":1043,"▁t":1044,"et":1045,"▁f":1046,"ec":1047,"im":1048,"▁pr":1049,"ut":1050,"id":1051,"▁h":1052,"os":1053,"ul":1054,"ent":1055,"▁r":1056,"▁C":1057,"il":1058,"el":1059,"ed":1060,"▁S":1061,"al":1062,"ol":1063,"▁D":1064,":\r\n":1065,"▁A":1066,"od":1067,"ib":1068,"as":1069,"▁I":1070,"▁ad":1071,"ac":1072,"▁est":1073,"oc":1074,"▁con":1075,"▁l":1076,"▁P":1077,"ip":1078,"▁su":1079,"▁de":1080,"ant":1081,"unt":1082,"ati":1083,"eg":1084,"que":1085,"ud":1086,"ab":1087,"ir":1088,"ter":1089,"▁1":1090,"op":1091,"▁ex":1092,"▁E":1093,"▁non":1094,"ens":1095,"▁M":1096,"orum":1097,"ra":1098,"iam":1099,"▁per":1100,"e,":1101,"us,":1102,"ost":1103,"▁(":1104,"▁ut":1105,"▁N":1106,"ot":1107,"ig":1108,"▁2":1109,"ibus":1110,"omin":1111,"end":1112,"ob":1113,";\r\n":1114,"▁an":1115,"per":1116,"ist":1117,"est":1118,"▁g":1119,"is,":1120,"itat":1121,"it,":1122,"ere":1123,"▁H":1124,"▁V":1125,"se":1126,"um,":1127,"▁L":1128,"iv":1129,"ect":1130,"▁qui":1131,"ep":1132,"ill":1133,"▁De":1134,"i,":1135,"o,":1136,"ation":1137,"▁quod":1138,"ius":1139,"uc":1140,"▁b":1141,"cc":1142,"▁R":1143,"eb":1144,"▁cum":1145,"▁T":1146,"ium":1147,"anc":1148,"▁B":1149,"ag":1150,"io":1151,"▁F":1152,"ion":1153,"omn":1154,"▁G":1155,"ili":1156,"itur":1157,"and":1158,"iss":1159,"av":1160,"atur":1161,"iae":1162,"▁dic":1163,"a,":1164,"▁com":1165,"▁omn":1166,"▁Q":1167,"ex":1168,"▁aut":1169,"▁ab":1170,"ap":1171,"00":1172,"▁Qu":1173,"▁prae":1174,"jus":1175,"og":1176,"▁ill":1177,"isc":1178,"▁ver":1179,"und":1180,"▁pro":1181,"fic":1182,"ta":1183,"▁sed":1184,"enti":1185,"▁ip":1186,"▁u":1187,"▁hab":1188,"ort":1189,"ess":1190,"▁er":1191,"▁ali":1192,"tion":1193,"▁quae":1194,"▁di":1195,"▁si":1196,"▁me":1197,"▁ap":1198,"ell":1199,"lib":1200,"▁es":1201,"▁J":1202,"▁fac":1203,"▁im":1204,"rat":1205,"re":1206,"ign":1207,"ian":1208,"▁se":1209,"uer":1210,"▁In":1211,"ov":1212,"ri":1213,"▁sc":1214,"ata":1215,"▁inter":1216,"▁en":1217,"▁19":1218,"▁re":1219,"it.\r\n":1220,"les":1221,"ari":1222,"▁Domin":1223,"▁200":1224,"are":1225,"II":1226,"▁ips":1227,"▁sp":1228,"▁Ch":1229,"▁j":1230,"▁sunt":1231,"iter":1232,"▁nost":1233,"em,":1234,"ad":1235,"aec":1236,"ita":1237,"▁O":1238,"emp":1239,"▁cons":1240,"▁vel":1241,"es,":1242,"▁quia":1243,"▁enim":1244,"ris":1245,"▁est,":1246,"▁id":1247,"▁quam":1248,"at,":1249,"▁par":1250,"▁un":1251,"oria":1252,"tum":1253,"▁tu":1254,"▁cor":1255,"ccles":1256,"▁reg":1257,"▁sub":1258,"ub":1259,"inc":1260,"ug":1261,"unc":1262,"▁comm":1263,"▁tr":1264,"▁autem":1265,"ine":1266,"te":1267,"ers":1268,"▁op":1269,"▁pl":1270,"▁al":1271,"▁hoc":1272,"etur":1273,"▁:\r\n":1274,"ore":1275,"▁U":1276,"▁)":1277,"▁cont":1278,"arum":1279,"▁sanc":1280,"▁ann":1281,"▁quo":1282,"tus":1283,"▁prop":1284,"go":1285,"▁pos":1286,"et,":1287,"▁nec":1288,"▁lib":1289,"?\r\n":1290,"ing":1291,"▁pot":1292,"▁—":1293,"▁Et":1294,"atus":1295,"ici":1296,"▁ob":1297,"▁vid":1298,"▁ter":1299,"imus":1300,"▁Cat":1301,"▁or":1302,"▁ac":1303,"▁sic":1304,"uit":1305,"▁quid":1306,"ch":1307,"▁ar":1308,"rip":1309,".,":1310,"rum":1311,"▁X":1312,"ii":1313,"▁3":1314,"ro":1315,"dic":1316,"ans":1317,"▁ne":1318,"▁etiam":1319,"de":1320,"▁sol":1321,"is.\r\n":1322,"▁sec":1323,"lic":1324,"ult":1325,"▁ep":1326,"bi":1327,"ni":1328,"erunt":1329,"bus":1330,"▁int":1331,"fect":1332,"egoria":1333,"▁vir":1334,"tim":1335,"ph":1336,"▁esse":1337,"▁ser":1338,"▁Categoria":1339,"▁tam":1340,"ust":1341,"▁leg":1342,"▁super":1343,"itus":1344,"▁An":1345,"▁inc":1346,"am,":1347,"▁i":1348,"▁post":1349,"ast":1350,"▁am":1351,"pr":1352,"▁cr":1353,"lig":1354,"ator":1355,"▁st":1356,"rist":1357,"um.\r\n":1358,"ern":1359,"at.\r\n":1360,"▁ejus":1361,"▁at":1362,"▁o":1363,"iscop":1364,"ert":1365,"▁Pr":1366,"i.\r\n":1367,"itas":1368,"quam":1369,"int":1370,"tor":1371,"uli":1372,"▁res":1373,"ann":1374,"atis":1375,"▁fid":1376,"▁poss":1377,"ient":1378,"itate":1379,"▁temp":1380,"aes":1381,"issim":1382,"obis":1383,"up":1384,"▁acc":1385,"▁4":1386,"▁•":1387,"▁commun":1388,"ven":1389,"eri":1390,"▁homin":1391,"ff":1392,"ia,":1393,"he":1394,"ui":1395,"▁loc":1396,"atione":1397,"ula":1398,"▁des":1399,"▁mag":1400,"atum":1401,"ih":1402,"ias":1403,"▁Christ":1404,"antur":1405,"o.\r\n":1406,"▁co":1407,"▁pat":1408,"aud":1409,"▁dec":1410,"▁cap":1411,"▁pec":1412,"▁div":1413,"▁vol":1414,"ull":1415,"▁fili":1416,"▁us":1417,"ione":1418,"▁Mar":1419,"▁mon":1420,"▁man":1421,"▁oc":1422,"us.\r\n":1423,"▁bon":1424,"▁W":1425,"dit":1426,"▁ven":1427,"ux":1428,"ina":1429,"▁eccles":1430,"▁anim":1431,"itu":1432,"▁inf":1433,"▁cel":1434,"ibi":1435,"▁Al":1436,"▁5":1437,"▁deb":1438,"▁car":1439,"▁conc":1440,"▁nos":1441,"▁aliqu":1442,"entes":1443,"▁ita":1444,"▁episcop":1445,"oris":1446,"▁sit":1447,"▁Dei":1448,"ass":1449,"alis":1450,"ali":1451,"ss":1452,"itatem":1453,"tis":1454,"urae":1455,"▁qua":1456,"▁imp":1457,"ang":1458,"▁conf":1459,"orm":1460,"erit":1461,"ie":1462,"itatis":1463,"aus":1464,"▁[":1465,"tione":1466,"▁po":1467,"▁cl":1468,"atio":1469,"▁anno":1470,"▁apud":1471,"▁sac":1472,"to":1473,"ica":1474,"▁ag":1475,"▁vero":1476,"oll":1477,"▁mort":1478,"isse":1479,"ate":1480,"raph":1481,"▁sicut":1482,"odo":1483,"itur,":1484,"ere,":1485,"▁min":1486,"▁rec":1487,"isi":1488,"ujus":1489,"ram":1490,"ura":1491,"▁Rom":1492,"ensis":1493,"os,":1494,"▁Eccles":1495,"esc":1496,"▁199":1497,"▁tamen":1498,"eret":1499,"▁pecc":1500,"udic":1501,"▁eum":1502,"▁est.\r\n":1503,"omm":1504,"▁potest":1505,")\r\n":1506,"ationem":1507,"itud":1508,"▁fuer":1509,"▁atque":1510,"▁serv":1511,"irm":1512,"▁frat":1513,"ior":1514,"▁Con":1515,"dem":1516,"rae":1517,"▁vest":1518,"▁sal":1519,"exus":1520,"entur":1521,"▁quibus":1522,"tip":1523,"▁praefect":1524,"▁comp":1525,"▁Fr":1526,"▁quem":1527,"▁cog":1528,"ant,":1529,"untur":1530,"le":1531,"a.\r\n":1532,"sc":1533,"▁corp":1534,"icet":1535,"ostol":1536,"▁secund":1537,"▁ma":1538,"▁sum":1539,"unt,":1540,"▁Sed":1541,"entia":1542,"ord":1543,"▁prim":1544,"▁red":1545,"▁Am":1546,"▁te":1547,"▁jus":1548,"eli":1549,"illi":1550,"▁nomin":1551,"ando":1552,"▁Nexus":1553,"▁praes":1554,"itum":1555,"▁app":1556,"▁sim":1557,"▁gen":1558,"▁praefecturae":1559,"▁6":1560,"▁ergo":1561,"orum,":1562,"▁quas":1563,"▁vit":1564,"ini":1565,"▁grat":1566,"ulo":1567,"▁18":1568,"ograph":1569,"erum":1570,"▁nobis":1571,"▁Pat":1572,"▁Si":1573,"▁Ar":1574,"▁of":1575,"▁voc":1576,"eat":1577,"oli":1578,"▁ess":1579,"▁aud":1580,"irc":1581,"ard":1582,"icae":1583,"▁·":1584,"urb":1585,"edic":1586,"pon":1587,"▁Categoria:\r\n":1588,"▁20":1589,"tem":1590,"atur,":1591,"ific":1592,"▁dix":1593,"▁eo":1594,"▁exc":1595,"▁tant":1596,"▁verb":1597,"th":1598,"▁disc":1599,"▁hum":1600,"vers":1601,"ionem":1602,"▁scrip":1603,"orem":1604,"ant.\r\n":1605,"▁ins":1606,"ene":1607,"▁-":1608,"▁sem":1609,"▁mal":1610,"▁domin":1611,"inem":1612,"▁celata":1613,"▁celata:":1614,"▁el":1615,"ire":1616,"▁).\r\n":1617,"▁die":1618,"▁du":1619,"▁ipse":1620,"▁const":1621,"ric":1622,"iis":1623,"tio":1624,"all":1625,"as,":1626,"eric":1627,"▁«":1628,"eris":1629,"▁nisi":1630,"▁cred":1631,"entibus":1632,"gr":1633,"▁Un":1634,"▁\"":1635,"eo":1636,"unic":1637,"▁7":1638,"inis":1639,"▁gl":1640,"▁ist":1641,"▁»":1642,"▁ind":1643,"iens":1644,"ationis":1645,"▁Non":1646,").\r\n":1647,"iet":1648,"abil":1649,"▁contra":1650,"▁Ad":1651,"▁sibi":1652,"▁spect":1653,"▁illi":1654,"avit":1655,"▁sanct":1656,"inae":1657,"usc":1658,"▁null":1659,"anti":1660,"tin":1661,"▁Deus":1662,"imus,":1663,"▁cur":1664,"▁rep":1665,"▁K":1666,"erc":1667,"▁caus":1668,"unia":1669,"▁exter":1670,"▁9":1671,"▁ante":1672,"rib":1673,"itt":1674,"▁occ":1675,"▁mis":1676,"▁8":1677,"▁fec":1678,"ach":1679,"ver":1680,"▁ei":1681,"▁ten":1682,"▁eorum":1683,"▁Comm":1684,"▁omnibus":1685,"▁ti":1686,"I,":1687,"ea":1688,"▁praec":1689,"et.\r\n":1690,"▁haec":1691,"▁ubi":1692,"▁omnes":1693,"▁fu":1694,"▁,":1695,"ider":1696,"ent,":1697,"▁pers":1698,"▁Sc":1699,"▁mor":1700,"rem":1701,"ae,":1702,"▁inv":1703,"tionem":1704,"▁quis":1705,"▁Gr":1706,"oqu":1707,"icum":1708,"entis":1709,"entiam":1710,"▁fl":1711,"▁sup":1712,"it:\r\n":1713,"▁pa":1714,"▁tot":1715,"ente":1716,"ulum":1717,"erv":1718,"▁Pet":1719,"▁pop":1720,"incip":1721,"endum":1722,"▁ch":1723,"▁rem":1724,"▁oper":1725,"▁Sanc":1726,"▁civ":1727,"itter":1728,"ibus,":1729,"▁sine":1730,"uper":1731,"ite":1732,"▁inqu":1733,"▁mult":1734,"▁spir":1735,"risti":1736,"▁imper":1737,"▁fr":1738,"▁ord":1739,"▁mem":1740,"ix":1741,"ores":1742,"▁]":1743,"▁sep":1744,"uum":1745,"dam":1746,"▁Pag":1747,"▁Roman":1748,"ilia":1749,"eograph":1750,"atur.\r\n":1751,"▁omnia":1752,"▁secundum":1753,"▁Sp":1754,"▁quoque":1755,"osc":1756,"▁Franc":1757,"entum":1758,"▁eius":1759,"tius":1760,"unicip":1761,"▁Ap":1762,"ihil":1763,"▁doc":1764,"▁mih":1765,"▁mund":1766,"▁quidem":1767,"▁apostol":1768,"urg":1769,"ym":1770,"sal":1771,"▁usque":1772,"▁nov":1773,"iac":1774,"uctor":1775,"ios":1776,"▁circ":1777,"▁ea":1778,"▁eos":1779,"▁exp":1780,"▁11":1781,"▁Ex":1782,"▁»\r\n":1783,"▁Aug":1784,"ulis":1785,"▁don":1786,"▁Dominus":1787,"▁sign":1788,"ino":1789,"▁Deo":1790,"▁trans":1791,"ivers":1792,"▁10":1793,"▁pon":1794,"oniam":1795,"▁Christi":1796,"▁jam":1797,"▁def":1798,"e.\r\n":1799,"▁propter":1800,"ero":1801,"xim":1802,"▁viv":1803,"▁Haec":1804,"▁magn":1805,"etur,":1806,"▁Quod":1807,"▁sunt,":1808,"erm":1809,"ionis":1810,"▁fide":1811,"erat":1812,"▁The":1813,"),":1814,"▁2000":1815,"NS":1816,"urr":1817,"▁fort":1818,"tal":1819,"▁Communia":1820,"▁dom":1821,"▁Jo":1822,"▁cogn":1823,"▁vic":1824,"▁Vic":1825,"▁mar":1826,"ive":1827,"▁ded":1828,"▁nunc":1829,"▁dign":1830,"▁pres":1831,"▁XX":1832,"▁hic":1833,"▁fi":1834,"▁hon":1835,"atu":1836,"▁^":1837,"▁princip":1838,"inus":1839,"res":1840,"▁commune":1841,"▁nihil":1842,"itis":1843,"quid":1844,"▁tibi":1845,"▁ass":1846,"▁his":1847,"▁num":1848,"ret":1849,"atem":1850,"ebat":1851,"▁cod":1852,"▁ign":1853,"tur":1854,"▁quasi":1855,"unt.\r\n":1856,"uius":1857,"▁sancti":1858,"▁pag":1859,"▁quos":1860,"tu":1861,"ulus":1862,"▁externi":1863,"▁Ma":1864,"rad":1865,"▁Is":1866,"hib":1867,"ev":1868,"▁dum":1869,"ublic":1870,"tr":1871,"entem":1872,"▁mihi":1873,"▁carn":1874,"oribus":1875,"▁Nam":1876,"▁imm":1877,"▁neque":1878,"▁12":1879,"▁mul":1880,"erit,":1881,"▁eis":1882,"▁saec":1883,"yr":1884,"amus":1885,"▁prov":1886,"▁mat":1887,"▁aet":1888,"rav":1889,"▁judic":1890,"iti":1891,"▁ig":1892,"isti":1893,"es.\r\n":1894,"isp":1895,"▁Sic":1896,"ellig":1897,"▁regn":1898,"19":1899,"▁sua":1900,"▁Domini":1901,"▁17":1902,"▁auctor":1903,"▁abb":1904,"▁quant":1905,"▁2001":1906,"fer":1907,"▁coel":1908,"▁mod":1909,"tibus":1910,"▁med":1911,"ani":1912,"▁inst":1913,"ens,":1914,"▁etc":1915,"▁Pa":1916,"▁alter":1917,"▁suis":1918,"uit,":1919,"▁erat":1920,"am.\r\n":1921,"▁Qui":1922,"pe":1923,"▁Fili":1924,"ere.\r\n":1925,"▁natur":1926,"▁hom":1927,"▁neg":1928,"▁fuit":1929,"ulae":1930,"▁habent":1931,"▁201":1932,"▁faci":1933,"▁sive":1934,"ial":1935,"itati":1936,"ice":1937,"▁ecclesia":1938,"tit":1939,"ato":1940,"asc":1941,"▁15":1942,"ale":1943,"▁dil":1944,"tut":1945,"▁not":1946,"iam,":1947,"▁ille":1948,"▁eam":1949,"▁praedic":1950,"odi":1951,"ua":1952,"▁proc":1953,"▁Sep":1954,"▁del":1955,"▁liber":1956,"si":1957,"▁urb":1958,"▁vos":1959,"het":1960,"enter":1961,"▁igitur":1962,"mon":1963,"▁und":1964,"icus":1965,"ath":1966,"tionis":1967,"▁em":1968,"ide":1969,"▁intellig":1970,"▁quæ":1971,"▁Spir":1972,"▁Cor":1973,"▁illa":1974,"act":1975,"sum":1976,"▁16":1977,"itur.\r\n":1978,"pli":1979,"▁uti":1980,"▁ed":1981,"▁Cl":1982,"ffic":1983,"osit":1984,"ora":1985,"▁Cum":1986,"olog":1987,"▁prom":1988,"▁Nov":1989,"▁nostr":1990,"▁Ph":1991,"itut":1992,"istor":1993,"▁Car":1994,"▁pra":1995,"tific":1996,"▁Lat":1997,"▁col":1998,"▁terr":1999,"are,":2000,"▁14":2001,"▁ego":2002,"ong":2003,"NSE":2004,"omen":2005,"▁susc":2006,"▁III":2007,".1":2008,"▁laud":2009,"▁salut":2010,"▁vobis":2011,"▁semper":2012,"▁no":2013,"ron":2014,"ct":2015,"erd":2016,"▁|":2017,"▁præ":2018,"emus":2019,"endo":2020,"▁ost":2021,"libus":2022,"▁magis":2023,"ebr":2024,"▁ir":2025,"▁suo":2026,"ber":2027,"▁fam":2028,"▁St":2029,"uti":2030,"▁cui":2031,"ier":2032,"▁bene":2033,"▁illud":2034,"▁can":2035,"em.\r\n":2036,"▁S.":2037,"▁Br":2038,"▁epist":2039,"pect":2040,"▁13":2041,"▁INSE":2042,"▁quoniam":2043,"▁INSEE":2044,"enta":2045,"yn":2046,"inum":2047,"▁modo":2048,"▁hujus":2049,"▁put":2050,"▁litter":2051,"▁coll":2052,"pl":2053,"▁duc":2054,"▁quando":2055,"ich":2056,"▁Ab":2057,"if":2058,"..\r\n":2059,"▁abs":2060,"▁ipsa":2061,"▁lab":2062,"▁ev":2063,"▁scil":2064,"▁Reg":2065,"▁cujus":2066,"empl":2067,"▁public":2068,"endi":2069,"ane":2070,"sequ":2071,"▁stip":2072,"etur.\r\n":2073,"▁virtut":2074,"▁cae":2075,"▁geograph":2076,"ure":2077,"estim":2078,"equ":2079,"III":2080,"▁loqu":2081,"▁Jes":2082,"▁pac":2083,"ered":2084,"▁inven":2085,"inam":2086,"▁sequ":2087,"▁Quid":2088,"era":2089,"ori":2090,"▁hanc":2091,"ilig":2092,"▁II":2093,"▁mil":2094,"▁tantum":2095,"▁At":2096,"edia":2097,"▁Jud":2098,"▁ang":2099,"▁sent":2100,"▁volunt":2101,"▁test":2102,"sus":2103,"▁omni":2104,"▁Th":2105,"▁tim":2106,"ue":2107,"▁nomine":2108,"utur":2109,"▁ipsum":2110,"erunt,":2111,"tiv":2112,"eni":2113,"alem":2114,"▁mand":2115,"ana":2116,"ulg":2117,"▁2002":2118,"uv":2119,"ipi":2120,"▁Deum":2121,"▁terra":2122,"▁nam":2123,"▁monast":2124,"oth":2125,"▁mortu":2126,"▁pet":2127,"▁nostra":2128,"enus":2129,"ne":2130,"ianus":2131,"aris":2132,"onis":2133,"▁spec":2134,"▁hac":2135,"no":2136,"ensi":2137,"ia.\r\n":2138,"er,":2139,"▁poen":2140,"▁appell":2141,"▁the":2142,"▁incol":2143,"▁ret":2144,"tam":2145,"▁on":2146,"ico":2147,"▁perm":2148,"▁tempore":2149,"▁Ital":2150,"inde":2151,"liqu":2152,"▁vis":2153,"▁municip":2154,"▁arch":2155,"ith":2156,"IS":2157,"▁obs":2158,"icis":2159,"▁pertin":2160,"▁form":2161,"aliter":2162,"▁advers":2163,"entium":2164,"▁ext":2165,"▁nostri":2166,"iant":2167,"ebus":2168,"▁dilig":2169,"▁trib":2170,"stant":2171,"inqu":2172,"▁offic":2173,"▁char":2174,"▁sap":2175,"▁w":2176,"▁plur":2177,"▁dicitur":2178,"▁solum":2179,"▁tunc":2180,"eret,":2181,"▁scilicet":2182,"▁mens":2183,"▁Mat":2184,"antur,":2185,"enn":2186,"iae,":2187,"adem":2188,"▁aliis":2189,"▁Er":2190,"▁plura":2191,"antes":2192,"one":2193,"▁exs":2194,"rag":2195,"▁glor":2196,"pet":2197,"▁succ":2198,"▁sui":2199,"▁val":2200,"XX":2201,"▁prob":2202,"min":2203,"enda":2204,"▁ben":2205,"▁respon":2206,"arii":2207,"▁necess":2208,"▁Ver":2209,"▁Mon":2210,"ilis":2211,"▁adh":2212,"▁prof":2213,"angu":2214,"▁Il":2215,"oci":2216,"▁ius":2217,"ales":2218,"▁suam":2219,"aria":2220,"▁luc":2221,"▁Ev":2222,"fr":2223,"▁accep":2224,"▁supra":2225,"▁Tr":2226,"incia":2227,"▁intern":2228,"▁cast":2229,"20":2230,"▁rel":2231,"ationes":2232,"idem":2233,"ito":2234,"▁Unde":2235,"▁person":2236,"▁aetern":2237,"▁ideo":2238,"▁1999":2239,"▁loco":2240,"ile":2241,"ium,":2242,"▁;\r\n":2243,"▁univers":2244,"int,":2245,"rah":2246,"▁sacerd":2247,"ity":2248,"▁Hoc":2249,"▁nomen":2250,"▁ini":2251,"▁ibi":2252,"▁sing":2253,"▁suum":2254,"ister":2255,"sa":2256,"▁habet":2257,"▁conv":2258,"▁illum":2259,"▁idem":2260,"▁Ecclesiae":2261,"▁unum":2262,"▁patr":2263,"▁Domino":2264,"oti":2265,"▁mun":2266,"▁be":2267,"alia":2268,"▁for":2269,"▁Im":2270,"▁Ang":2271,"▁nob":2272,"▁ipsius":2273,"lim":2274,"▁causa":2275,"▁ipsi":2276,"▁corr":2277,"▁pass":2278,"▁aqu":2279,"ent.\r\n":2280,"▁Ne":2281,"ald":2282,"oph":2283,"▁Not":2284,"▁prophet":2285,"▁dicit":2286,"ros":2287,"▁cre":2288,"▁part":2289,"▁stud":2290,"18":2291,"orum.\r\n":2292,"▁ordin":2293,"ung":2294,"aur":2295,"▁illis":2296,"ax":2297,"▁rect":2298,"▁mir":2299,"▁Sal":2300,"▁histor":2301,"▁omnium":2302,"▁Dec":2303,"olit":2304,"▁CA":2305,"ys":2306,"▁ostend":2307,"▁tab":2308,"▁lib.":2309,"▁Io":2310,"eper":2311,"ox":2312,"▁spectant.\r\n":2313,"omodo":2314,"entes,":2315,"▁Sancti":2316,"avit,":2317,"▁inquit,":2318,"▁.\r\n":2319,"▁fer":2320,"▁Vicim":2321,"andum":2322,"▁Vicimedia":2323,"▁seu":2324,"esti":2325,"▁potes":2326,"▁dist":2327,"io,":2328,"▁nex":2329,"▁futur":2330,"esse":2331,"bus,":2332,"tae":2333,"▁τ":2334,"▁Scrip":2335,"▁Le":2336,"▁det":2337,"ola":2338,"or,":2339,"eph":2340,"antur.\r\n":2341,"▁sens":2342,"▁Fl":2343,"▁Psal":2344,"ulc":2345,"▁aliquid":2346,"US":2347,"▁contin":2348,"▁Ac":2349,"▁firm":2350,"ante":2351,"▁Pl":2352,"▁cal":2353,"▁edit":2354,"▁gratia":2355,"ulos":2356,"arium":2357,"▁maxim":2358,"uxta":2359,"▁ipso":2360,"anus":2361,"ma":2362,"ilium":2363,"▁Oct":2364,"▁anti":2365,"▁exerc":2366,"▁Ut":2367,"▁Paginae":2368,"na":2369,"▁vet":2370,"▁suae":2371,"▁alia":2372,"iu":2373,"pic":2374,"ario":2375,"▁dam":2376,"▁monaster":2377,"▁Ecclesia":2378,"▁lat":2379,"▁fin":2380,"▁dub":2381,"plific":2382,"▁miseric":2383,"▁Situs":2384,"▁aur":2385,"annes":2386,"▁poter":2387,"▁que":2388,"10":2389,"▁cap.":2390,"▁stipula":2391,"▁homo":2392,"▁ux":2393,"▁discip":2394,"▁ha":2395,"▁Luc":2396,"▁iudic":2397,"▁vide":2398,"▁sen":2399,"▁plac":2400,"imus.\r\n":2401,"ento":2402,"▁XV":2403,"▁Par":2404,"eres":2405,"▁signific":2406,"▁esset":2407,"yp":2408,"▁disp":2409,"▁gr":2410,"▁Stip":2411,"▁sectione":2412,"▁internorum":2413,"ti,":2414,"▁human":2415,"▁nexuum":2416,"▁long":2417,"▁dol":2418,"dum":2419,"▁Amplific":2420,"▁0":2421,"▁Stipulae":2422,"▁potes!":2423,"▁Amplifica,":2424,"▁perpet":2425,"▁noc":2426,"▁Per":2427,"▁interni":2428,"▁redd":2429,"▁desider":2430,"▁rev":2431,"▁spectat.\r\n":2432,"rev":2433,"▁ej":2434,"isset":2435,"▁memor":2436,"iones":2437,"▁una":2438,"▁pap":2439,"anno":2440,"ingu":2441,"ik":2442,"▁propr":2443,"▁incolarum":2444,"ies":2445,"▁met":2446,"▁Ur":2447,"▁Graec":2448,"emon":2449,"▁),":2450,"s.":2451,"▁Or":2452,"▁Ego":2453,"ur,":2454,"rim":2455,"quis":2456,"æc":2457,"▁rex":2458,"▁canon":2459,"▁gener":2460,"mus":2461,"odem":2462,"mo":2463,"▁unde":2464,"umque":2465,"istr":2466,"uo":2467,"▁adhuc":2468,"▁198":2469,"erunt.\r\n":2470,"▁aff":2471,"▁Petr":2472,"▁sunt.\r\n":2473,"▁Christus":2474,"▁tum":2475,"avit.\r\n":2476,"ons":2477,"ationibus":2478,"atores":2479,"▁Apostol":2480,"▁21":2481,"are.\r\n":2482,"ena":2483,"iab":2484,"ump":2485,"as.\r\n":2486,"▁misericord":2487,"▁hered":2488,"▁justit":2489,"▁22":2490,"▁perc":2491,"▁monach":2492,"ER":2493,"▁dev":2494,"▁exempl":2495,"▁dim":2496,"▁Ita":2497,"icam":2498,"▁tua":2499,"▁IV":2500,"▁cord":2501,"arius":2502,"e:\r\n":2503,"odum":2504,"▁simil":2505,"▁desc":2506,"▁Dei,":2507,"▁praeter":2508,"▁parte":2509,"▁(I":2510,"▁eadem":2511,"▁quin":2512,"aret":2513,"▁quorum":2514,"▁Z":2515,"idata":2516,"ari,":2517,"▁iter":2518,"▁ref":2519,"▁maj":2520,"▁dep":2521,"num":2522,"▁cust":2523,"▁arb":2524,"atis,":2525,"▁gaud":2526,"uit.\r\n":2527,"▁stat":2528,"sit":2529,"untur,":2530,"▁host":2531,"amp":2532,"▁spiritu":2533,"▁simul":2534,"▁fuerit":2535,"▁att":2536,"▁etc.":2537,"ech":2538,"▁'":2539,"▁Om":2540,"▁muli":2541,"▁est:\r\n":2542,"angeli":2543,"oni":2544,"▁trad":2545,"plic":2546,"▁(anno":2547,"▁Loci":2548,"ima":2549,"▁indic":2550,"eti":2551,"▁amb":2552,"▁prec":2553,"▁reliqu":2554,"▁confirm":2555,"▁*":2556,"▁ib":2557,"▁grav":2558,"uet":2559,"▁cruc":2560,"▁reper":2561,"ugn":2562,"▁relig":2563,"ecti":2564,"u,":2565,"ont":2566,"▁accip":2567,"str":2568,"▁itaque":2569,"▁lic":2570,"▁Mag":2571,"▁and":2572,"▁CAP":2573,"▁scrib":2574,"▁rest":2575,"▁add":2576,"vis":2577,"erat,":2578,"episcop":2579,"▁presb":2580,"ond":2581,"▁sangu":2582,"reh":2583,"iat":2584,"▁illo":2585,"amus,":2586,"▁August":2587,"▁habere":2588,"abit":2589,"▁24":2590,"▁filius":2591,"anquam":2592,"imo":2593,"▁off":2594,"umb":2595,"iar":2596,"▁adj":2597,"yl":2598,"▁mut":2599,"▁port":2600,"▁Ep":2601,"▁congr":2602,"▁Christo":2603,"▁as":2604,"och":2605,"itudinem":2606,"▁milit":2607,"▁caeter":2608,"cce":2609,"▁Prov":2610,"ilio":2611,"ffect":2612,"os.\r\n":2613,"ano":2614,"▁unus":2615,"15":2616,"13":2617,"▁conven":2618,"▁sae":2619,"▁sit,":2620,"▁aliud":2621,"endit":2622,"qui":2623,"▁erit":2624,"▁mea":2625,"▁illius":2626,"▁fuisse":2627,"▁vita":2628,"▁cunc":2629,"▁arg":2630,"▁ped":2631,"▁ing":2632,"elicet":2633,"14":2634,"▁Form":2635,"▁sex":2636,"▁rerum":2637,"uss":2638,"▁Municip":2639,"IV":2640,"▁dicens":2641,"▁Judae":2642,"▁subj":2643,"▁Ag":2644,".2":2645,"edi":2646,"an.":2647,"▁aper":2648,"au":2649,"▁dictum":2650,"▁fruc":2651,"▁2003":2652,"▁c.":2653,"ides":2654,"▁bell":2655,"▁bona":2656,"▁Res":2657,"▁eodem":2658,"▁it":2659,"rop":2660,"lius":2661,"entiae":2662,"▁Hier":2663,"▁opp":2664,"ebat,":2665,"16":2666,"▁sapient":2667,"arum,":2668,"▁prius":2669,"17":2670,"▁facta":2671,"▁Quia":2672,"andi":2673,"▁contr":2674,"entur,":2675,"ebant":2676,"anum":2677,"isset,":2678,"▁Germ":2679,"▁cer":2680,"uris":2681,"▁Post":2682,"AN":2683,"▁soli":2684,"idit":2685,"▁quantum":2686,"▁fund":2687,"scrip":2688,"▁bap":2689,"12":2690,"atus,":2691,"TI":2692,"s.\r\n":2693,"▁locum":2694,"arn":2695,"▁x":2696,"ici:\r\n":2697,"▁success":2698,"▁habitati":2699,"▁Lib":2700,"▁nem":2701,"▁VII":2702,"▁licet":2703,"▁satis":2704,"th.":2705,"▁circum":2706,"▁inde":2707,"▁sint":2708,"▁Ian":2709,"▁episcopus":2710,"▁merit":2711,"ialis":2712,"▁ejus,":2713,"▁omnis":2714,"▁Com":2715,"erent":2716,"▁la":2717,"▁prod":2718,"▁197":2719,"▁ista":2720,"5.\r\n":2721,"yst":2722,"▁filii":2723,"estimon":2724,"▁Nati":2725,"▁Inter":2726,"▁with":2727,"▁alii":2728,"▁nun":2729,"▁possess":2730,"▁dies":2731,"▁communium":2732,"▁miss":2733,"▁fieri":2734,"▁huius":2735,"▁cens":2736,"▁adm":2737,"▁verba":2738,"▁nim":2739,"▁alt":2740,"egr":2741,"▁Urb":2742,"▁fug":2743,"▁terram":2744,"▁Christian":2745,"itio":2746,"oed":2747,"▁hunc":2748,"▁homines":2749,"▁vener":2750,"▁sermon":2751,"▁corpus":2752,"▁pal":2753,"▁quomodo":2754,"▁infirm":2755,"erus":2756,"▁angel":2757,"▁ait":2758,"▁fratr":2759,"atorum":2760,"▁praecep":2761,"isse,":2762,"▁Omn":2763,"▁uel":2764,"▁Spiritus":2765,"▁av":2766,"▁beat":2767,"▁divers":2768,"▁ph":2769,"▁Ind":2770,"libet":2771,"ton":2772,"▁Dav":2773,"▁cognosc":2774,"▁praest":2775,"▁salv":2776,"▁geographici":2777,"▁Notae":2778,"atum,":2779,"erem":2780,"▁consul":2781,"lin":2782,"▁historici:\r\n":2783,"▁regione":2784,"▁pauper":2785,"▁forte":2786,"ula:\r\n":2787,"▁Vide":2788,"▁ul":2789,"unque":2790,"UM":2791,"▁Wik":2792,"▁mer":2793,"▁pati":2794,"▁asc":2795,"ae.\r\n":2796,"▁Id":2797,"▁iniqu":2798,"it;\r\n":2799,"▁quat":2800,"▁iam":2801,"▁Geograph":2802,"elic":2803,"ata,":2804,"▁k":2805,"▁communis":2806,"▁testimon":2807,"yter":2808,"▁vig":2809,"▁Nec":2810,"▁cul":2811,"asse":2812,"▁fidel":2813,"▁Pages":2814,"ality":2815,"▁Wikidata":2816,"itatem,":2817,"itas,":2818,"6.\r\n":2819,"▁using":2820,"▁23":2821,"7.\r\n":2822,"▁plen":2823,"itia":2824,"▁fidem":2825,"antibus":2826,"▁Sa":2827,"▁Cap":2828,"▁Col":2829,"▁priv":2830,"▁nostro":2831,"iepiscop":2832,"▁cuius":2833,"▁Vir":2834,"▁quip":2835,"▁rei":2836,"▁pontific":2837,"▁diff":2838,"▁cogit":2839,"▁imperator":2840,"▁2004":2841,"▁Sign":2842,"▁Dominum":2843,"▁mss":2844,"▁inim":2845,"▁soc":2846,"▁antiqu":2847,"▁virg":2848,"▁nostris":2849,"▁hominum":2850,"ind":2851,"▁manif":2852,"▁quad":2853,"▁damn":2854,"▁humil":2855,"▁benedic":2856,"▁Formula:\r\n":2857,"▁tanquam":2858,"▁dux":2859,"▁code":2860,"▁municipality":2861,"▁intell":2862,"▁rebus":2863,"▁factum":2864,"▁Mo":2865,"bris":2866,"▁to":2867,"ustr":2868,"iacon":2869,"▁vitae":2870,"▁dir":2871,"▁IS":2872,"▁pul":2873,"▁Christum":2874,"rog":2875,"▁videlicet":2876,"▁mortuus":2877,"iorum":2878,"abili":2879,"atam":2880,"▁propri":2881,"▁convers":2882,"▁prot":2883,"▁err":2884,"▁Theod":2885,"ati,":2886,"▁Apr":2887,"▁den":2888,"▁juxta":2889,"lis":2890,"▁tit":2891,"arg":2892,"▁+":2893,"▁29":2894,"▁rog":2895,"inta":2896,"RI":2897,"▁consc":2898,"averunt":2899,"▁Gu":2900,"▁postea":2901,"▁Marc":2902,"▁praecip":2903,"▁minus":2904,"elli":2905,"▁inn":2906,"▁Prop":2907,"▁Univers":2908,"▁eff":2909,"8.\r\n":2910,"iano":2911,"ania":2912,"issime":2913,"0.\r\n":2914,"▁vul":2915,"▁Evangeli":2916,"fac":2917,"▁Alex":2918,"uerunt":2919,"orr":2920,"▁constitu":2921,"▁I,":2922,"▁Mort":2923,"BN":2924,"br":2925,"▁miser":2926,"prob":2927,"ibli":2928,"aut":2929,"▁Latin":2930,"itudo":2931,"modi":2932,"org":2933,"ore,":2934,"tium":2935,"anda":2936,"itudine":2937,"▁libro":2938,"▁fidei":2939,"ectionem":2940,"▁lac":2941,"▁natus":2942,"▁perven":2943,"▁circa":2944,"▁eg":2945,"par":2946,"▁ISBN":2947,"ulam":2948,"▁nol":2949,"▁cert":2950,"▁nostrum":2951,"▁Psal.":2952,"▁S.\r\n":2953,"1.\r\n":2954,"abat":2955,"▁Italiae":2956,"oss":2957,"▁perd":2958,"▁divin":2959,"nus":2960,"▁manifest":2961,"▁vitam":2962,"▁Hic":2963,"ular":2964,"▁Val":2965,"▁Mss":2966,"▁od":2967,".3":2968,"▁habe":2969,"s,":2970,"▁II,":2971,"uerit":2972,"▁David":2973,"▁capit":2974,"▁cond":2975,"rael":2976,"obus":2977,"▁nulla":2978,"▁aequ":2979,"▁conj":2980,"ias,":2981,"▁archiepiscop":2982,"▁cath":2983,"ari.\r\n":2984,"▁diab":2985,"▁verum":2986,"ime":2987,"▁praef":2988,"uis":2989,"abilis":2990,"ius,":2991,"▁tempus":2992,"▁manu":2993,"▁quaes":2994,"▁opus":2995,"▁posse":2996,"▁lap":2997,"▁Y":2998,"pret":2999,"▁vi":3000,"▁primum":3001,"▁oport":3002,"▁facere":3003,"ruc":3004,"▁quippe":3005,"▁concess":3006,"la":3007,"▁th":3008,"▁fur":3009,"red":3010,"▁Ed":3011,"▁25":3012,"eh":3013,"quir":3014,"▁Inc":3015,"▁sus":3016,"▁is":3017,"▁aed":3018,"ativ":3019,"▁observ":3020,"▁sust":3021,"▁Dic":3022,"ON":3023,"▁diss":3024,"itate,":3025,"▁sacerdot":3026,"9.\r\n":3027,"▁tem":3028,"ona":3029,"▁ecclesiam":3030,"▁lae":3031,"▁habit":3032,"▁1998":3033,"▁cup":3034,"let":3035,"▁Ven":3036,"atae":3037,"▁Re":3038,"▁pen":3039,"▁Ben":3040,"ensis,":3041,"▁fratres":3042,"utus":3043,"i:\r\n":3044,"▁scriptum":3045,"▁nesc":3046,"▁Imper":3047,"4.\r\n":3048,"▁libert":3049,"▁Israel":3050,"]\r\n":3051,"▁vestra":3052,"▁Leg":3053,"▁pros":3054,"▁mart":3055,"▁multa":3056,"▁quidam":3057,"▁Indic":3058,"untur.\r\n":3059,"ection":3060,"▁anima":3061,"▁Pro":3062,"▁custod":3063,"ectus":3064,"▁potius":3065,"uic":3066,"▁Bar":3067,"▁Greg":3068,"▁praed":3069,"ce":3070,"▁manus":3071,"▁presbyter":3072,"▁Ip":3073,"▁vinc":3074,"▁occid":3075,"▁\t":3076,"▁dixit":3077,"ionibus":3078,"▁fal":3079,"▁nostrae":3080,"ectione":3081,"▁æ":3082,"▁alien":3083,"▁Petri":3084,"▁resurr":3085,"▁Alexand":3086,"edit":3087,"▁clam":3088,"torum":3089,"▁26":3090,"▁duo":3091,"▁auctoritate":3092,"tus,":3093,"olv":3094,"▁caput":3095,"▁Super":3096,"▁hominem":3097,"itatum":3098,"3.\r\n":3099,"▁mol":3100,"▁vin":3101,"2.\r\n":3102,"onem":3103,"▁cant":3104,"▁XXX":3105,"▁28":3106,"gress":3107,"▁gloria":3108,"▁1.\r\n":3109,"ella":3110,"▁ejusdem":3111,"ans,":3112,"▁°":3113,"az":3114,"icorum":3115,"▁regis":3116,"▁perf":3117,"▁factus":3118,"▁poenit":3119,"▁adv":3120,"▁primo":3121,"▁Domine,":3122,"▁esse,":3123,"▁XII":3124,"ta,":3125,"aver":3126,"anis":3127,"entur.\r\n":3128,"non":3129,"▁arbit":3130,"▁(19":3131,"▁ecclesie":3132,"▁quaer":3133,"▁2005":3134,"▁epistol":3135,"pp":3136,"▁fecit":3137,"▁Signum":3138,"▁omnino":3139,"30":3140,"endam":3141,"▁suscep":3142,"▁peric":3143,"▁27":3144,"iani":3145,"▁Quae":3146,"▁videtur":3147,"emus,":3148,"▁&":3149,"▁scient":3150,"▁respond":3151,"▁exhib":3152,"press":3153,"▁summ":3154,"▁Pater":3155,"▁syn":3156,"que,":3157,"modum":3158,"▁corporis":3159,"ur.\r\n":3160,"▁?":3161,"▁all":3162,"▁sil":3163,"▁Prae":3164,"io.\r\n":3165,"▁uno":3166,"▁pauc":3167,"▁mans":3168,"▁dest":3169,"illa":3170,"ardus":3171,"TO":3172,"▁vult":3173,"▁appar":3174,"▁me,":3175,"▁Bo":3176,"æ,":3177,"ium.\r\n":3178,"eretur":3179,"▁El":3180,"▁mortem":3181,"upt":3182,"▁gratiam":3183,"▁predic":3184,"▁au":3185,"▁debet":3186,"▁Hen":3187,"▁Deus,":3188,"▁pars":3189,"▁prior":3190,"▁cleric":3191,"ioris":3192,"▁coram":3193,"▁verbis":3194,"uetud":3195,"▁Ast":3196,"▁tabula":3197,"▁opera":3198,"arr":3199,"▁omnem":3200,"▁corpore":3201,"78":3202,"uisse":3203,"▁vers":3204,"▁dem":3205,"▁possid":3206,"▁psal":3207,"err":3208,"▁exst":3209,"▁ait:\r\n":3210,"hol":3211,"▁ignor":3212,"emn":3213,"▁crim":3214,"60":3215,"ileg":3216,"▁ipsis":3217,"▁)\r\n":3218,"▁dis":3219,"▁illam":3220,"olus":3221,"▁30":3222,"▁honor":3223,"▁plus":3224,"▁κ":3225,"▁parv":3226,"▁adversus":3227,"▁confess":3228,"eret.\r\n":3229,"▁Verb":3230,"▁benefic":3231,"▁sin":3232,"ulli":3233,"50":3234,"▁ecclesiast":3235,"▁sacram":3236,"▁geographiam":3237,"▁Geographicae":3238,"40":3239,"ecim":3240,"UT":3241,"▁cet":3242,"▁partem":3243,"▁lum":3244,"▁labor":3245,"▁turb":3246,"▁regnum":3247,"eps":3248,"▁Ins":3249,"▁Dig":3250,"▁Matth.":3251,"▁ull":3252,"art":3253,"idi":3254,"▁proxim":3255,"▁doctr":3256,"▁VI":3257,"▁san":3258,"entibus,":3259,"▁ecclesiae":3260,"▁iterum":3261,"▁sper":3262,"▁puer":3263,"▁Francicum":3264,"▁agn":3265,"lo":3266,"▁Provincia":3267,"▁Mortui":3268,"lud":3269,"▁interpret":3270,"ereb":3271,"▁hos":3272,"▁cas":3273,"▁tent":3274,"▁diem":3275,"lum":3276,"▁Anno":3277,"▁German":3278,"▁erat,":3279,"▁hominis":3280,"▁totum":3281,"a)":3282,"LI":3283,"istoria":3284,"lam":3285,"▁(A":3286,"▁2.\r\n":3287,"▁noster":3288,"itatis,":3289,"▁En":3290,"▁tra":3291,"▁mater":3292,"▁perfect":3293,"▁sollic":3294,"▁Caes":3295,"▁suos":3296,"▁erant":3297,"▁Mart":3298,"▁hominibus":3299,"issa":3300,"▁Bibli":3301,"ilos":3302,"uram":3303,"idum":3304,"entus":3305,"▁annis":3306,"▁annum":3307,"▁diu":3308,"▁Coll":3309,"▁possit":3310,"▁provincia":3311,"▁li":3312,"uarii":3313,"▁piet":3314,"itates":3315,"tiones":3316,"▁mundi":3317,"▁cop":3318,"▁pater":3319,"ara":3320,"▁Paulus":3321,"▁Sim":3322,"▁sancto":3323,"andem":3324,"at:\r\n":3325,"VII":3326,"▁π":3327,"▁sanctus":3328,"▁multis":3329,"▁lig":3330,"bid":3331,"uta":3332,"eth":3333,"entius":3334,"▁lingu":3335,"▁Co":3336,"▁obl":3337,"▁equ":3338,"▁maxime":3339,"▁Sch":3340,"rep":3341,"amus.\r\n":3342,"▁Cod":3343,"ei":3344,"ecund":3345,"PIS":3346,"icos":3347,"▁bonum":3348,"itus,":3349,"tum,":3350,"atos":3351,"▁decim":3352,"22":3353,"▁Gen":3354,"▁meum":3355,"▁utrum":3356,"ipot":3357,"▁ant":3358,"a:\r\n":3359,"▁Hisp":3360,"▁utique":3361,"▁aux":3362,"▁Gal":3363,"issimum":3364,"▁mill":3365,"▁tuae":3366,"▁infra":3367,"▁Joann":3368,"▁gest":3369,"en,":3370,"▁Vat":3371,"▁Petrus":3372,"▁terrae":3373,"▁Civ":3374,"EN":3375,"▁fest":3376,"▁nequ":3377,"▁beati":3378,"▁Constant":3379,"LA":3380,"▁tuam":3381,"▁quatu":3382,"!\r\n":3383,"▁tuum":3384,"▁orb":3385,"atio,":3386,"▁Ge":3387,"▁Ecce":3388,"ins":3389,"d.":3390,"iarum":3391,"ilosoph":3392,"iog":3393,"▁Cons":3394,"▁Tur":3395,"issima":3396,"avi":3397,"lev":3398,"▁dicens:\r\n":3399,"▁And":3400,"e-":3401,"▁vob":3402,"▁Gall":3403,"▁Filius":3404,"▁sanctorum":3405,"▁constitut":3406,"▁corde":3407,"▁Eb":3408,"▁brev":3409,"▁Dig.":3410,"▁verbum":3411,"▁deinde":3412,"ectio":3413,"udici":3414,"▁tres":3415,"▁praem":3416,"▁videb":3417,"▁Quam":3418,"▁sanctae":3419,"ientes":3420,"▁pagina":3421,"▁cathol":3422,"erb":3423,"▁spiritus":3424,"alibus":3425,"▁intr":3426,"▁rever":3427,"▁saeculo":3428,"▁vestr":3429,"tig":3430,"ej":3431,"▁domini":3432,"onym":3433,"▁minister":3434,"oque":3435,"▁mei":3436,"anae":3437,"iam.\r\n":3438,"33":3439,"itor":3440,"int-":3441,"▁pert":3442,"▁(P":3443,"▁alio":3444,"▁audi":3445,"▁Cor.":3446,"▁tempor":3447,"alium":3448,"▁dedit":3449,"urp":3450,"umus":3451,"uerit,":3452,"ii,":3453,"▁dex":3454,"▁Jac":3455,"orn":3456,"▁statu":3457,"▁est;\r\n":3458,"▁consec":3459,"▁fig":3460,"▁Gregor":3461,".n":3462,"ru":3463,"ingua":3464,"antem":3465,"issimo":3466,"▁postul":3467,"prim":3468,"othec":3469,"▁nonn":3470,"▁Joan.":3471,"25":3472,"▁a.":3473,"enc":3474,"▁nullus":3475,"ulit":3476,"▁sacri":3477,"▁dilect":3478,"▁ampli":3479,"▁III,":3480,"▁aug":3481,"tores":3482,"▁Patr":3483,"▁Edit":3484,"▁Est":3485,"▁condit":3486,"▁lev":3487,"quidem":3488,"▁nostram":3489,"is:\r\n":3490,"▁La":3491,"▁imag":3492,"▁le":3493,"▁Jesu":3494,"▁erg":3495,".4":3496,"issimi":3497,"▁Salv":3498,"▁arm":3499,"▁aedific":3500,"ationem,":3501,"ecc":3502,"▁CAPUT":3503,"ariis":3504,"iem":3505,"▁Cal":3506,"amm":3507,"▁illos":3508,"lus":3509,"▁Indicem":3510,"▁lege":3511,"▁magna":3512,"▁Quis":3513,"▁alios":3514,"antes,":3515,"▁aliqua":3516,"▁nemo":3517,"▁196":3518,"atione,":3519,"▁vestrae":3520,"▁fuerit,":3521,"▁tac":3522,"▁effic":3523,"iograph":3524,"▁rap":3525,"eces":3526,"▁populi":3527,"▁suffic":3528,"erent,":3529,"ebat.\r\n":3530,"▁3.\r\n":3531,"odie":3532,"▁prohib":3533,"▁dicitur,":3534,"▁util":3535,"▁(n":3536,"ou":3537,"▁legit":3538,"i-":3539,"▁prima":3540,"itatibus":3541,"t.":3542,"▁merc":3543,"itam":3544,"▁Vid":3545,"▁celebr":3546,"▁iste":3547,"▁annos":3548,"enique":3549,"▁myst":3550,"ecta":3551,"▁substant":3552,"▁regni":3553,"▁Ioannes":3554,"entia,":3555,"▁animam":3556,"▁der":3557,"▁Di":3558,"▁por":3559,"pir":3560,"▁culp":3561,"ef":3562,"70":3563,"▁quar":3564,"▁libr":3565,"▁eas":3566,"antia":3567,"▁ἐ":3568,"▁tract":3569,"▁Aeg":3570,"ibil":3571,"requ":3572,"▁coep":3573,"▁autem,":3574,"▁Rh":3575,"▁frater":3576,"▁filium":3577,"▁omne":3578,"iri":3579,"▁Cur":3580,"ines":3581,"▁κα":3582,"▁superb":3583,"iunt":3584,"23":3585,"▁congreg":3586,"enim":3587,"▁arc":3588,"▁EPIS":3589,"iens,":3590,"▁n.":3591,"▁episcopi":3592,"24":3593,"itur:\r\n":3594,"ioeces":3595,"11":3596,"▁]\r\n":3597,"ini,":3598,"▁affect":3599,"▁legem":3600,"rehend":3601,"icem":3602,"ate,":3603,"▁ipsam":3604,"▁comit":3605,"▁quamvis":3606,"us:\r\n":3607,"ulorum":3608,"▁ren":3609,"90":3610,"▁Be":3611,"▁(Ital":3612,"erg":3613,"▁vell":3614,"itione":3615,"en.\r\n":3616,"enae":3617,"▁quatuor":3618,"ente,":3619,"▁Cant":3620,"▁Cast":3621,"▁vindic":3622,"istis":3623,"ricus":3624,"ota":3625,"angel":3626,"▁solv":3627,"28":3628,"▁fere":3629,"▁consuetud":3630,"▁.":3631,"▁magist":3632,"▁te,":3633,"▁recte":3634,"▁(C":3635,"▁Ul":3636,"▁quoti":3637,"▁sor":3638,"▁ult":3639,"▁q":3640,"aret,":3641,"AR":3642,"▁integ":3643,"▁sententiam":3644,"endum,":3645,"26":3646,"ire,":3647,"ensem":3648,"ectionis":3649,"▁tota":3650,"mi":3651,"▁Alb":3652,"on,":3653,"▁nav":3654,"▁Item":3655,"▁manum":3656,"▁dicere":3657,"▁divina":3658,"ha":3659,"▁mss.":3660,"endis":3661,"▁anni":3662,"ates":3663,"▁compar":3664,"▁commend":3665,"▁salutem":3666,"issimus":3667,"▁Phili":3668,"onia":3669,"ubern":3670,"▁plurim":3671,"▁Cam":3672,"▁LXX":3673,"▁recip":3674,"o-":3675,"▁Man":3676,"inceps":3677,"atim":3678,"▁consider":3679,"▁scripta":3680,"sis":3681,"▁recep":3682,"▁dicit:\r\n":3683,"▁Franciae":3684,"▁sanctum":3685,"▁diebus":3686,"▁namque":3687,"su":3688,"▁grad":3689,"▁da":3690,"▁Anti":3691,"▁interret":3692,"om.":3693,"▁conced":3694,"IX":3695,"pos":3696,"▁prud":3697,"▁ratione":3698,"▁domus":3699,"▁Aqu":3700,"▁AD":3701,"▁vix":3702,"ense":3703,"▁consens":3704,"▁clar":3705,"▁exig":3706,"54":3707,"▁194":3708,"▁quidquid":3709,"tos":3710,"▁debe":3711,"abo":3712,"▁past":3713,"land":3714,"olae":3715,"▁Ali":3716,"▁solid":3717,"▁corpor":3718,"▁Sicut":3719,"▁mox":3720,"▁provinc":3721,"oseph":3722,"▁eum,":3723,"eri,":3724,"ographia":3725,"ianum":3726,"y,":3727,"▁carnis":3728,"▁illic":3729,"ivit":3730,"▁suscip":3731,"▁causam":3732,"AL":3733,"▁Tunc":3734,"▁Augus":3735,"lar":3736,"▁Rob":3737,"▁venit":3738,"etr":3739,"▁tui":3740,"ve":3741,"▁Foed":3742,"80":3743,"▁partic":3744,"▁unam":3745,"▁tuo":3746,"▁omnipot":3747,"▁filio":3748,"▁cess":3749,"▁ct":3750,"eribus":3751,"olo":3752,"▁Isa":3753,"▁finem":3754,"asch":3755,"▁admin":3756,"▁tran":3757,"abiliter":3758,"▁baptis":3759,"▁fuit,":3760,"pici":3761,"▁card":3762,"ecess":3763,"▁Benedic":3764,"▁arbitr":3765,"▁sig":3766,"▁ut,":3767,"▁iure":3768,"▁intra":3769,"▁velut":3770,"▁natura":3771,"▁abst":3772,"▁sententia":3773,"▁vac":3774,"itionem":3775,"eris,":3776,"unti":3777,"▁ET":3778,"▁frequ":3779,"nis":3780,"▁+1":3781,"29":3782,"▁domn":3783,"-s":3784,"-B":3785,"nam":3786,"▁aliquando":3787,"oniae":3788,"▁occas":3789,"etis":3790,"▁temporis":3791,"olis":3792,"▁Brit":3793,"▁Steph":3794,"▁Latinitas":3795,"▁Astero":3796,"▁subd":3797,"▁Municipia":3798,"▁4.\r\n":3799,"▁larg":3800,"▁tut":3801,"ostoli":3802,"ES":3803,"▁profect":3804,"▁bonis":3805,"▁p.":3806,"▁quic":3807,"▁(Italian":3808,"erint":3809,"▁quatenus":3810,"ebit":3811,"▁Angl":3812,"▁statim":3813,".5":3814,"yc":3815,"▁loci":3816,"III.\r\n":3817,"▁familia":3818,"▁Nic":3819,"abor":3820,"lium":3821,"retiv":3822,"▁necesse":3823,"tiz":3824,"▁fem":3825,"▁restitu":3826,"ebant,":3827,"▁Georg":3828,"▁indign":3829,"▁iis":3830,"▁inj":3831,"▁glad":3832,"▁supplic":3833,"▁meo":3834,"▁potest,":3835,"▁Heb":3836,"▁dicit,":3837,"▁refer":3838,"▁huic":3839,"ine,":3840,"eretur,":3841,"ers.":3842,"enses":3843,"▁fratribus":3844,"▁Aud":3845,"▁olim":3846,"▁saepe":3847,"atoris":3848,"▁legis":3849,"al.":3850,"▁Amb":3851,"▁Index":3852,"27":3853,"itatus":3854,"▁accus":3855,"▁ca":3856,"▁viri":3857,"▁pleb":3858,"▁CC":3859,"▁consequ":3860,"▁litteras":3861,"▁mitt":3862,"▁domum":3863,"▁medic":3864,"elmus":3865,"ors":3866,"▁esset,":3867,"ogn":3868,"▁testam":3869,"▁fil":3870,"▁gloriam":3871,"▁2006":3872,"uam":3873,"▁coelest":3874,"rix":3875,"▁episcopo":3876,"▁Ide":3877,"▁fideli":3878,"▁facit":3879,"▁om":3880,"▁subscrip":3881,"▁meli":3882,"▁Asteroides":3883,"▁suorum":3884,"▁Fac":3885,"▁suas":3886,"▁regem":3887,"▁filiis":3888,"embris":3889,"▁absque":3890,"▁dulc":3891,"onc":3892,"▁Sab":3893,"ebatur":3894,"▁meam":3895,"▁retin":3896,"▁domino":3897,"▁Num":3898,"▁excep":3899,"▁septem":3900,"I.\r\n":3901,"tic":3902,"isti,":3903,"iana":3904,"▁preti":3905,"▁nasc":3906,"ites":3907,"▁paginam":3908,"at;\r\n":3909,"acul":3910,"ete":3911,"▁quaedam":3912,"▁Ergo":3913,"▁demon":3914,"erius":3915,"▁filios":3916,"istim":3917,"▁ov":3918,"▁As":3919,"▁gem":3920,"▁Sam":3921,"▁impl":3922,"▁dominus":3923,"▁optim":3924,"▁meus":3925,"▁donec":3926,"▁Pra":3927,"▁obed":3928,"▁(M":3929,"▁male":3930,"rac":3931,"▁ascend":3932,"▁Hug":3933,"emor":3934,"▁saeculi":3935,"uri":3936,"▁pecun":3937,"▁mov":3938,"▁urbem":3939,"▁fit":3940,"ον":3941,"53":3942,"▁quinque":3943,"olum":3944,"▁unius":3945,"▁Bon":3946,"▁Jesus":3947,"▁Pal":3948,"▁nullo":3949,"▁Soc":3950,"▁Hieronym":3951,"abitur":3952,"▁descend":3953,"▁peccata":3954,"ida":3955,"▁<":3956,"▁populo":3957,"▁Lud":3958,"▁delect":3959,"▁Her":3960,"tura":3961,"▁patris":3962,"antium":3963,"▁dicta":3964,"▁genus":3965,"ilii":3966,"▁tribus":3967,"▁haeret":3968,"uch":3969,"▁rur":3970,"▁XL":3971,"▁Mich":3972,"▁Bern":3973,"▁Philipp":3974,"▁sustin":3975,"aed":3976,"▁absc":3977,"antis":3978,"to,":3979,"▁Rem":3980,"▁Su":3981,"▁rob":3982,"▁persec":3983,"▁Feb":3984,"▁IX":3985,"▁Verum":3986,"admodum":3987,"▁via":3988,"itiam":3989,"▁elect":3990,"▁Ibid":3991,"▁jub":3992,"▁vere":3993,"▁episcopus,":3994,"▁exspect":3995,"▁Christi,":3996,"▁praeb":3997,"▁Will":3998,"ok":3999,"▁cad":4000,"▁Hinc":4001,"▁compl":4002,"berg":4003,"AS":4004,"▁Sequ":4005,"▁Ecclesiam":4006,"▁pugn":4007,"tii":4008,"▁tanta":4009,"▁tert":4010,"▁tex":4011,"eros":4012,"▁partes":4013,"▁tanto":4014,"▁Abrah":4015,"▁nunquam":4016,"▁sacrific":4017,"▁hodie":4018,"▁medio":4019,"▁accipi":4020,"e)":4021,"iae.\r\n":4022,"▁Iul":4023,"▁Press":4024,"abant":4025,"▁ore":4026,"▁ejus.\r\n":4027,"▁Patris":4028,"nae":4029,"▁ration":4030,"▁interretialis":4031,"atibus":4032,"▁amplius":4033,"58":4034,"▁sancta":4035,"old":4036,"▁epist.":4037,"▁adul":4038,"▁z":4039,"▁(L":4040,"ain":4041,"ientia":4042,"▁Britann":4043,"▁senti":4044,"utum":4045,"▁et,":4046,"56":4047,"▁promiss":4048,"▁Deo,":4049,"34":4050,"▁alias":4051,"isit":4052,"tav":4053,"▁uir":4054,"ulf":4055,"▁morte":4056,"▁duobus":4057,"▁peccatum":4058,"▁litteris":4059,"ejun":4060,"▁totius":4061,"▁Spiritu":4062,"▁Virg":4063,"▁Sac":4064,"tent":4065,"lu":4066,"▁Conc":4067,"ilius":4068,"▁son":4069,"▁obtin":4070,"▁Ig":4071,"▁multi":4072,"▁popul":4073,"▁eiusdem":4074,"▁Bibliographia":4075,"o:\r\n":4076,"▁fab":4077,"uf":4078,"▁Idem":4079,"stitut":4080,"▁Por":4081,"▁abbas":4082,"▁Pap":4083,"▁Inf":4084,"36":4085,"▁etc.\r\n":4086,"▁Sub":4087,"▁profic":4088,"▁magni":4089,"▁Scriptur":4090,"ione,":4091,"▁negoti":4092,"▁emend":4093,"▁eorum,":4094,"▁sumus":4095,"▁Se":4096,"iantur":4097,"▁marty":4098,"erant":4099,"▁pp":4100,"ulas":4101,"39":4102,"▁Arch":4103,"▁cat":4104,"▁eidem":4105,"▁Eur":4106,"▁tradit":4107,"▁extra":4108,"▁populus":4109,"▁Saint-":4110,"emos":4111,"▁fuit.\r\n":4112,"▁mala":4113,"ionem,":4114,"▁Test":4115,"▁suff":4116,"▁sedis":4117,"our":4118,"andam":4119,"▁a.\r\n":4120,"▁mortis":4121,"itium":4122,"endas":4123,"atorem":4124,"▁Iun":4125,"onte":4126,"▁CO":4127,"38":4128,"▁ed.\r\n":4129,"▁aliter":4130,"ido":4131,"tes":4132,"▁Trin":4133,"▁quanto":4134,"ay":4135,"▁servus":4136,"59":4137,"▁viol":4138,"▁propos":4139,"▁judici":4140,"▁opin":4141,"▁IV,":4142,"▁ves":4143,"▁lex":4144,"▁Op":4145,"▁amic":4146,"▁Quoniam":4147,"▁Apostolus":4148,"eum":4149,"▁Paul":4150,"▁Anton":4151,"▁tuis":4152,"alt":4153,"▁existim":4154,"▁admon":4155,"▁longe":4156,"▁relinqu":4157,"itudinis":4158,"▁Hel":4159,"▁hinc":4160,"▁testimonium":4161,"▁philosoph":4162,"▁orig":4163,"til":4164,"itum,":4165,"▁animae":4166,"▁separ":4167,"▁Ioh":4168,"▁creatur":4169,"▁primus":4170,"▁Aegyp":4171,"ου":4172,"▁decem":4173,"▁(d":4174,"▁dubit":4175,"▁Lig":4176,"200":4177,"▁Vel":4178,"endo,":4179,"entem,":4180,"ra,":4181,"▁rad":4182,"▁He":4183,"▁Gl":4184,"▁potestatem":4185,"▁baptiz":4186,"▁190":4187,"entum,":4188,"▁mentis":4189,"▁servi":4190,"▁Ter":4191,"▁superior":4192,"▁flum":4193,"▁cordis":4194,"▁5.\r\n":4195,"▁uol":4196,"74":4197,"amin":4198,"▁memb":4199,"posit":4200,"▁consum":4201,"arch":4202,"▁coni":4203,"▁Nos":4204,"est,":4205,"▁Rom.":4206,"▁lux":4207,"▁nondum":4208,"▁ait,":4209,"um:\r\n":4210,"▁etsi":4211,"▁potestate":4212,"▁polit":4213,"▁mo":4214,"yth":4215,"▁ἀ":4216,"circ":4217,"▁cult":4218,"AT":4219,"▁cognov":4220,"▁privileg":4221,"ow":4222,"ique":4223,"▁enim,":4224,"▁egr":4225,"itae":4226,"▁Hil":4227,"▁epistola":4228,"▁tribul":4229,"▁institu":4230,"▁Joh":4231,"rius":4232,"▁papa":4233,"ato,":4234,"▁suis,":4235,"▁orient":4236,"▁consilio":4237,"ibus.\r\n":4238,"▁adi":4239,"con":4240,"iis,":4241,"76":4242,"▁hor":4243,"atum.\r\n":4244,"etip":4245,"▁Tu":4246,"▁comes":4247,"▁elig":4248,"▁alius":4249,"averit":4250,"pectu":4251,"▁(b":4252,"▁irr":4253,"▁ibidem":4254,"inop":4255,"▁Jacob":4256,"▁Cathol":4257,"igne":4258,"▁pariter":4259,"▁concup":4260,"▁ol":4261,"▁quibusdam":4262,"▁acced":4263,"arb":4264,"▁Domini,":4265,"▁agnosc":4266,"igen":4267,"\"\r\n":4268,"▁Patre":4269,"▁Ianuarii":4270,"▁exper":4271,"so":4272,"▁minist":4273,"orem,":4274,"▁flag":4275,"▁religios":4276,"▁diacon":4277,"▁interrog":4278,"▁vero,":4279,"ens.\r\n":4280,"▁similiter":4281,"▁scrips":4282,"itatem.\r\n":4283,"arc":4284,"▁Tim":4285,"▁saecul":4286,"ectum":4287,"▁nullum":4288,"irum":4289,"ecum":4290,"itan":4291,"▁illorum":4292,".6":4293,"iæ":4294,"▁apostolica":4295,"enti,":4296,"ioni":4297,"▁ard":4298,"ote":4299,"itis,":4300,"▁Mac":4301,"▁jejun":4302,"▁(Italiane:\r\n":4303,"uen":4304,"▁simplic":4305,"▁Ubi":4306,"▁sola":4307,"▁2012":4308,"▁fuerat":4309,"▁ast":4310,"▁postquam":4311,"IN":4312,"▁monasterium":4313,"CO":4314,"entio":4315,"▁hæc":4316,"▁teneb":4317,"▁minime":4318,"▁revoc":4319,"▁Filium":4320,"▁mense":4321,"▁Epist":4322,"liv":4323,"▁sump":4324,"▁nostrorum":4325,"▁hosp":4326,"▁Secund":4327,"iz":4328,"▁abund":4329,"entis,":4330,"▁maior":4331,"atis.\r\n":4332,"▁eleg":4333,"▁delic":4334,"▁consol":4335,"▁termin":4336,"▁aliquis":4337,"▁aliquo":4338,"osa":4339,"▁pan":4340,"▁Em":4341,"▁persona":4342,"▁Princip":4343,"▁felic":4344,"idit,":4345,"▁Quo":4346,"▁Ger":4347,"79":4348,"cunque":4349,"▁vend":4350,"▁lingua":4351,"55":4352,"▁cib":4353,"▁vocem":4354,"▁sacr":4355,"AE":4356,"...\r\n":4357,"estig":4358,"▁(G":4359,"▁administr":4360,"▁effect":4361,"▁Moys":4362,"emus.\r\n":4363,"▁procur":4364,"▁populum":4365,"▁toto":4366,"▁multo":4367,"▁trium":4368,"Ch":4369,"▁ii":4370,"▁iuris":4371,"ertus":4372,"▁Deum,":4373,"▁virtute":4374,"▁quemadmodum":4375,"▁alic":4376,"▁Neque":4377,"uct":4378,"ina,":4379,"ationum":4380,"▁design":4381,"▁mur":4382,"▁Min":4383,"▁fides":4384,"ommunic":4385,"▁melius":4386,"▁tribu":4387,"▁os":4388,"▁Ob":4389,"▁40":4390,"otus":4391,"▁incarn":4392,"ortun":4393,"▁repr":4394,"▁duos":4395,"▁Cr":4396,"ος":4397,"▁Wal":4398,"▁multip":4399,"▁nobis,":4400,"▁ingen":4401,"inas":4402,"▁ultim":4403,"amur":4404,"▁Americ":4405,"▁ambul":4406,"EM":4407,"▁domo":4408,"▁duod":4409,"▁dei":4410,"alis,":4411,"▁Nunc":4412,"▁animo":4413,"aretur":4414,"or.\r\n":4415,"▁vera":4416,"▁ampl":4417,"▁fra":4418,".n.\r\n":4419,"▁);\r\n":4420,"▁δ":4421,"▁Mer":4422,"▁monasterio":4423,"▁Historia":4424,"▁Mal":4425,"-c":4426,"▁manibus":4427,"abat,":4428,"ael":4429,"▁dur":4430,"▁ministr":4431,"▁etc.,":4432,"▁ecce":4433,"▁hi":4434,"▁possunt":4435,"▁bonorum":4436,"▁occup":4437,"▁defens":4438,"amb":4439,"urn":4440,"IT":4441,"▁Cass":4442,"44":4443,"▁glorios":4444,"anter":4445,"ones":4446,"▁Municipium":4447,"atas":4448,"tas":4449,"▁scel":4450,"▁lit":4451,"otheca":4452,"▁divis":4453,"asil":4454,"▁Luc.":4455,"▁ort":4456,"▁genti":4457,"▁conserv":4458,"▁vine":4459,"isque":4460,"averit,":4461,"▁Ath":4462,"am:\r\n":4463,"▁Iuli":4464,"▁Hispan":4465,"▁Camp":4466,"▁vocab":4467,"uerunt,":4468,"ensi,":4469,"iles":4470,"tra":4471,"anim":4472,"iunt,":4473,"ices":4474,"▁certe":4475,"▁cardin":4476,"▁dixit:\r\n":4477,"▁usus":4478,"▁31":4479,"▁operibus":4480,"▁propria":4481,"▁adhib":4482,"tis,":4483,"exit":4484,"▁solus":4485,"ela":4486,"▁Ol":4487,"bi,":4488,"▁oportet":4489,"▁obt":4490,"ellum":4491,"88":4492,"▁gubern":4493,"ring":4494,"▁erud":4495,"crip":4496,"▁voce":4497,"▁judicium":4498,"▁Ipse":4499,"▁perman":4500,"▁sanctis":4501,"▁clem":4502,"aginta":4503,"▁perse":4504,"ire.\r\n":4505,"prop":4506,"ista":4507,"▁Po":4508,"ribu":4509,"ardi":4510,"▁requir":4511,"▁ultra":4512,"▁locus":4513,"▁nub":4514,"▁libri":4515,"▁ador":4516,"35":4517,"▁fav":4518,"▁temporibus":4519,"▁celeb":4520,"▁nominis":4521,"▁pag.":4522,"στ":4523,"-d":4524,"ah":4525,"▁decret":4526,"ationi":4527,"▁mulier":4528,"▁praev":4529,"▁Cali":4530,"οῦ":4531,"ariae":4532,"▁Ist":4533,"erint,":4534,"▁39":4535,"bertus":4536,"erre":4537,"▁viam":4538,"eat,":4539,"▁excommunic":4540,"▁fuerint":4541,"▁uni":4542,"▁modum":4543,"▁monasterii":4544,"▁concupisc":4545,"▁coron":4546,"▁tandem":4547,"▁profess":4548,"ese":4549,"▁Maxim":4550,"▁facult":4551,"▁pulch":4552,"ustra":4553,"▁carnem":4554,"ata.\r\n":4555,"▁proced":4556,"37":4557,"▁sci":4558,"▁Mor":4559,"is;\r\n":4560,"▁vill":4561,"▁subs":4562,"▁pacem":4563,"▁Thom":4564,"▁bib":4565,"iant,":4566,"▁regno":4567,"▁).":4568,"▁(S":4569,"▁captiv":4570,"▁Hab":4571,"▁compet":4572,"▁toll":4573,"reg":4574,"iliter":4575,"men":4576,"2,":4577,"▁fine":4578,"l.":4579,"▁M.\r\n":4580,"▁Incolae":4581,"▁multum":4582,"▁defunc":4583,"▁honest":4584,"▁mend":4585,"▁nos,":4586,"TOLA":4587,"▁plures":4588,"urs":4589,"▁urbe":4590,"ng":4591,"▁apostolicae":4592,"eunt":4593,"▁camp":4594,"21":4595,"orp":4596,"▁Jam":4597,"ologia":4598,"▁oculos":4599,"modo":4600,"▁Martin":4601,"tionibus":4602,"quod":4603,"▁carne":4604,"idus":4605,"):\r\n":4606,"▁quare":4607,"erto":4608,"▁singulis":4609,"cumque":4610,"▁καὶ":4611,"▁?\r\n":4612,"▁38":4613,"▁DE":4614,"▁oculis":4615,"ellic":4616,"▁Arn":4617,"▁ipsos":4618,"annis":4619,"mum":4620,"▁Ori":4621,"▁Conf":4622,"▁Propter":4623,"▁collig":4624,"▁(natus":4625,"orac":4626,"▁ordine":4627,"inis,":4628,"▁Mai":4629,"▁mente":4630,"arum.\r\n":4631,"▁sublim":4632,"▁jure":4633,"▁Patrem":4634,"▁diffic":4635,"endus":4636,"▁Joannes":4637,"▁Itaque":4638,"▁contemp":4639,"▁urbis":4640,"▁EPISTOLA":4641,"▁XXV":4642,"▁His":4643,"▁vulg":4644,"ica,":4645,"▁I.":4646,"▁innoc":4647,"▁quotid":4648,"▁cunctis":4649,"▁institut":4650,"▁corrup":4651,"▁CAP.":4652,"▁Mus":4653,"▁A.":4654,"b.":4655,"▁XVII":4656,"▁Red":4657,"▁rege":4658,"▁University":4659,"▁numero":4660,"▁extrem":4661,"▁Histor":4662,"erit.\r\n":4663,"▁Domino,":4664,"99":4665,"▁impet":4666,"▁meis":4667,"▁honore":4668,"arios":4669,"▁34":4670,"▁prav":4671,"▁vestris":4672,"▁numer":4673,"▁mori":4674,"ui,":4675,"▁Mariae":4676,"▁Verbum":4677,"αι":4678,"usque":4679,"inti":4680,"▁secur":4681,"▁divit":4682,"imum":4683,"▁2007":4684,"▁habeat":4685,"▁Dei.\r\n":4686,"▁nut":4687,"▁IN":4688,"OS":4689,"andus":4690,"▁pur":4691,"▁il":4692,"▁50":4693,"▁caro":4694,"tif":4695,"▁boni":4696,"▁pasc":4697,"▁amore":4698,"▁quon":4699,"▁Septem":4700,"▁defic":4701,"▁Med":4702,"tentr":4703,"▁malum":4704,"▁aus":4705,"▁Pauli":4706,"circo":4707,"▁defend":4708,"▁adeo":4709,"▁Urbes":4710,"ilibus":4711,"▁devo":4712,"▁Anglic":4713,"▁condic":4714,"▁Qua":4715,"co":4716,"▁Deinde":4717,"▁Sen":4718,"▁Occ":4719,"asi":4720,"▁uest":4721,"▁merito":4722,"▁tempora":4723,"▁mundo":4724,"▁pron":4725,"57":4726,"▁inh":4727,"▁antequam":4728,"ak":4729,"▁aestim":4730,"▁assump":4731,"▁fratrum":4732,"ite,":4733,"abilem":4734,"▁gentes":4735,"aret.\r\n":4736,"▁Spiritum":4737,"▁uxor":4738,"▁V,":4739,"olu":4740,"▁incip":4741,"▁Ambros":4742,"▁Sm":4743,"▁repet":4744,"▁excus":4745,"▁posset":4746,"itatis.\r\n":4747,"▁hujusmodi":4748,"isse.\r\n":4749,"las":4750,"inus,":4751,"▁Ber":4752,"▁penitus":4753,"▁van":4754,"i.":4755,"lex":4756,"▁facile":4757,"▁judicio":4758,"atore":4759,"▁exist":4760,"▁lect":4761,"▁superius":4762,"ti.\r\n":4763,"inn":4764,"▁valde":4765,"uven":4766,"▁item":4767,"▁voluntate":4768,"▁peregr":4769,"▁corrig":4770,"▁Europ":4771,"▁Mel":4772,"▁Flor":4773,"66":4774,"▁Pic":4775,"iali":4776,"▁transm":4777,"▁locis":4778,"▁depr":4779,"▁vobis,":4780,"▁alium":4781,"▁potest.\r\n":4782,"cis":4783,"▁uid":4784,"▁sermo":4785,"▁proposit":4786,"▁Ideo":4787,"\".\r\n":4788,"ensium":4789,"▁Bal":4790,"▁vox":4791,"▁opere":4792,"iensis":4793,"rym":4794,"▁spirit":4795,"▁Ulp":4796,"eta":4797,"▁contradic":4798,"▁voluntatem":4799,"▁Quomodo":4800,"▁Mos":4801,"mat":4802,"▁obsequ":4803,"98":4804,"erna":4805,"▁hort":4806,"ominus":4807,"▁suppl":4808,"▁vuln":4809,"▁confit":4810,"▁Petro":4811,"▁dig":4812,"▁relic":4813,"▁cav":4814,"▁revel":4815,"▁convert":4816,"▁1,":4817,"at.":4818,"▁Ludov":4819,"ille":4820,"▁scriptor":4821,"▁filia":4822,"▁honorem":4823,"▁access":4824,"issent":4825,"ary":4826,"ita,":4827,"▁Russ":4828,"▁Norm":4829,"uth":4830,"▁eloqu":4831,"▁discipl":4832,"▁misericordia":4833,"▁societ":4834,"aquam":4835,"▁Can":4836,"▁concord":4837,"▁Febr":4838,"ologiae":4839,"▁virtus":4840,"▁oppidum":4841,"▁dorm":4842,"ropter":4843,"▁ibid":4844,"▁Quare":4845,"▁Cas":4846,"▁exh":4847,"amen":4848,"▁famil":4849,"▁2009":4850,"abile":4851,"▁cod.":4852,"▁verbo":4853,"▁eos,":4854,"▁dexter":4855,"▁habet,":4856,"erium":4857,"▁ms.":4858,"do":4859,"▁Austr":4860,"▁sanguine":4861,"▁Acc":4862,"▁episcopum":4863,"▁fratres,":4864,"man":4865,"▁iuxta":4866,"▁Pyr":4867,"▁veni":4868,"▁(J":4869,"ellae":4870,"▁civitatis":4871,"▁faciem":4872,"▁Jerus":4873,"▁Domine":4874,"uas":4875,"atem,":4876,"acc":4877,"▁Pasch":4878,"▁Lug":4879,"▁jug":4880,"▁Const":4881,"▁conting":4882,"▁Maria":4883,"iit":4884,"rehens":4885,"▁XIV":4886,"▁Ant":4887,"▁declar":4888,"ecit":4889,"▁acceper":4890,"▁peccatorum":4891,"issimis":4892,"▁VIII":4893,"▁Te":4894,"▁beatus":4895,"▁Ulpianus":4896,"▁occurr":4897,"▁Ha":4898,"aph":4899,"▁partibus":4900,"▁redemp":4901,"enum":4902,"▁quadrag":4903,"▁haered":4904,"▁potuit":4905,"▁Dominus,":4906,"▁Henricus":4907,"abatur":4908,"▁data":4909,"uere":4910,"▁uero":4911,"ioecesis":4912,"αν":4913,"▁supradic":4914,"▁praesum":4915,"esaur":4916,"▁dup":4917,"48":4918,"▁ratio":4919,"onom":4920,"cr":4921,"▁duas":4922,"▁Sol":4923,"▁aqua":4924,"▁sit.\r\n":4925,"1,":4926,"▁cæ":4927,"▁præc":4928,"echn":4929,"▁vestram":4930,"▁tenebr":4931,"▁Aur":4932,"pend":4933,"arent":4934,"▁Romani":4935,"▁apostolorum":4936,"▁praesid":4937,"▁elabor":4938,"▁uen":4939,"inac":4940,"▁tamquam":4941,"▁evangel":4942,"▁aufer":4943,"▁tene":4944,"▁pisc":4945,"▁Dem":4946,"▁36":4947,"▁daemon":4948,"▁alterius":4949,"▁mus":4950,"▁VI,":4951,"▁Novi":4952,"▁Don":4953,"▁dici":4954,"enis":4955,"atio.\r\n":4956,"▁(\r\n":4957,"▁l.":4958,"entiam,":4959,"▁injur":4960,"ando,":4961,"▁fraud":4962,"▁quondam":4963,"▁Eph":4964,"▁more":4965,"▁provid":4966,"demn":4967,"▁pari":4968,"pere":4969,"allis":4970,"77":4971,"▁Octob":4972,"esimo":4973,"uel":4974,"▁tali":4975,"burg":4976,"▁dare":4977,"▁legitur":4978,"idic":4979,"▁ordinem":4980,"▁mali":4981,"▁Es":4982,"ini.\r\n":4983,"ericus":4984,"uus":4985,"▁Pol":4986,"▁2008":4987,"▁fructus":4988,"ocatio":4989,"▁Prophet":4990,"uni":4991,"im,":4992,"▁rationem":4993,"▁septim":4994,"▁cuncta":4995,"ionum":4996,"▁Pon":4997,"▁paulo":4998,"▁dixit,":4999,"▁Datum":5000,"▁pp.\r\n":5001,"apropter":5002,"▁peccator":5003,"▁quodam":5004,"▁oblig":5005,"▁deser":5006,"▁veh":5007,"OR":5008,"ani,":5009,"??\r\n":5010,"una":5011,"▁jac":5012,"96":5013,"ante,":5014,"ientiam":5015,"▁Iac":5016,"▁forma":5017,"▁deduc":5018,"▁aliorum":5019,"▁secret":5020,"▁semel":5021,"iarch":5022,"▁duodecim":5023,"atus.\r\n":5024,"▁Romanae":5025,"▁Homin":5026,"▁habeb":5027,"inu":5028,"▁μ":5029,"ello":5030,"▁justific":5031,"▁signum":5032,"▁defin":5033,"▁misericordiam":5034,"▁metrop":5035,"erant,":5036,"cum":5037,"uls":5038,"athem":5039,"▁vex":5040,"▁ingr":5041,"▁multiplic":5042,"▁conjug":5043,"▁–":5044,"eria":5045,"46":5046,"▁quer":5047,"▁inferi":5048,"▁Calif":5049,"▁expon":5050,"▁dico":5051,"▁consilium":5052,"▁archid":5053,"▁trah":5054,"od.":5055,"▁secundo":5056,"▁Andre":5057,"▁interdic":5058,"uae":5059,"▁indig":5060,"untia":5061,"▁nocte":5062,"▁nep":5063,"▁erat.\r\n":5064,"▁officium":5065,"▁Div":5066,"ixit":5067,"▁):\r\n":5068,"ulta":5069,"itiae":5070,"▁imit":5071,"▁Romana":5072,"▁apostoli":5073,"▁Actum":5074,"▁cec":5075,"ww":5076,"▁coelo":5077,"De":5078,"▁cœ":5079,"▁imo":5080,"▁pedes":5081,"75":5082,"▁fut":5083,"iscum":5084,"▁Hanc":5085,"ere;\r\n":5086,"ores,":5087,"▁eo,":5088,"arem":5089,"▁D.":5090,"onum":5091,"pera":5092,"▁obsc":5093,"▁tua,":5094,"endum.\r\n":5095,"orus":5096,"itas.\r\n":5097,"▁Eborac":5098,"▁caeteris":5099,"entorum":5100,"▁injus":5101,"▁eumdem":5102,"tere":5103,"tio,":5104,"▁explic":5105,"▁(R":5106,"▁virum":5107,"31":5108,"inem,":5109,"▁contempl":5110,"▁foed":5111,"yd":5112,"▁divinae":5113,"▁lacrym":5114,"▁siquidem":5115,"▁Alp":5116,"atenus":5117,"▁generis":5118,"ationis,":5119,"CC":5120,"▁totam":5121,"▁membra":5122,"▁No":5123,"iores":5124,"▁Pom":5125,"ii.\r\n":5126,"isset.\r\n":5127,"32":5128,"▁patrem":5129,"a-":5130,"▁bellum":5131,"▁aliam":5132,"▁orn":5133,"▁ced":5134,"▁Cui":5135,".8":5136,"▁fidelium":5137,"abas":5138,"▁invid":5139,"▁d'":5140,"▁iac":5141,"entes.\r\n":5142,"▁celata:S":5143,"ych":5144,"▁neglig":5145,"ittere":5146,"▁capite":5147,"▁Lond":5148,"▁Bel":5149,"▁Victor":5150,"▁qualiter":5151,"iret":5152,"▁ingress":5153,"▁publicus":5154,"▁Quem":5155,"▁Cod.":5156,"issent,":5157,"abunt":5158,"uerunt.\r\n":5159,"▁fuerunt":5160,"esn":5161,"▁talis":5162,"▁venire":5163,"▁A.\r\n":5164,"▁a.C":5165,"▁Vers.":5166,"▁manduc":5167,"▁Nem":5168,"▁2,":5169,"tionem,":5170,"▁essent":5171,"▁contig":5172,"ulit,":5173,"atur;\r\n":5174,"▁prope":5175,"▁Laud":5176,"▁vestrum":5177,"▁pror":5178,"▁nud":5179,"▁homo,":5180,"▁1997":5181,"▁—\r\n":5182,"▁civitate":5183,"iore":5184,"▁Des":5185,"aculum":5186,"▁ipsorum":5187,"▁alterum":5188,"▁Romae":5189,"▁suum,":5190,"94":5191,"es:\r\n":5192,"▁Pers":5193,"CH":5194,"▁satisfac":5195,"inibus":5196,"idel":5197,"▁semetip":5198,"▁Testam":5199,"▁Met":5200,"▁veritatis":5201,"▁Mss.\r\n":5202,"▁argum":5203,"▁CX":5204,"aeter":5205,"▁6.\r\n":5206,"icarum":5207,"▁homine":5208,"entu":5209,"▁praepar":5210,"endi,":5211,"umus,":5212,"▁cit":5213,"▁Clunia":5214,"alem,":5215,"atium":5216,"arie":5217,"uerint":5218,"icus,":5219,"▁interc":5220,"umn":5221,"▁poterit":5222,"▁cupid":5223,"▁dicitur:\r\n":5224,"▁LX":5225,"▁cura":5226,"▁mors":5227,"▁Constantinop":5228,"uin":5229,"▁Grat":5230,"asti":5231,"▁animi":5232,"▁alibi":5233,"▁Foederat":5234,"▁secum":5235,"▁Biograph":5236,"▁Eg":5237,"▁greg":5238,"▁asser":5239,"▁conspectu":5240,"ips":5241,"▁solemn":5242,"▁indulg":5243,"▁earum":5244,"▁nulli":5245,"iae:\r\n":5246,"▁Ann":5247,"▁Vol":5248,"▁pic":5249,"▁vici":5250,"▁consili":5251,"▁purg":5252,"▁exsult":5253,"▁somn":5254,"▁requi":5255,"▁procul":5256,"ati.\r\n":5257,"▁pol":5258,"etus":5259,"otum":5260,"▁sint,":5261,"▁sum,":5262,"eretur.\r\n":5263,"▁subdit":5264,"▁Denique":5265,"▁christ":5266,"▁sanctific":5267,"▁me.\r\n":5268,"▁vas":5269,"rig":5270,"▁se,":5271,"iente":5272,"▁summa":5273,"abus":5274,"andum,":5275,"omo":5276,"▁induc":5277,"atur:\r\n":5278,"95":5279,"▁Carolus":5280,".)\r\n":5281,"▁persever":5282,"▁peccatis":5283,"▁stipul":5284,"▁Institut":5285,"▁benign":5286,"sch":5287,"▁magister":5288,"ici,":5289,"▁(18":5290,"▁es,":5291,"▁dirig":5292,"▁illumin":5293,"▁Filii":5294,"-S":5295,"▁Episcop":5296,"▁process":5297,"ident":5298,"▁volupt":5299,"▁narr":5300,"ancip":5301,"▁emp":5302,"eno":5303,"acula":5304,"▁permitt":5305,"▁Mss.":5306,"▁species":5307,"▁sua,":5308,"▁saep":5309,"uers":5310,"▁nequaquam":5311,"▁C.":5312,"▁Ot":5313,"▁tibi,":5314,"▁fall":5315,"lend":5316,"▁Disc":5317,"▁genere":5318,"andis":5319,"atia":5320,"▁viro":5321,"abat.\r\n":5322,"▁Char":5323,"p.":5324,"▁vigil":5325,"fici":5326,"son":5327,"OM":5328,"ων":5329,"▁attend":5330,"uari":5331,"▁tur":5332,"eant":5333,"imi":5334,"3,":5335,"▁officio":5336,"ebant.\r\n":5337,"′′":5338,"▁spiritum":5339,"illum":5340,"▁videre":5341,"▁condemn":5342,"antum":5343,"▁pacis":5344,"▁sab":5345,"▁nonnull":5346,"ialiter":5347,"▁victor":5348,"t,":5349,"▁adven":5350,"quisque":5351,"45":5352,"▁uxorem":5353,"▁estis":5354,"▁nimirum":5355,"▁Aut":5356,"▁lud":5357,"▁isti":5358,"▁fidelibus":5359,"ren":5360,"▁cern":5361,"va":5362,"▁Vatic":5363,"ionis,":5364,"icas":5365,"▁itin":5366,"▁tabern":5367,"▁qual":5368,"▁Pyrenae":5369,"▁suav":5370,"▁pond":5371,"me":5372,"ical":5373,".7":5374,"▁particip":5375,"S.\r\n":5376,"-0":5377,"ule":5378,"▁haud":5379,"▁Ille":5380,"▁adulter":5381,"▁justitiam":5382,"noc":5383,"▁Nation":5384,"▁exaud":5385,"unx":5386,"issimi,":5387,"▁interf":5388,"▁hoc,":5389,"▁Arg":5390,"▁memoria":5391,"▁suam,":5392,"▁magnum":5393,"▁(a":5394,"icumque":5395,"▁collect":5396,"▁ec":5397,"iensi":5398,"▁insign":5399,"▁omnia,":5400,"▁Just":5401,"▁agere":5402,"▁2016":5403,"estiv":5404,"▁consumm":5405,"mis":5406,"▁abbatis":5407,"▁singul":5408,"▁Bas":5409,"▁Dom":5410,"▁ostendit":5411,"ellus":5412,"▁potu":5413,"▁constit":5414,"▁Dat":5415,"▁Rec":5416,"▁vol.\r\n":5417,"▁2011":5418,"▁Jesum":5419,"▁addit":5420,"iamus":5421,"▁incon":5422,"▁justitia":5423,"in,":5424,"▁Gregorius":5425,"▁mea,":5426,"▁civitatem":5427,"erent.\r\n":5428,"rata":5429,"▁7.\r\n":5430,"▁facti":5431,"▁altare":5432,"hem":5433,"alc":5434,"▁mit":5435,"▁d.":5436,"▁celata:C":5437,"▁quisque":5438,"▁prog":5439,"iscus":5440,"▁Laur":5441,"▁invicem":5442,"▁anc":5443,"▁Dum":5444,"u-":5445,"▁scand":5446,"86":5447,"ratus":5448,"otis":5449,"onis,":5450,"tern":5451,"▁caec":5452,"▁Tex":5453,"▁mare":5454,"▁humana":5455,"▁commemor":5456,"di":5457,"▁suo,":5458,"▁Sanctae":5459,"▁quod,":5460,"imur":5461,"ianus,":5462,"▁35":5463,"▁Sar":5464,"▁Cy":5465,"▁praetor":5466,"▁corpora":5467,"▁Alexandr":5468,"ocin":5469,"▁remed":5470,"▁naturae":5471,"▁dispens":5472,"▁sa":5473,"▁prol":5474,"97":5475,"▁186":5476,"umni":5477,"▁admir":5478,"istis,":5479,"▁huiusmodi":5480,"▁Porro":5481,"▁martyr":5482,"▁cand":5483,"▁Ass":5484,"▁46":5485,"▁quinqu":5486,"▁Vulg":5487,"▁(200":5488,"▁Omnes":5489,"▁Homines":5490,"▁disput":5491,"▁liceat":5492,"▁Civitatum":5493,"libus,":5494,"▁communic":5495,"entiis":5496,"▁tol":5497,"▁XXII":5498,"▁demonstr":5499,"▁Salom":5500,"tum.\r\n":5501,"▁fals":5502,"▁contemn":5503,"The":5504,"▁ergo,":5505,"▁credid":5506,"▁tuus":5507,"▁fratrem":5508,"ta.\r\n":5509,"▁Av":5510,"▁exalt":5511,"▁principes":5512,"▁futurum":5513,"▁Sax":5514,"▁inquit":5515,"▁iur":5516,"▁nupt":5517,"inacotheca":5518,"▁frag":5519,"▁mundum":5520,"▁gratiae":5521,"▁villa":5522,"▁papae":5523,"eld":5524,"itatu":5525,"▁persequ":5526,"▁Circ":5527,"▁nobil":5528,"▁inveni":5529,"▁veritate":5530,"▁gratias":5531,"▁Superioris":5532,"▁2010":5533,"▁vos,":5534,"▁veritatem":5535,"▁pre":5536,"ει":5537,"▁Ra":5538,"▁refert":5539,"sal.":5540,"▁praesump":5541,"▁edic":5542,"-M":5543,"'s":5544,"▁hodi":5545,"▁sumus,":5546,"▁formam":5547,"▁Iud":5548,"▁claus":5549,"▁thesaur":5550,"olut":5551,"rum,":5552,"ebatur,":5553,"▁Go":5554,"▁virtu":5555,"▁subscrips":5556,"▁fratern":5557,"▁patre":5558,"▁978":5559,"▁jur":5560,"▁molest":5561,"▁Sil":5562,"re,":5563,"▁diligenter":5564,"▁heres":5565,"▁matris":5566,"▁denique":5567,"▁prem":5568,"▁Respon":5569,"▁ger":5570,"▁dicunt":5571,"▁mei,":5572,"▁Cumque":5573,"▁menti":5574,"▁vent":5575,"IC":5576,"▁Pinacotheca":5577,"▁scr":5578,"▁pace":5579,"emur":5580,"▁Frac":5581,"▁Job":5582,"▁rursus":5583,"▁remiss":5584,"ariam":5585,"▁matrim":5586,"antiam":5587,"▁distric":5588,"▁suffrag":5589,"ius.\r\n":5590,"▁intend":5591,"▁Romanorum":5592,"▁naturam":5593,"▁metu":5594,"▁operis":5595,"▁peccato":5596,"▁misit":5597,"nglic":5598,"eng":5599,"▁maledic":5600,"▁Adam":5601,"ula,":5602,"▁opt":5603,"lor":5604,"▁synod":5605,"52":5606,"il.":5607,"▁(E":5608,"▁nomina":5609,"nic":5610,".(":5611,"ar,":5612,"▁contum":5613,"▁commiss":5614,"▁magnific":5615,"▁dat":5616,"▁transl":5617,"onae":5618,"▁Port":5619,"▁ulla":5620,"RA":5621,"▁coeper":5622,"▁salutis":5623,"▁aliquam":5624,"▁consecr":5625,"▁colleg":5626,"▁centum":5627,"▁altera":5628,"▁umb":5629,"i;\r\n":5630,"▁perpetuum":5631,"▁nullam":5632,"▁Techn":5633,"▁prep":5634,"▁pref":5635,"▁appet":5636,"▁peri":5637,"idae":5638,"▁quadam":5639,"▁V.":5640,"▁J.\r\n":5641,"▁curr":5642,"▁ubique":5643,"ford":5644,"▁Press.\r\n":5645,"▁sib":5646,"▁meae":5647,"▁tertio":5648,");\r\n":5649,"ῶν":5650,"▁urbs":5651,"ild":5652,"84":5653,"atth.":5654,"▁voluit":5655,"ho":5656,"▁Alexander":5657,"▁antea":5658,"▁finit":5659,"eri.\r\n":5660,"▁vt":5661,"▁virtutem":5662,"▁tom.":5663,"▁erant,":5664,"▁majest":5665,"endae":5666,"▁notum":5667,"te,":5668,"▁utrius":5669,"▁Af":5670,"erumque":5671,"IO":5672,"▁praeced":5673,"▁videtur,":5674,".:\r\n":5675,"▁intro":5676,"adis":5677,"▁ignis":5678,"▁deinceps":5679,"averunt,":5680,"▁libris":5681,"▁sane":5682,"▁(Anglic":5683,"▁communi":5684,"▁habuit":5685,"▁intenti":5686,"▁recipi":5687,"-t":5688,"▁Fland":5689,"▁eamdem":5690,"▁Fort":5691,"▁sensus":5692,"▁Vita":5693,"ala":5694,"▁regi":5695,"▁Pot":5696,"▁fructum":5697,"anni":5698,"enob":5699,"▁Sancto":5700,"▁Ga":5701,"inos":5702,"▁VII,":5703,"▁splend":5704,"▁cresc":5705,"▁fecit,":5706,"▁initio":5707,"▁robor":5708,"▁promitt":5709,"▁persecu":5710,"etum":5711,"▁nit":5712,"▁C.\r\n":5713,"▁pax":5714,"▁concep":5715,"▁Ill":5716,"utor":5717,"▁crucif":5718,"▁hec":5719,"itur;\r\n":5720,"▁propon":5721,"85":5722,"▁profund":5723,"axa":5724,"-L":5725,"▁praesenti":5726,"tifex":5727,"▁Ca":5728,"▁Angel":5729,"olym":5730,"ode":5731,"▁Apud":5732,"aretur,":5733,"▁Bald":5734,"abiles":5735,"▁obst":5736,"▁revert":5737,"RE":5738,"▁Hebrae":5739,"erat.\r\n":5740,"▁crud":5741,"▁magno":5742,"▁ordinis":5743,"raque":5744,"▁Rog":5745,"▁(bona":5746,"▁Bap":5747,"▁sug":5748,"▁imped":5749,"▁temper":5750,"▁Igitur":5751,"orni":5752,"tus.\r\n":5753,"▁sat":5754,"▁celata:A":5755,"▁Christus,":5756,"▁bono":5757,"▁lim":5758,"▁gentium":5759,"▁num.":5760,"aldus":5761,"▁sedem":5762,"▁dubio":5763,"ertim":5764,"▁plant":5765,"▁multos":5766,"▁mihi,":5767,"▁ciu":5768,"▁perpetu":5769,"eru":5770,"▁sag":5771,"▁esse.\r\n":5772,"▁Salvator":5773,"▁divid":5774,"(??\r\n":5775,"▁term":5776,"▁Antioch":5777,"▁anathem":5778,"▁usum":5779,"▁tyr":5780,"▁subst":5781,"▁dissim":5782,"▁Augusti":5783,"▁Ro":5784,"▁major":5785,"▁idcirco":5786,"▁p.\r\n":5787,"▁quicquid":5788,"ry":5789,"▁prout":5790,"▁remov":5791,"▁extr":5792,"erentur":5793,"er.\r\n":5794,"▁Cluniac":5795,"▁44":5796,"▁Ioseph":5797,"▁Vat.":5798,"onium":5799,"▁insid":5800,"▁sese":5801,"▁Quibus":5802,"▁prael":5803,"uli,":5804,"▁σ":5805,"▁Mil":5806,"▁37":5807,"▁veritas":5808,"▁concilio":5809,"▁qui,":5810,"εν":5811,"bri":5812,"▁vale":5813,"▁turp":5814,"▁fratris":5815,"▁celata:M":5816,"▁Bab":5817,"▁publica":5818,"▁Die":5819,"▁horum":5820,"tioni":5821,"▁filiorum":5822,"idis":5823,"▁(c":5824,"▁Null":5825,"▁iub":5826,"▁audiv":5827,"▁Rep":5828,"▁credit":5829,"bert":5830,"▁illust":5831,"▁assens":5832,"▁xx":5833,"▁Int":5834,"▁Ox":5835,"ipsum":5836,"▁Foederatarum":5837,"▁confus":5838,"▁diceret":5839,"\",":5840,"▁Michael":5841,"▁occult":5842,"▁nox":5843,"▁debeat":5844,"-sur":5845,"entin":5846,"▁ads":5847,"▁saltem":5848,"87":5849,"▁pene":5850,"ianae":5851,"▁consenti":5852,"▁utriusque":5853,"▁Kal":5854,"uz":5855,"▁sunt:\r\n":5856,"▁Lex":5857,"▁an.":5858,"▁CJ":5859,"tamen":5860,"▁differ":5861,"▁vehem":5862,"▁utrumque":5863,"ibile":5864,"▁deprec":5865,"an,":5866,"ll":5867,"avimus":5868,"▁fortasse":5869,"▁Long":5870,"▁trig":5871,"▁trist":5872,"▁eisdem":5873,"o;\r\n":5874,"▁sepulc":5875,"ulis,":5876,"▁Joseph":5877,"▁cub":5878,"▁Maii":5879,"▁resurg":5880,"▁triumph":5881,"▁archidiacon":5882,"▁spem":5883,"▁studio":5884,"93":5885,"inguli":5886,"▁modis":5887,"▁Reg.":5888,"▁Od":5889,"▁sensu":5890,"▁Nihil":5891,"▁hæ":5892,"▁quanta":5893,"▁vestri":5894,"▁ea,":5895,"▁erunt":5896,"▁dispon":5897,"elle":5898,"▁supr":5899,"▁templum":5900,"▁propheta":5901,"▁Hon":5902,"▁intellect":5903,"▁erga":5904,"▁deg":5905,"▁Rad":5906,"▁resp":5907,"▁Pagina":5908,"ele":5909,"▁locutus":5910,"▁abstin":5911,"y.\r\n":5912,"omp":5913,"▁inquam,":5914,"▁lumen":5915,"um;\r\n":5916,"▁prædic":5917,"▁pietatis":5918,"▁reb":5919,"une":5920,"atius":5921,"▁suspic":5922,"et:\r\n":5923,"▁exprim":5924,"▁sancte":5925,"not":5926,"▁Me":5927,"▁composit":5928,"pectus":5929,"▁Databas":5930,"▁abbati":5931,"errim":5932,"▁Serv":5933,"iol":5934,"undus":5935,"▁propriet":5936,"be":5937,"▁patern":5938,"▁(F":5939,"idium":5940,"▁pign":5941,"ody":5942,"▁Mass":5943,"urus":5944,"▁Har":5945,"▁dictus":5946,"▁abbat":5947,"▁apostolicam":5948,"▁discretiv":5949,"ας":5950,"▁debere":5951,"▁idone":5952,"▁8.\r\n":5953,"▁mendac":5954,"▁Corn":5955,"erici":5956,"▁carc":5957,"47":5958,"▁monasteri":5959,"▁custodi":5960,"▁dominum":5961,"ense.\r\n":5962,"▁Societ":5963,"▁religionis":5964,"▁subi":5965,"m.":5966,"ús":5967,"▁excell":5968,"▁Institutum":5969,"▁episcopis":5970,"▁conu":5971,"erti":5972,"rii":5973,"▁Aprilis":5974,"tionem.\r\n":5975,"▁nativ":5976,"inarum":5977,"▁propterea":5978,"-V":5979,"▁dicat:\r\n":5980,"▁pect":5981,"▁Sap":5982,"▁figur":5983,"▁peccat":5984,"▁surg":5985,"▁loca":5986,"ipp":5987,"▁cives":5988,"▁Decembris":5989,"arus":5990,"▁timore":5991,"▁2012)\r\n":5992,"▁Merid":5993,"▁Innoc":5994,"▁Evangelio":5995,"▁patriarch":5996,"▁tertia":5997,"▁basil":5998,"vit":5999,"▁reddit":6000,"▁viginti":6001,"▁offer":6002,"▁vestim":6003,"▁patron":6004,"XXX":6005,"ars":6006,"▁express":6007,"ove":6008,"▁Ruf":6009,"▁possint":6010,"▁Imperator":6011,"rici":6012,"▁Christo,":6013,"▁sapientia":6014,"▁terris":6015,"▁(Psal.":6016,"▁Ibid.":6017,"ress":6018,"▁coeli":6019,"▁constat":6020,"ientem":6021,"▁unusquisque":6022,"▁VIII,":6023,"▁Walter":6024,"▁ele":6025,"▁Sh":6026,"▁servorum":6027,"▁exercitu":6028,"▁biograph":6029,"ria":6030,"uxit":6031,"ke":6032,"▁calc":6033,".\"\r\n":6034,"▁nuncup":6035,"▁Sym":6036,"ravit":6037,"▁(s":6038,"▁corda":6039,"▁eius,":6040,"000":6041,"▁metropolit":6042,"illo":6043,"▁temer":6044,"▁servitut":6045,"▁virtutum":6046,"ulo,":6047,"▁vestro":6048,"▁praesentia":6049,"89":6050,"PL":6051,"▁reced":6052,"iones,":6053,"econom":6054,"▁Amer":6055,"▁assum":6056,"▁semp":6057,"isch":6058,"itionis":6059,"▁fiat":6060,"▁sanguinem":6061,"ace":6062,"onensis":6063,"▁Exc":6064,"▁provoc":6065,"▁Principalis":6066,"▁fundam":6067,"▁ge":6068,"ularum":6069,"ilus":6070,"▁P.":6071,"fl":6072,"51":6073,"ept":6074,"▁MA":6075,"▁sermone":6076,"ationes,":6077,"▁tuum,":6078,"reti":6079,"▁declin":6080,"on.":6081,"entium,":6082,"▁faciat":6083,"abant,":6084,"▁confid":6085,"▁juss":6086,"▁codic":6087,"▁exemplum":6088,"ism":6089,"▁comed":6090,"▁memin":6091,"▁Universitatis":6092,"▁adjuv":6093,"▁integr":6094,"▁adduc":6095,"▁epistolam":6096,"▁debent":6097,"el,":6098,"▁peccati":6099,"▁Fab":6100,"▁(Matth.":6101,"▁aure":6102,"▁Phil":6103,"▁cass":6104,"aciter":6105,"▁Cinguli":6106,"▁consensu":6107,"▁externus":6108,"▁sugg":6109,"▁moder":6110,"▁spe":6111,"▁Medi":6112,"phem":6113,"▁inop":6114,"▁abl":6115,"▁Ped":6116,"▁insuper":6117,"rit":6118,"ientes,":6119,"ebantur":6120,"▁curam":6121,"▁pecunia":6122,"▁spon":6123,"▁solis":6124,"▁Rhod":6125,"us;\r\n":6126,"▁(H":6127,"▁G.\r\n":6128,"eris.\r\n":6129,"ulum,":6130,"▁NAS":6131,"▁exac":6132,"aque":6133,"▁Sig":6134,"▁peti":6135,"▁deput":6136,"▁reperti":6137,"▁CONS":6138,"▁coelum":6139,"▁octav":6140,"▁sur":6141,"▁presbiter":6142,"endos":6143,"▁facie":6144,"▁Cujus":6145,"▁Burg":6146,"▁quotidie":6147,"et;\r\n":6148,"▁malis":6149,"▁poena":6150,".0":6151,"▁dicat":6152,"▁dignum":6153,"▁Syr":6154,"▁Sunt":6155,"▁interim":6156,"▁haeres":6157,"▁Germaniae":6158,"▁Septentr":6159,"▁spons":6160,"▁intelleg":6161,"▁Octobris":6162,"RO":6163,"▁decern":6164,"▁annu":6165,"▁adf":6166,"▁usu":6167,"▁Auctor":6168,"t.\r\n":6169,"▁percip":6170,"▁nunti":6171,"49":6172,"▁Ecc":6173,"bo":6174,"▁promis":6175,"▁dono":6176,"ien":6177,"▁NASA":6178,"▁Martii":6179,"▁Loth":6180,"▁iniur":6181,"▁sort":6182,"▁celata:L":6183,"▁All":6184,"uid":6185,"▁sæc":6186,"▁10.\r\n":6187,"▁gentibus":6188,"atoribus":6189,"tae:\r\n":6190,"▁assign":6191,"▁Matth":6192,"▁pup":6193,"▁revers":6194,"▁Californi":6195,"ardo":6196,"ares":6197,"▁secunda":6198,"ensis.\r\n":6199,"ariorum":6200,"ans.\r\n":6201,"▁−":6202,"▁descrip":6203,"▁tamen,":6204,"▁9.\r\n":6205,"▁approb":6206,"▁α":6207,"▁XIX":6208,"▁(20":6209,"ellam":6210,"▁reges":6211,"▁(V":6212,"▁occident":6213,"▁successoribus":6214,"▁habens":6215,"▁virtutis":6216,"▁transf":6217,"essit":6218,"issimam":6219,"▁quarum":6220,"▁vivi":6221,"atig":6222,"▁Pater,":6223,"▁ε":6224,"amine":6225,"▁vestig":6226,"▁Saec":6227,"▁merced":6228,"elix":6229,"▁B.":6230,"ilem":6231,"ras":6232,"▁aeterna":6233,"▁cam":6234,"▁Collocatio":6235,"▁vulgo":6236,"æ.\r\n":6237,"oduc":6238,"▁pu":6239,"enda,":6240,"▁postmodum":6241,"unt;\r\n":6242,"▁33":6243,"tione,":6244,"iant.\r\n":6245,"▁Small":6246,"▁dimitt":6247,"▁Guli":6248,"▁3,":6249,"ca":6250,"▁propriis":6251,"▁talia":6252,"▁ferre":6253,"enta,":6254,"▁destin":6255,"elag":6256,"▁indictione":6257,"ita.\r\n":6258,"▁Technologiae":6259,"tiones,":6260,"▁Ach":6261,"▁fa":6262,"▁record":6263,"▁imperii":6264,"▁vert":6265,"▁serp":6266,"▁Maur":6267,"73":6268,"▁proprium":6269,"▁festin":6270,"▁prorsus":6271,"▁Ard":6272,"▁Cre":6273,"▁arma":6274,"▁egreg":6275,"▁XI":6276,"▁Mont":6277,"etis,":6278,"▁coepit":6279,"ancell":6280,"scrib":6281,"raes":6282,"oris,":6283,"ant;\r\n":6284,"▁col.":6285,"li,":6286,"▁princeps":6287,"▁malig":6288,"▁profecto":6289,"▁humili":6290,"▁saecula":6291,"▁poenitentiam":6292,"▁disper":6293,"▁pend":6294,"▁ferv":6295,"▁sempiter":6296,"ermin":6297,"▁præs":6298,"▁Lev":6299,"▁perturb":6300,"▁omnes,":6301,"▁JPL":6302,"▁concili":6303,"▁parc":6304,"▁Europae":6305,"ri,":6306,"emosyn":6307,"oro":6308,"▁Georgius":6309,"avi,":6310,"▁civitas":6311,"▁seq":6312,"▁Quesn":6313,"▁Novembris":6314,"▁Christum,":6315,"▁laetit":6316,"ationem.\r\n":6317,"▁Scriptura":6318,"▁sch":6319,"▁colloc":6320,"ultus":6321,"▁nimis":6322,"▁specie":6323,"▁doctrina":6324,"▁Rod":6325,"ge":6326,"▁praecipue":6327,"▁posteri":6328,"ulti":6329,"▁barb":6330,"▁coh":6331,"▁Rex":6332,"oto":6333,"▁1996":6334,"▁salute":6335,"▁etenim":6336,"▁perdit":6337,"▁circiter":6338,"▁necnon":6339,"▁Database,":6340,"elius":6341,"▁fluv":6342,"aric":6343,"utet":6344,"▁impon":6345,"actenus":6346,"aro":6347,"▁desid":6348,"▁Joannis":6349,"ellis":6350,"▁elaboraverunt":6351,"▁(D":6352,"▁transe":6353,"▁sitús":6354,"▁fe":6355,"-Body":6356,"▁Bene":6357,"istere":6358,"▁Dion":6359,"▁aquam":6360,"▁Californiense.\r\n":6361,"▁Small-Body":6362,"AM":6363,"▁loquitur":6364,"oan.":6365,"hi":6366,"arius,":6367,"▁pud":6368,"▁situm.\r\n":6369,"▁exemplo":6370,"▁utraque":6371,"▁Quando":6372,"▁contend":6373,"iorem":6374,"▁doctor":6375,"▁sect":6376,"ere:\r\n":6377,"▁Quapropter":6378,"▁patri":6379,"οι":6380,"▁Cer":6381,"uerat":6382,"ino,":6383,"VI":6384,"▁commod":6385,"▁gratia,":6386,"inii":6387,"▁pecuniam":6388,"▁numquam":6389,"▁justitiae":6390,"▁consist":6391,"▁respondit":6392,"▁Bad":6393,"iph":6394,"▁vim":6395,"▁invoc":6396,"▁quum":6397,"▁32":6398,"toria":6399,"▁tales":6400,"imur,":6401,"▁tempore,":6402,"▁petit":6403,"▁significat":6404,"▁ru":6405,"entii":6406,"▁affirm":6407,"ocrat":6408,"▁Ho":6409,"▁Ibi":6410,"▁invis":6411,"▁terra,":6412,"udex":6413,"▁a.C.n.\r\n":6414,"▁reprob":6415,"▁bis":6416,"uto":6417,"▁lav":6418,"vol":6419,"▁memoriae":6420,"▁crucis":6421,"▁habebat":6422,"▁omnibus,":6423,"ba":6424,"▁ira":6425,"▁animum":6426,"inum,":6427,"▁Dam":6428,"▁huc":6429,"ensi.\r\n":6430,"▁Lang":6431,"uere,":6432,"▁Mss.,":6433,"aris,":6434,"▁Vind":6435,"▁sacra":6436,"uj":6437,"ῆς":6438,"▁48":6439,"▁intus":6440,"▁quia,":6441,"▁ei,":6442,"▁mentem":6443,"▁instrum":6444,"▁homini":6445,"▁erit,":6446,"▁fic":6447,"elm":6448,"72":6449,"omi":6450,"ae:\r\n":6451,"▁hora":6452,"ess.":6453,"erii":6454,"▁libertatem":6455,"▁episcoporum":6456,"vid":6457,"▁tang":6458,"▁permane":6459,"V,":6460,"iat,":6461,"averunt.\r\n":6462,"▁tale":6463,"▁Quasi":6464,"erio":6465,"▁Ba":6466,"▁nova":6467,"▁compell":6468,"leg":6469,"▁ur":6470,"▁sinc":6471,"▁/":6472,"▁blas":6473,"▁Dominum,":6474,"▁perpetuo":6475,"-C":6476,"alid":6477,"▁tes":6478,"▁(urb":6479,"▁igne":6480,"▁exor":6481,"▁do":6482,"▁Bur":6483,"▁finium":6484,"▁coelestis":6485,"▁habitat":6486,"▁43":6487,"▁poll":6488,"▁Lov":6489,"▁flor":6490,"▁istud":6491,"jic":6492,"▁45":6493,"▁Martini":6494,"ct.":6495,"▁pe":6496,"▁Loc":6497,"▁plerumque":6498,"▁Romam":6499,"▁immort":6500,"▁pluribus":6501,"nit":6502,"▁New":6503,"▁ung":6504,"arent,":6505,"▁aliquem":6506,"▁tel":6507,"▁Ligeris":6508,"▁ο":6509,"▁possumus":6510,"92":6511,"▁Patri":6512,"eo,":6513,"diu":6514,"iora":6515,"▁Taxa":6516,"▁desper":6517,"▁Dani":6518,"▁dicentes":6519,"itos":6520,"ερ":6521,"▁l'":6522,"ioribus":6523,"▁iustit":6524,"▁tribun":6525,"▁dicti":6526,"▁diversis":6527,"antibus,":6528,"▁facto":6529,"91":6530,"sed":6531,"▁vad":6532,"▁M.":6533,"▁comitis":6534,"uimus":6535,"▁Dan":6536,"▁debemus":6537,"▁discipulis":6538,"▁his,":6539,"CI":6540,"▁Augustinus":6541,"▁sacerdos":6542,"UL":6543,"▁signa":6544,"▁asper":6545,"ie,":6546,"▁Mis":6547,"▁tuam,":6548,"▁Æ":6549,"▁aliquot":6550,"▁didic":6551,"▁habent,":6552,"▁fulg":6553,"▁talem":6554,"▁impend":6555,"▁distinc":6556,"▁profer":6557,"▁Evangelium":6558,"vert":6559,"▁].\r\n":6560,"fred":6561,"▁describ":6562,"▁nar":6563,"T.\r\n":6564,"iciis":6565,"▁intim":6566,"▁Vet":6567,"ατ":6568,"▁has":6569,"▁AA":6570,"agog":6571,"▁excel":6572,"ecr":6573,"▁baptism":6574,"▁futuris":6575,"▁respons":6576,"berti":6577,"▁Iulii":6578,"▁Rich":6579,"ment":6580,"anus,":6581,"▁siue":6582,"▁fideles":6583,"▁obv":6584,"▁meum,":6585,"▁universa":6586,"▁scire":6587,"▁celata:P":6588,"64":6589,"▁Afr":6590,"▁isto":6591,"▁Septembris":6592,"▁bonae":6593,"▁Praes":6594,"▁accepit":6595,"▁cardinalis":6596,"▁Italiae.\r\n":6597,"▁heb":6598,"actus":6599,"▁claud":6600,"▁adim":6601,"▁frig":6602,"aei":6603,"▁mancip":6604,"▁nostre":6605,"▁terram,":6606,"▁malo":6607,"▁Lam":6608,"▁aliquod":6609,"▁Vicidata":6610,"▁repertae:\r\n":6611,"▁Later":6612,"▁exercitus":6613,"ullius":6614,"▁Kar":6615,"mod":6616,"ener":6617,"▁Erat":6618,"▁solo":6619,"▁compos":6620,"hab":6621,"atura":6622,"▁Class":6623,"▁diaboli":6624,"icum,":6625,"▁voluntas":6626,"▁subscripsi.\r\n":6627,"▁Ecclesia,":6628,"▁perduc":6629,"▁suscipi":6630,"▁San":6631,"▁consu":6632,"▁testes":6633,"▁comitatu":6634,"▁Sem":6635,"▁mane":6636,"▁futura":6637,"▁casu":6638,"ertur":6639,"rium":6640,"▁vendit":6641,"▁Atque":6642,"abis":6643,"▁(N":6644,"▁Trans":6645,"▁vidit":6646,"▁bello":6647,"▁Caeter":6648,"ator,":6649,"▁charitatis":6650,"▁audit":6651,"pell":6652,"strat":6653,"▁Bl":6654,"▁quint":6655,"▁Quin":6656,"▁Inde":6657,"▁accid":6658,"issum":6659,"▁fuisset":6660,"▁Tol":6661,".;\r\n":6662,"▁Comitatus":6663,"▁similitudinem":6664,"▁puls":6665,"anas":6666,"-l":6667,"▁propinqu":6668,"▁fiduc":6669,"isci":6670,"▁quidem,":6671,"▁Lac":6672,"aeus":6673,"▁precibus":6674,"▁Nemo":6675,"▁Wil":6676,"▁1995":6677,"issimae":6678,"V.\r\n":6679,"σι":6680,"▁Tra":6681,"▁Omnia":6682,"EL":6683,"UG":6684,"▁comprehend":6685,"▁specialiter":6686,"▁Sanctus":6687,"entiæ":6688,"▁Babyl":6689,"▁agit":6690,"▁mere":6691,"▁Vallis":6692,"▁minor":6693,"▁Asc":6694,"▁marg":6695,"imae":6696,"estis":6697,"▁Kal.":6698,"▁Filio":6699,"▁(bona)\r\n":6700,"▁saeculum":6701,"▁glorific":6702,"▁disposit":6703,"▁Claud":6704,"83":6705,"▁Ost":6706,"▁cst":6707,"ero,":6708,"▁nostros":6709,"ano,":6710,"▁www":6711,"▁60":6712,"ten":6713,"▁dicuntur":6714,"▁immund":6715,"▁§":6716,"43":6717,"▁presentibus":6718,"▁imperatoris":6719,"▁tria":6720,"▁historia":6721,"▁poti":6722,"▁iudicio":6723,"ject":6724,"▁schol":6725,"▁4,":6726,"▁mundus":6727,"▁Afric":6728,"ento,":6729,"▁diabol":6730,"▁memoriam":6731,"▁Vos":6732,"eritis":6733,"▁domni":6734,"udum":6735,"▁fornic":6736,"▁parum":6737,"▁(disc":6738,"▁D.\r\n":6739,"▁angeli":6740,"▁br":6741,"rump":6742,"▁perhib":6743,"▁sinist":6744,"zech":6745,"ronae":6746,"▁\t\t":6747,"▁XIII":6748,"▁imperium":6749,"▁praesertim":6750,"▁(discretiv":6751,"▁auxilium":6752,"▁eis,":6753,"▁toti":6754,"▁Pop":6755,"▁praesens":6756,"▁sacerdoti":6757,"vet":6758,"In":6759,"▁abbatem":6760,"▁pertinet":6761,"▁libere":6762,"▁John":6763,"▁videntur":6764,"▁mom":6765,"▁occis":6766,"▁ventur":6767,"▁Temp":6768,"▁mss.\r\n":6769,"▁tor":6770,"▁infern":6771,"▁publicae":6772,"lid":6773,"agn":6774,"ucc":6775,"▁leges":6776,"▁sedes":6777,"▁sequitur":6778,"▁quot":6779,"▁Mir":6780,"igr":6781,"▁confund":6782,"▁finitima":6783,"icus.\r\n":6784,"▁Praeter":6785,"orem.\r\n":6786,"▁educ":6787,"▁recogn":6788,"▁Lab":6789,"▁Lugd":6790,"▁nosc":6791,"▁compon":6792,"65":6793,"▁necessaria":6794,"▁Nun":6795,"amur,":6796,"▁regum":6797,"▁Chron":6798,"▁Jul":6799,"▁Regione":6800,"acta":6801,"▁iudicium":6802,"▁nomine,":6803,"estin":6804,"▁meritis":6805,"▁coelesti":6806,"▁litterarum":6807,"turae":6808,"▁Opera":6809,"▁Deus.\r\n":6810,"▁Miss":6811,"▁datum":6812,"ogen":6813,"▁ille,":6814,"icet,":6815,"ystem":6816,"▁um":6817,"▁fratri":6818,"▁sensum":6819,"ler":6820,"lem":6821,"▁II.\r\n":6822,"▁Nor":6823,"▁pretios":6824,"sk":6825,"▁blasphem":6826,"▁Hujus":6827,"▁Herm":6828,"▁0-":6829,"αρ":6830,"42":6831,"▁foris":6832,"–19":6833,"ai":6834,"▁commut":6835,"▁inclin":6836,"itate.\r\n":6837,"aev":6838,"▁spes":6839,"▁obscur":6840,"▁dict":6841,"▁nat":6842,"▁quosdam":6843,"▁eum.\r\n":6844,"▁Alumni":6845,"▁Thomas":6846,"▁plag":6847,"▁Iunii":6848,"▁perg":6849,"▁monte":6850,"▁Chr":6851,"▁Sat":6852,"▁Ecclesiae,":6853,"▁Israel,":6854,"UM.\r\n":6855,"▁Caesar":6856,"▁Psalm":6857,"▁prosper":6858,"uos":6859,"▁Eug":6860,"▁meus,":6861,"▁70":6862,"ole":6863,"▁Pellic":6864,"▁media":6865,"▁sui,":6866,"roque":6867,"▁est?\r\n":6868,"▁(Joan.":6869,"tibus,":6870,"andiu":6871,"arias":6872,"▁Gen.":6873,"71":6874,"IB":6875,"iter,":6876,"amque":6877,"olim":6878,"▁Februarii":6879,"▁Al.,":6880,"▁decess":6881,"on.\r\n":6882,"▁proprio":6883,"pex":6884,"▁lapid":6885,"▁diximus,":6886,"▁volumus":6887,"▁aeternum":6888,"▁fuerat,":6889,"▁salub":6890,"▁paroch":6891,"▁conviv":6892,"▁divino":6893,"▁usurp":6894,"▁Ibid.,":6895,"▁ordo":6896,"▁],":6897,"▁Vill":6898,"▁5,":6899,"▁dona":6900,"▁..\r\n":6901,"terius":6902,"▁principio":6903,"▁obi":6904,"▁produc":6905,"68":6906,"▁evid":6907,"▁MAR":6908,"▁totus":6909,"▁2009)\r\n":6910,"▁reman":6911,"▁Vig":6912,"item":6913,"▁personam":6914,"ucund":6915,"▁belli":6916,"▁Hi":6917,"uisti":6918,"empe":6919,"▁festiv":6920,"utis":6921,"▁juv":6922,"▁gloriae":6923,"▁Eus":6924,"ly":6925,"▁Vit":6926,"▁Abraham":6927,"▁medi":6928,"▁titulo":6929,"▁Cic":6930,"▁nef":6931,"▁potestas":6932,"▁terrarum":6933,"▁cong":6934,"▁ambig":6935,"▁egress":6936,"▁www.":6937,"▁bonus":6938,"▁delib":6939,"itibus":6940,"▁etiam,":6941,"▁debit":6942,"▁les":6943,"▁juste":6944,"▁B.\r\n":6945,"ET":6946,"▁novum":6947,"uoc":6948,"▁vocatur":6949,"NO":6950,"▁versus":6951,"▁Amen.\r\n":6952,"▁iuss":6953,"▁Ephes":6954,"▁veluti":6955,"▁ster":6956,"▁castra":6957,"▁eleemosyn":6958,"▁dicata":6959,"▁virgin":6960,"▁Tum":6961,"occ":6962,"▁Litter":6963,"▁conscrip":6964,"▁servum":6965,"▁infer":6966,"▁monachis":6967,"▁Bell":6968,"-A":6969,"▁senatus":6970,"▁videri":6971,"▁animarum":6972,"▁verbi":6973,"▁firma":6974,"▁sanguinis":6975,"▁Scriptores":6976,"▁numerus":6977,"67":6978,"olesc":6979,"y:\r\n":6980,"DO":6981,"▁pun":6982,"▁Baldu":6983,"▁Hum":6984,"▁immin":6985,"▁laet":6986,"▁monachi":6987,"unt:\r\n":6988,"▁donum":6989,"▁uic":6990,"▁Insigne":6991,"▁nomina:\r\n":6992,"▁auri":6993,"▁Imperatores":6994,"▁virtutes":6995,"▁frequenter":6996,"lici":6997,"▁(reg":6998,"▁restit":6999,"ica.\r\n":7000,"quae":7001,"onio":7002,"aria,":7003,"▁inquir":7004,"▁xv":7005,"▁incend":7006,"▁American":7007,"▁tend":7008,"▁illuc":7009,"▁Apoll":7010,"▁possessionem":7011,"▁Doc":7012,"▁quadraginta":7013,"icus;\r\n":7014,"▁adop":7015,"▁P.\r\n":7016,"▁fun":7017,"▁Goth":7018,"▁regim":7019,"▁47":7020,"▁imaginem":7021,"▁Cruc":7022,"▁Carth":7023,"▁culpa":7024,"▁rub":7025,"▁(B":7026,"▁fuerint,":7027,"▁silv":7028,"▁praecepta":7029,"▁Ser":7030,"▁Aug.":7031,"▁pervers":7032,"▁hactenus":7033,"uitu":7034,"▁Inferi":7035,"▁[\r\n":7036,"▁subsequ":7037,"▁patres":7038,"▁audire":7039,"▁Francorum":7040,"olaus":7041,"▁annorum":7042,"▁substantia":7043,"▁triginta":7044,"k,":7045,"▁occasione":7046,"▁torm":7047,"▁tyrann":7048,"▁Hunc":7049,"▁Mediol":7050,"▁sermonem":7051,"▁fidelis":7052,"▁Parisi":7053,"▁istis":7054,"judic":7055,"▁mecum":7056,"▁abscond":7057,"▁X,":7058,"1-":7059,"▁Henric":7060,"ute":7061,"▁concilium":7062,"Th":7063,"▁depos":7064,"▁Commun":7065,"▁fast":7066,"▁Sion":7067,"▁elem":7068,"82":7069,"▁nostra,":7070,"▁loco,":7071,"mann":7072,"xit":7073,"▁à":7074,"rie":7075,"▁medium":7076,"▁t.":7077,"▁Normann":7078,"▁pacific":7079,"▁Theodos":7080,"asse,":7081,"▁vari":7082,"▁infidel":7083,"▁praesentis":7084,"▁fatig":7085,"erique":7086,"▁poterat":7087,"▁dicimus":7088,"▁datur":7089,"▁caetera":7090,"anam":7091,"▁disced":7092,"rid":7093,"abatur,":7094,"▁discre":7095,"▁Foeder":7096,"▁angust":7097,"▁Jerusalem":7098,"▁Ms.":7099,"▁apostolus":7100,"▁justus":7101,"▁nostras":7102,"▁fore":7103,"▁sede":7104,"MO":7105,"▁Frid":7106,"▁caut":7107,"▁R.\r\n":7108,"▁ub":7109,"▁Franciscus":7110,"ianis":7111,"emptor":7112,"▁XII,":7113,"▁(alia":7114,"ientiae":7115,"▁increp":7116,"eccles":7117,"ris,":7118,"ensa":7119,"▁Spec":7120,"▁visit":7121,"▁millia":7122,"▁lucem":7123,"▁unc":7124,"▁praeses":7125,"VIII,":7126,"▁milites":7127,"▁⟨":7128,"▁sacerdotes":7129,"▁elemos":7130,"▁auct":7131,"ias.\r\n":7132,"▁RE":7133,"▁plane":7134,"▁Rot":7135,"▁49":7136,"▁cancell":7137,"aniae":7138,"▁pontifex":7139,"▁Alii":7140,"▁Omnis":7141,"▁LXXX":7142,"▁crudel":7143,"▁octo":7144,"▁scilicet,":7145,"▁offend":7146,"▁class":7147,"▁matrem":7148,"▁Frat":7149,"▁archiepiscopus":7150,"▁animas":7151,"▁reput":7152,"IL":7153,"▁viris":7154,"▁ms.\r\n":7155,"cm":7156,"uerint,":7157,"▁peregrin":7158,"▁fat":7159,"▁Liber":7160,"▁Mod":7161,"tend":7162,"▁primi":7163,"▁I.\r\n":7164,"▁\"A":7165,"▁solidos":7166,"▁Proc":7167,"▁talibus":7168,"▁necessitate":7169,"▁cito":7170,"ulph":7171,"▁1993":7172,"▁Cyr":7173,"cho":7174,"TIO":7175,"aculo":7176,"abilia":7177,"alog":7178,"▁Leo":7179,"▁Paulo":7180,"▁Robertus":7181,"▁Guill":7182,"▁sigilli":7183,"▁sacris":7184,"69":7185,"▁dixerunt":7186,"▁venerabilis":7187,"▁assid":7188,"▁dicendum":7189,"▁factionis":7190,"▁primis":7191,"▁accipere":7192,"▁Geographia":7193,".9":7194,"▁istam":7195,"▁militum":7196,"▁tanti":7197,"anu":7198,"tionum":7199,"▁quoc":7200,"andi,":7201,"usti":7202,"▁fluc":7203,"▁XVI":7204,"▁<a":7205,"▁qualis":7206,"▁Vers":7207,"▁dicere,":7208,"▁ignem":7209,"▁ps":7210,"▁\\":7211,"▁Nol":7212,"▁legatus":7213,"ico,":7214,"▁charitas":7215,"▁nata":7216,"▁Isid":7217,"EO":7218,"▁lection":7219,"▁Illud":7220,"▁studios":7221,"▁crucifix":7222,"one,":7223,"▁Cel":7224,"▁justum":7225,"ibilis":7226,"▁fideliter":7227,"▁operum":7228,"iti,":7229,"▁mot":7230,"▁monum":7231,"▁Sex":7232,"▁possit,":7233,"▁exped":7234,"▁Eng":7235,"▁sunt;\r\n":7236,"▁aest":7237,"▁mediet":7238,"▁faciunt":7239,"▁Philosoph":7240,"▁salutem.\r\n":7241,"ionalis":7242,"▁terre":7243,"▁perfic":7244,"▁Euseb":7245,"tib":7246,"▁Hugo":7247,"turus":7248,"▁avar":7249,"▁oratione":7250,"▁hominum,":7251,"▁insinu":7252,"▁numerum":7253,"▁absolv":7254,"▁teg":7255,"undem":7256,"▁aquae":7257,"▁charitate":7258,"eriis":7259,"▁Clem":7260,"▁subject":7261,"▁veniam":7262,"▁Ord":7263,"▁presentes":7264,"▁exhort":7265,"▁Sum":7266,"▁legibus":7267,"▁habetur":7268,"▁plena":7269,"otio":7270,"▁expedit":7271,"enam":7272,"▁ȩ":7273,"▁justi":7274,"▁QU":7275,"▁Fam":7276,"eu":7277,"▁deest":7278,"▁γ":7279,"▁elev":7280,"anorum":7281,"▁inscrip":7282,"▁provinciae":7283,"▁principis":7284,"▁viribus":7285,"▁Sin":7286,"▁11.\r\n":7287,"▁tuorum":7288,"nox":7289,"▁Vinc":7290,"ali,":7291,"▁just":7292,"ice:\r\n":7293,"▁celata:B":7294,"ratum":7295,"▁causis":7296,"▁inm":7297,"▁coenob":7298,"ultum":7299,"▁Duc":7300,"▁munus":7301,"▁Mense":7302,"▁vivific":7303,"▁reduc":7304,"▁mandata":7305,"-n":7306,"41":7307,"▁erig":7308,"bis":7309,"iret,":7310,"▁Ing":7311,"▁habeant":7312,"▁velle":7313,"enit":7314,"▁Ante":7315,"▁best":7316,"▁eandem":7317,"erentur,":7318,"▁obliv":7319,"▁Hæc":7320,"▁quisquam":7321,"▁laudem":7322,"▁homines,":7323,"inter":7324,"▁inspect":7325,"▁imb":7326,"yss":7327,"▁nostri,":7328,"▁sepult":7329,"▁istius":7330,"▁Ies":7331,"▁resurrectionem":7332,"▁possunt,":7333,"▁Lutet":7334,"▁Tor":7335,"▁sord":7336,"des":7337,"▁Huius":7338,"▁valet":7339,"▁y":7340,"ubesc":7341,"entum.\r\n":7342,"63":7343,"▁nihilominus":7344,"▁nup":7345,"▁Abb":7346,"▁mandatum":7347,"▁πρ":7348,"▁pens":7349,"▁Secundum":7350,"acia":7351,"▁??\r\n":7352,"anta":7353,"ht":7354,"ose":7355,"▁Public":7356,"▁Gir":7357,"▁Hein":7358,"▁1994":7359,"▁Apostoli":7360,"▁semin":7361,"▁Juda":7362,"u.\r\n":7363,"▁tu,":7364,"itio,":7365,"▁humanae":7366,"▁Sent":7367,"verter":7368,"▁Gulielmus":7369,"▁i,":7370,"▁similis":7371,"▁labore":7372,"▁prost":7373,"▁meam,":7374,"▁Beati":7375,"ulp":7376,"▁summo":7377,"ri.\r\n":7378,"▁publice":7379,"▁virtutibus":7380,"▁resid":7381,"▁80":7382,"hn":7383,"▁verborum":7384,"▁pastor":7385,"▁fideic":7386,"obard":7387,"arii,":7388,"lio":7389,"▁confer":7390,"ina.\r\n":7391,"▁Cypr":7392,"▁psalm":7393,"▁42":7394,"▁Iohannes":7395,"allic":7396,"▁resist":7397,"esta":7398,"▁XI,":7399,"▁rig":7400,"▁L.\r\n":7401,"▁improb":7402,"eff":7403,"▁committ":7404,"esse,":7405,"▁exinde":7406,"▁genit":7407,"itania":7408,"DU":7409,"lav":7410,"quo":7411,"▁frum":7412,"▁redim":7413,"▁causas":7414,"eter":7415,"▁unquam":7416,"▁Cred":7417,"▁fructu":7418,"▁IX,":7419,"▁habemus":7420,".)":7421,"istae":7422,"▁partim":7423,"▁incred":7424,"epit":7425,"II,":7426,"▁monstr":7427,"▁ecclesiis":7428,"▁180":7429,"▁Camer":7430,"▁Saeculo":7431,"onius":7432,"▁calumn":7433,"▁So":7434,"inth":7435,"▁praedecess":7436,"▁Syn":7437,"age":7438,"▁animad":7439,"▁formid":7440,"▁nota":7441,"▁cathed":7442,"anto":7443,"▁dioeces":7444,"▁Daniel":7445,"oper":7446,"▁multorum":7447,"▁scientia":7448,"▁gaudium":7449,"▁animus":7450,"▁omitt":7451,"▁exstit":7452,"▁diabolus":7453,".c":7454,"▁contenti":7455,"▁sapi":7456,"▁tantummodo":7457,"▁scripsit":7458,"iod":7459,"5,":7460,"duc":7461,"▁Matronae":7462,"▁venerabili":7463,"emin":7464,"▁potentia":7465,"▁testimonio":7466,"▁uer":7467,"entibus.\r\n":7468,"d.,":7469,"undi":7470,"lop":7471,".10":7472,"▁Al.":7473,"▁τοῦ":7474,"andae":7475,"▁demum":7476,"▁aperte":7477,"▁reform":7478,"▁stet":7479,"▁aegr":7480,"▁peritus":7481,"▁prist":7482,"ximus":7483,"▁Tib":7484,"▁latere":7485,"▁(ad":7486,"ales,":7487,"▁conjunc":7488,"▁hodiern":7489,"S.":7490,"▁tempest":7491,"▁temere":7492,"▁admitt":7493,"▁nuper":7494,"elmi":7495,"antem,":7496,"▁langu":7497,"▁subito":7498,"yll":7499,"AP":7500,"▁saepius":7501,"are;\r\n":7502,"as:\r\n":7503,"▁viros":7504,"▁nonnulli":7505,"▁discretivam:\r\n":7506,"▁Italia":7507,"▁opportun":7508,"jici":7509,"▁osc":7510,"onii":7511,"sit,":7512,"▁episcopos":7513,"esim":7514,"▁Alt":7515,"▁te.\r\n":7516,"▁dedic":7517,"abant.\r\n":7518,"▁auctore":7519,"▁Capit":7520,"▁germ":7521,"▁uoc":7522,"▁advoc":7523,"▁etiamsi":7524,"aust":7525,"▁Liv":7526,"▁Flav":7527,"▁plurimum":7528,"-de":7529,"olf":7530,"▁Bert":7531,"▁dictis":7532,"▁paul":7533,"▁obsid":7534,"oma":7535,"as;\r\n":7536,"▁(urbs":7537,"▁nullatenus":7538,"▁even":7539,"▁peper":7540,"ès":7541,"ila":7542,"▁proprie":7543,"▁vivere":7544,"▁expos":7545,"uit;\r\n":7546,"▁medit":7547,"▁Hieros":7548,"▁infin":7549,"istri":7550,"ienn":7551,"▁Iosephus":7552,"aci":7553,"▁auctoritatem":7554,"▁facit,":7555,"▁conss.":7556,"▁excess":7557,"re.\r\n":7558,"▁rescrip":7559,"▁Ezech":7560,"II.\r\n":7561,"▁120":7562,"cyc":7563,"eque":7564,"acensis":7565,"▁Hom":7566,"▁electus":7567,"▁HD":7568,"▁operam":7569,"▁ire":7570,"▁librum":7571,"▁libenter":7572,"ivit,":7573,"▁omnim":7574,"▁respic":7575,"atam,":7576,"▁noster,":7577,"▁v.":7578,"COP":7579,"▁luxur":7580,"uerat,":7581,"icis,":7582,"▁Romanus":7583,"▁Stephanus":7584,"IV,":7585,"▁postrem":7586,"▁reconc":7587,"▁fon":7588,"▁pollic":7589,"▁toler":7590,"▁eh":7591,"▁situm":7592,"▁Nonne":7593,"▁paucis":7594,"▁comment":7595,"▁animal":7596,"▁duximus":7597,"ade":7598,"▁dext":7599,"81":7600,"itius":7601,"▁meorum":7602,"▁corn":7603,"▁org":7604,"▁transfer":7605,"ia)":7606,"▁civitatum":7607,"opolit":7608,"▁tranqu":7609,"▁Ans":7610,"▁certum":7611,"▁innum":7612,"ant:\r\n":7613,"▁nil":7614,"▁divinis":7615,"▁Tab":7616,"ENS":7617,"▁exposit":7618,"▁incarnationis":7619,"▁genera":7620,"▁susp":7621,"ago":7622,"imis":7623,"averat":7624,"▁12.\r\n":7625,"d.\r\n":7626,"ysi":7627,"▁igitur,":7628,"▁ecclesiastica":7629,"▁Orient":7630,"▁juven":7631,"▁recess":7632,"▁Christi.\r\n":7633,"▁maxima":7634,"atione.\r\n":7635,"▁Brun":7636,"lix":7637,"▁duabus":7638,"▁seru":7639,"▁1990":7640,"iani,":7641,"idit.\r\n":7642,"ρι":7643,"▁SER":7644,"arium,":7645,"▁Hieronymus":7646,"▁sabb":7647,"urum":7648,"▁venit,":7649,"▁loqui":7650,"▁ceteris":7651,"▁immol":7652,"▁Judæ":7653,"▁Aed":7654,"▁membr":7655,"▁Dixit":7656,"uisset":7657,"▁extend":7658,"▁luce":7659,"arae":7660,"▁dicebat":7661,"▁initium":7662,"▁comper":7663,"▁common":7664,"▁C.n.\r\n":7665,"abantur":7666,"▁frustra":7667,"itus.\r\n":7668,"▁abbate":7669,"ank":7670,"▁zel":7671,"▁append":7672,"▁Petrum":7673,"▁retribu":7674,"▁solu":7675,"aint-":7676,"▁dog":7677,"▁miles":7678,"▁panem":7679,"▁Moyses":7680,"▁pedibus":7681,"▁aetate":7682,"▁circumcis":7683,"▁idol":7684,"▁line":7685,"epid":7686,"a;\r\n":7687,"▁collect.":7688,"▁volum":7689,"▁passus":7690,"olia":7691,"ensum":7692,"▁capitulo":7693,"uk":7694,"▁illis,":7695,"▁repar":7696,"illis":7697,"▁aliena":7698,"▁moribus":7699,"am;\r\n":7700,"yg":7701,"▁Venet":7702,"▁finis":7703,"▁commis":7704,"▁dot":7705,"▁dulced":7706,"▁aeternae":7707,"▁Iter":7708,"▁diversa":7709,"▁familiae":7710,"▁aliae":7711,"▁s.":7712,"▁Os":7713,"▁inuti":7714,"▁Del":7715,"▁morta":7716,"▁fuerant":7717,"▁deo":7718,"▁altero":7719,"▁Latine":7720,"▁reserv":7721,"epta":7722,"▁sanctam":7723,"έν":7724,"▁dicto":7725,"ess.fr":7726,"▁ehess.fr":7727,"▁perv":7728,"▁incur":7729,"▁cassini.\r\n":7730,"iales":7731,"▁Iacobus":7732,"▁facere,":7733,"▁integrum":7734,"▁fecit.\r\n":7735,"sitan":7736,"▁fideicomm":7737,"▁impiet":7738,"rat,":7739,"is?\r\n":7740,"▁promp":7741,"▁pontificatus":7742,"▁alleg":7743,"ecus":7744,"▁officialis":7745,"itorum":7746,"▁comput":7747,"▁visc":7748,"▁interdum":7749,"▁Str":7750,"uersis":7751,"▁ic":7752,"▁Isaac":7753,"avimus,":7754,"▁discord":7755,"▁munere":7756,"▁causa,":7757,"rup":7758,"▁depon":7759,"▁cael":7760,"▁sapientiae":7761,"▁CL":7762,"▁aetatis":7763,"-m":7764,"ek":7765,"▁dari":7766,"erum,":7767,"oribus,":7768,"▁uobis":7769,"abuntur":7770,"▁illi,":7771,"▁eat":7772,"▁oct":7773,"▁manifestum":7774,"▁flamm":7775,"▁dispos":7776,"▁XIII,":7777,"dom":7778,"▁Carant":7779,"▁porr":7780,"▁Mox":7781,"▁videt":7782,"ensus":7783,"erp":7784,"▁mach":7785,"orium":7786,"▁milia":7787,"▁fidem,":7788,"▁nau":7789,"▁Ludovicus":7790,"▁Dionys":7791,"▁utroque":7792,"▁concilii":7793,"▁omnipotens":7794,"▁Ric":7795,"▁imperio":7796,"▁aures":7797,"4,":7798,"▁Marcus":7799,"inia":7800,"ale,":7801,"▁fortun":7802,"▁apostolis":7803,"ennae":7804,"▁inp":7805,"imus;\r\n":7806,"▁humiliter":7807,"▁hominis,":7808,"▁die,":7809,"▁molend":7810,"vel":7811,"▁recens":7812,"▁humani":7813,"entem.\r\n":7814,"ebatur.\r\n":7815,"▁Romano":7816,"▁quattu":7817,"▁Les":7818,"▁tuo,":7819,"orth":7820,"▁consor":7821,"▁municipium,":7822,".'":7823,"▁credere":7824,"▁orbis":7825,"gyp":7826,"▁Redemptor":7827,"▁habet.\r\n":7828,"▁vetust":7829,"era,":7830,"averat,":7831,"▁subl":7832,"▁docet":7833,"▁singulos":7834,"▁trem":7835,"▁simpl":7836,"▁sustent":7837,"▁lun":7838,"ontes":7839,"▁stult":7840,"▁actum":7841,"▁†":7842,"▁illa,":7843,"inorum":7844,"orsum":7845,"▁Mur":7846,"nes":7847,"▁uxore":7848,"▁suad":7849,"▁succed":7850,"▁Maced":7851,"▁libid":7852,"▁superst":7853,"▁amor":7854,"▁angelus":7855,"▁SE":7856,"▁diei":7857,"▁eorum.\r\n":7858,"▁Gre":7859,"▁codd.":7860,"ranc":7861,"▁adip":7862,"asset,":7863,"▁adversum":7864,"ett":7865,"▁libera":7866,"▁juris":7867,"▁iu":7868,"▁cordibus":7869,"▁rursum":7870,"▁stup":7871,"erem,":7872,"issis":7873,"▁vinum":7874,"ensibus":7875,"III,":7876,"SAL":7877,"abit,":7878,"▁habes":7879,"▁uxoris":7880,"▁posuit":7881,"▁liter":7882,"▁continuo":7883,"ommod":7884,"ulus,":7885,"▁Jun":7886,"▁Stud":7887,"▁filiam":7888,"62":7889,"▁Vis":7890,"Christ":7891,"ὸν":7892,"erito":7893,"rorum":7894,"▁motus":7895,"▁Hierosolym":7896,"▁Cap.":7897,"▁domest":7898,"f.\r\n":7899,"ularis":7900,"▁censu":7901,"▁Dicit":7902,"▁Eboraci:\r\n":7903,"▁13.\r\n":7904,"▁linguae":7905,"▁speciem":7906,"▁instruc":7907,"▁saev":7908,"▁(T":7909,"iosa":7910,"▁possessiones":7911,"-19":7912,"▁hostes":7913,"Domin":7914,"ci":7915,"▁illustr":7916,"osque":7917,"▁Nomen":7918,"▁municipio":7919,"▁hym":7920,"▁adolesc":7921,"▁episcopi,":7922,"▁amar":7923,"usa":7924,"en.":7925,"▁evangeli":7926,"▁videatur":7927,"▁gess":7928,"▁Pompe":7929,"▁ę":7930,"oman":7931,"▁uter":7932,"isti.\r\n":7933,"aribus":7934,"▁plan":7935,"▁undique":7936,"▁decimam":7937,"enda.\r\n":7938,"▁immut":7939,"form":7940,"▁futuro":7941,"▁Provinc":7942,"▁navig":7943,"-R":7944,"▁ecclesiarum":7945,"▁fuisse,":7946,"-P":7947,"▁regnante":7948,"▁v,":7949,"▁doctrinam":7950,"▁tard":7951,"▁pago":7952,"▁Pac":7953,"▁AN":7954,"▁illas":7955,"ondit":7956,"▁codice":7957,"▁Sever":7958,"▁Auctores":7959,"▁Patrum":7960,"antes.\r\n":7961,"▁Quad":7962,"iori":7963,"▁David,":7964,"quem":7965,"▁decrev":7966,"▁speci":7967,"▁praepos":7968,"▁intelligi":7969,"put":7970,"riter":7971,"▁Bed":7972,"▁dico,":7973,"▁hostium":7974,"▁biographiam":7975,"elu":7976,"▁Corp":7977,"▁Academ":7978,"ivi":7979,"ὴν":7980,"▁Arc":7981,"▁suscit":7982,"▁Carthag":7983,"▁appellantur.\r\n":7984,"▁Nost":7985,"▁Similiter":7986,"▁maris":7987,"▁TH":7988,"ulari":7989,"▁Judaei":7990,"▁aeternam":7991,"▁Biographicae":7992,"▁afflic":7993,"▁tantam":7994,"uad":7995,"▁dimid":7996,"▁Mons":7997,"ationibus,":7998,"▁grati":7999,"ilis,":8000,"▁armis":8001,"▁impress":8002,"▁necessarium":8003,"▁potestatis":8004,"▁testamento":8005,"erim":8006,"▁Juli":8007,"▁sponte":8008,"▁columb":8009,"▁Dioecesis":8010,"▁magnus":8011,"▁kal":8012,"▁pretium":8013,"▁Da":8014,"▁(1":8015,"▁Judaeorum":8016,"▁It":8017,"▁antist":8018,"▁legi":8019,"▁grand":8020,"▁aeccles":8021,"▁vitia":8022,"▁suarum":8023,"▁Tert":8024,"▁montem":8025,"olam":8026,"IM":8027,"▁cell":8028,"▁scribit":8029,"▁vivit":8030,"▁homic":8031,"▁formulam":8032,"▁41":8033,"onem,":8034,"tax":8035,"▁Ardu":8036,"▁consilia":8037,"▁actione":8038,"▁fines":8039,"eat.\r\n":8040,"▁dedit,":8041,"▁liberum":8042,"▁orationem":8043,"▁Numquid":8044,"▁iram":8045,"andum.\r\n":8046,"arent.\r\n":8047,"▁Voc":8048,"▁dixi,":8049,"▁glori":8050,"▁beneficium":8051,"▁Nicola":8052,"▁deleg":8053,"▁horr":8054,"escere":8055,"▁Lege":8056,"▁Praeterea":8057,"▁propositum":8058,"▁Iap":8059,"▁circumd":8060,"alis.\r\n":8061,"aturus":8062,"▁dierum":8063,"▁edit.\r\n":8064,"▁oculi":8065,"ebantur,":8066,"▁Illi":8067,"61":8068,"▁protinus":8069,"▁N.":8070,"▁Plac":8071,"ię":8072,"▁surr":8073,"▁τῆς":8074,"▁preces":8075,"entis.\r\n":8076,"▁praeterea":8077,"TA":8078,"eres,":8079,"▁solet":8080,"▁judicii":8081,"▁ejusque":8082,"▁introduc":8083,"▁variis":8084,"▁vester":8085,"▁E.\r\n":8086,"▁Apoc":8087,"▁panis":8088,"mina":8089,"▁Antonius":8090,"▁dicitur.\r\n":8091,"▁fieri,":8092,"▁tecum":8093,"▁clav":8094,"▁mari":8095,"▁Catholica":8096,"▁Beth":8097,"avit;\r\n":8098,"▁desin":8099,"▁paradis":8100,"▁fratre":8101,"▁debet,":8102,"▁discern":8103,"▁incorr":8104,"▁habere,":8105,"-g":8106,"▁quolibet":8107,"asque":8108,"amini":8109,"▁iudici":8110,"▁EPISTOLA\r\n":8111,"▁Calv":8112,"▁partis":8113,"▁temporum":8114,"US.\r\n":8115,"▁90":8116,"▁pess":8117,"▁valeat":8118,"atr":8119,"ecit,":8120,"▁Torn":8121,"▁tenebris":8122,"▁libros":8123,"▁voluntatis":8124,"▁Helvet":8125,"▁eam,":8126,"▁meos":8127,"▁calam":8128,"▁Apostolus,":8129,"ς,":8130,"▁oratio":8131,"▁Textus":8132,"eus":8133,"▁vast":8134,"▁1992":8135,"▁Act.":8136,"▁membris":8137,"▁discess":8138,"▁ἐπ":8139,"▁sacrificium":8140,"itia,":8141,"exit,":8142,"▁misc":8143,"aculis":8144,"▁conspic":8145,"▁tui,":8146,"▁Magn":8147,"▁episcopo,":8148,"ham":8149,"it.":8150,"▁pœ":8151,"▁palm":8152,"eas":8153,"▁impos":8154,"▁singular":8155,"othe":8156,"▁persolv":8157,"▁Quæ":8158,"▁Taur":8159,"▁Ir":8160,"▁aem":8161,"▁III.\r\n":8162,"▁Bapt":8163,"▁quoque,":8164,"tir":8165,"UN":8166,"aretur.\r\n":8167,"▁examin":8168,"ist.":8169,"▁conscientia":8170,"▁pav":8171,"▁nobis.\r\n":8172,"▁contul":8173,"▁consuetudinem":8174,"abit.\r\n":8175,"▁Urbis":8176,"ymp":8177,"▁teste":8178,"eder":8179,"▁inimici":8180,"▁Dominicae":8181,"▁Monast":8182,"▁verus":8183,"▁Deo.\r\n":8184,"▁Gallic":8185,"▁missus":8186,"▁legatum":8187,"▁1991":8188,"▁Dur":8189,"▁dignatus":8190,"▁excit":8191,"▁Salvatoris":8192,"▁antiqua":8193,"esb":8194,"▁suae,":8195,"oquin":8196,"▁innot":8197,"▁Sequanae":8198,"rast":8199,"▁abi":8200,"▁ori":8201,"▁periculum":8202,"▁tuos":8203,"▁visum":8204,"ques":8205,"▁oppress":8206,"tera":8207,"▁Mari":8208,"▁AR":8209,"▁inspir":8210,"▁cerv":8211,"queb":8212,"cl":8213,"▁quiet":8214,"ois":8215,"qua":8216,"-18":8217,"asset":8218,"τα":8219,"ricis":8220,"orl":8221,"▁utp":8222,"▁monachorum":8223,"▁faciet":8224,"▁actio":8225,"▁(m":8226,"▁laque":8227,"▁*\r\n":8228,"▁\"S":8229,".0.\r\n":8230,"tior":8231,"▁potuit,":8232,"▁mille":8233,"▁Merc":8234,"roix":8235,"entia.\r\n":8236,"▁Domino.\r\n":8237,"▁universis":8238,"▁Honor":8239,"▁discipuli":8240,"7,":8241,"▁Philippus":8242,"▁auc":8243,"▁pertr":8244,"▁urg":8245,"est.\r\n":8246,"▁percuss":8247,"aring":8248,"▁magnam":8249,"▁gesta":8250,"uncta":8251,"▁debitum":8252,"▁jact":8253,"ertum":8254,"▁bland":8255,"▁certa":8256,"ez":8257,"▁Praec":8258,"▁Data":8259,"▁hominem,":8260,"enia":8261,"sh":8262,"▁=":8263,"ate.\r\n":8264,"▁principum":8265,"▁semen":8266,"▁adjutor":8267,"ol.":8268,"andos":8269,"▁adventum":8270,"▁synodo":8271,"▁munim":8272,"▁nostris,":8273,"▁Ecclesiæ":8274,"8,":8275,"onensi":8276,"▁Etiam":8277,"▁nescio":8278,"ebunt":8279,"timus":8280,"ana,":8281,"▁Oce":8282,"▁amorem":8283,"▁multitudo":8284,"▁sacrileg":8285,"▁Bat":8286,"▁suis.\r\n":8287,"heim":8288,"ka":8289,"▁servo":8290,"▁habentes":8291,"▁gra":8292,"▁quær":8293,"R.\r\n":8294,"▁100":8295,"▁15.\r\n":8296,"▁meo,":8297,"▁comprob":8298,"▁erubesc":8299,"ics":8300,"▁Pis":8301,"▁pellic":8302,"▁Opus":8303,"▁posc":8304,"▁industr":8305,"▁hospit":8306,"endo.\r\n":8307,"▁rum":8308,"▁constant":8309,"▁oves":8310,"vir":8311,"▁quodamm":8312,"▁curia":8313,"▁bonum,":8314,"hel":8315,"▁acquir":8316,"▁honoris":8317,"fam":8318,"▁6,":8319,"▁peccatores":8320,"▁dignitate":8321,"▁Nicolaus":8322,"▁Aegypti":8323,"▁deliber":8324,"▁scriptur":8325,"▁absolut":8326,"▁heredes":8327,"▁Americae":8328,"▁Ax":8329,"▁Land":8330,"▁Deut":8331,"▁Romanum":8332,"▁misericordiae":8333,"▁periculo":8334,"▁possunt.\r\n":8335,"▁illud,":8336,"ui.\r\n":8337,"▁dubium":8338,"▁ingred":8339,"▁Pub":8340,"▁Deum.\r\n":8341,"▁convenit":8342,"ensem,":8343,"▁dicente":8344,"▁praen":8345,"▁Fanum":8346,"▁remans":8347,"iensis,":8348,"▁Hebra":8349,"▁antecess":8350,"▁castig":8351,"▁sacramentum":8352,"▁vice":8353,"▁dit":8354,"▁construc":8355,"▁prosequ":8356,"▁Quidam":8357,"▁forsitan":8358,"▁59":8359,"▁imple":8360,"▁munera":8361,"▁Press,":8362,"oqueb":8363,"▁auf":8364,"▁Imperii":8365,"▁exsequ":8366,"ienter":8367,"▁Ros":8368,"▁hominibus,":8369,"VII.\r\n":8370,"roc":8371,"▁gladio":8372,"▁(a)":8373,"▁sed,":8374,"imus:\r\n":8375,"sae":8376,"▁ἐν":8377,"acione":8378,"▁Du":8379,"▁Gab":8380,"▁Hos":8381,"▁recus":8382,"tam,":8383,"▁Gra":8384,"▁corpore,":8385,"iderunt":8386,"▁fidei,":8387,"▁Maj":8388,"▁Aem":8389,"ικ":8390,"tio.\r\n":8391,"▁Remig":8392,"▁malorum":8393,"▁passionis":8394,"▁fiunt":8395,"▁PP":8396,"▁pern":8397,"▁testamentum":8398,"ebit.\r\n":8399,"▁Sup":8400,"vern":8401,"▁liqu":8402,"▁Montis":8403,"▁corrip":8404,"▁opor":8405,"▁refug":8406,"ectis":8407,"▁subjung":8408,"inianus":8409,"▁alicui":8410,"▁Lo":8411,"▁insula":8412,"ro,":8413,"inensis":8414,"iari":8415,"▁Muli":8416,"escit":8417,"▁inimicos":8418,"▁Gem":8419,"af":8420,"▁codex":8421,"▁studium":8422,"ito,":8423,"▁argu":8424,"▁praeceptum":8425,"s.,":8426,"▁scab":8427,"▁1981":8428,"▁Mem":8429,"▁Nisi":8430,"r.":8431,"aron":8432,"ules":8433,"▁55":8434,"▁Hebr":8435,"▁ȩccles":8436,"▁soci":8437,"ogallic":8438,"▁H.\r\n":8439,"-3":8440,"▁subm":8441,"▁(O":8442,"▁templo":8443,"▁Marit":8444,"uscrip":8445,"ulch":8446,"entias":8447,"▁exord":8448,"▁interv":8449,"▁flu":8450,"ulfus":8451,"▁merid":8452,"▁sita":8453,"in.":8454,"abitur,":8455,"ia:\r\n":8456,"VIII":8457,"▁Rev":8458,"▁subven":8459,"▁pertinentiis":8460,"propinqu":8461,"▁decima":8462,"▁Huic":8463,"▁Arist":8464,"▁ullo":8465,"nd":8466,"▁lectionem":8467,"▁nostrum,":8468,"▁libras":8469,"▁Mosellae":8470,"▁ferm":8471,"▁creatus":8472,"ior,":8473,"▁(regio":8474,"▁Domini.\r\n":8475,"pro":8476,"▁nobiscum":8477,"▁Book":8478,"▁renov":8479,"▁Marie":8480,"overs":8481,"▁tit.":8482,"▁tantum,":8483,"▁14.\r\n":8484,"▁Petri,":8485,"atos,":8486,"▁simili":8487,"▁quarta":8488,"▁porro":8489,"otibus":8490,"εί":8491,"▁Clari":8492,"▁Londinii":8493,"▁melior":8494,"mine":8495,"▁certam":8496,"▁sob":8497,"▁beato":8498,"▁lep":8499,"isco":8500,"▁Etenim":8501,"fess":8502,"▁exclud":8503,"▁estis,":8504,"▁fama":8505,"▁Dioc":8506,"▁quarto":8507,"▁mores":8508,"▁alteri":8509,"b.,":8510,"odis":8511,"▁terrena":8512,"▁are":8513,"▁resurrectionis":8514,"▁diaconus":8515,"▁(discretiva)":8516,"▁sever":8517,"▁Ren":8518,"ditis":8519,"▁Angliae":8520,"▁haberet":8521,"ANO":8522,"▁pasch":8523,"▁Alc":8524,"▁digna":8525,"▁54":8526,"▁deneg":8527,"VII,":8528,"6,":8529,"▁poenam":8530,"▁diabolo":8531,"▁crimen":8532,"ipl":8533,"▁doctrinae":8534,"iaconi":8535,"▁vetus":8536,"iri,":8537,"▁Pharis":8538,"▁matur":8539,"▁iug":8540,"▁ascendit":8541,"▁diceret:\r\n":8542,"▁Exs":8543,"▁comitatus":8544,"▁Rain":8545,"▁bibli":8546,"▁erip":8547,"▁virgo":8548,"undo":8549,"IV.\r\n":8550,"L.\r\n":8551,"▁L.":8552,"ais":8553,"▁rust":8554,"▁Arab":8555,"ionem.\r\n":8556,"quia":8557,"▁primam":8558,"▁filius,":8559,"lant":8560,"ὐτ":8561,"ichil":8562,"ore.\r\n":8563,"▁\"C":8564,"▁Romanis":8565,"▁omnipotentis":8566,"▁quodammodo":8567,"▁novit":8568,"▁essent,":8569,"▁ibi,":8570,"▁debita":8571,"▁nou":8572,"▁hyp":8573,"▁tantae":8574,"▁ancill":8575,"▁Lugdun":8576,"arentur":8577,"▁veram":8578,"▁artific":8579,"▁multas":8580,"anne":8581,"itudinem,":8582,"▁Do":8583,"icae,":8584,"▁breviter":8585,"eram":8586,"iano,":8587,"▁expl":8588,"astas":8589,"▁quisquis":8590,"▁orbem":8591,"iel":8592,"▁lectio":8593,"▁esc":8594,"▁faciam":8595,"▁praescrip":8596,"l.\r\n":8597,"ester":8598,"▁scriptis":8599,"▁hereditatem":8600,"itiv":8601,"▁superioris":8602,"▁typ":8603,"▁consult":8604,"etur;\r\n":8605,"erere":8606,"▁epistolae":8607,"▁voluerit":8608,"▁libertate":8609,"▁Clar":8610,"▁Evangelii":8611,"▁2.":8612,"▁nullius":8613,"▁Theodor":8614,"▁poet":8615,"iliae":8616,"▁On":8617,"▁capitis":8618,"antur;\r\n":8619,"▁Pelag":8620,"issimos":8621,"▁implet":8622,"▁regio":8623,"▁susceper":8624,"▁Augustini":8625,"▁jucund":8626,"itudo,":8627,"▁Cav":8628,"▁quaecunque":8629,"▁ecclesias":8630,"▁plenius":8631,"▁conclus":8632,"▁Pan":8633,"▁Silv":8634,"▁perfid":8635,"prov":8636,"▁quandoque":8637,"iturus":8638,"atori":8639,"oldus":8640,"ecti,":8641,"▁Oeconom":8642,"PD":8643,"▁sod":8644,"ialem":8645,"▁Iacob":8646,"▁facilius":8647,"▁humilis":8648,"▁incho":8649,"▁conclud":8650,"▁ego,":8651,"▁q.":8652,"▁animos":8653,"▁2014":8654,"▁percep":8655,"▁simpliciter":8656,"rom":8657,"▁sacros":8658,"▁celata:G":8659,"▁Meridiano":8660,"▁aurum":8661,"▁auxili":8662,"▁utero":8663,"▁intellex":8664,"▁Chrys":8665,"▁Quorum":8666,"▁Hac":8667,"▁edit.":8668,"ij":8669,"▁nempe":8670,"▁(ter":8671,"▁officia":8672,"raec":8673,"ετ":8674,"yri":8675,"▁Had":8676,"ores.\r\n":8677,"▁ministerium":8678,"▁prepos":8679,"▁posset,":8680,"▁Evangel":8681,"itata":8682,"▁ipse,":8683,"▁statum":8684,"▁instit":8685,"▁charitatem":8686,"▁scientiam":8687,"▁Simon":8688,"▁voluerit,":8689,"ures":8690,"▁Naz":8691,"▁sanctos":8692,"▁Berg":8693,"▁scandal":8694,"▁mac":8695,"endi.\r\n":8696,"▁reprehend":8697,"▁æter":8698,"▁terren":8699,"▁perag":8700,"▁capell":8701,"ebo":8702,"▁mortui":8703,"▁fecerunt":8704,"ology":8705,"▁angelis":8706,"▁(urbs),":8707,"▁remun":8708,"▁Constantinopolit":8709,"▁possum":8710,"▁sapientiam":8711,"▁brach":8712,"▁territor":8713,"elam":8714,"▁Judaeis":8715,"uisse,":8716,"ario,":8717,"▁dubia":8718,"▁Nob":8719,"▁Origen":8720,"▁virorum":8721,"▁regular":8722,"▁vires":8723,"▁W.\r\n":8724,"z,":8725,"▁Gis":8726,"isso":8727,"▁eu":8728,"▁Burgund":8729,"▁Eugen":8730,"oli,":8731,"▁personae":8732,"▁creb":8733,"▁fabric":8734,"▁exercitum":8735,"▁Add":8736,"▁iura":8737,"▁Scot":8738,"iri.\r\n":8739,"ecto":8740,"ordin":8741,"ravit,":8742,"▁archiepiscopo":8743,"▁appellatione":8744,"▁ęccles":8745,"▁For":8746,"▁canonice":8747,"▁gaudio":8748,"▁Vere":8749,"pa":8750,"▁Rub":8751,"▁Unus":8752,"endam,":8753,"▁>":8754,"▁lup":8755,"uique":8756,"entesimo":8757,"▁Valentin":8758,"▁adimpl":8759,"-b":8760,"▁cu":8761,"itte":8762,"es;\r\n":8763,"▁millesimo":8764,"▁Nest":8765,"estus":8766,"▁tal":8767,"▁requ":8768,"inx":8769,"▁congru":8770,"▁Scripta":8771,"▁αὐτ":8772,"▁Lingu":8773,"da":8774,"▁passim":8775,"▁divini":8776,"▁novi":8777,"DI":8778,"▁Castrum":8779,"▁2008)\r\n":8780,"▁nolite":8781,"▁latron":8782,"▁civitates":8783,"anda,":8784,"▁vers.":8785,"9,":8786,"▁quattuor":8787,"▁multitudine":8788,"enti.\r\n":8789,"eto":8790,"▁discrim":8791,"▁fecerit":8792,"▁orientali":8793,"erni":8794,"▁quamquam":8795,"▁Caeterum":8796,"▁press":8797,"▁dignus":8798,"▁Incarn":8799,"▁difficult":8800,"▁matre":8801,"▁Cister":8802,"▁pertinere":8803,"nos":8804,"▁unic":8805,"▁personis":8806,"▁duplic":8807,"▁fecisse":8808,"▁Tim.":8809,"inf":8810,"▁desiderio":8811,"▁patet":8812,"▁Langobard":8813,"▁)?\r\n":8814,"antius":8815,"ork":8816,"▁rot":8817,"▁municipii":8818,"▁dilecti":8819,"orumque":8820,"▁æqu":8821,"▁patriam":8822,"▁divinitatis":8823,"▁16.\r\n":8824,"▁repell":8825,"▁præter":8826,"▁modo,":8827,"▁principibus":8828,"▁summum":8829,"▁psalmo":8830,"▁auctoritas":8831,"'A":8832,"▁inquiet":8833,"▁habuit,":8834,"▁clari":8835,"▁δι":8836,"bur":8837,"▁XC":8838,"▁promulg":8839,"▁Polit":8840,"▁deposit":8841,"etur:\r\n":8842,"▁victoria":8843,"▁EPISCOP":8844,"▁affectu":8845,"▁possit.\r\n":8846,"iendum":8847,"▁quaeque":8848,"▁alb":8849,"▁legitime":8850,"▁ministri":8851,"▁tenere":8852,"▁psall":8853,"ribus,":8854,"▁corrump":8855,"▁immo":8856,"▁loquitur,":8857,"▁reddere":8858,"▁Barb":8859,"▁pred":8860,"▁gradus":8861,"▁concilia":8862,"▁ἡ":8863,"▁terrib":8864,"▁arte":8865,"▁march":8866,"amentum":8867,"▁Leonis":8868,"ολ":8869,"issa,":8870,"▁utpote":8871,"▁Praefect":8872,"▁multitudinem":8873,"▁oppon":8874,"▁vocat":8875,"▁quinquaginta":8876,"mur":8877,"▁officii":8878,"▁pulchr":8879,"▁sue":8880,"▁ora":8881,"▁displic":8882,"acum":8883,"▁XIV,":8884,"▁Fractiones,":8885,"▁incid":8886,"▁determin":8887,"▁vehementer":8888,"▁herb":8889,"ationis.\r\n":8890,"ense,":8891,"▁liberi":8892,"en-":8893,"anum,":8894,"loc":8895,"it?\r\n":8896,"▁loqueb":8897,"▁subt":8898,"▁seren":8899,"▁Arvern":8900,"▁causae":8901,"▁8,":8902,"▁Leon":8903,"▁Sabb":8904,"▁impugn":8905,"icon":8906,"▁placuit":8907,"lish":8908,"▁parentum":8909,"▁Anim":8910,"▁neminem":8911,"▁palam":8912,"▁deos":8913,"▁cruce":8914,"▁cau":8915,"eunte":8916,"▁croix":8917,"▁patrum":8918,"▁intelligere":8919,"▁58":8920,"▁Myr":8921,"estr":8922,"▁decep":8923,"▁orationibus":8924,"fridus":8925,"▁uolunt":8926,"▁habitu":8927,"ar.\r\n":8928,"US,":8929,"▁Nunquid":8930,"avit:\r\n":8931,"▁suos,":8932,"▁Men":8933,"estum":8934,"▁prou":8935,"itr":8936,"abilis,":8937,"▁firmiter":8938,"▁actionem":8939,"iger":8940,"▁Comp":8941,"lag":8942,"este":8943,"▁ibid.\r\n":8944,"▁Lotharing":8945,"▁Hol":8946,"tu,":8947,"▁fide,":8948,"▁castell":8949,"▁mortem,":8950,"▁Sententia":8951,"icæ":8952,"▁Mult":8953,"▁Mc":8954,"▁soll":8955,"alitate":8956,"▁AUG":8957,"▁conqu":8958,"at?\r\n":8959,"▁singula":8960,"issime,":8961,"▁celata:F":8962,"▁desert":8963,"serit,":8964,"amur.\r\n":8965,"▁Peri":8966,"▁Quos":8967,"▁mysterium":8968,"▁terras":8969,"▁famul":8970,"▁vesper":8971,"abitur.\r\n":8972,"ebit,":8973,"▁mundi,":8974,"arm":8975,"▁repugn":8976,"ifer":8977,"▁interfic":8978,"▁II.":8979,"▁devotione":8980,"▁nichil":8981,"ascrip":8982,"▁sedit":8983,"▁mortua":8984,"▁fieret":8985,"iorum,":8986,"▁fus":8987,"▁praet":8988,"oniensis":8989,"▁tranquill":8990,"▁montes":8991,"▁beneficio":8992,"▁impetr":8993,"▁priusquam":8994,"▁lumine":8995,"AB":8996,"▁orationis":8997,"annus":8998,"▁sanguis":8999,"▁pauperes":9000,"▁Joannem":9001,"▁conturb":9002,"▁patriae":9003,"▁cos":9004,"roch":9005,"▁esset.\r\n":9006,").":9007,"n.":9008,"iacum":9009,"aldi":9010,"▁XV,":9011,"iebat":9012,"▁von":9013,"▁posterum":9014,"iantur,":9015,"▁Dix":9016,"▁Duo":9017,"▁factam":9018,"▁accepit,":9019,"▁XVIII":9020,"▁tertium":9021,"▁trip":9022,"▁martyrum":9023,"▁sacrat":9024,"▁Ste":9025,"▁cru":9026,"▁imperatore":9027,"▁colloqu":9028,"▁scripti":9029,"▁Latini":9030,"▁SERMO":9031,"uisset,":9032,"elio":9033,"▁ducis":9034,"lac":9035,"▁len":9036,"lat":9037,"▁quicumque":9038,"▁facies":9039,"▁Andreas":9040,"▁56":9041,"▁Aure":9042,"▁Rav":9043,"▁errore":9044,"▁odio":9045,"▁Primum":9046,"▁possent":9047,"▁justis":9048,"▁aev":9049,"▁videtur.\r\n":9050,"▁filiae":9051,"-p":9052,"▁myth":9053,"s:\r\n":9054,"elium":9055,"alitatis":9056,"▁Hor":9057,"▁Sane":9058,"▁expugn":9059,"▁fiat,":9060,"▁scientiae":9061,"▁Ves":9062,"▁illum,":9063,"▁lus":9064,"▁suæ":9065,"tuaginta":9066,"▁sententiae":9067,"▁antiqui":9068,"▁inimic":9069,"▁Flandr":9070,"A.\r\n":9071,"▁bonos":9072,"▁Graeco":9073,"▁honorific":9074,"▁caes":9075,"▁amis":9076,"ulit.\r\n":9077,"▁Roma":9078,"▁7,":9079,"▁Turc":9080,"▁ipsum,":9081,"▁53":9082,"eant,":9083,"atores,":9084,"▁Stephani":9085,"ner":9086,"▁praesentibus":9087,"▁Elis":9088,"cyclop":9089,"▁ipsas":9090,"▁tenet":9091,"▁dilectionem":9092,"▁decet":9093,"seud":9094,"▁sicuti":9095,"elmo":9096,"▁natum":9097,"undum":9098,"▁incurr":9099,"▁Eut":9100,"▁destru":9101,"▁Zach":9102,"▁linguam":9103,"▁rex,":9104,"▁vobis.\r\n":9105,"▁aliqui":9106,"▁το":9107,"▁turba":9108,"Ital":9109,"▁Tar":9110,"▁controvers":9111,"▁Postquam":9112,"▁coelorum":9113,"▁stell":9114,"▁Contra":9115,"▁audac":9116,"▁Colleg":9117,"▁voluit,":9118,"▁Latina":9119,"▁History":9120,"▁ungu":9121,"▁obnox":9122,"jur":9123,"ennium":9124,"▁crucem":9125,"▁infam":9126,"▁Epistola":9127,"▁dissimul":9128,"greg":9129,"ates,":9130,"anos":9131,"▁legitur,":9132,"har":9133,"▁Pos":9134,"▁Rhodano":9135,"▁colon":9136,"▁Potest":9137,"▁istum":9138,"▁responde":9139,"aet":9140,"▁AL":9141,"▁Lingua":9142,"tionis,":9143,"▁Editi,":9144,"▁timor":9145,"▁amoris":9146,"▁adha":9147,"ativa":9148,"▁decor":9149,"▁effus":9150,"▁cent":9151,"rux":9152,"▁nati":9153,"▁Ait":9154,"VIII.\r\n":9155,"▁Satur":9156,"olph":9157,"▁V.\r\n":9158,"▁principem":9159,"▁tua.\r\n":9160,"▁dixerit":9161,"▁Gode":9162,"▁vitiis":9163,"▁eciam":9164,"▁pia":9165,"itti":9166,"entiae,":9167,"▁Intern":9168,"▁ideoque":9169,"inam,":9170,"▁57":9171,"▁figura":9172,"▁vita,":9173,"▁fecerit,":9174,"▁desiderium":9175,"ientibus":9176,"▁duae":9177,"▁nominibus":9178,"▁Sid":9179,"▁beneficia":9180,"▁aer":9181,"▁detin":9182,"▁angelorum":9183,"▁dolore":9184,"▁Marg":9185,"▁bona,":9186,"▁credimus":9187,"▁copul":9188,"io:\r\n":9189,"uerit.\r\n":9190,"▁adep":9191,"anensis":9192,"▁Saul":9193,"▁disciplin":9194,"▁dabit":9195,"▁humilitatis":9196,"▁mensis":9197,"are:\r\n":9198,"▁ulterius":9199,"▁erit.\r\n":9200,"▁haec,":9201,"▁uber":9202,"▁Quar":9203,"▁bonam":9204,"▁consuev":9205,"uc.":9206,"ite.\r\n":9207,"wn":9208,"ientis":9209,"▁2011)\r\n":9210,"▁genuit":9211,"▁invic":9212,"▁110":9213,"▁retr":9214,"▁substantiam":9215,"▁Jos":9216,"▁unum,":9217,"▁act":9218,"▁praesentiam":9219,"▁Constantinus":9220,"▁quidquam":9221,"▁thron":9222,"ea,":9223,"▁Tusc":9224,"ILI":9225,"▁alteram":9226,"▁coniug":9227,"▁astr":9228,"▁Gaud":9229,"▁parentibus":9230,"▁dogm":9231,"▁licentiam":9232,"▁incorrup":9233,"elles":9234,"▁servos":9235,"pec":9236,"▁ceter":9237,"▁Fractiones":9238,"▁capita":9239,"yz":9240,"▁necessitas":9241,"▁plerique":9242,"▁ὑ":9243,"▁duorum":9244,"▁3-":9245,"omb":9246,"odox":9247,"irent":9248,"▁pluv":9249,"▁potentiam":9250,"▁defer":9251,"▁retro":9252,"▁exempla":9253,"▁variet":9254,"▁celata:I":9255,"▁terrae,":9256,"▁Quamvis":9257,"y-":9258,"▁defect":9259,"NI":9260,"▁pi":9261,"▁faceret":9262,"▁intu":9263,"▁communione":9264,"▁dextera":9265,"▁fuerunt,":9266,"ourt":9267,"▁auribus":9268,"▁paupert":9269,"f.":9270,"▁scit":9271,"▁conss.>":9272,"▁passione":9273,"▁emin":9274,"▁Graeci":9275,"▁personas":9276,"etiam":9277,"▁imposs":9278,"▁unanim":9279,"▁pernici":9280,"ivis":9281,"dam,":9282,"▁Prima":9283,"elicet,":9284,"▁exced":9285,"▁(additis":9286,"tid":9287,"▁irasc":9288,"iad":9289,"▁aquis":9290,"er.":9291,"▁meas":9292,"▁celata:V":9293,"▁ὁ":9294,"igur":9295,"▁jung":9296,"▁regia":9297,"▁duce":9298,"▁continu":9299,"ANC":9300,"▁“":9301,"▁\"P":9302,"▁Var":9303,"▁dexteram":9304,"▁λ":9305,"ente.\r\n":9306,"▁Anastas":9307,"▁diximus":9308,"▁sciens":9309,"▁vesti":9310,"▁Illa":9311,"▁flumen":9312,"▁administratio":9313,"▁func":9314,"▁quoddam":9315,"▁semetips":9316,"æs":9317,"▁eundem":9318,"▁integra":9319,"▁domno":9320,"▁nimium":9321,"▁quamdiu":9322,"▁tradidit":9323,"▁invas":9324,"ardin":9325,"▁percus":9326,"▁humilia":9327,"▁Ea":9328,"ARI":9329,"▁positum":9330,"itudine,":9331,"▁laude":9332,"▁hostibus":9333,"▁\"The":9334,"▁Exod.":9335,"▁Cisterc":9336,"▁qn":9337,"▁Democrat":9338,"itati,":9339,"entos":9340,"▁habeo":9341,"▁quaerit":9342,"▁perspic":9343,"▁eosdem":9344,"▁seduc":9345,"▁posita":9346,"▁Græc":9347,"▁interfect":9348,".12":9349,"▁Notum":9350,"▁dimis":9351,"▁transt":9352,"ous":9353,"▁fung":9354,"ibili":9355,"▁tuas":9356,"▁liberos":9357,"asti,":9358,"▁templ":9359,"▁descendit":9360,"▁ere":9361,"▁Brev":9362,"▁explor":9363,"▁nobilis":9364,"▁qualibet":9365,"▁Imp":9366,"eremus":9367,"▁antiquis":9368,"▁quicunque":9369,"▁monachus":9370,"▁salva":9371,"▁materia":9372,"▁noli":9373,"▁Cont":9374,"▁dolo":9375,"▁DI":9376,"▁ornam":9377,"▁clerici":9378,"achus":9379,"▁Christiani":9380,"▁tuae,":9381,"▁clericis":9382,"ogit":9383,"abatur.\r\n":9384,"▁sumus.\r\n":9385,"iat.\r\n":9386,"▁Rur":9387,"▁Praem":9388,"▁taliter":9389,"▁remitt":9390,"▁immun":9391,"▁(Anglice)":9392,"actum":9393,"▁hostis":9394,"▁inan":9395,"▁nus":9396,"unde":9397,"erunt;\r\n":9398,"▁inform":9399,"▁seg":9400,"▁politicarum":9401,"▁scripto":9402,"autem":9403,"itatur":9404,"▁pug":9405,"▁Eventa":9406,"τη":9407,"▁deus":9408,"▁Lup":9409,"▁Filius,":9410,"▁domnus":9411,"▁(Rom.":9412,"▁contex":9413,"▁testi":9414,"▁Augustus":9415,"ensione":9416,"riet":9417,"▁Aliqu":9418,"enna":9419,"▁uidelicet":9420,"lae":9421,"inius":9422,"huc":9423,"▁amitt":9424,"iose":9425,"▁invenit":9426,"▁respici":9427,"▁vag":9428,"▁Serm":9429,"▁Dil":9430,"▁Chalc":9431,"▁terg":9432,"▁confect":9433,"eruntur":9434,"▁[A":9435,"▁complet":9436,"▁dixi":9437,"▁investig":9438,"ens:\r\n":9439,"▁R.":9440,"▁passionem":9441,"ipit":9442,"▁late":9443,"▁ram":9444,"▁creatura":9445,"▁dicuntur,":9446,"▁puto":9447,"▁Araris":9448,"▁septentr":9449,"▁perfecta":9450,"▁vota":9451,"▁solem":9452,"▁salus":9453,"▁liberis":9454,"▁52":9455,"▁aeg":9456,"▁mont":9457,"▁legati":9458,"▁Gubern":9459,"▁feria":9460,"▁1989":9461,"▁sermonis":9462,"▁dies,":9463,"▁vitam,":9464,"▁sepeli":9465,"▁dolor":9466,"rique":9467,"▁decimo":9468,"▁receper":9469,"▁Nolite":9470,"▁licentia":9471,"▁contumel":9472,"▁humilitate":9473,"inae,":9474,"ley":9475,"▁artic":9476,"▁increm":9477,"▁Aurel":9478,"▁contrist":9479,"▁corpus,":9480,"esch":9481,"ance":9482,"▁dudum":9483,"ebam":9484,"▁nihilo":9485,"▁veteres":9486,"-2":9487,"venit":9488,"▁proteg":9489,"▁Gregorii":9490,"▁humanum":9491,"▁peccatum,":9492,"ns":9493,"ENT":9494,"hum":9495,"εῖ":9496,"▁solent":9497,"▁annot":9498,"emur,":9499,"▁dilectis":9500,"yt":9501,"▁purp":9502,"iuss":9503,"▁Inst":9504,"▁heredem":9505,"▁invit":9506,"▁dignitatem":9507,"val":9508,"▁concurr":9509,"▁regna":9510,"▁lug":9511,"▁patrocin":9512,"I.":9513,"her":9514,"▁corporis,":9515,"▁pretio":9516,"decim":9517,"nix":9518,"▁veloc":9519,"▁aquarum":9520,"ert,":9521,"▁dignitatis":9522,"▁ingressus":9523,"▁charissimi,":9524,"▁(regio),":9525,"▁2010)\r\n":9526,"▁possumus,":9527,"raesent":9528,"uit:\r\n":9529,"escu":9530,"▁quamdam":9531,"▁donationem":9532,"▁christian":9533,"▁distingu":9534,"▁parentes":9535,"▁praevaric":9536,"ustrali":9537,"▁tempus,":9538,"▁suprascrip":9539,"gn":9540,"▁dicam":9541,"rum.\r\n":9542,"▁intercess":9543,"▁monet":9544,"▁agric":9545,"▁fel":9546,"▁aquil":9547,"▁Leod":9548,"▁mansuetud":9549,"▁remuner":9550,"▁Dub":9551,"anna":9552,"olom":9553,"iderit,":9554,"▁Magister":9555,"ean":9556,"▁Monte":9557,"onibus":9558,"▁mss.,":9559,"▁quiesc":9560,"▁e.":9561,"▁veniens":9562,"uras":9563,"▁nonne":9564,"▁magnis":9565,"deb":9566,"▁docum":9567,"▁negotio":9568,"▁diligit":9569,"▁patria":9570,"▁prophetam":9571,"▁Hierus":9572,"▁sis":9573,"▁varia":9574,"▁Fridericus":9575,"▁Li":9576,"▁Atlant":9577,"▁...\r\n":9578,"▁dicimus,":9579,"▁extoll":9580,"▁ipsius,":9581,"▁Certe":9582,"▁accepit.\r\n":9583,"▁quȩ":9584,"▁Aedific":9585,"of":9586,"▁absol":9587,"▁oti":9588,"▁recta":9589,"▁Jerem":9590,"▁nullis":9591,"iȩ":9592,"▁Sec":9593,"▁App":9594,"▁pertinet,":9595,"▁phys":9596,"▁pie":9597,"▁Prim":9598,"▁saecular":9599,"▁patrim":9600,"▁sacramenta":9601,"insecus":9602,"▁Bernard":9603,"odus":9604,"▁Trinitatis":9605,"▁Viv":9606,"alitas":9607,"inemat":9608,"▁festum":9609,"▁Benedicti":9610,"▁monst":9611,"▁persuas":9612,"▁propriam":9613,"▁Coel":9614,"▁merita":9615,"▁alicujus":9616,"▁Patris,":9617,"itum.\r\n":9618,"▁parroch":9619,"▁celata:R":9620,"▁bal":9621,"▁recit":9622,"sit.\r\n":9623,"we":9624,"▁locum,":9625,"▁militibus":9626,"▁(17":9627,"itiæ":9628,"▁Edu":9629,"▁coelis":9630,"lia":9631,"▁fit,":9632,"▁corrob":9633,"entissime":9634,"▁electi":9635,"▁17.\r\n":9636,"alia,":9637,"▁arbitrio":9638,"▁fen":9639,"▁permans":9640,"▁Licet":9641,"ris.\r\n":9642,"r.\r\n":9643,"▁pietate":9644,"▁opprob":9645,"▁finibus":9646,"▁auro":9647,"▁dilectionis":9648,"▁divinam":9649,"ravit.\r\n":9650,"▁resurrectione":9651,"c.":9652,"▁mess":9653,"▁orbe":9654,"▁inu":9655,"▁heredibus":9656,"▁Normannia":9657,"▁Tro":9658,"▁Jan":9659,"▁Willelmus":9660,"▁inclus":9661,"▁ibique":9662,"▁benedictionem.\r\n":9663,"▁Ferr":9664,"▁codices":9665,"pot":9666,"▁facio":9667,"▁servis":9668,"▁Samuel":9669,"▁Fuit":9670,"▁edictum":9671,"atoria":9672,"▁enum":9673,"▁appropinqu":9674,"▁læ":9675,"osum":9676,"atque":9677,"elinqu":9678,"▁Decem":9679,"▁falsa":9680,"▁frang":9681,"▁Campania":9682,"essus":9683,"▁illius,":9684,"▁vitæ":9685,"▁sibi,":9686,"▁agro":9687,"▁verba,":9688,"▁h.":9689,"▁Propterea":9690,"▁itinere":9691,"▁sum.\r\n":9692,"▁iv":9693,"itiis":9694,"igil":9695,"▁dia":9696,"▁instru":9697,"icunque":9698,"ibilia":9699,"▁IV.\r\n":9700,"▁vias":9701,"▁Mand":9702,"▁Bor":9703,"▁inser":9704,"tt":9705,"vill":9706,"▁III.":9707,"▁Opp":9708,"▁visus":9709,"▁necdum":9710,"▁Fred":9711,"▁exemp":9712,"ongo":9713,"▁nis":9714,"▁Pelliculae":9715,"▁fov":9716,"▁expet":9717,"▁laudibus":9718,"amenta":9719,"▁locu":9720,"ionibus,":9721,"▁terc":9722,"▁Primus":9723,"▁Judic":9724,"erentur.\r\n":9725,"ze":9726,"▁nostro,":9727,"▁Postea":9728,"▁reprom":9729,"▁interpretatur":9730,"▁reus":9731,"▁Eburae":9732,"▁convoc":9733,"UR":9734,"▁1960":9735,"itat,":9736,"▁concessa":9737,"▁hiem":9738,"▁Gloria":9739,"▁conn":9740,"avi.\r\n":9741,"▁menses":9742,"▁veraciter":9743,"▁judex":9744,"▁dilectione":9745,"▁Agost":9746,"▁subtrah":9747,"omag":9748,"▁Pe":9749,"▁ibid.":9750,"▁Scripturae":9751,"ENTI":9752,"▁debeant":9753,"▁d'Ital":9754,"▁vasa":9755,"▁Proinde":9756,"▁Alpibus":9757,"ues":9758,"▁assensu":9759,"▁(Vers.":9760,"▁manuscrip":9761,"▁celer":9762,"▁liberam":9763,"▁Dies":9764,"▁extrane":9765,"▁marit":9766,"▁malign":9767,"▁velit":9768,"▁ostendit,":9769,"▁bella":9770,"▁requiesc":9771,"▁Terr":9772,"▁Relig":9773,"▁(terra":9774,"▁Lem":9775,"▁from":9776,"▁subdiacon":9777,"▁refr":9778,"▁capitulum":9779,"▁sacerdotum":9780,"▁incipi":9781,"▁litterae":9782,"▁Ram":9783,"ger":9784,"▁praeposit":9785,"▁diutius":9786,"▁Benedictus":9787,"ington":9788,"▁appon":9789,"▁conduc":9790,"▁Multi":9791,"al,":9792,"▁praesent":9793,"▁heredit":9794,"▁aa.\r\n":9795,"▁inex":9796,"▁missa":9797,"▁litig":9798,"uimus,":9799,"–20":9800,"▁mortuis":9801,"▁legitim":9802,"▁longa":9803,"▁τῶν":9804,"ecu":9805,"▁dicunt,":9806,"▁gradu":9807,"▁dicentes:\r\n":9808,"▁pauca":9809,"▁videlicet,":9810,"dem,":9811,"▁umquam":9812,"▁uis":9813,"▁mirum":9814,"▁manet":9815,"▁graviter":9816,"▁regionis":9817,"▁Species":9818,"eam":9819,"▁masc":9820,"utus,":9821,"▁clericorum":9822,"ecit.\r\n":9823,"enus,":9824,"▁Ms.\r\n":9825,"▁quilibet":9826,"▁principium":9827,"▁medioc":9828,"▁Primo":9829,"▁similia":9830,"ulerunt":9831,"icam,":9832,"▁medietatem":9833,"mentum":9834,"▁Pent":9835,"▁perpetuum.\r\n":9836,"▁stare":9837,"▁castrum":9838,"▁2013":9839,".11":9840,"▁avert":9841,"▁effug":9842,"▁auxilio":9843,"▁uterque":9844,"▁Michae":9845,"ianum,":9846,"▁Cantuari":9847,"▁incolum":9848,"▁demonstrat":9849,"▁Roth":9850,"▁transi":9851,"▁cogitationes":9852,"▁infl":9853,"▁canonici":9854,"▁praedix":9855,"voc":9856,"▁beatum":9857,"▁populis":9858,"alitatem":9859,"▁Nomin":9860,"▁habeat,":9861,"▁aliquibus":9862,"▁Nova":9863,"▁detrah":9864,"▁k.":9865,"▁diffin":9866,"VI.\r\n":9867,"▁ἀπ":9868,"▁praefer":9869,"▁filii,":9870,"▁iuven":9871,"▁emptor":9872,"▁Columb":9873,"onice":9874,"▁rip":9875,"▁consump":9876,"▁proximo":9877,"▁nuptias":9878,"iaco":9879,"▁categoria":9880,"▁actor":9881,"▁9,":9882,"▁dedit.\r\n":9883,"▁Nomi":9884,"▁Cambr":9885,"τε":9886,"sub":9887,"▁aliis,":9888,"▁editio":9889,"▁posse,":9890,"▁incipit":9891,"▁accend":9892,"▁consuetudine":9893,"▁Sanct":9894,"▁Gaius":9895,"quam,":9896,"▁negot":9897,"▁pp.":9898,"▁majorem":9899,"▁sequi":9900,"▁acta":9901,"▁imperatorem":9902,"°\r\n":9903,"▁Rud":9904,"aen":9905,"▁θ":9906,"▁Ps":9907,"▁redi":9908,"▁sacrae":9909,"▁laes":9910,"▁infirmitate":9911,"issimus,":9912,"esis":9913,"iare":9914,"▁Ambrosius":9915,"▁al.":9916,"▁contrarium":9917,"▁certo":9918,"▁Nota":9919,"▁manifeste":9920,"▁condita":9921,"▁erem":9922,"▁capi":9923,"ères":9924,"▁devot":9925,"▁tradid":9926,"on.,":9927,"▁primogen":9928,"▁Hispaniae":9929,"-G":9930,"hen":9931,"▁Cos":9932,"▁SU":9933,"▁fecimus":9934,"▁Bonif":9935,"▁restitut":9936,"oen":9937,"▁meis,":9938,"vo":9939,"▁ministrorum":9940,"abeth":9941,"▁ingredi":9942,"▁adventu":9943,"aj":9944,"▁cn":9945,"ice,":9946,"ector":9947,"▁ætern":9948,"▁Urbe":9949,"▁crimine":9950,"rov":9951,"▁pull":9952,"on:\r\n":9953,"▁cin":9954,"▁faciant":9955,"▁dixisse":9956,"▁IIII":9957,"▁novem":9958,"leb":9959,"▁legendum":9960,"an.\r\n":9961,"▁Dioclet":9962,"▁\"D":9963,"▁1.":9964,"▁sigillo":9965,"▁umbra":9966,"▁conver":9967,"▁pauperum":9968,"entus,":9969,"▁exim":9970,"▁regis,":9971,"▁vicum":9972,"▁laudes":9973,"▁praesc":9974,"MM":9975,"λη":9976,"radus":9977,"▁SANC":9978,"▁lign":9979,"estibus":9980,"▁quales":9981,"▁senex":9982,"▁Scripturarum":9983,"acu":9984,"▁K.":9985,"ratis":9986,"–18":9987,"unum":9988,"▁esur":9989,"alter":9990,"eck":9991,"▁10,":9992,"▁i.":9993,"▁aere":9994,"▁fonte":9995,"illus":9996,"▁Libr":9997,"▁iniquitatem":9998,"ère":9999,"▁detrim":10000,"erimus":10001,"▁praestare":10002,"▁errorem":10003,"▁disciplina":10004,"▁desunt":10005,"▁apparet":10006,"▁reliquis":10007,"uff":10008,"▁Pecc":10009,"itates,":10010,"▁iisdem":10011,"▁fideiuss":10012,"▁quoad":10013,"▁Ipsa":10014,"▁frug":10015,"▁sancti,":10016,"▁Ec":10017,"▁Jus":10018,"▁Verbi":10019,"ιν":10020,"▁pub":10021,"▁mea.\r\n":10022,"▁inhabit":10023,"▁facit.\r\n":10024,"▁recenti":10025,"▁gratiam,":10026,"▁mulierem":10027,"AC":10028,"▁factis":10029,"▁humilitatem":10030,"▁dissip":10031,"▁voces":10032,"▁Eodem":10033,"▁18.\r\n":10034,"▁serm.":10035,"▁Jord":10036,"▁posside":10037,"▁suspend":10038,"▁familiar":10039,"▁tuis,":10040,"▁plebis":10041,"▁aeque":10042,"ational":10043,"▁utilitatem":10044,"▁promov":10045,"▁rogatus":10046,"▁oris":10047,"▁poenitentiae":10048,"όν":10049,"▁videns":10050,"▁lucis":10051,"▁(CDU":10052,"▁unitatem":10053,"▁Crucis":10054,"rio":10055,"▁Paris":10056,"▁Sacerd":10057,"▁delinqu":10058,"▁vestra,":10059,"▁Pictav":10060,"▁Nonn":10061,"▁evad":10062,"▁(Ibid":10063,"▁Cantab":10064,"▁Nich":10065,"▁dicatur":10066,"▁confug":10067,"▁sua.\r\n":10068,"▁discipulos":10069,"▁sæ":10070,"nas":10071,"iante":10072,"▁quemdam":10073,"▁desiderati":10074,"▁accepta":10075,"▁ep.":10076,"▁corde,":10077,"▁\"M":10078,".16":10079,"▁afflig":10080,"▁meritum":10081,"▁nig":10082,"za":10083,"▁Natur":10084,"▁Beatus":10085,"orld":10086,"▁mercedem":10087,"▁repente":10088,"▁canonicis":10089,"▁Ign":10090,"▁gram":10091,"▁editione":10092,"▁(Franc":10093,"otes":10094,"▁jura":10095,"▁Iohannis":10096,"▁ton":10097,"▁abscondit":10098,"D.\r\n":10099,"que.\r\n":10100,"▁1988":10101,"▁suscepit":10102,"▁morum":10103,"rich":10104,"pectum":10105,"▁consilii":10106,"▁inimicis":10107,"▁remedio":10108,"▁futuri":10109,"▁Rheni":10110,"▁negotium":10111,"▁Nat":10112,"▁gentis":10113,"▁seipsum":10114,"▁plurima":10115,"piam":10116,"▁ineff":10117,"antiae":10118,"▁papam":10119,"▁sym":10120,"▁Tit":10121,"ianus.\r\n":10122,"▁custodia":10123,"ater":10124,"▁Κ":10125,"▁[1":10126,"▁coniunc":10127,"▁Dominica":10128,"▁habitum":10129,"▁System":10130,"ivid":10131,"▁decimas":10132,"▁marc":10133,"▁religione":10134,"fi":10135,"ock":10136,"▁Colb.":10137,"▁cæter":10138,"ulla":10139,"▁Bi":10140,"▁Prob":10141,"homin":10142,"▁LIB":10143,"▁mulieres":10144,"▁superbia":10145,"▁(Luc.":10146,"▁faciunt,":10147,"ως":10148,"▁admodum":10149,"▁recipere":10150,"▁Journ":10151,"▁reliqua":10152,"▁solam":10153,"▁sacro":10154,"▁novo":10155,"▁Graeca":10156,"▁confessione":10157,"eamus":10158,"ér":10159,"ent;\r\n":10160,"▁rationis":10161,"▁uill":10162,"▁actus":10163,"▁gratis":10164,"▁exstiter":10165,"▁God":10166,"▁Alia":10167,"▁numquid":10168,"▁dissolv":10169,"▁PR":10170,"▁quandiu":10171,"▁Has":10172,"▁fuisset,":10173,"▁volo":10174,"▁Laz":10175,"ubi":10176,"frag":10177,"▁Bib":10178,"▁feliciter":10179,"▁seq.":10180,"▁Hib":10181,"▁Arb":10182,"serv":10183,"▁pontificis":10184,"▁Lugd.":10185,"▁praedestin":10186,"▁summam":10187,"▁imago":10188,"ack":10189,"▁populos":10190,"▁transgress":10191,"alem.\r\n":10192,"egor":10193,"antur:\r\n":10194,"▁Caesare":10195,"dix":10196,"▁Ott":10197,"▁legimus":10198,"▁imput":10199,"▁ambo":10200,"▁Cen":10201,"▁corporum":10202,"▁editis":10203,"▁sacerdotibus":10204,"averint":10205,"▁vexillum":10206,"n,":10207,"▁Insula":10208,"urch":10209,"▁veniat":10210,"▁gust":10211,"▁apt":10212,"▁dives":10213,"▁edoc":10214,"▁d'Italia":10215,"inister":10216,"▁castris":10217,"▁Athen":10218,"atic":10219,"▁locorum":10220,"▁summi":10221,"▁dilex":10222,"iop":10223,"▁sapiens":10224,"▁Ministri":10225,"▁defec":10226,"▁quart":10227,"▁fons":10228,"elis":10229,"▁ponit":10230,"zo":10231,"▁catholicae":10232,"▁Herod":10233,"gred":10234,"▁Pros":10235,"▁τὴν":10236,"acch":10237,"▁Verumtamen":10238,"▁unicuique":10239,"▁Henrici":10240,"▁brevi":10241,"ralis":10242,"opere":10243,"▁Mess":10244,"▁flagell":10245,"▁parte,":10246,"▁catholica":10247,"▁quac":10248,"▁peculi":10249,"temberg":10250,"▁(h":10251,"▁praedictum":10252,"▁beata":10253,"vi":10254,"μεν":10255,"▁occidentali":10256,"l,":10257,"quæ":10258,"unda":10259,"▁regulam":10260,"▁frequent":10261,"▁20.\r\n":10262,"▁Oxford":10263,"ages":10264,"▁personarum":10265,"▁condicione":10266,"▁Vatic.":10267,"▁fix":10268,"▁divitias":10269,"antia,":10270,"issent.\r\n":10271,"▁AB":10272,"▁resc":10273,"▁Bro":10274,"▁Us":10275,"▁testibus":10276,"▁corrobor":10277,"ada":10278,"▁trin":10279,"▁praesentem":10280,"▁monachos":10281,"▁acquis":10282,"inali":10283,"▁Magni":10284,"▁appare":10285,"▁convic":10286,"▁aquas":10287,"hinc":10288,"▁Gel":10289,"▁sequitur,":10290,"erebat":10291,"▁esto":10292,"abilibus":10293,"▁puni":10294,"▁spirita":10295,"▁Oeconomia":10296,"▁tenebras":10297,"istis.\r\n":10298,"▁proficisc":10299,"▁Niv":10300,"▁Lic":10301,"▁Anth":10302,"▁Agn":10303,"olem":10304,"▁gaudia":10305,"▁Idus":10306,"▁Agostini":10307,"oh":10308,"▁contraria":10309,"e;\r\n":10310,"▁Beat":10311,"tis.\r\n":10312,"▁Eadem":10313,"▁Nav":10314,"▁Prov.":10315,"▁Phara":10316,"▁testatur":10317,"▁Scripturis":10318,"▁Diet":10319,"▁supp":10320,"▁subter":10321,"ivit.\r\n":10322,"▁poenitentia":10323,"▁correp":10324,"sic":10325,"▁mi":10326,"▁Hann":10327,"▁19.\r\n":10328,"▁edit.,":10329,"▁pret":10330,"▁parti":10331,"▁Martyr":10332,"▁Belg":10333,"▁substitu":10334,"acio":10335,"iale":10336,"▁Orig":10337,"▁patientia":10338,"▁Robert":10339,"▁allig":10340,"▁suo.\r\n":10341,"▁Cond":10342,"▁Urbs":10343,"▁magistri":10344,"▁Familia":10345,"▁Caus":10346,"▁falsum":10347,"▁simile":10348,"ologus":10349,"inematograph":10350,"▁Pam":10351,"▁tituli":10352,"▁Sit":10353,"▁Adal":10354,"▁festo":10355,"▁pronunti":10356,"▁sel":10357,"arentur,":10358,"▁CTh":10359,"mae":10360,"dific":10361,")?\r\n":10362,"▁conter":10363,"▁Homo":10364,"ecte":10365,"ὸς":10366,"▁archiepiscopi":10367,"▁(non":10368,"▁proximum":10369,"▁mel":10370,"▁Rusc":10371,"▁vidu":10372,"▁XVIII,":10373,"itias":10374,"▁Esa":10375,"▁episcopatu":10376,"▁Romanos":10377,"▁aduoc":10378,"▁Epiph":10379,"or:\r\n":10380,"iantur.\r\n":10381,"▁sanctus,":10382,"utem":10383,"▁Ejus":10384,"▁gentes,":10385,"▁percipi":10386,"▁tertiam":10387,"m,":10388,"▁spatium":10389,"▁persecut":10390,"▁vestigia":10391,"▁patribus":10392,"-F":10393,"▁obj":10394,"és":10395,"▁ἀν":10396,"in.\r\n":10397,"abantur,":10398,"▁unigen":10399,"▁Ideoque":10400,"onis.\r\n":10401,"▁immacul":10402,"▁Jerusalem,":10403,"▁semetipsum":10404,"▁Dominus.\r\n":10405,"▁contrah":10406,"▁Acta":10407,"▁Encyclop":10408,"▁pell":10409,"▁offens":10410,"▁Eust":10411,"▁positus":10412,"▁Comment":10413,"▁praeval":10414,"▁dicens,":10415,"atae:\r\n":10416,"▁Gar":10417,"alam":10418,"iret.\r\n":10419,"▁humano":10420,"▁AAV":10421,"▁quinto":10422,"▁T.\r\n":10423,"▁potens":10424,"▁fru":10425,"erunt:\r\n":10426,"▁communem":10427,"▁qualem":10428,"enberg":10429,"▁(f":10430,"▁devor":10431,"▁remedium":10432,"▁judicia":10433,"▁Bernardus":10434,"▁AAVV,":10435,"▁φ":10436,"▁Sov":10437,"▁Christianus":10438,"▁prophetae":10439,"▁laus":10440,"▁elemosinam":10441,"menta":10442,"▁Math":10443,"ologi":10444,"▁Ipsi":10445,"▁inius":10446,"▁Vall":10447,"ari;\r\n":10448,"▁Berol":10449,"▁Sus":10450,"▁confiter":10451,"▁!":10452,"inio":10453,"abo,":10454,"▁sagitt":10455,"▁Journal":10456,"▁suum.\r\n":10457,"▁Manich":10458,"▁plebem":10459,"orta":10460,"entium.\r\n":10461,"po":10462,"▁publicam":10463,"▁timorem":10464,"ebantur.\r\n":10465,"▁humanis":10466,"▁similes":10467,"ovi":10468,"ste":10469,"▁F.\r\n":10470,"issi":10471,"▁We":10472,"▁praeterm":10473,"▁denarios":10474,"▁semine":10475,"▁auctorem":10476,"▁Editi":10477,"▁ebri":10478,"▁despectus":10479,"▁eos.\r\n":10480,"▁probat":10481,"▁pig":10482,"▁tantis":10483,"▁apostolos":10484,"▁iudex":10485,"▁regibus":10486,"eret;\r\n":10487,"▁suus":10488,"andas":10489,"▁volens":10490,"▁Gau":10491,"erisque":10492,"▁noctur":10493,"▁Garum":10494,"▁Pil":10495,"▁cumque":10496,"▁Praefecturae":10497,"▁fragil":10498,"▁anima,":10499,"▁insip":10500,"▁presens":10501,"▁proper":10502,"▁amici":10503,"▁carnis,":10504,"idio":10505,"rut":10506,"pr.\r\n":10507,"▁militiae":10508,"▁beatae":10509,"▁Genus":10510,"▁scrut":10511,"avimus.\r\n":10512,"ulos,":10513,"ogra":10514,"▁australi":10515,"▁parab":10516,"IS,":10517,"▁divinitus":10518,"▁(terra),":10519,"▁bore":10520,"TAN":10521,"▁vellet":10522,"▁commor":10523,"▁predicta":10524,"▁excommunicationis":10525,"▁lam":10526,"tad":10527,"▁verecund":10528,"▁proposito":10529,"D.":10530,"esi":10531,"ionis.\r\n":10532,"▁pauperibus":10533,"IX.\r\n":10534,"ingen":10535,"▁saluti":10536,"itura":10537,"▁regnat":10538,"▁rup":10539,"▁Ta":10540,"▁Gali":10541,"antium,":10542,"feld":10543,"urt":10544,"▁sanctitatis":10545,"▁satur":10546,"▁SY":10547,"▁sanctum,":10548,"iderici":10549,"▁comitem":10550,"▁Pass":10551,"▁Iulianus":10552,"▁(CDU)":10553,"▁inl":10554,"▁requis":10555,"▁veri":10556,"▁legum":10557,"▁veniet":10558,"▁Prot":10559,"▁fronte":10560,"▁sequenti":10561,"▁solummodo":10562,"▁ascens":10563,"▁is,":10564,"▁vall":10565,"▁Caec":10566,"▁oppido":10567,"▁fundum":10568,"▁ment":10569,"osus":10570,"▁allod":10571,"▁Mad":10572,"rax":10573,"▁51":10574,"▁villam":10575,"▁Scrib":10576,"▁spiritus,":10577,"▁Athanas":10578,"ement":10579,"▁gratiarum":10580,"▁tri":10581,"▁stabil":10582,"▁applic":10583,"atii":10584,"▁auctoritatis":10585,"▁Pascha":10586,"▁Noli":10587,"ihi":10588,"emper":10589,"▁fing":10590,"ere?\r\n":10591,"phon":10592,"▁insol":10593,"▁morem":10594,"▁penes":10595,"aris.\r\n":10596,"ffer":10597,"▁transc":10598,"▁distribu":10599,"OMIN":10600,"▁mass":10601,"▁cetera":10602,"▁Sacram":10603,"▁requiem":10604,"άν":10605,"▁ossa":10606,"▁2015":10607,"▁mortuum":10608,"▁Hung":10609,"▁Oc":10610,"iarum,":10611,"QU":10612,"▁veli":10613,"ott":10614,"ρα":10615,"▁fas":10616,"escrip":10617,"▁baptismum":10618,"▁Quadrag":10619,"aldo":10620,"▁modicum":10621,"▁valid":10622,"▁Sanctum":10623,"▁notitiam":10624,"▁privilegio":10625,"▁venerunt":10626,"▁mensuram":10627,"▁Cro":10628,"eptum":10629,"▁illo,":10630,"▁successores":10631,"▁statuta":10632,"▁parva":10633,"EC":10634,"▁Bos":10635,"▁Fo":10636,"▁quique":10637,"▁rud":10638,"▁templi":10639,"▁reverentia":10640,"ence":10641,"▁gens":10642,"▁Mog":10643,"▁seips":10644,"itz":10645,"aequ":10646,"erico":10647,"▁titulus":10648,"▁verbis,":10649,"▁habuisse":10650,"▁longo":10651,"▁subtil":10652,"▁caed":10653,"q.":10654,"▁Patres":10655,"▁obitum":10656,"▁Myrias":10657,"-H":10658,"▁Eli":10659,"▁150":10660,"▁uig":10661,"▁saeculorum.\r\n":10662,"aces":10663,"▁reconcili":10664,"▁proinde":10665,"▁conditione":10666,"υν":10667,"▁jan":10668,"ecost":10669,"▁hol":10670,"▁cursu":10671,"▁Pyrenaeis":10672,"▁detest":10673,"▁Christianorum":10674,"▁periculos":10675,"▁uener":10676,"tiis":10677,"auit":10678,"inte":10679,"▁commov":10680,"▁putat":10681,"▁cibum":10682,"▁neut":10683,"▁Iste":10684,"▁fo":10685,"▁Mach":10686,"▁justitiam,":10687,"lad":10688,"▁Eo":10689,"▁65":10690,"▁vitio":10691,"▁paginae":10692,"▁Suec":10693,"▁obedi":10694,"umen":10695,"▁venerit":10696,"▁proven":10697,"ienses":10698,"▁impedim":10699,"▁ratum":10700,"▁vulner":10701,"▁ci":10702,"▁Apostolus:\r\n":10703,"ῶι":10704,"▁veteris":10705,"quiesc":10706,"iunt.\r\n":10707,"▁secundus":10708,"▁coelo,":10709,"▁martyris":10710,"ia;\r\n":10711,"▁manuum":10712,"▁Occitania":10713,"▁Der":10714,"▁dictam":10715,"▁commin":10716,"Theod":10717,"▁Petrus,":10718,"▁hic,":10719,"▁expect":10720,"▁Iudae":10721,"resc":10722,"▁unitate":10723,"▁vitae,":10724,"▁Diction":10725,"bet":10726,"mar":10727,"▁syll":10728,"ura,":10729,"▁naturaliter":10730,"▁Att":10731,"rus":10732,"▁jun":10733,"▁generaliter":10734,"▁quicquam":10735,"▁dans":10736,"▁ni":10737,"▁Corinth":10738,"▁cœl":10739,"▁redire":10740,"▁digne":10741,"▁permis":10742,"▁vitiorum":10743,"▁160":10744,"fredus":10745,"▁status":10746,"▁testis":10747,"▁kalendas":10748,"▁Mas":10749,"iculum":10750,"▁egred":10751,"▁matrimonium":10752,"CL":10753,"▁Moysi":10754,"posita":10755,"▁Ecclesiam,":10756,"▁laudis":10757,"▁pervenire":10758,"ede":10759,"rec":10760,"▁deum":10761,"▁Jon":10762,"▁angelos":10763,"▁Sav":10764,"▁praecipi":10765,"▁Edit.":10766,"▁coerc":10767,"▁inviol":10768,"omus":10769,"▁11,":10770,"▁praepon":10771,"▁presentia":10772,"rever":10773,"▁laborem":10774,"▁erog":10775,"lii":10776,"▁XVI,":10777,"aeque":10778,"▁confort":10779,"▁magistrat":10780,"Eccles":10781,"▁Offic":10782,"▁Ioannis":10783,"▁uos":10784,"▁praedicta":10785,"▁(b)":10786,"ineat":10787,"▁ducem":10788,"▁orator":10789,"▁fecisti":10790,"▁dignosc":10791,"▁Pontific":10792,"▁Ruscin":10793,"ipublic":10794,"▁celata:D":10795,"▁sermones":10796,"ONI":10797,"▁Terra":10798,"VI,":10799,"x,":10800,"▁natura,":10801,"▁Ham":10802,"▁ei:\r\n":10803,"▁dicere:\r\n":10804,"▁actu":10805,"▁Lucius":10806,"▁sacramento":10807,"▁Cad":10808,"▁denuo":10809,"▁adipisc":10810,"▁oportet,":10811,"▁dilecto":10812,"hil":10813,"eau":10814,"▁operatur":10815,"▁mandatis":10816,"▁senect":10817,"▁testimonia":10818,"▁celata:T":10819,"▁Capsae":10820,"▁orth":10821,"etis.\r\n":10822,"▁non,":10823,"▁dixit.\r\n":10824,"▁urbes":10825,"▁Soviet":10826,"▁Mare":10827,"▁(-":10828,"▁apparuit":10829,"▁cognatae:\r\n":10830,"▁Regnum":10831,"▁redem":10832,"ker":10833,"ecom":10834,"▁Sive":10835,"▁cooper":10836,"▁irac":10837,"▁culpam":10838,"▁repud":10839,"▁paginas":10840,"▁Virginis":10841,"▁εἰ":10842,"▁partium":10843,"▁odor":10844,"▁William":10845,"▁hebdom":10846,"▁alii,":10847,"▁Barth":10848,"grav":10849,"▁quale":10850,"▁aduer":10851,"▁Ægyp":10852,"▁1977":10853,"as?\r\n":10854,"▁Dun":10855,"▁(v":10856,"▁creditur":10857,"▁usibus":10858,"▁priu":10859,"▁(2":10860,"▁Trib":10861,"▁comite":10862,"▁celata:H":10863,"▁praecl":10864,"▁uniuersis":10865,"▁secuti":10866,"Qu":10867,"TOR":10868,"▁subsist":10869,"V.":10870,"mus,":10871,"▁PRI":10872,"▁illib":10873,"▁pauci":10874,"▁invenire":10875,"▁vinea":10876,"▁Propheta":10877,"▁inquis":10878,"▁hae":10879,"▁oeconom":10880,"▁presbyteri":10881,"▁Patrem,":10882,"▁corporibus":10883,"▁error":10884,"rh":10885,"▁praeven":10886,"▁onus":10887,"▁meruit":10888,"ers,":10889,"▁vidi":10890,"▁Antich":10891,"▁Audi":10892,"X.\r\n":10893,"▁Freti":10894,"ibilem":10895,"▁gign":10896,"issem":10897,"▁sati":10898,"▁Ara":10899,"▁Pall":10900,"▁pertinent":10901,"▁ecclesiasticis":10902,"λλ":10903,"met":10904,"▁scribere":10905,"▁Hispania":10906,"pit":10907,"▁revera":10908,"▁dioc":10909,"ians":10910,"▁Oper":10911,"▁Jesu,":10912,"▁Timothe":10913,"umentum":10914,"irtemberg":10915,"▁placet":10916,"▁effund":10917,"▁nonnullis":10918,"▁Felix":10919,"oe":10920,"▁sop":10921,"▁adjung":10922,"▁intellectus":10923,"▁(dub":10924,"▁innumer":10925,".\"":10926,"▁quasdam":10927,"temper":10928,"▁vultus":10929,"untiav":10930,"▁datus":10931,"▁intentione":10932,"▁Laterani,":10933,"▁faciens":10934,"▁veteri":10935,"▁Theodisc":10936,"▁noll":10937,"▁195":10938,"▁consangu":10939,"▁plenum":10940,"▁Respond":10941,"▁juram":10942,"▁profectus":10943,"▁rationabiliter":10944,"▁prodig":10945,"▁ita,":10946,"▁septimo":10947,"▁Dor":10948,"▁sancto,":10949,"▁nobili":10950,"▁miracula":10951,"▁perpetua":10952,"▁generalis":10953,"▁pus":10954,"ap.":10955,"▁intellectum":10956,"▁(3":10957,"▁Er.":10958,"▁convinc":10959,"▁noctis":10960,"▁Marcell":10961,"▁mob":10962,"▁infring":10963,"▁Corb.":10964,"▁poterat,":10965,"▁remissionem":10966,"▁recognosc":10967,"▁Plat":10968,"▁ed.,":10969,"▁geopolit":10970,"▁Africa":10971,"▁alienum":10972,"▁Chalced":10973,"ipaed":10974,"eatur":10975,"▁affic":10976,"issione":10977,"▁Inv":10978,"▁68":10979,"▁contest":10980,"▁Verba":10981,"▁Unionis":10982,"▁putant":10983,"issus":10984,"▁bened":10985,"▁mons":10986,"lov":10987,"arit":10988,"▁stren":10989,"▁manere":10990,"▁anime":10991,"▁textus":10992,"SALM":10993,"IS.\r\n":10994,"▁sigill":10995,"▁calig":10996,"dal":10997,"▁CXXX":10998,"▁praecipit":10999,"▁geopoliticum":11000,"▁voluer":11001,"▁Octav":11002,"▁Vox":11003,"▁quoties":11004,"▁occasionem":11005,"▁sarc":11006,"▁mortuis,":11007,"▁conjung":11008,"averint,":11009,"ts":11010,"▁tuum.\r\n":11011,"▁presentem":11012,"▁porrig":11013,"▁nutr":11014,"ejus":11015,"▁mentes":11016,"▁Sur":11017,"▁secus":11018,"▁12,":11019,"▁Codex":11020,"inv":11021,"▁stim":11022,"▁Sir":11023,"▁debito":11024,"▁obseru":11025,"▁diceret,":11026,"▁malitia":11027,"▁oleum":11028,"rat.\r\n":11029,"▁mihi.\r\n":11030,"▁sufficit":11031,"▁matut":11032,"▁significat,":11033,"▁priori":11034,"eda":11035,"▁Alexandri":11036,"▁VI.\r\n":11037,"▁preposit":11038,"▁potest:\r\n":11039,"▁Catholicae":11040,"rob":11041,"ilo":11042,"▁vobiscum":11043,"▁singuli":11044,"▁Inferioris":11045,"m.\r\n":11046,"▁actibus":11047,"osis":11048,"ittere,":11049,"▁Venit":11050,"▁secutus":11051,"▁Eu":11052,"▁Ful":11053,"▁64":11054,"▁88":11055,"▁capituli":11056,"▁soror":11057,"▁deorum":11058,"ordia":11059,"▁21.\r\n":11060,"▁uerb":11061,"▁iun":11062,"▁justa":11063,"▁170":11064,"▁North":11065,"▁fortiter":11066,"post":11067,"▁clericos":11068,"▁excip":11069,"▁Jesus,":11070,"▁Occident":11071,"▁della":11072,"▁iniquitate":11073,"▁praemium":11074,"▁electionem":11075,"▁Graece":11076,"▁Galli":11077,"▁THEO":11078,".]\r\n":11079,"▁interven":11080,"▁exclus":11081,"▁immob":11082,"ATI":11083,"▁„":11084,"unus":11085,"▁releg":11086,"▁Carantoni":11087,"▁Ib":11088,"▁circuitu":11089,"▁vil":11090,"▁mora":11091,"▁Prud":11092,"▁morti":11093,"▁PRO":11094,"▁synodum":11095,"▁opprim":11096,"icul":11097,"▁suam.\r\n":11098,"ίας":11099,"ya":11100,"▁feri":11101,"▁mai":11102,"▁mundo,":11103,"▁Ern":11104,"▁caeteri":11105,"arunt,":11106,"ires":11107,"▁69":11108,"▁audeat":11109,"▁pietas":11110,"▁sept":11111,"▁majus":11112,"▁Fortun":11113,"assis":11114,"▁fortis":11115,"-1":11116,"▁chris":11117,"bach":11118,"▁vino":11119,"▁repraesent":11120,"▁majestatis":11121,"▁drac":11122,".14":11123,"▁dixerat":11124,"▁civium":11125,"▁ἐκ":11126,"▁inced":11127,"▁Caesaris":11128,"▁terminos":11129,"▁terminum":11130,"▁pudic":11131,"▁fate":11132,"▁legat":11133,"▁incomm":11134,"▁publico":11135,"▁β":11136,"▁poeta":11137,"▁Ars":11138,"iaco,":11139,"ianos":11140,"▁praemia":11141,"h,":11142,"son,":11143,"▁aspic":11144,"▁forti":11145,"▁exercit":11146,"▁destruc":11147,"▁vitium":11148,"▁interm":11149,"les,":11150,"▁pacto":11151,"▁murmur":11152,"▁cels":11153,"▁coelum,":11154,"inis.\r\n":11155,"▁Christoph":11156,"▁redig":11157,"amus:\r\n":11158,"▁transire":11159,"▁Sabaud":11160,"ende":11161,"isus":11162,"▁damnum":11163,"sanc":11164,"▁officiis":11165,"▁aliquos":11166,"▁Novem":11167,"acus":11168,"▁cart":11169,"▁inhib":11170,"▁facultatem":11171,"▁é":11172,"▁Dal":11173,"▁tibi.\r\n":11174,"▁Sor":11175,"▁Londinii:\r\n":11176,"i)":11177,"▁Aquitan":11178,"icula":11179,"▁Dol":11180,"▁ordines":11181,"▁attest":11182,"▁supra,":11183,"▁Vas":11184,"▁anx":11185,"prud":11186,"idam":11187,"▁\"L":11188,"amus;\r\n":11189,"prom":11190,"rico":11191,"iensem":11192,"▁(SPD":11193,"▁sero":11194,"▁desuper":11195,"nec":11196,"▁Ed.\r\n":11197,"▁lacrymis":11198,"▁prioris":11199,"▁propag":11200,"▁hostem":11201,"▁annunt":11202,"▁indu":11203,"▁textu":11204,"erea":11205,"▁pedilus":11206,"▁CXX":11207,"aliz":11208,"▁libertatis":11209,"',":11210,"fec":11211,"idius":11212,"▁persuad":11213,"ianorum":11214,"▁Paulum":11215,"▁Libri":11216,"▁Caput":11217,"▁quaest":11218,"▁sexto":11219,"▁nusquam":11220,"▁obiit":11221,"▁legatos":11222,"▁magistro":11223,"▁celata:Saint-":11224,"▁Adhuc":11225,"▁mundum,":11226,"anif":11227,"▁extor":11228,"▁ministerio":11229,"▁moll":11230,"ilic":11231,"▁Americanus":11232,"▁intelligitur":11233,"▁protectione":11234,"▁Palat":11235,"▁hæret":11236,"▁sincer":11237,"▁rede":11238,"▁fiet":11239,"den":11240,"▁Adel":11241,"▁videretur":11242,"▁vinculis":11243,"encia":11244,"▁possessione":11245,"▁torr":11246,"▁sinu":11247,"▁vii":11248,"▁injuste":11249,"▁luna":11250,"ontra":11251,"▁cognoscere":11252,"▁jugiter":11253,"▁Library":11254,"urc":11255,"▁Tyr":11256,"μα":11257,"onica":11258,"ando.\r\n":11259,"-r":11260,"ogle":11261,"eritis,":11262,"▁muneribus":11263,"▁inob":11264,"▁ual":11265,"▁praesentium":11266,"▁constituit":11267,"abimus":11268,"▁habebant":11269,"ICO":11270,"▁factur":11271,"▁injuriam":11272,"icii":11273,"▁XLI":11274,"▁Romaniae":11275,"▁religionem":11276,"P)":11277,"orf":11278,"▁laboris":11279,"▁Angeli":11280,"▁mulieris":11281,"▁praecepit":11282,"▁videmus":11283,"▁\"E":11284,"atae,":11285,"ов":11286,"▁dumtax":11287,"▁1'":11288,"▁Forte":11289,"▁perpetuam":11290,"▁fides,":11291,"nost":11292,"▁iul":11293,"▁effici":11294,"▁Sae":11295,"▁Nap":11296,"TH":11297,"▁Albertus":11298,"▁\"N":11299,"to.\r\n":11300,"▁Graeciae":11301,"▁custodiam":11302,"▁f.":11303,"▁disciplinae":11304,"▁sanctorum,":11305,"ua,":11306,"▁Fa":11307,"▁Eutych":11308,"arunt":11309,"▁NO":11310,"▁regina":11311,"raver":11312,"▁dilat":11313,"▁Hadr":11314,"▁spiritualis":11315,"▁cognomin":11316,"▁Anglorum":11317,"▁sequuntur":11318,"▁longum":11319,"▁virginis":11320,"▁Iulius":11321,"▁habebit":11322,"▁atting":11323,"▁gladium":11324,"inium":11325,"▁1973":11326,"▁Cet":11327,"▁dicat,":11328,"▁divinum":11329,"▁illud:\r\n":11330,"▁παρ":11331,"▁Lus":11332,"▁mortuos":11333,"stat":11334,"τι":11335,"▁metropolitana":11336,"-le":11337,"atric":11338,"▁primae":11339,"▁Tam":11340,"▁Quoc":11341,"▁nosse":11342,"▁servire":11343,"▁profit":11344,"▁clericus":11345,"▁abyss":11346,"▁gratul":11347,"▁Ant.":11348,"▁Sancta":11349,"▁tul":11350,"▁origine":11351,"▁Atr":11352,"▁praer":11353,"hard":11354,"▁Lan":11355,"▁sicc":11356,"▁superbi":11357,"▁moritur":11358,"▁obsecr":11359,"osi":11360,"▁idque":11361,"▁Quidquid":11362,"▁relax":11363,"▁Aedificia":11364,"▁Salomon":11365,"▁propriae":11366,"▁copia":11367,"▁Arel":11368,"▁constituta":11369,"-D":11370,"▁uiu":11371,"sump":11372,"▁Novum":11373,"▁alta":11374,"▁Testamenti":11375,"emur.\r\n":11376,"▁UA":11377,"▁oculus":11378,"▁66":11379,"▁credimus,":11380,"▁CONSS.\r\n":11381,"▁missi":11382,"▁XIX,":11383,"hoc":11384,"ilia,":11385,"▁puta":11386,"▁West":11387,"ectionem,":11388,"▁exstinc":11389,"▁Filium,":11390,"▁evidenter":11391,"▁debemus,":11392,"▁67":11393,"imet":11394,"▁commerc":11395,"▁potes.\r\n":11396,"▁animalium":11397,"oda":11398,"▁remove,":11399,"ew":11400,"▁paratus":11401,"asse.\r\n":11402,"▁(II":11403,"▁(nondum":11404,"▁serie":11405,"▁servare":11406,"▁laboribus":11407,"▁incolarum,":11408,"▁sollicitudine":11409,"abul":11410,"præ":11411,"▁casus":11412,"▁Iam":11413,"issae":11414,"▁refic":11415,"▁stella":11416,"ent:\r\n":11417,"erman":11418,"▁adquir":11419,"es.":11420,"▁Sag":11421,"▁Rab":11422,"▁meam.\r\n":11423,"▁pesti":11424,"▁Præ":11425,"▁municipium":11426,"de,":11427,"▁ostium":11428,"▁Italiam":11429,"▁beate":11430,"▁penetr":11431,"abam":11432,"intellig":11433,"▁Adr":11434,"▁censa)":11435,"▁trec":11436,"▁pondus":11437,"▁Nullus":11438,"hes":11439,"▁filium,":11440,"▁humanam":11441,"▁argentum":11442,"▁63":11443,"▁gravi":11444,"erint.\r\n":11445,"▁Litterae":11446,"tore":11447,"▁hiis":11448,"▁visa":11449,"▁adesse":11450,"▁si,":11451,"▁Alter":11452,"acius":11453,"▁Tres":11454,"▁fuerant,":11455,"▁Ecclesiarum":11456,"▁care":11457,"▁meret":11458,"neg":11459,"▁sud":11460,"▁jussit":11461,"▁nomen,":11462,"▁subjac":11463,"▁perfecti":11464,"▁Cantabrig":11465,"res,":11466,"▁malos":11467,"▁affectus":11468,"▁cinematograph":11469,"▁linguis":11470,"▁stir":11471,"▁χ":11472,"tium,":11473,"▁Dominum.\r\n":11474,"▁psalmus":11475,"▁Provinciae":11476,"▁finem,":11477,"▁noctem":11478,"▁cep":11479,"icibus":11480,"▁Mol":11481,"▁animalia":11482,"▁vinculo":11483,"▁so":11484,"▁reperi":11485,"▁concub":11486,"▁honorum":11487,"▁lectione":11488,"entior":11489,"▁amicos":11490,"▁precip":11491,"▁Hugonis":11492,"▁fasc":11493,"▁Multa":11494,"▁Christo.\r\n":11495,"▁lo":11496,"▁Patre,":11497,"ür":11498,"▁turr":11499,"▁patientiam":11500,"▁kal.":11501,"▁lapides":11502,"▁confessionem":11503,"rex":11504,"▁bi":11505,"▁apprehend":11506,"▁erroris":11507,"▁Flandrie":11508,"ön":11509,"actis":11510,"▁Past":11511,"▁PSALM":11512,"T.":11513,"ise":11514,"▁Aet":11515,"▁193":11516,"levit":11517,"▁munimine":11518,"▁sole":11519,"▁Isa.\r\n":11520,"▁stipend":11521,"▁placere":11522,"▁IV.":11523,"▁Municipii":11524,"▁perfectum":11525,"▁rationibus":11526,"▁possed":11527,"▁Confer":11528,"▁dicte":11529,"▁Caroli":11530,"itudines":11531,"▁via,":11532,"▁praecess":11533,"▁inventus":11534,"▁utile":11535,"▁Legati":11536,"itiam,":11537,"▁Pt":11538,"▁accommod":11539,"ministr":11540,"▁subjic":11541,"endis,":11542,"▁pueri":11543,"▁civitatibus":11544,"▁aliisque":11545,"▁difficile":11546,"▁Richard":11547,"▁Bav":11548,"▁76":11549,"▁colum":11550,"▁necessitatem":11551,"erosolym":11552,"▁simplex":11553,"▁Arm":11554,"▁Idcirco":11555,"anea":11556,"▁publicis":11557,"▁1980":11558,"▁interpell":11559,"om.\r\n":11560,"▁Bibliothec":11561,"ato.\r\n":11562,"▁prolix":11563,"▁pecuniae":11564,"aniam":11565,"▁confic":11566,"▁Medic":11567,"▁codicibus":11568,"▁dabo":11569,"▁Pont":11570,"▁i.\r\n":11571,"▁dere":11572,"iand":11573,"-f":11574,"atorum,":11575,"amma":11576,"▁sexta":11577,"▁psalmi":11578,"▁crimin":11579,"lit":11580,"indic":11581,"ische":11582,"▁ultimum":11583,"▁Na":11584,"rin":11585,"▁agitur,":11586,"▁compunc":11587,"▁aemul":11588,"cs":11589,"▁sax":11590,"▁Put":11591,"▁feci":11592,"▁Theoph":11593,"▁km":11594,"▁obedientiam":11595,"ertur,":11596,"▁implic":11597,"bon":11598,"▁haberi":11599,"▁incorp":11600,"▁22.\r\n":11601,"▁Axonae":11602,"▁Villa":11603,"averis":11604,"▁3.":11605,"▁ulc":11606,"li.\r\n":11607,"▁Iov":11608,"▁amicis":11609,"▁sint.\r\n":11610,"▁Fel":11611,"▁apr":11612,"▁animæ":11613,"▁sequentibus":11614,"▁foras":11615,"▁Serg":11616,"endam.\r\n":11617,"▁Nationalis":11618,"▁malum,":11619,"▁studiis":11620,"▁superfl":11621,"▁Fal":11622,"▁Magna":11623,"▁Sancte":11624,"▁simulac":11625,"▁crimina":11626,"▁Garumnae":11627,"▁auctores":11628,"▁sacrosanc":11629,"cus":11630,"▁Mic":11631,"▁intest":11632,"esco":11633,"▁electione":11634,"▁mandato":11635,"▁Marty":11636,"▁pariet":11637,"▁arbitrium":11638,"DE":11639,"▁Ten":11640,"\":\r\n":11641,"▁XXI,":11642,"iliam":11643,"ing,":11644,"▁deserv":11645,"▁episcopus.\r\n":11646,"▁modus":11647,"▁poc":11648,"▁Aaron":11649,"▁id,":11650,"untur;\r\n":11651,"udit":11652,"▁Abrahae":11653,"▁Vicipaed":11654,"▁Π":11655,"ani.\r\n":11656,"▁cujusdam":11657,"▁Cent":11658,"▁undecim":11659,"uisse.\r\n":11660,"▁Kalendas":11661,"▁etern":11662,"▁tuus,":11663,"▁sermonibus":11664,"oties":11665,"▁negotiis":11666,"▁Aus":11667,"▁abbas,":11668,"▁citius":11669,"ilicet":11670,"pha":11671,"iosus":11672,"▁domos":11673,"ederland":11674,"▁Herc":11675,"▁Pompon":11676,"▁Episcopi":11677,"▁quae,":11678,"▁duces":11679,"▁dicentem":11680,"cem":11681,"▁Otto":11682,"▁macul":11683,"▁habita":11684,"▁Californ":11685,"▁Thess":11686,"vero":11687,"▁Graecis":11688,"▁derelinqu":11689,"▁Respondit":11690,"▁prest":11691,"issam":11692,"▁Carnot":11693,"▁(SPD)":11694,"▁intellectu":11695,"▁procre":11696,"▁adversa":11697,"▁maiest":11698,"▁mortuo":11699,"his":11700,"iis.\r\n":11701,"▁Anna":11702,"egit":11703,"▁oleo":11704,"-8":11705,"idge":11706,"▁World":11707,"▁Fer":11708,"eruntur,":11709,"▁Hebr.":11710,"▁Ele":11711,"▁consent":11712,"odiensis":11713,"▁1979":11714,"ού":11715,"▁episcopum,":11716,"ῆι":11717,"▁frater,":11718,"▁gestis":11719,"▁Oport":11720,"▁heret":11721,"▁regener":11722,"▁Anglice":11723,"▁simus":11724,"▁sententia,":11725,"sam":11726,"▁iuv":11727,"atu,":11728,"▁principe":11729,"▁specul":11730,"▁poterant":11731,"▁Nestor":11732,"▁iracund":11733,"▁oblivisc":11734,"▁coelestia":11735,"▁origin":11736,"▁Quantum":11737,"ici.\r\n":11738,"▁nunc,":11739,"▁appellatur":11740,"▁provis":11741,"▁Carol":11742,"▁Raim":11743,"▁recuper":11744,"▁necessario":11745,"FF":11746,"inensi":11747,"▁imposit":11748,"ACH":11749,"ulfi":11750,"hus":11751,"n.\r\n":11752,"▁beneficiis":11753,"▁excepto":11754,"ueri":11755,"▁Wh":11756,"▁privilegium":11757,"▁prodesse":11758,"▁Biographia":11759,"▁É":11760,"iliis":11761,"▁prudentia":11762,"▁reversus":11763,"▁videbatur":11764,"▁vestimenta":11765,"rud":11766,"▁meae,":11767,"▁amicus":11768,"▁sublev":11769,"▁femina":11770,"▁optime":11771,"▁artis":11772,"▁ignosc":11773,"▁Judaeos":11774,"▁duxit":11775,"uario":11776,"▁insulae":11777,"▁deteri":11778,"inus.\r\n":11779,"▁Gerardus":11780,"▁fiant":11781,"▁facimus":11782,"onn":11783,"ine.\r\n":11784,"ebat;\r\n":11785,"▁23.\r\n":11786,"▁holoc":11787,"▁pane":11788,"▁ipso,":11789,"▁promer":11790,"▁beatorum":11791,"▁(c)":11792,"▁occur":11793,"wa":11794,"▁Scip":11795,"▁multae":11796,"▁XVII,":11797,"▁ful":11798,"▁antiquae":11799,"uria":11800,"▁obtemper":11801,"▁card.":11802,"▁vocis":11803,"▁1978":11804,"▁Siquidem":11805,"▁Romanam":11806,"▁instar":11807,"▁utrique":11808,"▁Lux":11809,"ianam":11810,"▁latus":11811,"▁superven":11812,"olium":11813,"▁conscient":11814,"▁carnem,":11815,"▁exemplar":11816,"▁effectus":11817,"▁omnium,":11818,"▁demonst":11819,"▁Aliter":11820,"ramque":11821,"▁circumc":11822,"▁censum":11823,"▁Pedemon":11824,"▁Cogn":11825,"▁Mex":11826,"▁benigne":11827,"▁Veron":11828,"▁Christianae":11829,"▁peccatorum,":11830,"bulum":11831,"▁habebat,":11832,"▁tetig":11833,"▁dilectio":11834,"▁predicti":11835,"▁Seb":11836,"▁potissimum":11837,"▁Christus.\r\n":11838,"▁coepiscop":11839,"▁lapide":11840,"idere":11841,"ulsa":11842,"▁illustris":11843,"▁pius":11844,"▁Vest":11845,"▁perfecte":11846,"port":11847,"zz":11848,"▁egregia":11849,"▁easdem":11850,"oy":11851,"▁communionem":11852,"▁horam":11853,"-4":11854,"▁diutur":11855,"▁implere":11856,"icorum,":11857,"▁Felic":11858,"▁manifesta":11859,"▁Israel.\r\n":11860,"▁judicium,":11861,"▁fortuna":11862,"'.\r\n":11863,"olas":11864,"opolis":11865,"▁consilio,":11866,"▁Vu":11867,"▁regula":11868,"▁magnae":11869,"▁mensibus":11870,"▁disciplinam":11871,"▁terrenis":11872,"▁reverentiam":11873,"▁ultima":11874,"▁National":11875,"▁infest":11876,"▁Ner":11877,"▁illae":11878,"▁habetis":11879,"▁testium":11880,"cn":11881,"▁accept":11882,"eniae":11883,"uis,":11884,"▁AE":11885,"▁nos.\r\n":11886,"▁constitutum":11887,"itatus,":11888,"▁trepid":11889,"▁morb":11890,"σθ":11891,"iav":11892,"ari:\r\n":11893,"▁caelo":11894,"▁erant.\r\n":11895,"▁praedicti":11896,"▁Templ":11897,"▁vicus":11898,"▁Cult":11899,"verb":11900,"▁absolu":11901,"▁pand":11902,"▁corpori":11903,"▁faciendum":11904,"▁Theodorus":11905,"▁suscipere":11906,"gard":11907,"▁justo":11908,"▁2017":11909,"▁quandam":11910,"▁quorumdam":11911,"▁Id.":11912,"▁paulatim":11913,"▁damp":11914,"▁suspir":11915,"ienti":11916,"▁sciat":11917,"▁Scriptum":11918,"▁1986":11919,"▁quindecim":11920,"▁decreta":11921,"▁contradictione":11922,"▁desideriis":11923,"uum,":11924,"alon":11925,"▁consurg":11926,"▁24.\r\n":11927,"▁silentio":11928,"os;\r\n":11929,"▁orthodox":11930,"▁́":11931,"▁despic":11932,"▁(4":11933,"▁vult,":11934,"▁eo.\r\n":11935,"▁priore":11936,"averit.\r\n":11937,"▁Insulae":11938,"▁preb":11939,"▁Dim":11940,"▁administ":11941,"▁Dac":11942,"▁Pentecost":11943,"▁quousque":11944,"▁numm":11945,"PO":11946,"unn":11947,"▁Media":11948,"▁communiter":11949,"▁priorem":11950,"▁superioribus":11951,"▁Walterus":11952,"▁ian":11953,"▁iuram":11954,"▁conform":11955,"▁diligentius":11956,"▁adjut":11957,"▁62":11958,"▁(Graec":11959,"▁victus":11960,"▁decretum":11961,"ward":11962,"rahel":11963,"egreg":11964,"▁benedictionem":11965,"etae":11966,"▁VIII.\r\n":11967,"▁veritatem,":11968,"▁trid":11969,"▁coelestibus":11970,"▁sursum":11971,"▁credentes":11972,"▁petitionem":11973,"▁iii":11974,"▁territorio":11975,"▁nunt":11976,"▁riv":11977,"▁orientalis":11978,"berto":11979,"▁veterum":11980,"▁mysteri":11981,"▁laetitia":11982,"eced":11983,"acionem":11984,"▁familias":11985,"edo":11986,"inea":11987,"▁Primi":11988,"▁littera":11989,"▁poenas":11990,"▁consuetudo":11991,"▁arrip":11992,"▁Iohann":11993,"▁decanus":11994,"▁presum":11995,"▁archiepiscopum":11996,"▁liquid":11997,"▁gloria,":11998,"▁illos,":11999,"▁plerisque":12000,"▁uniuers":12001,"▁Academiae":12002,"ood":12003,"▁Church":12004,"▁Divin":12005,"▁inferre":12006,"▁exceptis":12007,"anda.\r\n":12008,"▁pater,":12009,"▁iudices":12010,"▁deprehend":12011,".—":12012,"efac":12013,"▁sacrum":12014,"▁tempt":12015,"▁scriptura":12016,"▁disser":12017,"▁Sequitur":12018,"▁Kalend":12019,"\")":12020,"jec":12021,"▁Brix":12022,"▁alloqu":12023,"▁ingenio":12024,"▁Praesides":12025,"▁Poss":12026,"atur?\r\n":12027,"▁invenitur":12028,"arnis":12029,"▁Russiae":12030,"▁al.,":12031,"▁videntes":12032,"▁istos":12033,"▁benedictione":12034,"TER":12035,"eremus,":12036,"▁poster":12037,"▁sit:\r\n":12038,"▁Def":12039,"▁agere,":12040,"▁statutum":12041,"▁capere":12042,"▁Socrat":12043,"▁pingu":12044,"▁Dominus:\r\n":12045,"▁cultum":12046,"bris,":12047,"▁agnov":12048,"ili,":12049,"▁75":12050,"▁novam":12051,"▁alicuius":12052,"▁mittere":12053,"antis,":12054,"▁Cors":12055,"▁Museum":12056,"▁CH":12057,"▁occulta":12058,"▁signo":12059,"orius,":12060,"▁inimicus":12061,"▁Susc":12062,"▁Let":12063,"▁factae":12064,"▁terram.\r\n":12065,"▁ecclesia,":12066,"▁canonum":12067,"▁digest":12068,"ash":12069,"▁veritatis,":12070,"▁Magnus":12071,"aeum":12072,"▁Antiqu":12073,"▁Linguae":12074,"acl":12075,"▁veris":12076,"▁alioquin":12077,"▁system":12078,"▁1987":12079,"▁testific":12080,"▁ἔ":12081,"▁trit":12082,"▁celata:E":12083,"▁prophetarum":12084,"▁τὸ":12085,"▁Moysen":12086,"entina":12087,"▁distrib":12088,"ovic":12089,"▁restaur":12090,"unquam":12091,"▁dieb":12092,"h.":12093,"▁conventus":12094,"▁annuatim":12095,"▁Ravenn":12096,"▁quę":12097,"▁lignum":12098,"▁spoli":12099,"▁sanctim":12100,"▁potuit.\r\n":12101,"▁appos":12102,"▁paene":12103,"▁portam":12104,"▁pseud":12105,"▁viri,":12106,"▁Psalmus":12107,"▁quocumque":12108,"▁Aeth":12109,"abilium":12110,"▁perp":12111,"ectae":12112,"▁Basil":12113,"▁episcopatus":12114,"▁-.\r\n":12115,"▁Iterum":12116,"▁Pri":12117,"▁quiete":12118,"▁vocavit":12119,"uris,":12120,"▁EX":12121,"▁Aquil":12122,"▁Hist.":12123,"▁actiones":12124,"▁cohort":12125,"▁narrat":12126,"▁seni":12127,"▁dial":12128,"imur.\r\n":12129,"ulte":12130,"uxit,":12131,"▁replet":12132,"▁presump":12133,"▁iniquitas":12134,"▁hil":12135,"▁Fur":12136,"▁ann.":12137,"▁peccati,":12138,"▁Omnipot":12139,"▁plenitudo":12140,"▁Henrico":12141,"ramm":12142,"untur:\r\n":12143,"▁naturalis":12144,"▁superbiam":12145,"μέν":12146,"▁exstat":12147,"▁clementia":12148,"▁pecul":12149,"▁pœnit":12150,"▁cith":12151,"ema":12152,"esset":12153,"▁historiam":12154,"istere,":12155,"▁sensibus":12156,"andi.\r\n":12157,"▁regionem":12158,"▁cing":12159,"▁ecclesiae,":12160,"▁pertrans":12161,"▁titulum":12162,"entui":12163,"▁Sant":12164,"anis,":12165,"▁mensura":12166,"idia":12167,"▁Eras":12168,"▁Christianis":12169,"▁Sirm":12170,"▁signis":12171,".13":12172,"▁annunti":12173,"▁vidit,":12174,"▁decip":12175,"▁130":12176,"eos":12177,"▁25.\r\n":12178,"▁Uni":12179,"▁matrimonio":12180,"▁nimia":12181,"▁Anat":12182,"▁habent.\r\n":12183,"▁spatio":12184,"▁iurisdic":12185,"▁praedicationis":12186,"▁effectum":12187,"▁CXL":12188,"ρί":12189,"▁venti":12190,"▁moer":12191,"▁Pyrenaeorum":12192,"erim,":12193,"▁c.\r\n":12194,"versus":12195,"▁89":12196,"▁litteram":12197,"▁respondit:\r\n":12198,"ino.\r\n":12199,"▁spiritualiter":12200,"▁cali":12201,"▁centur":12202,"▁resusc":12203,"▁(Hisp":12204,"▁facin":12205,"irca":12206,"αλ":12207,"atrix":12208,"▁Oth":12209,"▁(l":12210,"▁plene":12211,"▁responsum":12212,"▁peccato,":12213,"▁orbit":12214,"σε":12215,"▁terris,":12216,"itiones":12217,"▁mos":12218,"▁Bulg":12219,"▁canones":12220,"▁Succ":12221,"▁sitis":12222,"▁fluvium":12223,"iana,":12224,"sos":12225,"▁Decret":12226,"▁Augusto":12227,"▁Cassiod":12228,"▁bov":12229,"▁comiti":12230,"▁habemus,":12231,"eret:\r\n":12232,"▁gradum":12233,"laus":12234,"▁aliquid,":12235,"aculi":12236,"▁add.":12237,"▁οὐ":12238,"▁comes,":12239,"▁invad":12240,"▁ultro":12241,"▁rata":12242,"▁77":12243,"▁carne,":12244,"▁substantiae":12245,"a.":12246,"ionario":12247,"ectione,":12248,"▁Lap":12249,"▁superf":12250,"▁000":12251,"▁Pel":12252,"▁Nesc":12253,"libus.\r\n":12254,"▁1833":12255,"▁Neap":12256,"▁Balduinus":12257,"▁paterna":12258,"▁Archid":12259,"▁H.":12260,"▁diabolum":12261,"▁vestras":12262,"▁Tolet":12263,"▁eam.\r\n":12264,"▁iniquitatis":12265,"ionali":12266,"▁infund":12267,"▁Trident":12268,"sim":12269,"έρ":12270,"▁dominium":12271,"▁modest":12272,"▁coronam":12273,"▁GO":12274,"▁nomini":12275,"▁gloriam,":12276,"elli,":12277,"▁odium":12278,"▁praep":12279,"entius,":12280,".15":12281,"▁proximi":12282,"▁spern":12283,"uln":12284,"▁agitur":12285,"oni,":12286,"abantur.\r\n":12287,"▁Reli":12288,"▁Universitas":12289,"▁Mill":12290,"▁sempitern":12291,"▁videntur,":12292,"▁evacu":12293,"itudinis,":12294,"▁societatem":12295,"▁omnimodis":12296,"▁quanquam":12297,"▁recol":12298,"▁Baptis":12299,"▁contulit":12300,"arumque":12301,"▁facta,":12302,"▁orationes":12303,"▁Marc.":12304,"enses,":12305,"▁egredi":12306,"▁peruen":12307,"ION":12308,"v.\r\n":12309,"issima,":12310,"▁promissa":12311,"▁patitur":12312,"▁terra.\r\n":12313,"▁lapidem":12314,"▁sollicitudinem":12315,"▁evangeliz":12316,"ies,":12317,"are?\r\n":12318,"▁cecid":12319,"irent,":12320,"▁corporaliter":12321,"▁meum.\r\n":12322,"▁Interea":12323,"arrac":12324,"▁Dep":12325,"▁sententiam,":12326,"ville":12327,"▁histr":12328,"il,":12329,"▁1982":12330,"▁spiritu,":12331,"▁mysteria":12332,"esbyter":12333,"▁eis.\r\n":12334,"▁intelligendum":12335,"▁ce":12336,"▁locup":12337,"▁ὑπ":12338,"▁suorum,":12339,"▁Tel":12340,"▁redarg":12341,"▁publicum":12342,"▁montis":12343,"▁petere":12344,"▁lacrim":12345,"▁Martinus":12346,"▁interpr":12347,"▁truc":12348,"▁140":12349,"▁ęcclesię":12350,"▁dumtaxat":12351,"acter":12352,"acium":12353,"▁legere":12354,"▁Amal":12355,"ora,":12356,"▁plurimis":12357,"ischen":12358,"rium,":12359,"▁bone":12360,"▁dolorem":12361,"▁conversus":12362,"haer":12363,"▁Quaes":12364,"▁192":12365,"▁evas":12366,"▁magistrum":12367,"oir":12368,"▁regress":12369,"▁86":12370,"▁(p":12371,"▁incurs":12372,"▁inferius":12373,"▁lucern":12374,"▁martyres":12375,"▁volumus,":12376,"▁episcopis,":12377,"enos":12378,"▁Jerosolym":12379,"▁orta":12380,"▁Hibern":12381,"fort":12382,"or.":12383,"▁victim":12384,"▁firmare":12385,"▁gut":12386,"▁Vienn":12387,"▁dicam,":12388,"▁canonicorum":12389,"uerant":12390,"▁discret":12391,"▁justitia,":12392,"▁predictis":12393,"▁procons":12394,".17":12395,"▁quemquam":12396,"▁saeculi,":12397,"▁pedilusor":12398,"▁Sine":12399,"▁anter":12400,"▁absit":12401,"▁Cassini":12402,"▁Donat":12403,"▁sexus":12404,"▁postremo":12405,"▁VER":12406,"▁Aug.,":12407,"▁vicem":12408,"arunt.\r\n":12409,"▁bl":12410,"▁comprehens":12411,"▁novae":12412,"imini":12413,"▁Riv":12414,"▁synodi":12415,"▁℟":12416,"▁poterit,":12417,"iamus,":12418,"sig":12419,"▁Exempl":12420,"▁amplex":12421,"timus,":12422,"▁individ":12423,"▁Leodiensis":12424,"▁//":12425,"-T":12426,"▁Hodie":12427,"ectio,":12428,"▁accipit":12429,"▁mix":12430,"▁ausus":12431,"ografic":12432,"ulam,":12433,"▁salutare":12434,"▁ques":12435,"▁Surg":12436,"▁CAP.\r\n":12437,"▁occidentalis":12438,"▁85":12439,"▁archip":12440,"▁insc":12441,"▁ignomin":12442,"▁singulas":12443,"▁Categor":12444,"▁Anc":12445,"esque":12446,"IX,":12447,"▁societate":12448,"▁March":12449,"▁Desider":12450,"▁perl":12451,"▁desideria":12452,"▁cursum":12453,"▁Latinus":12454,"▁synodus":12455,"▁cognitionem":12456,"▁(16":12457,"▁porta":12458,"▁Hierusalem":12459,"▁viae":12460,"ome":12461,"unctum":12462,"▁legem,":12463,"▁78":12464,"serit":12465,"itare":12466,"▁miracul":12467,"▁certi":12468,"1–":12469,"ricum":12470,"▁dedi":12471,"▁x,":12472,"▁praeceptis":12473,"▁mortific":12474,"▁probatur":12475,"▁fontem":12476,"▁obsec":12477,"iast":12478,"▁pervenit":12479,"ra.\r\n":12480,"▁N.\r\n":12481,"▁constring":12482,"▁report":12483,"▁longius":12484,"▁Apostolum":12485,"▁Germania":12486,"▁librorum":12487,"▁XXII,":12488,"▁Vetus":12489,"ro.\r\n":12490,"▁Israhel":12491,"▁Seg":12492,"▁Nederland":12493,"▁vocatus":12494,"▁evoc":12495,"BER":12496,"▁attin":12497,"▁ista,":12498,"▁præst":12499,"ωι":12500,"er:\r\n":12501,"aux":12502,"erimus,":12503,"ations":12504,"▁abomin":12505,"▁Joanne":12506,"▁factum,":12507,"erem.\r\n":12508,"▁fuerit.\r\n":12509,"turi":12510,"▁Gabri":12511,"cujus":12512,"▁lamp":12513,"▁Christum.\r\n":12514,"..":12515,"▁utinam":12516,"▁defl":12517,"▁celebrat":12518,"▁Ecclesiis":12519,"▁debeat,":12520,"ile,":12521,"▁Soph":12522,"iosum":12523,"▁portas":12524,"▁perdid":12525,"▁Finn":12526,"risque":12527,"os:\r\n":12528,"▁regnavit":12529,"els":12530,"▁Fre":12531,"▁Fontes":12532,"▁tub":12533,"▁reprehens":12534,"▁canonica":12535,"▁δὲ":12536,"▁legitur:\r\n":12537,"▁duo,":12538,"itudini":12539,"▁eius.\r\n":12540,"▁mala,":12541,"▁fecund":12542,"▁barbar":12543,"idii":12544,"▁burg":12545,"▁plang":12546,"▁notis":12547,"▁insequ":12548,"▁minu":12549,".19":12550,"▁virga":12551,"▁Discip":12552,"▁Aristot":12553,"▁Θ":12554,"erta":12555,"▁Gil":12556,"inde,":12557,"▁Praef":12558,"▁predecess":12559,"▁pom":12560,"ologiam":12561,"▁studia":12562,"▁rebus,":12563,"▁Terrae":12564,"▁quatinus":12565,"▁Brug":12566,"▁placet,":12567,"▁sider":12568,"ossa":12569,"▁74":12570,"▁cuc":12571,"▁Sod":12572,"▁AM":12573,"▁cruci":12574,"▁Superior":12575,"σιν":12576,"▁negotia":12577,"▁Byz":12578,"▁verae":12579,"▁Sanctorum":12580,"▁puell":12581,"ida,":12582,"▁Regio":12583,"ette":12584,"▁plate":12585,"▁importun":12586,"▁assist":12587,"▁argenti":12588,"▁gente":12589,"▁[2":12590,"▁mathem":12591,"▁direx":12592,"▁catholicam":12593,"ania,":12594,"▁mei.\r\n":12595,"▁Olymp":12596,"▁uend":12597,"▁plenus":12598,"▁Plan":12599,"li.":12600,"lium,":12601,"inaria":12602,"▁Jacob,":12603,"▁Gener":12604,"▁Nig":12605,"▁fluminis":12606,"▁pectore":12607,"usta":12608,"▁fron":12609,"▁vices":12610,"▁Austral":12611,"▁satag":12612,"▁cc":12613,"▁quaestio":12614,"▁laed":12615,"▁suas,":12616,"▁dedisti":12617,"▁Rup":12618,"▁carcere":12619,"▁ferme":12620,"one.\r\n":12621,"ulsus":12622,"▁aetatem":12623,"▁carni":12624,"▁Basili":12625,"▁Incarnationis":12626,"▁habere.\r\n":12627,"▁Profess":12628,"▁Aurei":12629,"abunt,":12630,"▁debitam":12631,"▁compend":12632,"▁septuaginta":12633,"▁Hec":12634,"▁Vers.\r\n":12635,"▁Eduardus":12636,"▁vestros":12637,"▁amplect":12638,"▁Unum":12639,"▁tenebrae":12640,"▁mentio":12641,"▁facias":12642,"▁Imperium":12643,"▁coac":12644,"▁pugna":12645,"▁principatus":12646,"▁benevol":12647,"▁desideri":12648,"▁Hal":12649,"▁caetero":12650,"▁nostrarum":12651,"▁robur":12652,"ierunt":12653,"▁Dign":12654,"▁adnot":12655,"▁geh":12656,"▁destr":12657,"▁Iesu":12658,"isto":12659,"▁ero":12660,"▁tuam.\r\n":12661,"▁universum":12662,"▁Abraham,":12663,"▁permaneat,":12664,"▁absur":12665,"▁mortuorum":12666,"▁anno,":12667,"▁hereditate":12668,"▁cx":12669,"▁graec":12670,"▁(Isa":12671,"▁liv":12672,"▁relicta":12673,"▁Lov.,":12674,"▁consue":12675,"▁tertius":12676,"▁iidem":12677,"issimas":12678,"itoria":12679,"▁intelligi,":12680,"▁calce":12681,"▁Lucas":12682,"▁dotem":12683,"ey":12684,"quaque":12685,"▁decur":12686,"▁13,":12687,"▁Veritas":12688,"σκ":12689,"▁Prom":12690,"▁habitare":12691,"▁populi,":12692,"▁uilla":12693,"rea":12694,"▁fugam":12695,"ura.\r\n":12696,"▁mandamus":12697,"▁regionibus":12698,"▁-2":12699,"▁prodest":12700,"▁plenam":12701,"▁montibus":12702,"▁faciat,":12703,"▁subjici":12704,"▁testamenti":12705,"▁supple,":12706,"ft":12707,"esiae":12708,"▁vel,":12709,"▁ligno":12710,"▁Az":12711,"unctis":12712,"▁Buc":12713,"▁majora":12714,"▁apost":12715,"▁bo":12716,"▁subaud":12717,"▁87":12718,"▁numeros":12719,"▁persona,":12720,"▁similitudine":12721,"▁Hir":12722,"▁interius":12723,"▁angelum":12724,"▁bibliothec":12725,"atui":12726,"▁Ecclesiast":12727,"▁populo,":12728,"▁Porta":12729,"▁acerb":12730,"▁praesul":12731,"▁praedicto":12732,"▁peccata,":12733,"uta,":12734,"▁quaecumque":12735,"▁Clun":12736,"liter":12737,"▁m.":12738,"▁Tandem":12739,"oris.\r\n":12740,"▁Ratis":12741,"▁conval":12742,"▁Interpret":12743,"yb":12744,"▁scio":12745,"▁universalis":12746,"▁domi":12747,"▁labores":12748,"▁Id.,":12749,"▁Firm":12750,"▁Cursus":12751,"▁provinciarum":12752,"itiarum":12753,"▁REG":12754,"iscon":12755,"ος,":12756,"ori,":12757,"▁lege,":12758,"▁provinciam":12759,"▁Agrip":12760,"▁sacerdotis":12761,"▁resip":12762,"▁cunct":12763,"▁sugges":12764,"▁addic":12765,"▁dilectus":12766,"▁1984":12767,"▁futurae":12768,"sv":12769,"▁senior":12770,"▁dimic":12771,"mer":12772,"▁doct":12773,"esia":12774,"▁Cari":12775,"▁arrog":12776,"▁incess":12777,"▁Als":12778,"].\r\n":12779,"onam":12780,"anti,":12781,"▁insidias":12782,"▁video":12783,"ationalis":12784,"▁(Anglice:\r\n":12785,"▁conscientiam":12786,"▁ses":12787,"▁\"H":12788,"▁operi":12789,"▁intuitu":12790,"▁War":12791,"▁73":12792,"▁historiae":12793,"▁Petr.":12794,"▁constitutus":12795,"▁scripsit,":12796,"▁a.C.n":12797,"▁sexaginta":12798,"erant.\r\n":12799,"ipso":12800,"▁vot":12801,"▁faut":12802,"▁naturam,":12803,"▁instituta":12804,"▁secreta":12805,"▁LIBER":12806,"▁eumque":12807,"▁nostram,":12808,"uti,":12809,"▁diligere":12810,"▁castellum":12811,"▁perfici":12812,"▁quibuslibet":12813,"▁elegit":12814,"▁evangelista":12815,"▁quocunque":12816,"amina":12817,"▁august":12818,"▁Bull":12819,"▁judicem":12820,"▁vini":12821,"rap":12822,"ades":12823,"▁grammat":12824,"el.\r\n":12825,"iturum":12826,"▁viderunt":12827,"▁salvum":12828,"▁ascrib":12829,"▁plebe":12830,"ariis,":12831,"▁Hub":12832,"urrit":12833,"▁dimidium":12834,"▁Guid":12835,"▁philosophus":12836,"▁originem":12837,"ujus,":12838,"aturum":12839,"▁enarr":12840,"▁Sel":12841,"▁Lin":12842,"▁To":12843,"▁Tet":12844,"▁altaris":12845,"▁Gregorio":12846,"▁affectum":12847,"▁evangelist":12848,"enta.\r\n":12849,"▁sicque":12850,"▁argente":12851,"▁quartam":12852,"▁men":12853,"▁Fulc":12854,"▁verbum,":12855,"▁dominis":12856,"▁merces":12857,"▁diem,":12858,"▁Mars":12859,"▁editi":12860,"▁naufrag":12861,"▁prid":12862,"▁Picard":12863,"▁Mulieres":12864,"▁pontificem":12865,"▁exstingu":12866,"▁ris":12867,"▁Tac":12868,"▁99":12869,"itatibus,":12870,"itu,":12871,"▁teneri":12872,"▁14,":12873,"▁resurrex":12874,"▁lax":12875,"▁corona":12876,"loqu":12877,"ræ":12878,"ribus":12879,"▁istas":12880,"▁immens":12881,"▁maximum":12882,"▁mare,":12883,"▁Augustino":12884,"▁fiducia":12885,"▁79":12886,"▁generali":12887,"▁altari":12888,"▁Mosc":12889,"▁desol":12890,"▁alterut":12891,"anz":12892,"▁Dilig":12893,"▁accur":12894,"▁debet.\r\n":12895,"▁secundam":12896,"▁crast":12897,"▁Sing":12898,"▁reclam":12899,"▁Iust":12900,"iente,":12901,"▁978-0":12902,"▁ł":12903,"odon":12904,"▁constiter":12905,"▁eique":12906,"▁quaesumus,":12907,"▁progress":12908,"uitate":12909,"▁Pad":12910,"▁dii":12911,"▁me:\r\n":12912,"▁1985":12913,"C.":12914,"ῖς":12915,"▁cuique":12916,"▁paucos":12917,"▁puerum":12918,"▁privilegia":12919,"▁deced":12920,"▁deform":12921,"▁quædam":12922,"▁Nicolai":12923,"▁ostendit.\r\n":12924,"▁Diz":12925,"▁Ms.,":12926,"ait":12927,"▁Mut":12928,"▁alac":12929,"▁clarific":12930,"▁Dico":12931,"▁lub":12932,"▁libertas":12933,"▁Civitatibus":12934,"▁oporter":12935,"én":12936,"▁es.\r\n":12937,"▁tumult":12938,"▁materiam":12939,"▁perib":12940,"▁Memor":12941,"▁gentem":12942,"EM.\r\n":12943,"▁(\"":12944,"▁pondere":12945,"æmon":12946,"▁Liderici":12947,"▁crucifig":12948,"itit":12949,"▁penn":12950,"▁Reges":12951,"▁προ":12952,"▁rationes":12953,"▁habitus":12954,"▁XX,":12955,"▁loquitur.\r\n":12956,"▁senatu":12957,"▁ἡμ":12958,"Vers.":12959,"▁procurator":12960,"▁Mab":12961,"▁vos.\r\n":12962,"▁Verbum,":12963,"▁Civitates":12964,"▁Grav":12965,"arist":12966,"▁magnitudine":12967,"▁firmam":12968,"le,":12969,"▁inibi":12970,"▁opusc":12971,"plor":12972,"▁mandamus,":12973,"▁inimicorum":12974,"-5":12975,"aeo":12976,"▁dicebant":12977,"▁fructibus":12978,"▁scandaliz":12979,"▁annus":12980,"▁praedictis":12981,"▁callid":12982,"▁epistolas":12983,"▁legatis":12984,"▁discrep":12985,"▁judices":12986,"▁electorum":12987,"san":12988,"ines,":12989,"▁confite":12990,"▁Quint":12991,"▁spati":12992,"▁Pomponius":12993,"atam.\r\n":12994,"▁mentibus":12995,"▁attrib":12996,"▁infirmitatem":12997,"▁suspect":12998,"▁clementer":12999,"▁Diocletianus,":13000,"ελ":13001,"▁segreg":13002,"▁fini":13003,"▁se.\r\n":13004,"ituper":13005,"▁ullus":13006,"▁maiorem":13007,"▁scandalum":13008,"▁adventus":13009,"orb":13010,"▁dereliqu":13011,"▁Insuper":13012,"▁medicus":13013,"▁dc":13014,"▁gregem":13015,"elia":13016,"▁Ista":13017,"▁indub":13018,"▁Cret":13019,"▁ædific":13020,"▁temporalibus":13021,"iang":13022,"yph":13023,"▁celata:N":13024,"▁constru":13025,"▁Symm":13026,"gen":13027,"ης":13028,"▁febr":13029,"▁aspici":13030,"▁Domus":13031,"▁conuentus":13032,"▁rite":13033,"▁Mariam":13034,"▁dignitas":13035,"▁spiritualibus":13036,"▁concedimus":13037,"▁Archiepiscop":13038,"uca":13039,"abo.\r\n":13040,"andam,":13041,"▁agi":13042,"▁Vil":13043,"plur":13044,"▁contrario":13045,"▁enumer":13046,"atiz":13047,"▁Via":13048,"▁Bellum":13049,"io;\r\n":13050,"iew":13051,"▁fieret,":13052,"▁haereditatem":13053,"▁grave":13054,"▁conversatione":13055,".com":13056,"▁impud":13057,"▁domine":13058,"▁immerito":13059,"▁noluit":13060,"▁derelic":13061,"▁senator":13062,"▁Gallia":13063,"▁vocabulum":13064,"▁rerum,":13065,"▁Deb":13066,"▁15,":13067,"▁Carn":13068,"ichi":13069,"▁dispend":13070,"▁oppos":13071,"▁consequenter":13072,"▁spiritalis":13073,"▁impossibile":13074,"▁ejus:\r\n":13075,"▁expell":13076,"olphus":13077,"aest":13078,"▁conson":13079,"ardus,":13080,"▁fum":13081,"▁alti":13082,"▁spirituali":13083,"▁Baluz":13084,"▁Fons":13085,"▁Annis":13086,"▁emancip":13087,"▁Nulli":13088,"▁Francesco":13089,"uisti,":13090,"▁vana":13091,"▁Dizionario":13092,"▁supra.\r\n":13093,"▁itaque,":13094,"▁insigne":13095,"▁sapientia,":13096,"▁Isaias":13097,"PH":13098,"ismat":13099,"ippe":13100,"▁Nica":13101,"hr":13102,"elo":13103,"▁Sicilia":13104,"▁Omne":13105,"▁26.\r\n":13106,"▁84":13107,"▁episcopatum":13108,"▁ostendere":13109,"▁quaerere":13110,"▁Sabaudiae":13111,"der":13112,"▁Secundo":13113,"▁vocabulo":13114,"tique":13115,"issimum,":13116,"▁sui.\r\n":13117,"ueret":13118,"▁manus,":13119,"▁debitor":13120,"▁tenore":13121,"▁patienter":13122,"▁Antiph":13123,"▁Domn":13124,"▁Conv":13125,"▁posse.\r\n":13126,"lamm":13127,"dus":13128,"▁spei":13129,"▁archit":13130,"▁fuisse.\r\n":13131,"▁Catholic":13132,"ium)":13133,"▁inobed":13134,"ula.\r\n":13135,"▁vocibus":13136,"▁videatur,":13137,"▁vestrorum":13138,"▁dextris":13139,"▁Judaei,":13140,"▁Esiae":13141,"▁octavo":13142,"▁mathemat":13143,"ete,":13144,"▁fidelium,":13145,"▁Britanniae":13146,"▁Eth":13147,"▁infelic":13148,"▁compesc":13149,"▁Nulla":13150,"▁Tornac":13151,"▁Langobardia":13152,"▁vo":13153,"omod":13154,"ione.\r\n":13155,"▁devotionis":13156,"▁prepositus":13157,"issimorum":13158,"▁credider":13159,"▁instr":13160,"▁cujuslibet":13161,"▁possidere":13162,"imp":13163,"▁Bra":13164,"▁misericorditer":13165,"▁anathema":13166,"▁magistr":13167,"▁aliarum":13168,"ice)":13169,"▁victoriam":13170,"u.":13171,"▁dicendo":13172,"▁K.\r\n":13173,"▁consules":13174,"▁innov":13175,"▁adulesc":13176,"ugh":13177,"▁VII.\r\n":13178,"▁canticum":13179,"▁ole":13180,"▁convenit,":13181,"▁ferr":13182,"▁argumentum":13183,"▁(dubsig":13184,"▁secundi":13185,"▁totidem":13186,"oso":13187,"▁Sul":13188,"▁incumb":13189,"▁alieno":13190,"▁divites":13191,"▁Africae":13192,"▁Tertull":13193,"▁he":13194,"▁domui":13195,"▁Pharisae":13196,"▁mitter":13197,"ituri":13198,"▁tue":13199,"upp":13200,"iet.\r\n":13201,"▁futuris,":13202,"▁egressus":13203,"▁viscera":13204,"▁flamma":13205,"130":13206,"▁Argent":13207,"▁pape":13208,"▁Hieronymi":13209,"prae":13210,"▁uxori":13211,"▁Isti":13212,"▁sepulcrum":13213,"▁Gubernatores":13214,"▁Bartholom":13215,"▁inscrib":13216,"▁Lutetiae":13217,"acis":13218,"otan":13219,"▁series":13220,"▁G.":13221,"▁speciali":13222,"▁quinta":13223,"▁docuit":13224,"▁PAT":13225,"▁plor":13226,"▁convenire":13227,"▁tribulatione":13228,"ialibus":13229,"▁Gens":13230,"▁insist":13231,"▁maritus":13232,"▁Colon":13233,"ative":13234,"▁fundamentum":13235,"▁Epist.":13236,"antem.\r\n":13237,"toris":13238,"▁motu":13239,"ronom":13240,"▁Utrum":13241,"alyp":13242,"abunt.\r\n":13243,"▁incons":13244,"pere,":13245,"140":13246,"▁respondere":13247,"▁consecrat":13248,"ED":13249,"▁matri":13250,"iaria":13251,"▁perinde":13252,"▁fuga":13253,"▁Huc":13254,"▁Plut":13255,"▁Sard":13256,"▁semper,":13257,"▁similem":13258,"▁eod":13259,"▁Mes":13260,"▁commissa":13261,"▁coelos":13262,"▁salvus":13263,"▁mig":13264,"▁Phys":13265,"▁Innocentius":13266,"-et":13267,"▁reipublic":13268,"▁serm":13269,"▁implor":13270,"▁extern":13271,"▁not.":13272,"▁occurrit":13273,"▁sodalis":13274,"▁aliquant":13275,"pons":13276,"▁Apostolo":13277,"▁virgine":13278,"▁ferro":13279,"itis.\r\n":13280,"▁volentes":13281,"▁civitatem,":13282,"▁tenetur":13283,"▁suis;\r\n":13284,"▁beatitudinis":13285,"ulatus":13286,"▁27.\r\n":13287,"▁praesentes":13288,"-v":13289,"▁5.":13290,"▁obsequium":13291,"▁conciliabulum":13292,"▁Heli":13293,"▁conferre":13294,"ki":13295,"▁exprob":13296,"▁opera,":13297,"▁fortitudo":13298,"▁generale":13299,"▁permaneat":13300,"▁Saxoniae":13301,"των":13302,"▁rug":13303,"▁Mans":13304,"▁creata":13305,"▁mirabilia":13306,"▁sic,":13307,"-Virtemberg":13308,"▁America":13309,"▁DOMIN":13310,"▁regem,":13311,"▁Utin":13312,"▁95":13313,"▁sustinere":13314,"▁Societas":13315,"el.":13316,"▁cetero":13317,"▁UR":13318,"▁archiepiscopus,":13319,"▁confessus":13320,"erebat,":13321,"-la":13322,"▁Aegypto":13323,"▁ei.\r\n":13324,"▁taed":13325,"ola,":13326,"alla":13327,"▁precep":13328,"▁oppugn":13329,"▁(dubsig)":13330,"▁AP":13331,"▁perper":13332,"▁decreto":13333,"▁aegrot":13334,"Un":13335,"atas,":13336,"▁exemplis":13337,"▁Intellig":13338,"▁189":13339,"▁Francogallic":13340,"▁promisit":13341,"ira":13342,"▁legis,":13343,"▁debuit":13344,"allo":13345,"cons":13346,"y)":13347,"▁har":13348,"▁consuet":13349,"▁homine,":13350,"▁longinqu":13351,"econ":13352,"▁XXI":13353,"▁justitiae,":13354,"inopoli":13355,"▁CON":13356,"▁abdic":13357,"▁flumina":13358,"▁(Hispan":13359,"▁ejusmodi":13360,"▁pellicula":13361,"itarum":13362,"▁donationis":13363,"▁illibata":13364,"eis":13365,"ling":13366,"▁dipl":13367,"▁Mamm":13368,"▁confirmamus":13369,"▁Cambridge":13370,"▁exar":13371,"▁16,":13372,"▁nostræ":13373,"super":13374,"▁agendum":13375,"▁Dis":13376,"▁iudicem":13377,"avis":13378,"▁Christianos":13379,"▁Saturn":13380,"▁conject":13381,"▁ecclesiasticae":13382,"▁Quisquis":13383,"▁vineam":13384,"▁audivit":13385,"elae":13386,"▁potuisse":13387,"▁discipulus":13388,"▁Smith":13389,"▁Alpium":13390,"-lès":13391,"▁Septentrionis":13392,"▁insulam":13393,"▁totis":13394,"▁Max":13395,"▁inveniri":13396,"▁experim":13397,"umenta":13398,"▁caelum":13399,"imm":13400,"idas":13401,"▁Ari":13402,"▁utramque":13403,"▁debil":13404,"▁Vid.":13405,"▁Publish":13406,"acto":13407,"▁duplex":13408,"▁Myth":13409,"▁intul":13410,"▁mansum":13411,"astis":13412,"▁Attend":13413,"▁iuste":13414,"▁Orbis":13415,"▁ecclesiasticam":13416,"▁torqu":13417,"emet":13418,"▁Mun":13419,"▁praefectus":13420,"▁invent":13421,"▁Quocirca":13422,"agen":13423,"▁potestatem,":13424,"▁ducentesimo":13425,"▁voluntati":13426,"inæ":13427,"▁CONSTAN":13428,"incep":13429,"▁potuerit":13430,"▁pertinet.\r\n":13431,"frid":13432,"▁quotiens":13433,"▁Suess":13434,"ko":13435,"▁ra":13436,"opt":13437,"▁digni":13438,"▁Ordo":13439,"▁conversationis":13440,"▁Creator":13441,"▁Tre":13442,"▁Armen":13443,"▁presenti":13444,"▁anathematis":13445,"▁obd":13446,"▁exsurg":13447,"▁resign":13448,"▁domibus":13449,"▁haereticorum":13450,"▁Demetr":13451,"▁inspecturis":13452,"-en":13453,"▁agens":13454,"▁offerre":13455,"▁(De":13456,"▁Bir":13457,"▁subti":13458,"▁inventa":13459,"▁oppid":13460,"▁Cant.":13461,"O.\r\n":13462,"stad":13463,"▁harum":13464,"▁\"B":13465,"▁poenae":13466,"▁baptismo":13467,"▁Republic":13468,"sep":13469,"▁carnalis":13470,"▁futuram":13471,"▁venisse":13472,"▁marito":13473,"etu":13474,"▁htt":13475,"▁Host":13476,"▁repos":13477,"▁Eum":13478,"obrem":13479,"▁audier":13480,"▁exterius":13481,"▁homo.\r\n":13482,"▁incarnatione":13483,"uarii,":13484,"uinus":13485,"▁perfectus":13486,"▁substanti":13487,"▁Synagog":13488,"▁tormenta":13489,"▁http":13490,"▁dicis":13491,"▁malus":13492,"▁missam":13493,"▁Maximus":13494,"▁universi":13495,"▁gravis":13496,"▁bar":13497,"▁quidam,":13498,"▁Alias,":13499,"▁Habet":13500,"▁Benev":13501,"hon":13502,"es?\r\n":13503,"▁accipere,":13504,"▁oss":13505,"▁clero":13506,"OL":13507,"mate":13508,"▁5).\r\n":13509,"▁humanitatis":13510,"▁servitutem":13511,"erdin":13512,"▁Cand":13513,"▁Dist":13514,"▁Lamb":13515,"▁doctores":13516,"▁Claudius":13517,"▁tulit":13518,"▁audiens":13519,"AND":13520,"▁obtul":13521,"▁illam,":13522,"fridi":13523,"▁concip":13524,"▁Rein":13525,"alus":13526,"▁denunti":13527,"▁Mediolan":13528,"▁quanti":13529,"▁cohib":13530,"▁naturali":13531,"▁negleg":13532,"▁praedictus":13533,"▁falso":13534,"▁E.":13535,"▁amare":13536,"▁concessione":13537,"▁nonnulla":13538,"▁torp":13539,"▁bas":13540,"▁civitatis,":13541,"▁mee":13542,"▁synagog":13543,"rb":13544,"▁musc":13545,"ulimus":13546,"▁domina":13547,"▁diligentia":13548,"quando":13549,"▁amput":13550,"▁defuncti":13551,"▁interposit":13552,"EPIS":13553,"▁percut":13554,"otam":13555,"▁Prius":13556,"▁Arth":13557,"allum":13558,"▁York":13559,".org":13560,"▁diaconi":13561,"▁spel":13562,"▁conculc":13563,"alli":13564,"▁unus,":13565,"ie.\r\n":13566,"▁temporis,":13567,"▁extremo":13568,".20":13569,"vac":13570,"enz":13571,"olution":13572,"▁Circum":13573,"▁Gunt":13574,"▁deport":13575,"ré":13576,"uh":13577,"▁tunic":13578,"▁iustic":13579,"▁Hort":13580,"▁omnia.\r\n":13581,"▁IX.\r\n":13582,"ue,":13583,"antas":13584,"▁Pedilus":13585,"▁fauc":13586,"▁Praemium":13587,"ματ":13588,"▁rc":13589,"▁machin":13590,"▁Tamen":13591,"▁amicum":13592,"▁proclam":13593,"▁Hilarius":13594,"▁sic:\r\n":13595,"hardus":13596,"▁(g":13597,"▁(situs":13598,"▁af":13599,"▁cere":13600,"▁uxores":13601,"▁virginem":13602,"▁Constanti":13603,"το":13604,"erno":13605,"int.\r\n":13606,"▁pulv":13607,"-E":13608,"▁aetas":13609,"struc":13610,"▁Michaelis":13611,"erit:\r\n":13612,"▁licet,":13613,"erre,":13614,"▁Θε":13615,"▁exclam":13616,"▁24,":13617,"▁moli":13618,"▁Novae":13619,"▁by":13620,"▁verius":13621,"entur;\r\n":13622,"▁repon":13623,"▁1976":13624,"▁dilectissimi,":13625,"▁satisfactione":13626,"▁regimen":13627,"▁Tabula":13628,"▁appendiciis":13629,"▁neglex":13630,"▁urbi":13631,"▁dixisset":13632,"▁perpetr":13633,"TE":13634,"▁ideo,":13635,"▁hy":13636,"▁abrog":13637,"▁donatio":13638,"▁1983":13639,"▁sollicite":13640,"ocr":13641,"▁τὸν":13642,"▁uirtut":13643,"▁vulnera":13644,"▁Foederatis":13645,"▁symb":13646,"▁votum":13647,"▁felix":13648,"▁possessio":13649,"An":13650,"▁Gro":13651,"▁aduersus":13652,"▁perfr":13653,"▁incogn":13654,"▁tabernaculum":13655,"▁basilica":13656,"▁telev":13657,"▁Arcad":13658,"hac":13659,"undam":13660,"erata":13661,"▁agit,":13662,"▁minorem":13663,"▁consulatum":13664,"cra":13665,"▁fecerat":13666,"▁Redemptoris":13667,"unae":13668,"▁mira":13669,"▁(d)":13670,"▁Apoc.":13671,"▁Art":13672,"▁(Ex":13673,"▁timere":13674,"▁coepit,":13675,"▁haeretici":13676,"▁Oportet":13677,"uimus.\r\n":13678,"▁salutem,":13679,"▁Legis":13680,"ectioni":13681,"▁Recte":13682,"▁chem":13683,"▁Andeg":13684,"eca":13685,"ebitur":13686,"▁Cicer":13687,"▁{":13688,"▁Cuius":13689,"▁provincias":13690,"▁constat,":13691,"uidam":13692,"sp":13693,"abuntur,":13694,"▁Martino":13695,"▁purific":13696,"uan":13697,"▁liberat":13698,"▁eamque":13699,"▁potuerunt":13700,"▁aeternum,":13701,"▁cibo":13702,"et?\r\n":13703,"▁28.\r\n":13704,"▁subrep":13705,"▁circuit":13706,"▁habet:\r\n":13707,"▁animabus":13708,"▁\"T":13709,"▁tribut":13710,"▁violenter":13711,"metip":13712,"▁Eapropter":13713,"▁haberet,":13714,"ic.":13715,"▁non.\r\n":13716,"iensium":13717,"▁Augustinus,":13718,"dis":13719,"▁Ἀ":13720,"arentur.\r\n":13721,"▁JO":13722,"▁interdictum":13723,"ulare":13724,"▁[3":13725,"▁constanter":13726,"▁negl":13727,"▁misericors":13728,"▁ingenti":13729,"▁Crem":13730,"▁uinc":13731,"▁Ephes.":13732,"ORI":13733,"▁silentium":13734,"▁predicto":13735,"a)\r\n":13736,"▁divulg":13737,"▁ordinatione":13738,"▁dissens":13739,"▁gravius":13740,"▁beatitudinem":13741,"],":13742,"▁probare":13743,"▁calicem":13744,"iculo":13745,"▁decimis":13746,"▁infra,":13747,"▁animadvert":13748,"onia,":13749,"ert.\r\n":13750,"▁pupill":13751,"-Ch":13752,"pers":13753,"deo":13754,"▁str":13755,"▁sociis":13756,"▁Dubis":13757,"▁modi":13758,"▁minim":13759,"athan":13760,"▁Politici":13761,"▁a,":13762,"▁vituper":13763,"▁negare":13764,"▁certis":13765,"▁pectus":13766,"▁Consider":13767,"ell.":13768,"▁conscientiae":13769,"▁epistolis":13770,"▁ὅ":13771,"ones,":13772,"▁Dial":13773,"orum;\r\n":13774,"▁cla":13775,"▁mediae":13776,"▁Usque":13777,"▁rab":13778,"▁(15":13779,"ings":13780,"▁eorumdem":13781,"▁populorum":13782,"ierre":13783,"▁dura":13784,"▁bab":13785,"▁idus":13786,"▁2019":13787,"▁Interret":13788,"▁Galilae":13789,"▁Saepe":13790,"▁ipsae":13791,"▁causam,":13792,"▁Roberti":13793,"▁extremum":13794,"▁venturus":13795,"▁Mihi":13796,"▁Jov":13797,"▁Una":13798,"▁utilitate":13799,"▁Septentrionalis":13800,"▁obviam":13801,"▁cum,":13802,"▁ecclesiam,":13803,"gredi":13804,"onius,":13805,"ibiliter":13806,"inan":13807,"▁Off":13808,"▁Marcellus":13809,"▁Guillelmus":13810,"▁includ":13811,"erebant":13812,"▁(Francogallic":13813,"pas":13814,"▁Domine.\r\n":13815,"▁Virgo":13816,"▁adiuv":13817,"VS":13818,"▁styl":13819,"▁\"F":13820,"▁opinionem":13821,"▁interced":13822,"▁MART.\r\n":13823,"▁ces":13824,"▁foss":13825,"▁appellationis":13826,"▁perfectionem":13827,"▁nerv":13828,"▁certamen":13829,"▁pedum":13830,"▁referre":13831,"▁Norm.,":13832,"▁copios":13833,"▁Maritimae":13834,"ish":13835,"▁posuit,":13836,"▁integritate":13837,"▁Apollin":13838,"▁Flum":13839,"US\r\n":13840,"▁confessio":13841,"▁iniuriam":13842,"▁Statu":13843,"▁accepto":13844,"andus,":13845,"▁dicit.\r\n":13846,"▁confestim":13847,"▁Amen":13848,"▁possessionibus":13849,"▁legitima":13850,"▁hereditatis":13851,"e-r":13852,"▁impetu":13853,"▁oportere":13854,"▁Chrysost":13855,"▁bonis,":13856,"▁proxime":13857,"▁Occid":13858,"▁XXIII,":13859,"il.\r\n":13860,"▁(Theod":13861,"▁sententias":13862,"▁nepos":13863,"▁suspens":13864,"itionibus":13865,"▁Aper":13866,"▁post,":13867,"▁Latinum":13868,"ectionis,":13869,"▁vestrum,":13870,"▁Matthaeus":13871,"▁valetud":13872,"▁justorum":13873,"▁poterunt":13874,"▁oblatione":13875,"▁Brunsv":13876,"▁perenn":13877,"▁Bol":13878,"▁diluv":13879,"▁irae":13880,"▁1974":13881,"▁furore":13882,"▁nostrae,":13883,"▁PP.\r\n":13884,"▁reliqui":13885,"▁impressione":13886,"ARIO":13887,"itui":13888,"▁Melius":13889,"▁Videtur":13890,"▁Liger":13891,"▁Baptist":13892,"rific":13893,"▁2006.\r\n":13894,"torem":13895,"▁Frank":13896,"▁Portus":13897,"▁excels":13898,"icio":13899,"▁prisc":13900,"▁pontificum":13901,"▁memorie":13902,"▁figuram":13903,"enomin":13904,"iov":13905,"▁animis":13906,"▁72":13907,"▁gentium,":13908,"▁requie":13909,"▁spont":13910,"▁Arelat":13911,"▁aliquatenus":13912,"▁civibus":13913,"▁dederunt":13914,"▁alienis":13915,"dec":13916,"icia":13917,"▁primo,":13918,"▁Zen":13919,"▁boc":13920,"▁ui":13921,"▁curs":13922,"▁universo":13923,"▁Titus":13924,"▁Alias":13925,"▁mortem.\r\n":13926,"▁Judaeorum,":13927,"▁ortus":13928,"▁ros":13929,"orum:\r\n":13930,"▁tenebat":13931,"▁astut":13932,"▁109":13933,"tius,":13934,"▁pridem":13935,"▁imperfect":13936,"▁inuen":13937,"endere":13938,"▁successor":13939,"▁intrare":13940,"A.":13941,"▁necessitatibus":13942,"▁suscepit,":13943,"▁Joannes,":13944,"▁pomp":13945,"ebris":13946,"▁XXIII":13947,"▁Plant":13948,"▁sepultus":13949,"▁detrac":13950,"▁conveni":13951,"▁PRIM":13952,"ebor":13953,"▁claust":13954,"oannes":13955,"iva":13956,"ient,":13957,"ramus":13958,"▁curiam":13959,"util":13960,"▁1946":13961,"▁Horum":13962,"▁Lyc":13963,"▁Hild":13964,"▁fraude":13965,"▁Dictionary":13966,"▁migr":13967,"etsi":13968,"▁videat":13969,"▁Imm":13970,"al.\r\n":13971,"▁imprim":13972,"ores:\r\n":13973,"▁præf":13974,"▁priores":13975,"▁praerog":13976,"ID":13977,"com":13978,"▁vesc":13979,"▁Christiana":13980,"▁xxx":13981,"▁Badeniae":13982,"▁Lemovic":13983,"istica":13984,"▁rectum":13985,"▁vultis":13986,"▁deper":13987,"▁perpend":13988,"▁situs":13989,"ens;\r\n":13990,"▁audita":13991,"▁concessit":13992,"▁dunt":13993,"▁collocatio":13994,"▁divitiis":13995,"▁credendum":13996,"▁21,":13997,"▁Count":13998,"▁obedient":13999,"▁præcip":14000,"-6":14001,"▁ecc":14002,"▁possimus":14003,"▁Dei;\r\n":14004,"▁mortis,":14005,"▁duci":14006,"▁flagit":14007,"▁muros":14008,"▁maneat":14009,"▁manu,":14010,"itium,":14011,"▁presbyterum":14012,"▁apostoli,":14013,"▁1971":14014,"▁nutri":14015,"▁peccatoribus":14016,"▁Vindob":14017,"▁Namque":14018,"▁Gratia":14019,"▁sollemn":14020,"emini":14021,"issem,":14022,"▁securus":14023,"▁oliv":14024,"uxit.\r\n":14025,"▁Kir":14026,"▁Georgii":14027,"ск":14028,"ilias":14029,"▁reliquias":14030,"hor":14031,"ην":14032,"▁Quanto":14033,"▁posset.\r\n":14034,"▁remot":14035,"▁singulari":14036,"▁austr":14037,"▁ejus;\r\n":14038,"▁Carolo":14039,"▁virtutem,":14040,"itul":14041,"ineat,":14042,"iens.\r\n":14043,"▁vultu":14044,"omann":14045,"▁tet":14046,"▁lu":14047,"▁meminit":14048,"atibus,":14049,"▁Stut":14050,"▁altum":14051,"▁numeri":14052,"▁sapientes":14053,"▁temporalis":14054,"??":14055,"iamus.\r\n":14056,"▁complac":14057,"▁Norv":14058,"ella,":14059,"▁consort":14060,"▁tui.\r\n":14061,"▁comple":14062,"▁caeteros":14063,"▁fiduciam":14064,"▁paululum":14065,"▁Ferdin":14066,"▁imitat":14067,"▁praeclar":14068,"▁reliquit":14069,"▁praefatum":14070,"acem":14071,"▁τὰ":14072,"▁Resp.":14073,"▁protest":14074,"▁lapis":14075,"▁consequens":14076,"▁visione":14077,"▁salvos":14078,"▁fratribus,":14079,"▁universitatis":14080,"rehendit":14081,"▁Anglia":14082,"▁Papa":14083,"▁fraternitati":14084,"ecut":14085,"ried":14086,"▁4.":14087,"▁superiori":14088,"▁discretiva":14089,"▁Nomina":14090,"▁pertinent,":14091,"▁concupiscentia":14092,"tuum":14093,"▁vocari":14094,"▁Lib.":14095,"▁Turon":14096,"▁ne,":14097,"▁solvere":14098,"▁ath":14099,"▁pignus":14100,"▁ebriet":14101,"Or":14102,"▁superna":14103,"▁coactus":14104,"▁sumps":14105,"▁itineris":14106,"estinus":14107,"▁ducit":14108,"iuid":14109,"▁sentire":14110,"▁Accip":14111,"t:\r\n":14112,"▁ceper":14113,"lion":14114,"▁Lif":14115,"isce":14116,"verit,":14117,"▁virgines":14118,"--":14119,"terr":14120,"chis":14121,"▁minima":14122,"▁credidit":14123,"▁sauc":14124,"▁majoris":14125,"▁jubet":14126,"iro":14127,"▁Child":14128,"▁Bibliotheca":14129,"▁industria":14130,"▁captus":14131,"▁docere":14132,"▁Rig":14133,"▁ponere":14134,"▁aurem":14135,"▁fugi":14136,"▁ausu":14137,"▁Apocalyp":14138,"C.\r\n":14139,"PER":14140,"▁ν":14141,"▁Ru":14142,"▁nee":14143,"▁editionis":14144,"▁damna":14145,"pol":14146,"▁Aene":14147,"▁potestate,":14148,"▁vindictam":14149,"▁magistratus":14150,"▁rati":14151,"▁Merito":14152,"▁−0":14153,"▁http:\r\n":14154,"▁faceret,":14155,"▁legata":14156,"▁tenuit":14157,"▁aperta":14158,"▁pietatem":14159,"laud":14160,"▁cli":14161,"▁Priv":14162,"▁vincula":14163,"▁scientes":14164,"Dei":14165,"▁115":14166,"umbr":14167,"▁judicio,":14168,"▁fact":14169,"▁solet,":14170,"▁deserto":14171,"▁cuiquam":14172,"▁solius":14173,"▁(Italiane)":14174,"▁camer":14175,"EX":14176,"nia":14177,"▁papa,":14178,"▁Editio":14179,"▁Gand":14180,"erit;\r\n":14181,"▁Aliud":14182,"▁Vitam":14183,"▁reuer":14184,"▁retinere":14185,"▁sorte":14186,"▁venit.\r\n":14187,"▁83":14188,"▁tabulas":14189,"▁deven":14190,"▁Nam,":14191,"▁interest":14192,"▁sufficere":14193,"▁Johann":14194,"▁1861":14195,"▁iustitia":14196,"isa":14197,"▁oculorum":14198,"▁reple":14199,"▁edita":14200,"▁oner":14201,"▁humilitas":14202,"▁cultu":14203,"▁nubes":14204,"▁iustitiam":14205,"icos,":14206,"aria.\r\n":14207,"iosi":14208,"▁XXIV":14209,"▁aqua,":14210,"▁prioribus":14211,"ORUM":14212,"▁vivere,":14213,"▁sponsa":14214,"▁hodiernarum":14215,"M.\r\n":14216,"▁abol":14217,"▁diversas":14218,"▁cogitatione":14219,"▁integro":14220,"▁Mark":14221,"▁peccare":14222,"▁Clam":14223,"▁vestris,":14224,"▁litem":14225,"ustus":14226,"▁Lav":14227,"▁Prisc":14228,"▁20,":14229,"ymph":14230,"▁fame":14231,"▁iussu":14232,"▁habeant,":14233,"▁Asia":14234,"ori.\r\n":14235,"▁diurn":14236,"▁Semper":14237,"▁talium":14238,"▁unitas":14239,"▁tram":14240,"▁majori":14241,"▁pep":14242,"eles":14243,"▁cotid":14244,"▁exort":14245,"▁pour":14246,"▁potestis":14247,"▁veste":14248,"▁dominio":14249,"▁extrema":14250,"rem,":14251,"▁leo":14252,"▁obsess":14253,"▁abest":14254,"riis":14255,"▁2005.\r\n":14256,"▁insult":14257,"▁reddidit":14258,"▁dicebat:\r\n":14259,"▁Curr":14260,".18":14261,"▁nobiles":14262,"▁periculis":14263,"iamur":14264,"▁Herb":14265,"▁caput,":14266,"ectiv":14267,"▁corusc":14268,"ectig":14269,"▁Agath":14270,"▁2007)\r\n":14271,"unxit":14272,"ena,":14273,"▁quing":14274,"▁Lim":14275,"▁96":14276,"▁surrex":14277,"▁Flavius":14278,"▁locuti":14279,"▁virtutum,":14280,"▁Bonum":14281,"▁Ruscinone":14282,"▁nexus":14283,"▁tuæ":14284,"▁artem":14285,"▁Psych":14286,"▁Cab":14287,"▁Nab":14288,"▁circulus":14289,"▁archidiaconus":14290,"▁exag":14291,"▁struc":14292,"▁Omnibus":14293,"▁concordiam":14294,"▁Nationalem":14295,"▁Foederalis":14296,"▁foli":14297,"ectibus":14298,"im.\r\n":14299,"▁habuerit":14300,"▁Exp":14301,"▁futurorum":14302,"▁complect":14303,"▁momenti":14304,"ext":14305,"▁caeli":14306,"▁pertinentibus":14307,"▁candid":14308,"alibus,":14309,"▁(in":14310,"▁iste,":14311,"▁flux":14312,"▁undec":14313,"▁advert":14314,"▁pacifice":14315,"unensis":14316,"▁actionis":14317,"▁pronunt":14318,"▁Verg":14319,"▁scribit,":14320,"olland":14321,"▁redditus":14322,"▁Florent":14323,"▁Roc":14324,"▁aliud,":14325,"▁Symb":14326,"esto":14327,"▁Gill":14328,"▁tuarum":14329,"▁trop":14330,"▁jugum":14331,"quibus":14332,"▁ope":14333,"▁noverit":14334,"▁RO":14335,"▁contag":14336,"▁feminae":14337,"▁impii":14338,"▁114":14339,"▁facultas":14340,"▁Laurentii":14341,"nem":14342,"ardum":14343,"imil":14344,"ebis":14345,"▁188":14346,"ANI":14347,"▁quaeso,":14348,"▁Numerus":14349,"▁elaboratus":14350,"▁regiones":14351,"ardi,":14352,"CCL":14353,"▁suprem":14354,"▁duntax":14355,"▁incom":14356,"▁theod":14357,"▁plenitudinem":14358,"▁Cle":14359,"▁Ah":14360,"▁magnitudinem":14361,"▁reddid":14362,"▁Cornelius":14363,"▁Locus":14364,"iatis":14365,"▁Bass":14366,"▁mulieribus":14367,"▁criminis":14368,"▁candel":14369,"onus":14370,"▁nom":14371,"▁Galliae":14372,"ulgo":14373,"▁Tarnis":14374,"▁fuerunt.\r\n":14375,"▁chron":14376,"▁continet":14377,"ae;\r\n":14378,"▁statuit":14379,"▁geografic":14380,"oa":14381,"▁cartam":14382,"vertere":14383,"▁generatione":14384,"150":14385,"▁uestra":14386,"▁lapidibus":14387,"▁Hym":14388,"▁dicentis":14389,
[...]
